/**
  ******************************************************************************
  * @file    network_2_data_params.c
  * @author  AST Embedded Analytics Research Platform
  * @date    Wed Jul 17 17:23:32 2024
  * @brief   AI Tool Automatic Code Generator for Embedded NN computing
  ******************************************************************************
  * Copyright (c) 2024 STMicroelectronics.
  * All rights reserved.
  *
  * This software is licensed under terms that can be found in the LICENSE file
  * in the root directory of this software component.
  * If no LICENSE file comes with this software, it is provided AS-IS.
  ******************************************************************************
  */

#include "network_2_data_params.h"


/**  Activations Section  ****************************************************/
ai_handle g_network_2_activations_table[1 + 2] = {
  AI_HANDLE_PTR(AI_MAGIC_MARKER),
  AI_HANDLE_PTR(NULL),
  AI_HANDLE_PTR(AI_MAGIC_MARKER),
};




/**  Weights Section  ********************************************************/
AI_ALIGNED(32)
const ai_u64 s_network_2_weights_array_u64[22868] = {
  0xa5d45bdfffffd39cU, 0xe12bdced0718dfb5U, 0xc091f26d2a8ffebU, 0xf1ef02b2dcee0150U,
  0x44e2e9ba44e1465eU, 0xff152ae1ec1230faU, 0xfe815f57ec0ed8dfU, 0xca71e2d5ed130181U,
  0x965657798682253dU, 0xb2180300a6c3017fU, 0x62a5f4ca7f875b6bU, 0xaf384cfab94b031aU,
  0x7fb6151734bc26abU, 0xe4451ad106211bceU, 0x96283955aa822c70U, 0xbf34d153bbe3f83bU,
  0x28c6265845b61233U, 0xa22c3110bd27dafbU, 0x92cf6e1969817ff7U, 0xe10bd4c40f4ec7e2U,
  0xfc7f7336c481002bU, 0xd620da81bbf51f56U, 0x42e7c08839e14355U, 0xd53044b8e53b25bcU,
  0xaaa67f6c07168b04U, 0x817f8a81964c9fd2U, 0x8d40727f81d53b75U, 0x817fa935817f6172U,
  0x7f81f7c07dc27f7fU, 0x817f7f81817f25c1U, 0x3ab8284c6bc7d732U, 0x8878a49c933edac9U,
  0x81161e5bb2ce7f7fU, 0xac69c44fc2325638U, 0x63966b7f56db435cU, 0xac6049c29f54ba3dU,
  0xd8f230077da04669U, 0xbebdcd2d83cdc2fU, 0xe2737f14e6aef86cU, 0x9f9b795bff61f36U,
  0xfff5e9be29451e19U, 0xe54132dae12e7f81U, 0xae0339581807a348U, 0x8927818b817f8118U,
  0xbc08553fd0223062U, 0xd33c814da17e7f33U, 0x2eb419f655814630U, 0xb76b5496a6511493U,
  0xd8ef1b7f7305847fU, 0x8f378eadbd7daec8U, 0xdfe6ee34e71e680fU, 0xd914c330ca5b73f3U,
  0x3db87f612a822f30U, 0xd7342cb7c734353dU, 0xffffe3087ffab65cU, 0xe07fffff5adU,
  0x1b8400000c9fU, 0xffffe2e70000135eU, 0x913000019a6U, 0xfffff1850000152dU,
  0xffffef240000282aU, 0x21b3ffffea99U, 0xffffded8000023aeU, 0xffffe955ffffec1fU,
  0xffffe58c00001027U, 0xffffebdeffffec64U, 0xfffffe2a00002687U, 0xffffef4300002321U,
  0xffffe28d0000111cU, 0x1e0fffffe620U, 0x505ffffe8d2U, 0x1becfffff8adU,
  0xc67ffffefbcU, 0xffffe816fffff3dbU, 0x169b00001d06U, 0xffffe423fffff0d4U,
  0xffffede900001527U, 0xb8600000923U, 0x153befe7ffffe1aeU, 0x1df87fc4e4f6d425U,
  0x85204dd6c54bc4dU, 0x5d4f41140c041e05U, 0x323c5f70621b7c0U, 0xd333c519cb0b08d2U,
  0x24462351adef23e8U, 0x2b5e28f7f0bb37d6U, 0xc91a0001efdd2bd4U, 0x1ad5fed0d0b7ec3eU,
  0xce0e12f113ba4a7fU, 0x600c25254cce5f0U, 0x48758de30952ed32U, 0xf205d2d3bb0eb122U,
  0xf51d74b236ef6cd5U, 0xe83aad3ba1fca1cfU, 0xb027f4e3e0d0eefeU, 0xfff2ebefd17ff4caU,
  0x3a683e7fa4e4284bU, 0x9b14add4bdd50087U, 0xd6ca13cfe50ad6d2U, 0x2cfc521bc10c1f17U,
  0x3cfe01216a9dad52U, 0x215adf0f1ebbd7d5U, 0xd60f2f0e0454732U, 0x1bfa5150e0e103feU,
  0xb4323a157f1926d0U, 0x18e12f0f2c0edb03U, 0xf20e0e4908211cdbU, 0x3817b8d402db05fdU,
  0xf6edc636f0abc60cU, 0xdba0997e1bd205f7U, 0x8130ce051fea53bcU, 0xe8de012d52e66ebfU,
  0x33c89513d0efb0fbU, 0xb939b8d506d216aaU, 0xf0abeb2034d933cdU, 0xd673e2af09e3055cU,
  0xe600d4ca0c54fd13U, 0x1ec7d0f8e00df826U, 0x8160be1de022f614U, 0x52ee353d29e4fedfU,
  0x34380b033a09e734U, 0x15daf1bd702988a9U, 0xd8e7319521415215U, 0xca0e9f385f248fd5U,
  0xdc1732c65eda81adU, 0xee3c1b2c90adfc2U, 0x9f0171524b90fcfU, 0xd64bbf7f0008ebe8U,
  0xe4f82d121d2fd711U, 0xaae01712393ef2feU, 0xedfcf0b0bb21ef19U, 0xef0638a738daf132U,
  0xaccb0a641736cedeU, 0x12052106400c0af0U, 0xf9322ceee5b91e1fU, 0xaef2c67ff8fc2c00U,
  0xfde5dfe1acef58c6U, 0xe142bfcb2544dcdeU, 0x1a2e5d2c1075941U, 0x1e6112e4f3c5f9b9U,
  0xf415e910d3badef1U, 0xa1abf4efcd705f9U, 0xf035fc044819eebfU, 0x81d9d9b2ff95fe05U,
  0x30d99e26131e2fffU, 0xe7fae3ef66f93dfeU, 0x263d38a60ee68bfaU, 0x2b81e014e3f02148U,
  0x2cead5ddf2e004f1U, 0xcefdd83c792b3d9fU, 0x309ac71805cdf710U, 0x624be4b51a17e3c9U,
  0xd15654c500c41ab5U, 0xe27436ed26821a4aU, 0x4b23378604a4f959U, 0xc4d644dbaf7fa796U,
  0xc435f73aabf46706U, 0xc2ede2dab7b11dceU, 0x2102ed22474e14b3U, 0x252536c7e2d3c710U,
  0xb7132e15ba4c2881U, 0x1d13cde9073cdcbeU, 0x18ccd42326b6fe1dU, 0x1a1d0bdb236023c8U,
  0x43e6054e19f8f12dU, 0x3646184fea26de7fU, 0xb3c0bc612185908U, 0xc826c021b38477e8U,
  0xc2ff25ba1e5d0ef0U, 0xebe726dbf2b33d42U, 0x90421181ede6d8f1U, 0x28e9123ee2d923d2U,
  0xbc045914211f2d36U, 0x2436d5f9e0655604U, 0x1b06e012ec086dfcU, 0x9623bb03c3fe11bU,
  0x5a34b24faf31f2d7U, 0x142cd53b81b3e4ccU, 0x4d46121d01040d20U, 0x9eeee2633ae9f5e7U,
  0x48b5d4f12c132a6U, 0x95a2382822b65448U, 0x7fbe338fa5ca9defU, 0x9f640b061ccc58bdU,
  0xfee035b214ce87bbU, 0xe6f22f6b1507f0a5U, 0x54f10fb645dac8ffU, 0xd1fb5b0714fd417fU,
  0x108e6cbb575131e7U, 0x37ad0f0cd1970755U, 0xd620bbf8e0ec3743U, 0x281dc9360bf64b2fU,
  0xae2ef542d2edc4U, 0xeff511e1ecc0e41dU, 0x7f6d0819dade051fU, 0x15f1fa2db8f6e328U,
  0xeefcbe10dee1f2d0U, 0xea3e2e0ae711fbb4U, 0xe12e1c1ee3dd2c24U, 0x482dcafcafce0e0U,
  0xe1f6dcd43addf60bU, 0x142a81da5bbee43aU, 0xf565e2bdd9eb23f6U, 0xb615f9f7e38cb536U,
  0xd7c81b56e84334e7U, 0xe61c13300fd8e21cU, 0xc936b82a03de3228U, 0xd2173e12a90fdc3cU,
  0x81cb261525fc1048U, 0x173129aef43b17d2U, 0x54e1ff7f200fe1e6U, 0xf1239fb6f3df48a8U,
  0x5fe368f0ff6f79ecU, 0xbdf20b236da455dU, 0xb6c727f7e9b240f9U, 0x4c9f0aee264b571eU,
  0xaffaa32068057061U, 0xd038c6de0701e3faU, 0xfc56431ee1f91fe0U, 0xa8533015b1c2bedU,
  0x325222041ee1a7dfU, 0xdab4d1e5ddf12c02U, 0xbe421619857fee34U, 0xdb5019ecfbf5c3cfU,
  0x8c2bf4c71b58cf33U, 0x33b713e3792e81e6U, 0x14c1982b1f250092U, 0xdaddc0a8b9b9cc8fU,
  0xcf5246231eeb006U, 0xe0b1aa88137ef0aU, 0xf0fd4463c91adfc9U, 0xedfb31da04f3c612U,
  0xd4c29b1b03c5f22bU, 0xd7bae2c807371ec4U, 0xbe67c9e250ddaa0aU, 0xf1e68160bcb48e1cU,
  0x2e48ff212037a2e5U, 0x2d7b9f9758141216U, 0x8441c3cc5c025e7U, 0x493ad040b5c3cff8U,
  0x300f0332b70df901U, 0x2500e5be5e2efba3U, 0x44e9a736c8cb30aeU, 0x44b4042404ca2317U,
  0x8decedbd7fd4a772U, 0xc5069ec5d6ecbdd1U, 0x274bf5f6c0b0ecabU, 0xbbc912bf2420eed0U,
  0x1535e7fb3cd73581U, 0x5a7b385740f2e811U, 0xce26bdde0b7a73e6U, 0x25f52c3a51cc2ec8U,
  0xf89e16a8c51601d2U, 0x4c0017c9357709U, 0xaa64fca114441cfdU, 0x9e4710333915dafdU,
  0xbc9f77e5fdca68baU, 0xe4281ff37d1f6feU, 0x25cacb23f4bac21dU, 0x1a532e51b50b4606U,
  0xc5d4f062ebcedffbU, 0xc1ef703ccd123f5U, 0x6ea802ebe9edfba6U, 0xd7e59dede6e01f04U,
  0xd5bfec1ce7418144U, 0x7b31d71bbc0b2d0dU, 0xfba454fa1ffd81daU, 0x1e1ca7dfecc59f2dU,
  0x2ff80e04d7481d94U, 0x3ce159da12eeb4beU, 0x3ec720d51ee90342U, 0x5a5decd53dd365dU,
  0xd4cd011ccc08fac3U, 0x66bba0644b86323U, 0xc35379dc1530def2U, 0xb9376e035811535U,
  0x21423ce5b2cfbd1U, 0xbb4787b067fba5e7U, 0x17bbe9ee27262317U, 0xe3cb96d5aca37f09U,
  0x4a9f46ab5e0bdcfdU, 0xc29fe330b3d0392U, 0x1fbb1a2f869a3b21U, 0xdd4d2c91473a6c19U,
  0x15ed69b17f2d2813U, 0xd69efafc240ffdc6U, 0xda374ae60835212eU, 0x1d0927d1d1c8673dU,
  0xe19420efbfaed5f2U, 0xf6b98be718b51a47U, 0x2e4c1040a6520047U, 0x23e381f2d6cc551eU,
  0x3a1726122f12acf7U, 0x3fb3e90f120b0c4bU, 0xfc1631ead215e5daU, 0xa04b07f8b7334149U,
  0x1fe2bbfd8023fdaU, 0xbb14d2b4c9d54581U, 0x9c18101df4ad23abU, 0xd23b10df5da620c4U,
  0xfca202d203ebffccU, 0xe622522d0f5b4f7U, 0x1333f50e21ca291aU, 0x1df823c215d5c71bU,
  0xec622cb8f455d82cU, 0x1881ae3f951c4821U, 0x3b53dc12f3ad511cU, 0xbfcdcefe2255e8e4U,
  0xed1b314719cb3218U, 0x45f7ee1c13e98104U, 0xd5fb16e4d243205dU, 0x61fb55172444e401U,
  0x3fd160202f248c5U, 0xe1424da1ee6353dU, 0x504111a2e4804ccU, 0xcb0c1dd44afabff5U,
  0x7032fd1aed54fefdU, 0x2bb0f7f1e08108b8U, 0xcadd59ed070c25d4U, 0x36f40b0912d745dbU,
  0xfd0cd02d14061c3cU, 0xe19bc542b13aba7U, 0xf8c9ffe0e64afde9U, 0x1ced64000e7ffe90U,
  0x53f9ccbd366f5861U, 0xe3fb1ff8c5efb82cU, 0xacd37be9edf9e9f8U, 0xe041d2eb7fadde21U,
  0xf6a11b46f72ebfedU, 0x560ebe1ee0f50e2cU, 0xd11b1916342b41deU, 0xe2b90c5851fe07e0U,
  0xf7c7c612e0ccdcc7U, 0x38afd92fa8e766e0U, 0x1ab7eed10c7f6939U, 0x9d08c63fc49ed90bU,
  0x13120e061dbcdb14U, 0xf9edf5051d335101U, 0x5116d1d24f07067fU, 0xefec358f2e8e6bcU,
  0xf4df0c16d80bbc2cU, 0xd2ba69fe150208deU, 0xdb0d576db501f32cU, 0x5f6c0045505c8d6U,
  0xef6ad0bc325402e5U, 0xaff44be0ed1407daU, 0xd0ef5718b32232e3U, 0xa3ce81e86c42f02aU,
  0x1df3934e9907322U, 0xb4e581dbe3043bffU, 0xca2d5f6f2ecd4de1U, 0x13ced8eb0a3008e9U,
  0x34ca2af8030bf624U, 0xf018d2f4cd2b2510U, 0xcfa8cfc136eccef8U, 0x1de340251b2c07d0U,
  0x5df5e8f2c9e7272cU, 0x53da19d6bee842f3U, 0xe6beda60d65d69f4U, 0xee25e2e417dc02f4U,
  0xfa0afbd149ce81a6U, 0xf82703e62410293cU, 0xa08e053f711e80dU, 0xd11a7fc7fb15e521U,
  0xbf112601b41ce7dfU, 0xf3f81022ee09cd22U, 0xc50e303605fb0b07U, 0x461ce5194ab9eee5U,
  0xfb3307a1132f1805U, 0xe118f2392ecad933U, 0x1b17027fdafddcdeU, 0xb80bfcd30b5f1c31U,
  0x16d8fbf80219f01aU, 0xfc0d2df52481b9faU, 0x2606d005613b04b8U, 0xc2098c1316043835U,
  0x5fdd122fba416daU, 0xd47ce5e6df061f00U, 0xf11b0cc01a2a093cU, 0x3ea9af733c6c47fU,
  0xe0f5c643dc5610b5U, 0xedc5e599b5aa4445U, 0x3ed01013181a1387U, 0xd57de42445dcb7eaU,
  0x1cfd8312231ff8eeU, 0xf2d520f7d2e9f9c8U, 0x991207040927f9e8U, 0xe916ed07fcfa183cU,
  0xf8f3fbdcede9e5eeU, 0xdc017f55061a1cdbU, 0x1d427de08ceeff2U, 0xfc087f0add000f18U,
  0x66fb33e4b718eaf5U, 0xece4f332f6054813U, 0xbc29f602cffd0094U, 0xf405eb0fd407e925U,
  0xe893da18efe3f7eaU, 0xd31bf87ff554f316U, 0xfe23b8d80de356f8U, 0x21eff0434eff223U,
  0xdc109100200bf23U, 0xe327c057d4afece5U, 0x15ff21351c3d29fbU, 0xeac6084ce12a22e0U,
  0xd6210e1a5c220de4U, 0x70ce7fa162df7f0U, 0x2a81213af7df24f2U, 0xfc3824e217280842U,
  0xe90a4620c5043b27U, 0xff28fb083afa0c25U, 0x1f20e325e30cf81dU, 0xc6ff28ecb5f10620U,
  0xb3f118f2dfe5040eU, 0x22047ffb18150e04U, 0x335d03c2ecf1fcfcU, 0x94b3743be145deaU,
  0x7f00191df2d3a66bU, 0xc92cd59bc55dcd3U, 0xdc69bc40f042f950U, 0xfcf0670ea5e025f1U,
  0x24cd8afa68b20731U, 0x7f4c92940c23b9eaU, 0xe6233c5918f0d63cU, 0x4a125efeed1f3df0U,
  0xfefc0b353ed73fd4U, 0xcbb51ade143dd107U, 0xf7f407e6cd2848deU, 0xef716f847b2e6f7U,
  0xf12704e559311ed1U, 0xe739ecf6efe9f039U, 0xe0339fed21adbU, 0xb0fdeabe814301daU,
  0x60c1debfc8f711fdU, 0x62adce211e2ac01U, 0x23b5e9b0960b3101U, 0x2336b6d7e2ea49fcU,
  0xef8dd30191706c2U, 0x2bec81f00bc10dd5U, 0x390f42fb4001fd14U, 0x6c8e10648a7cb22U,
  0x532522eec3ee08efU, 0xdae0ce0ffccfe20aU, 0xd8ec0004be59d581U, 0x6f5d6f0d2325e10aU,
  0xc4c70e3c0f2b50c6U, 0x18fed6bb09fe015dU, 0xec4e3ab50bd4062fU, 0xee17094a1d0adac4U,
  0xa56c4cc59ad409f6U, 0xf411e2e7ba16257fU, 0xc9e0e7d5b39927f4U, 0x81c486321a271414U,
  0xd1f3abfc291c19d7U, 0xfa345903ead67403U, 0x27dd1c19ce350d27U, 0xddfddff333c1ed6U,
  0xd8f1ee8a10e34acdU, 0x122a87b114a5506U, 0x5e327fef92664d8U, 0x6bd0f6e0b4ddd5daU,
  0x107ffddec81babffU, 0x3911f9be1bc91409U, 0xe9ec23e1f5fb22cdU, 0xec81f4292220abd5U,
  0x405ef0f130900f9U, 0x31fafcf5e021f713U, 0xf2df0407d70904f4U, 0x12220f12f519eb0fU,
  0x3af1813ef5397a16U, 0xfb6202bae5eccdb3U, 0x1b2dfadd4de7abe2U, 0xd9e2e800170113dcU,
  0x17c1acbc03e9daffU, 0xbcf71133f630f24dU, 0xcbf78dc0e312f1ccU, 0x328138dad293fce9U,
  0x8ee49d2d6549798U, 0xdb38fcf8031a13c3U, 0x908d7515eff007fdU, 0x1b320b162708ce08U,
  0x361402d4d923631U, 0xeff38b4c0c0cec43U, 0xf7940d07190cab00U, 0x4ce165757f184020U,
  0xd2e917cbf4559ea2U, 0x64c3aa56260345e3U, 0x2a18b83852330b2eU, 0x2ee6fafb07c7093bU,
  0x571dfa33f935ed87U, 0xff4dd52fae301745U, 0xf59db20bfe1ff02dU, 0x9ae42c87f274c3bU,
  0xd53121dd590934aaU, 0x116a13c2eb1f12e2U, 0xf6e36fff7ff8d8f3U, 0xe8491816371f020eU,
  0xde2bfcb5eca53bb7U, 0xefe49add050cf65bU, 0x131ddde687e3cbbbU, 0x2081e205f6181913U,
  0x8b1adbe309e505cdU, 0xe80238cd2be30ed5U, 0x2d290906dd1e0029U, 0xf3eb60f00521fcd9U,
  0xd9dcc2eaacdc12fdU, 0x1ed4880c13f93726U, 0x77a3ef5d81136ed3U, 0x71ff7fede1b1c5fU,
  0x23290235b0fdf6c6U, 0x7a9afde3cf10e2d5U, 0x33c4da25d0b742faU, 0xf60ee8b70effa4f3U,
  0x18ebcffde212810bU, 0x304f3ef43dd6305U, 0xe91f0422b7cbdcd1U, 0xdc0f21f35ca5f82cU,
  0xe315edad242b0ed6U, 0xa920e1bd09f70918U, 0xe9d04840c22a0febU, 0xfb7f30c25fee001dU,
  0xea30213408d31290U, 0x22b803fbae29f4daU, 0xa447f12b5c1d8eeU, 0xf270a8c8e75cf9e2U,
  0xf2e54cb0f725c827U, 0x69f74bfb4820821aU, 0xac39093710e14a09U, 0x1050dbc0f7d1147U,
  0x4df91126f9cbb911U, 0xc181f0390e12e5d1U, 0xf8edc7401be216b4U, 0xfa0cfdf6ec080f1bU,
  0xc10d04c920ef29d4U, 0x28522bbe21ec150fU, 0x7fd418dffdee31e9U, 0xddf2bec104223229U,
  0x451be0fa10e30714U, 0x401fe313e61cf2f6U, 0xd025f4bc321ef80fU, 0x3bd8481604cf222fU,
  0xbbd8b00817e0170cU, 0xb52ad143ee105202U, 0xe74d1810c0bd846fU, 0x9d511f18c00e02bU,
  0x8e10241cdc5d3d8U, 0xc4d7234a7fc21becU, 0xfef825c75b030906U, 0x2f3026de0d0319efU,
  0xff1128fc3edc54abU, 0xe76bc7bbc4de153aU, 0xe2405f0c0a1a0033U, 0xe3a435c18107d024U,
  0xf90205bfaace36e9U, 0xf4dfb09407dc0435U, 0xccb4230bdbc82ff6U, 0x52fe13092011a021U,
  0xca3e081e41301814U, 0x5c81dd3cbabe06d0U, 0x2cf87fc43b8df6daU, 0x2e5cf7145434f4e4U,
  0xe81bbacda10e24edU, 0xd3d7d61fffa93844U, 0xe50ae7c62d15f90eU, 0x483b06081fbf1207U,
  0xa017fe81bb631c9U, 0xff15f2de16ed0200U, 0x21de00e9e718291eU, 0x3f2eadcfc020600U,
  0xe2e7082a1c172f29U, 0x9ced3fdda2cfc24U, 0x10d7f5d8e9ff14f8U, 0x3b390ac048cd282cU,
  0xcf473ca9b38e3d3U, 0xc31efc094fe87f34U, 0x4c44110c0304e9b5U, 0xbab1bbf4f41612ddU,
  0xf6d116b5ffac00a9U, 0xe62bad26f4fa0eefU, 0x7f15e2de0d30740eU, 0x26040f0ecb26d927U,
  0x342bedc0ec1becceU, 0x4eca81f8aa2214fdU, 0xf2c43c052d14f928U, 0xc8262f9cc4ebc5feU,
  0x7f20ee3bbbcd29ddU, 0xfc28dc24c02f37d5U, 0xab18f0ff131eadf8U, 0x2c3305c7e3e51116U,
  0xd54b7f42ede5dbfbU, 0x929f616eaf73f40U, 0xe449acef1036f5e9U, 0xc1dcff4666f409e2U,
  0x79e0060264dd0f23U, 0x250aa61c016923ceU, 0x1dea8124f1c81025U, 0xa0de1a340b6ca3fU,
  0xb7a84ca9ff4a3415U, 0xcd1d26ee21ba1e32U, 0xae5d243f108f709U, 0xb9c66a0cc305cc12U,
  0xa80532f0c9fcd2e6U, 0x56de93f01bf9e581U, 0xb30db8381407e9f5U, 0xd6050b04c8cc314eU,
  0xe9ed27ff31ddd918U, 0xbe65b9c70f0656e8U, 0xd409d5ea16dd39c6U, 0xd36e5d1e935f40dU,
  0xddccf3ed07ed1b59U, 0x612f6ebc61e7ced5U, 0xcf63beb6956d32cU, 0x281e56804e1df27U,
  0xc92281222c2ad48cU, 0xf031df38b1f006efU, 0xb8a73c28c700bf18U, 0x3e143c21c3614eaU,
  0xc325130fade6bddbU, 0xf610f8212793fd15U, 0x6b0b360a07e7c24bU, 0xbf5000623ece1e3U,
  0x7f0da6f8601c1d1dU, 0xf3d6c93ef129f5ffU, 0x37eecdfb040df02aU, 0x2e30ede1e913ff8fU,
  0x38f4b22306240533U, 0x1e4e2512664228f6U, 0x61dd2042e25dc2bU, 0xe642343d4de249fdU,
  0x66d0dab6e913f0c8U, 0xd8f1fd197f0cfbd2U, 0x1628fae9ee08bae4U, 0xf25114a41def7f13U,
  0x241a3035b1050cfeU, 0xf200d4fddc2bf10cU, 0x542402ee200a56fdU, 0xda01e1356d09fe02U,
  0x68f915c9f3e3cf01U, 0xc2b21ec1deba0ff8U, 0x7f34bdd42de931b1U, 0x1dd0aaeaa847e60fU,
  0xc6f9abc7c7dbed43U, 0x510b5027e6e00ff9U, 0xa1b3f333483c0911U, 0xbfd3e2edd2094203U,
  0x10290a42ede41b3fU, 0x59b92226a446049aU, 0x89f5fbd5aff8f7f4U, 0x293de119388103e7U,
  0xa5c4814914fad20cU, 0x37dc21cc10bedac8U, 0xd0313b00a4253302U, 0x1726dee3e8ebf912U,
  0xf44e0b15f1dbf63dU, 0xbddc74e6d904dfedU, 0x3802ce00U, 0x0U,
  0x0U, 0x0U, 0x0U, 0x0U,
  0x0U, 0x0U, 0x0U, 0x0U,
  0x0U, 0x0U, 0x0U, 0x0U,
  0x0U, 0x0U, 0x0U, 0x0U,
  0x0U, 0x0U, 0x0U, 0x0U,
  0x0U, 0x0U, 0xfffffe6000000000U, 0xffffff42fffffcb6U,
  0x29fffffc2fU, 0xffffff9dfffffed4U, 0x239000000a2U, 0xfffffe8ffffffdc2U,
  0x18c00000036U, 0x111fffffe2cU, 0xffffffef0000045dU, 0x198fffffe95U,
  0xffffff7afffffd4fU, 0xea00000140U, 0xffffffb9ffffff64U, 0xae00000341U,
  0x12800000442U, 0x21effffffe5U, 0x19b000001f4U, 0x58300000159U,
  0xffffffb7fffffe74U, 0xfffffe7ffffffd75U, 0x2b3000000b6U, 0x10affffff5bU,
  0xfffffe2bffffff9bU, 0xfffffd51fffffd2bU, 0x30ffffffc4U, 0x3200000031U,
  0x3400000033U, 0x3600000035U, 0x3800000037U, 0x3a00000039U,
  0x3c0000003bU, 0x3e0000003dU, 0x400000003fU, 0x4200000041U,
  0x4400000043U, 0x4600000045U, 0x4800000047U, 0x4a00000049U,
  0x4c0000004bU, 0x4e0000004dU, 0x500000004fU, 0x5200000051U,
  0x5400000053U, 0x5600000055U, 0x5800000057U, 0x5a00000059U,
  0x5c0000005bU, 0x5e0000005dU, 0xfe18d10c0000005fU, 0x120717f01664370eU,
  0x160ed90ccaf4fd25U, 0x20c2f1b8126feebU, 0xf804ed1ee1f1e90cU, 0x1003c1afed8f616U,
  0x18121716fd1de035U, 0x9d7f6b03dc09ce4cU, 0xcd2039a5ff501405U, 0xe27f9eb79d010b92U,
  0xdf7f85d27fd30f0bU, 0x847e81e8c3e0d140U, 0xf59c271a7739882fU, 0xe3dbefe73061f01fU,
  0xc9c20fe92826113bU, 0x47d010e99bd30cb0U, 0x3c10341cdf9e1781U, 0xf681faf80ca4291eU,
  0x1be79d0481093a87U, 0xd15124f81d97bd7U, 0x302a52fca1f7f23bU, 0xf1bb43595e2e129U,
  0xabedb9d4d255810cU, 0xc3ee1cb023470233U, 0x8181febb0a1d0340U, 0x8109dddfc51afe81U,
  0x9872817f092ddd67U, 0x4c787f4091e9047fU, 0x7fb3f7f26814d0cU, 0x7f7cf6367fb4ec2bU,
  0xae1c7f7f5581815fU, 0xcabc8ef6963d8160U, 0x814d05c158027f67U, 0xb2ddad40508575cU,
  0x81d239b7ee87219cU, 0x31b2c57f27f2092aU, 0x20ae3fc07137881U, 0x50ea7f7f027f090fU,
  0xecbb27ec81030837U, 0x1f4d20b9af2e611U, 0xfd0cf1eff8b3dc09U, 0xf704d00a1b4bbed3U,
  0xa48808e600ea1ef8U, 0xf930bce094ffff2bU, 0x949042fe4281f46aU, 0xced23f7fba7f7f66U,
  0x43b57f0a29ea2cd1U, 0xe6e9a4dee77f8181U, 0xf7b90f1de308f536U, 0xd4efcaa22824fd27U,
  0xb47ff11c6fe3277fU, 0x8127e9dbf05a612bU, 0x9905cbf11a8a032bU, 0xf4f1f9d8db1ad1eaU,
  0x1ba2f0129c8U, 0xd2ffffffd4U, 0x86fffffefeU, 0x1a7ffffff74U,
  0x1d00000152U, 0x10effffff84U, 0xe000000053U, 0x32000000d2U,
  0x2effffff34U, 0xffffffb60000010fU, 0x73fffffcd3U, 0xffffffffc2U,
  0xffffffc2fffffe45U, 0x1b00000101U, 0x65000000efU, 0x25dffffffc8U,
  0x32ffffff1dU, 0xffffffe0ffffffa4U, 0xb1000000aeU, 0x79fffffe9cU,
  0xa000000a3U, 0x990000003bU, 0xffffff3f00000121U, 0x3200000142U,
  0x40310fa000000d4U, 0x228390eef4b57U, 0x16e935e1d02246ffU, 0x8e214ce4b11cbedU,
  0xddee2d01ec3e7fc7U, 0x3af0c41bcefd0006U, 0xf6e6d00f021c1309U, 0xa708f71925090536U,
  0xc72b1702d4f6dd29U, 0x390344fbf428eaf8U, 0xe719ea21e416e5a9U, 0x59a1140d391fd736U,
  0x23b4fe2cdf7f0ef9U, 0x19e10fcc07ddea3aU, 0xd7ae1415dc61e1bfU, 0x72c8c8e3ffba0e81U,
  0x6130f08c8ec3c58U, 0xf503530cf03b1651U, 0x14ace5d934dc5d66U, 0xece6eaffc1dd6ce0U,
  0xe7cb7fe4d402dfddU, 0x7a06192ef119bef7U, 0xc5420aff56cbd24aU, 0xfd7af9464d6b3722U,
  0x40e651061bf00c57U, 0x1a3203d904e8e6e4U, 0xd01116102f81d3f4U, 0x129fd410d54802c1U,
  0x617350100cab223U, 0xf33421bbfaf9dca9U, 0xdf9fe5081bf55128U, 0x466b3bf8e7b2d2b9U,
  0xa61711edfeaf06d2U, 0xd9c3ed0a0c0606c8U, 0xf297a9291c013256U, 0xe91a4b4c4f694ca1U,
  0xd02af2c094a87fc3U, 0xdb01dcb033eacff3U, 0xbe518a310dbbf43U, 0xabdde2f0f9160af4U,
  0x1af0fe0afac7f881U, 0xf2db34d510fcde36U, 0x512b4c18592975c8U, 0xc9e0e5fb30192915U,
  0x51c8cee3e4aaf438U, 0xf6d122233d271f48U, 0x111b7f1ff8e921ebU, 0xd0af9e4bd00de09U,
  0x7f23ec63030d0434U, 0x692f0ce1123906d0U, 0x12d9f6b4b7631ef8U, 0x7e803e2cf77f7c3U,
  0x182e4b01fb1c01f7U, 0xe1ee4f6074dd190eU, 0x6f47cbcd68d3232dU, 0xf8f9320d4529c359U,
  0x23232ae7a70b18f4U, 0x44348df2465cebb2U, 0x175fcfddc6bf8663U, 0x99c27fda006df217U,
  0xb5efbb3b2b0218c7U, 0xcd6e06c8deef0a49U, 0xf0f10ef1d8ed4943U, 0x142b4f20f236afb7U,
  0x273700037f00e8e9U, 0xd3fe0bdfde4fe40aU, 0xceef3ebe65a530fU, 0x4e10a0d0ef4eef9U,
  0xda0104dff77f13f3U, 0xf7d9e51115f2ec36U, 0x1709e0f813f20819U, 0xdefdd40311f2fbf1U,
  0x24f4424a08e90be1U, 0x1c1eaf22fefb5cdfU, 0xf414f41dfd5547bdU, 0x8e611422f7f0bdbU,
  0xf9e8c71e340bdcecU, 0xe50303dedff604d9U, 0xcbed01551cda1900U, 0xb8260be0eee4daf0U,
  0xee1815f1f2162ef2U, 0xe9132a1cd4e5c8dbU, 0x4638e6c1e0d01eecU, 0xe1d6fdfbfd0e0016U,
  0xc182acf07ff12e2bU, 0x7f3cbd771a69725U, 0xf5f13ad7adfee10cU, 0xd77fd1cc44c21f16U,
  0x3238d4d4d8bad5e8U, 0x21d7f8e5ee00fcf7U, 0xdbd1e2d3db3bd98aU, 0xf7fbd72de20ce7c1U,
  0x4a20410b2ad0fdf6U, 0xe6b67f16c633f8fbU, 0x3003fe310e060ed2U, 0x3dc290613e4fde5U,
  0xf27b4b054032eff0U, 0xb0464a40ebdc1c52U, 0x3073d69f2a9c411aU, 0x91fcf62716810cf5U,
  0x2a70b0d3c45a1f7U, 0xecf20ef8e20fed13U, 0x2cc5ea3301c81788U, 0xa06e216dde62ffbU,
  0xcdb2137f1e9ed1f3U, 0x2af32c2831f9eceeU, 0xe5fdedddd7f44103U, 0x23d2e257f022bccdU,
  0xb4cc36c127f1200bU, 0x13eb4af505d73929U, 0x2c18fb07fbf1ee9eU, 0xe78149c8d1e9dffcU,
  0x1c0decef47d8cf07U, 0xdd14af1f760e133bU, 0xcdcfc8b0c1baef8U, 0xe2392e077f1d0f77U,
  0xeeba058ddb414ea9U, 0x20f7c8f6f833c537U, 0x28330a0df200c73aU, 0x28c2dfda520ac8f8U,
  0xf038fe28ed3937ecU, 0xdeead2dff6d1152fU, 0x81f0d9f822eafa01U, 0xe0380ff9fc460fc9U,
  0xd90ef2f430ee331fU, 0xf11fe48df1bfa0bU, 0xec0e1e45c71ad5eaU, 0xf111fdeb031b1cf7U,
  0x1ee400be0e27030aU, 0x120a0e18f3c130ecU, 0xa602bee975ec2addU, 0xfc7ffaf8d3210cf6U,
  0xb036d14309010d19U, 0xaf61706172fff06U, 0xe0f7152424e47f0cU, 0x4362f9d6ff0639fbU,
  0xf602d504e3343235U, 0x231c7d0f4642436U, 0x7b3bbc8feb300f51U, 0x45e5cefb31e060aU,
  0xf6ead9df3c09c4d6U, 0xc264f2b5e67f820bU, 0x7dc8d985380ea7cdU, 0xc558bd0aed11f2c1U,
  0xfb8efb8140b32c67U, 0xbe372e1789c251ecU, 0xaf2009e1fc1cb2d3U, 0xf840f82bd818cec1U,
  0xbf0444f2e5053820U, 0xa27f04df252cdffU, 0xe002f0163d17bfeaU, 0x9f6e9d8062bf10dU,
  0x35260eff1fd7fd31U, 0x2baaeeecd6817cf9U, 0xc0f2b50739fb0e02U, 0x31f3caddbd14e7edU,
  0xca3ef005f9e0cb59U, 0xeef3ece0c4f922f6U, 0xfce6e51ff92e171dU, 0xdd1be8f6c72c18f0U,
  0xed7f29e113131e2fU, 0x3ded1af4d8bff113U, 0x5ef1501905220a1cU, 0x230a3a562119fd08U,
  0xe4cf02f1593ee9d6U, 0xb32cedffec8105f4U, 0xd00cee0245f9d616U, 0x15a79ce61ddf28d2U,
  0xfdaaeae604ee28dcU, 0xff7c017dcb21f605U, 0x4807faecdb2e4959U, 0xf02bd214c5e528f7U,
  0x604308fb48e92359U, 0xae127fb817cddecfU, 0x54ec3f041ea56c62U, 0xc500f4ffd4060cfeU,
  0xe30a1bcd04ec1af3U, 0x6af102c3eb00d231U, 0xd1eb0205f0fe16cdU, 0xe11df17f05e21d24U,
  0xc9fd36530706fe30U, 0xc83a12019b8134f6U, 0xfafcc95000ce1a3fU, 0xfd0ff70fe6e99fb7U,
  0x462714e1e9f93ff5U, 0x25cd1e119abef497U, 0xd0dabf1e16441628U, 0xd5ecedf3b403fd24U,
  0xf2da04f9d3f648afU, 0x23f125e813f0d900U, 0xdfd70afe9204fef8U, 0xd2a2a26cf6f6defeU,
  0xc305bc0b7f0ed108U, 0xade8b6d50411d610U, 0xc4d748c0c9031a13U, 0x9c754065304e412U,
  0x1fc7f27ff0e510edU, 0x4911f5b66a20f936U, 0x66f4d0e5d2fd0a09U, 0xf1950043d055c84eU,
  0xf9cc5ce3fada38d0U, 0xe08117ed45d7a118U, 0x67bf7c2ef941e11cU, 0x64231563ae15a5ecU,
  0x7260b674cc961f2U, 0xfac1e50de4db00f9U, 0xfdcf2f14ddbe7f37U, 0x1c1913f733172fecU,
  0xb53e16f747041f3aU, 0x55793cdccbf1f8e3U, 0x2e141b14e018de28U, 0xd99f30cacaf409dcU,
  0xe6e60261d3e3392dU, 0xfad625ab05d81303U, 0xca3f7fd4cdf6291fU, 0x2bfc49e31ed0d12bU,
  0x36dd20c0ae18e8eaU, 0xe2fc013ca6e42422U, 0xecdc1032fcaf8114U, 0xd1db05130dc903c8U,
  0x20c90ace021942edU, 0x114351f2a3f76addU, 0x8be9f1bcc6e1bb42U, 0xffebbb27f80934e0U,
  0xcfab2f1d20061deaU, 0x3cd37fedef3a2e63U, 0xb6f2616fdcef2160U, 0x3a446821caddbb28U,
  0x7faf02ba126e3e8U, 0x9330c432002eb40U, 0x3ae7e425da14c3d1U, 0x2df7225e0bceba2cU,
  0xc419d624da0e0fe5U, 0xabecdd5267f2001U, 0xf323f556003355d0U, 0xf6ae031947f1f5f3U,
  0xc219536be83a0c13U, 0xd2121501fca081fdU, 0x9a08ec30feeaf4fcU, 0x3964d44d229a09f7U,
  0x14f2136ca2f83f10U, 0x3a7f400ab2f414aU, 0xa5d80dece6e3e6e4U, 0xfcdbd9eb402ab1cfU,
  0x1a1933f21104f648U, 0x2e19024007dca7e3U, 0xb9afb6fb1d437f10U, 0xeedff9d2fae20c36U,
  0xd8f99d7f05f8ccedU, 0x1715af62e0fcdaf2U, 0xc637081653e6b70dU, 0xf64e1f1adaf04a17U,
  0x4d12c4b90e0347f9U, 0xccf4e93370e7094bU, 0xff30ef9c2315d822U, 0x2c0f110614276724U,
  0xe1cb34930004f40dU, 0x881f051fe3d0c32U, 0xbbc2f5df0903aae4U, 0xfbf8eb75f3c8df1dU,
  0xb507ef0b0cc5d3feU, 0x33d8bbf927104ce6U, 0xe3d5065ec1cbd17fU, 0x52383b12ec03fe20U,
  0xd5265efeeb1a1efdU, 0x1d09f36c15d14541U, 0x21b09a1933d3dfccU, 0xb281d032f28e51f1U,
  0x272711b4bbe3d6e4U, 0xb51a27b904eef3e5U, 0xd45e18fbf2d27112U, 0xd57f8e44f852c32cU,
  0x9e447e7c1d9e4caU, 0xc9cc5c21f91feccaU, 0xde970ff21e0adfd3U, 0x4afcb776c21456e3U,
  0x6259ef0805a8d367U, 0xdf222005f609fb01U, 0x4f15f1cb14e7247fU, 0xb171060009d04815U,
  0xd7f6043e1ad013daU, 0x1829fbcc3d03f5daU, 0x42553cdcc1fa1a40U, 0x222d1804fc111f61U,
  0x130e1b30202ef240U, 0x1c77ff1927f50433U, 0xc9ca4e121c177f00U, 0x1004321f1a0637c6U,
  0xffffed972572e714U, 0xfffffeccfffff483U, 0xc0dfffff27fU, 0x13d200000eb4U,
  0xffffd729ffffecd4U, 0xffffef39fffff492U, 0xfffff1e60000064fU, 0x23a80000023dU,
  0xb0fffffee5U, 0x11530000045bU, 0x62ffffff907U, 0xffffde97fffff6e2U,
  0x159e000007ceU, 0xfffff9c700000ccbU, 0xffffeae900000542U, 0x1129fffffd51U,
  0x2f100001b21U, 0xffffe911fffff38bU, 0x15b10000079aU, 0xfffff2c6fffff318U,
  0x1bbfffffa1cU, 0xfffffb4500000e91U, 0x15800000073fU, 0xffffe62afffffffdU,
  0x18ffffc8daU, 0x1a00000019U, 0x1c0000001bU, 0x1e0000001dU,
  0x200000001fU, 0x2200000021U, 0x2400000023U, 0x2600000025U,
  0x2800000027U, 0x2a00000029U, 0x2c0000002bU, 0x2e0000002dU,
  0xe4193fed0000002fU, 0x81d27303f2fadab1U, 0x5b0ed7eb274cec1fU, 0x817fad3aef391e9dU,
  0x8881d37f96ebc3c0U, 0x9d7fb8a2e77f8447U, 0xaf1981067f8108b8U, 0xb3f39bd208049bd6U,
  0x4e2309e6816d1b49U, 0x16f7d8e458dcb6e5U, 0xd3300d12f6f496deU, 0x65f8d414f0de02b5U,
  0x9bd7c981fa108e17U, 0xe263e70fe5348181U, 0x81f8817f2422be19U, 0x11b5696f7d49a890U,
  0x1d1681dceefec132U, 0xf5c3fc23ea6f5001U, 0xd4e1f50d55ee0781U, 0xe0ebad112ddd940fU,
  0x26011aebc29edccbU, 0x20b97408eb48e5abU, 0xc714b2fe7f7ff491U, 0xc7ee3e00d9587f81U,
  0xb084861bb178df0U, 0xd8eeca08ff19afaeU, 0x2df308fb51234a2eU, 0xfffffea4d5bb81c2U,
  0x1c8fffffed9U, 0xc7b000009a4U, 0xfffffea20000095eU, 0xfffffedbffffffebU,
  0xed000009aeU, 0xbd00000928U, 0xfffffc94ffffffb2U, 0x24000002c1U,
  0xffffff040000037aU, 0x9550000007dU, 0x260000062fU, 0x1819203ffffffaadU,
  0xbcbcf9b8027fac83U, 0x4223807f8af000cU, 0x2ee1bedd13caa800U, 0xdb29c5e78119bf2cU,
  0xcfe9e716f556c6c0U, 0x5a7f3ff1381ff3b3U, 0xcadffec7f2a2d932U, 0xaa4a03b8f81544afU,
  0x12d50a1acb2bcf16U, 0x1d62c516abd4eb11U, 0x4b0249fd199a7122U, 0xdced190934127f0cU,
  0xd79aaee9f1f5ee96U, 0x3ed920e4b07f30d4U, 0x36c54f1d305de1c5U, 0xae204604cf0d2bb3U,
  0x377f60df0409c61fU, 0x4878627febcf0203U, 0xf31c3bb2fbf2181bU, 0x14d2d3da170bc703U,
  0xdfda8e0cc52f1e7U, 0xb1ee9be881d5c9d1U, 0xe83d1756e939cdf4U, 0xd0906b161ebeafb5U,
  0xb020d9cdc7c61b81U, 0xbbf6f9c80d147c9eU, 0x1ce41fdcc0052402U, 0xec3c0760d1544538U,
  0xfed009eb0bdaa0a5U, 0x1523a36481df074eU, 0xcc43ae7fe309190bU, 0x59b7d748aa30b2c8U,
  0x413f2f0d1e8f8f6U, 0x101205077fef22daU, 0xef1eec5607f23601U, 0xe7da6a25d9b90406U,
  0x224b28af4694c572U, 0x1fe0ec87b3ee6133U, 0x57ef741548ca7fd8U, 0xcc7f205ae5fddfa8U,
  0x1b28d6270a2ffbddU, 0x2531ccebc518bf0aU, 0xc143dd447860148U, 0x107477f21e0e947U,
  0xa3331fe20efaa6e9U, 0x131e29fdc181cbf2U, 0xd0220e50cf61b0aU, 0xb484a1d0463debb2U,
  0x41cc10c4b4e67f02U, 0x21113da9270226f3U, 0xd9f6f8c0bd1f160dU, 0x24e6a735d2071924U,
  0xf1f24e3209a30536U, 0x494718e67f1bc713U, 0x49f7f6f9167f4113U, 0xe35934fef651f1ceU,
  0xd19dead331faef57U, 0x1a05200fddbebc5fU, 0x1ed9815d27945c7cU, 0xdc16d9fb13c2721fU,
  0xe209be2cf37f01c2U, 0xe509cb15f11c6006U, 0x30fbc626f044bdfdU, 0xe190fe2e1bb2a400U,
  0xe92e7fc51947122cU, 0x32914a310e1c6211U, 0xfa354fba6e302eeaU, 0xc80e0de95ffe12cfU,
  0xd6ced8f37f26a941U, 0xe3d8981d5121aa66U, 0xf1e4edd029df7f30U, 0x9bebe41cdc9U,
  0x5dc0000111eU, 0x124efffff054U, 0xfffff13ffffff61fU, 0x19dc00001ed8U,
  0x53effffff8bU, 0xfffffc08fffff940U, 0xfffff5e8fffff4d8U, 0x108e000008faU,
  0xffffdee0fffffe2dU, 0xc9000003f0U, 0xffffebd6fffffb1dU, 0x93eU,
  0x200000001U, 0x400000003U, 0x600000005U, 0x800000007U,
  0xa00000009U, 0xc0000000bU, 0xe0000000dU, 0x100000000fU,
  0x1200000011U, 0x1400000013U, 0x1600000015U, 0x17U,
  0x200000001U, 0x400000003U, 0x600000005U, 0x800000007U,
  0xa00000009U, 0xc0000000bU, 0xe0000000dU, 0x100000000fU,
  0x1200000011U, 0x1400000013U, 0x1600000015U, 0x1800000017U,
  0x1a00000019U, 0x1c0000001bU, 0x1e0000001dU, 0x200000001fU,
  0x2200000021U, 0x2400000023U, 0x2600000025U, 0x2800000027U,
  0x2a00000029U, 0x2c0000002bU, 0x2e0000002dU, 0xf4a12a010000002fU,
  0x1036e706f420ca2dU, 0xc808ce28e73cfc20U, 0x1ee91213f4e6f035U, 0xd909de1d272a204eU,
  0xed0719f744f7170fU, 0xbfefdec2807a310U, 0xc816da0af1e0d83eU, 0xd0918c2faecf5ebU,
  0xf315c7dbbb393ffeU, 0xf125192afaf1fcc3U, 0xf5810113d8fae4d0U, 0x18b821f5debb050bU,
  0xe4cead15360ad530U, 0xb82536dabf02e8cbU, 0x25e41f02b9f1ca2cU, 0xac0ee108ffe3eccfU,
  0x4237f121272c0ffaU, 0x503313faf205e4c3U, 0x4531824ad545003dU, 0x1f24e243b23edeU,
  0xa82bd9eb04bd8694U, 0x7f0f3d344a7ed0b5U, 0xefb0bff054247d0fU, 0xd9fd12260da31bc6U,
  0xe0eb00e0bf300c32U, 0x9cee9df26f123d9U, 0x21e900281bf40bfaU, 0xcc2afcf2f203ee10U,
  0x1112efccfb51fccaU, 0x9131adc7fef2431U, 0xdde3d7b6f8eb20e2U, 0x2e280ee53448b2caU,
  0xd9f1602caecea23U, 0xdcbd3418e2a3f2d9U, 0xd52b053e9ed3f2feU, 0xe0fea488d1dfaf6U,
  0x13d7251025e0cdfbU, 0x1612f90bf21b16eaU, 0xfd270c17fc3a00d4U, 0x50706e6f2eaec0dU,
  0xeea1e4e219e2e20fU, 0x1cd1a76f6e9df35U, 0xec3ce0027ff7c915U, 0xee30b20e0d53629U,
  0x410416562fdb324dU, 0xf7f5f2ecdbdc2b40U, 0xf804dd0bdbecfa03U, 0xb907250238052300U,
  0xf82d000df9c8be47U, 0xde2411fb0bc2d032U, 0x5ed291cdbea2e21U, 0xc024152ee61eaadaU,
  0x290b15040811bed6U, 0x9ad1d7cb14cefac7U, 0xc32d1342cd1cf227U, 0x9b370b1c3a0f3a4aU,
  0xe957aa06eed91123U, 0x64f17bf93fd3edffU, 0xb97fb63dbe1dbbeaU, 0x3bebfdc8ea740e1fU,
  0xd4bbff1bf8cd19f9U, 0xc2bf16fa09b105e0U, 0xdc2cddf221e429e9U, 0xf2c6f22c06e935dbU,
  0x2ddf140c24e7b334U, 0x5023f27ffccd628U, 0xde04e9d92c1c0416U, 0xa4929dbca5429e2U,
  0x481d8de59201dd0U, 0xeac119ad10e90cd9U, 0xceb314af224293dU, 0x7d1c9d90a0ad6ffU,
  0xdd7b0e2ce5d2d6e9U, 0x5adcebe1c71458fdU, 0xcc191629346cee27U, 0xef19ac0cc2e6436aU,
  0xe635360eee37cedfU, 0xd7da1b81a255c7deU, 0xd3edef3fa81a10c4U, 0xb945ca6727ec1df7U,
  0x95090b4ba5ba9455U, 0x3adce5e422108c9U, 0xa3f93bd4d6a73888U, 0x5022fe8bd471339U,
  0xaed01e6da002f0eU, 0xf1320d10e12f0a21U, 0x2037f1c41b23e014U, 0x1bfe1113f71b02ffU,
  0xd92c08daf8e80f05U, 0xd5da4716f7ee0eebU, 0x1e1ceb81c1f96312U, 0x46f008c7d1531defU,
  0x2ad2f0fc3cdd10d5U, 0xc5f0f0ec28f0d455U, 0xd2ed7e7ce28280eU, 0xf5cbdc2f05f7ea19U,
  0xef0cd8152433e008U, 0xad3106f7fdce171fU, 0xdb16083ce401c4c6U, 0x1f082ef5f7d1abc3U,
  0xf920d8f019be0f1aU, 0xe4f43a34f50debf6U, 0xb82d12e4141dea41U, 0x13b90107dbfa12e4U,
  0x2c3f6c120e022ae5U, 0xa8392a810b4deb2fU, 0xbccf00d21948bfdcU, 0x32abf620d3d6c413U,
  0xc4c1c52320a6fe34U, 0x9e016cca151b1811U, 0x17db21920e315cafU, 0xd41a0e29d13f48ccU,
  0xfaf7058b07cdd8f0U, 0x2a2bba187fc72a53U, 0xc38ea4f42a001c2dU, 0x23e019bdb654a01U,
  0x77a7ec53dd312216U, 0xb2ed12bfd80f10feU, 0xb5aa0b4016215e01U, 0xfb60f757dc1cdbf2U,
  0x492853ed75b7200fU, 0x2c319fa5f14cc00U, 0x49b0f321fff00913U, 0xb2f8c8d4ccd5096eU,
  0x410e3454e646f6d2U, 0xced05371c3b9c416U, 0x1a2006b5e41ffca9U, 0x5e37570eef10edfbU,
  0x18bf9f81d7f1b454U, 0x2bfedf2a32bed6faU, 0x55e9a0271f5a121eU, 0x2b06f00af8aa17fbU,
  0xf6aafb4b01ec74e0U, 0x10f9b1efb0ad0607U, 0xfb2919061ad0e912U, 0xdee35c20ab0dff49U,
  0xdb81cf0b17f8a21fU, 0xf7f0f0920c1fa33U, 0x252f00b10d1a11c9U, 0x5410cc29ea2a2ef5U,
  0xfb53fb2e25373c7bU, 0x15d5edc2efb6b8f2U, 0x2c3012f74015483aU, 0xecf2b080511bedfU,
  0xf802093bb8cf2225U, 0xd6c8aa06012dcffaU, 0x7ebf901e7d753bbU, 0xec201bfd174b20e5U,
  0x3831b31629f1ea03U, 0xdffbe82e03f33cf6U, 0xbc2d02160e233c47U, 0xd2a1dff430fca8aeU,
  0xd3e02c3751ce221cU, 0x8142fbbccb351105U, 0x142b1921f4e14fd6U, 0xc41d9300805fd53U,
  0xf4391ffd14e3f403U, 0xdf2eedfb1a240036U, 0xd3e1301e2dd0d9fcU, 0xebf3f31312323aecU,
  0xe6eb2afd01e32ffcU, 0xd5422710d3e1e13bU, 0x1857cfd12e1226feU, 0xb80322e1d4feec19U,
  0x3232e10702e33e41U, 0x24e7065b2ffa7fc5U, 0xf2b961d12cf01f6U, 0x4c0af3904f2dd5fU,
  0x22294658f3d237caU, 0x250f152cf8fc885bU, 0xf0b703ed20ba27edU, 0x1926233562cce41aU,
  0x1ae7d30036eefa04U, 0xe8e9baefeb3dce19U, 0xf55a377f4af220fbU, 0xc3c50e05ffe2102eU,
  0xa8fae8eff41df21cU, 0xe956fe32d617cf1aU, 0xd733b91ae31d0d23U, 0x2bad3de5248116f1U,
  0x4625181e28260e0dU, 0x2a501823ec2aefd7U, 0xfc1916161e1bd90cU, 0x52f7eaf8fc0e2818U,
  0xb53fe4c75abde806U, 0x1780908e314e339U, 0x7f120734dfb053d4U, 0x4b180cda02d33612U,
  0xfe23ce6120d9fe2bU, 0x26d1e119dc23d8d5U, 0xe1ec56b7450e1d57U, 0xcfcf0c6d354beU,
  0xd05000f917c808f4U, 0xe0e20f10390ad71eU, 0xf1f5b3ba09e80a3bU, 0xf4ff247fe0f2103eU,
  0xcff7360614f1fa18U, 0xd3f34155ffc4051fU, 0xd4c2788f55fd3bfU, 0x262a05ccd3246819U,
  0x6f0d201fe09e3feU, 0xd5cb0a06ff15e8edU, 0xcfe9e1e8fa44e1e1U, 0x331530c70aec0aebU,
  0xde2d09fa10410b28U, 0x6d12334e2f1cddbU, 0x28db0e02df1fe303U, 0xbcdacba3d32ee8cfU,
  0x74f53703f0210c3eU, 0x12d528d7bce6c40aU, 0xd6343a0a082efbeaU, 0xbcfa490befe7e70dU,
  0x3809bdd524cde2fbU, 0x3c09c220b44a5d08U, 0xdc3f7f4444e93e4aU, 0x1905b17f14c61228U,
  0x1545a7fa2239470dU, 0xc6cf7050b0fc005U, 0x9f92f2b3ac4bd39U, 0xd2270901e7de8b00U,
  0xc1e41aa4e9e0ca3aU, 0xd9cb08d92712ff92U, 0xcfc418ecb90a2b17U, 0xeacb3bdb3f46e2ccU,
  0xcdc6e80c81d0a00eU, 0x503ca6173b52f1d2U, 0xa3bb160ae5f6df2dU, 0x40b6cb1b227b09eU,
  0x227fbbc21e280e44U, 0x2d0c1bdacbaad69bU, 0xd4b219a64026aad8U, 0xf61d9dbf131b4b77U,
  0x270940e00c15f4f9U, 0xefc60c9aeb0ef8c5U, 0x2abfd0d325aa800U, 0xc0291619a2ef2de4U,
  0xea46ffc937e2aadbU, 0x5683f50146b1281bU, 0xff840c35f35bdb0U, 0xea07f9050738d03bU,
  0xee232cf201f20d18U, 0x181c1e25f5170612U, 0x31a10f21406e930U, 0xd904f20ac1f7ef37U,
  0x1117e1e834c50511U, 0x2cfe2f19f1f7ce0aU, 0xb33dfaf51ae3507fU, 0xd3b41c2b1d0600fbU,
  0x11c327dcd6ec05e6U, 0xf658f9e8f7130424U, 0xfdabe5b8b60312e4U, 0xad40270fd3d01c39U,
  0x1bc804b5f730cd12U, 0x2b05f8f30d16e91fU, 0x3a410ba5f0d91416U, 0x42e7f7f10be7185cU,
  0x1bf6b7d2b1c9dc2dU, 0xcaf93112e761d5d9U, 0x28cff1114dc4b1bbU, 0x1767a1615113f481U,
  0x44a9dcf6fec0bdf5U, 0xdec9f6d3d7e2fc0bU, 0x1bbb14d7caef8a0fU, 0x2d75d24718ac65b9U,
  0x4faf0dc8f3bece46U, 0x296bf5011d2f1143U, 0x1917d3bac7ef2906U, 0xbdf527e921d5dc23U,
  0xf119b4cacf65dccdU, 0xa9552ce80bc6e534U, 0xad0140f63062fc05U, 0xd7810ff23136fe0cU,
  0x1eedd3c3c164df18U, 0x61b0015a236fe27U, 0x2f4e99c117a11ec9U, 0x1735e700db11fb2bU,
  0xf4c31b21e8f808e5U, 0xc12ee8fe26000230U, 0xd109deddc604e105U, 0x13e7080d1cf71618U,
  0x3e00e1cd433d229U, 0xc9c621fa10010ef6U, 0x7f0502a9fcef15bdU, 0xce7c129e74301d7U,
  0xff07eec8c447c046U, 0xf283511ef2efbddU, 0xf1f3d1f62d09e4c6U, 0x26040b299ddae6b6U,
  0xf1c90825c92202a1U, 0x25b209e5f50f321aU, 0x131b21e507032bd8U, 0x1f0024f226e3f9dcU,
  0x1cd41264fcc6e33eU, 0x190c7f340cc1f812U, 0x1240dcdb06b2a9c1U, 0xd1e446f61430d1e7U,
  0xe1e3ecacaf04a6dfU, 0x1b292b555b03fc39U, 0x2c2531ed4e5ee926U, 0xd031010c60008fbU,
  0x1c2333db0f120153U, 0x41d8d02c2b1937a0U, 0x211de6de051711eeU, 0xfeffd3f91503c83cU,
  0x1812f8fef9fb5c18U, 0x99ccf2f6b1d8f93eU, 0xa2e6121fde29011bU, 0xfa2cf01fe8110033U,
  0xbb071016fa8d1f01U, 0x2fc42b2014d1fa0bU, 0xcbed0d423c88b3c8U, 0xc06e914814815e2U,
  0x2d0602bf171df40fU, 0x3e1b1f200d01eff6U, 0x10e00d04be3cf1ebU, 0xbf00181ee0d2fc2bU,
  0x6ef301831211ce7U, 0xe7efdfd50219020bU, 0x35fed3d2e6ed095fU, 0x6c71df3cff9e4e5U,
  0xf5e8edca1befd40eU, 0x7f3c2530ffe0f1f5U, 0x4ad1a2ee23cc3e2fU, 0xfc1008f6e5041225U,
  0x1bfe3218092ef500U, 0x3a2213da0bfe3819U, 0xeb22e1f3f03bf31bU, 0xe525ee12fac6181aU,
  0xf700d3f8e3ecf51cU, 0x7a8012901061e46U, 0x3401b2b9b810e805U, 0xff02c9ff05dee4f6U,
  0x2f0e26decd4b47d4U, 0xe8250a2f1f287fbdU, 0x9e96f5c6fd364ad8U, 0x42d345f9b8329bd8U,
  0x400704e5f102fcd7U, 0xbede391b1dc61bf2U, 0xe1210a20e742816bU, 0x1afd08094aece7ebU,
  0x5539082eecf6af0aU, 0xe342fc2fa6d8161fU, 0x8e01659ffed9bc8U, 0x4f6923dfc93e3323U,
  0xf3c9011121eee2e2U, 0x34cf2dda07ede609U, 0x1121e83a111b18caU, 0x251ee10b04dbef36U,
  0xe7eebadc491fbe1fU, 0xebd9ddfab632c419U, 0xf6f118e134f69f0cU, 0xfb0301f50705bff4U,
  0x1fae3dfa1f16fccfU, 0xdd2d101e16a3f781U, 0xfabacf3cece2013dU, 0x47bc0ddd079f4e4bU,
  0x21080af2f2325428U, 0x1122180716c5dae6U, 0xe4ade84aede2a210U, 0x57300f52d24933e6U,
  0xedb1e71701021114U, 0xd1f09324b82c2df9U, 0x4ff2352f6b0e08fcU, 0xe50e14d6da1b0600U,
  0xcabbfcb6f0f7cdc1U, 0xf3450f08dde546feU, 0xe7047fe3e70059cfU, 0x8ce01d76a420de6U,
  0xcb04d6c5de14f3dbU, 0x6921afa41f7fef3cU, 0x2163dcc71527fa27U, 0xe9d4c4e3e909f6caU,
  0x2807fb2a57fa61fbU, 0xaff317cc0c218ffeU, 0x11f2b3e55709e932U, 0x67051549a624ecccU,
  0x291c14f307f90ab3U, 0xf6d5c6eecdcf3dd9U, 0x2804abdf81f071bfU, 0x57d703bb31e82cf5U,
  0x120119dd07ede503U, 0xe063be3502ecda63U, 0x60e6f328b7bd38bcU, 0x8eefe9564cf1d21cU,
  0x99b9d52b5cf6da43U, 0xbc5ee4b8293ad9fdU, 0xff7f0ea9bfcd9feU, 0xa526a4fd4d9adc1dU,
  0x2e0d41fefa1960bfU, 0xa41b20dbf1389ed0U, 0x5dfdd56e8fcbe10U, 0x3f01c0da68132f2cU,
  0x6fb81d5f9010feaU, 0xf2e30af6081ba316U, 0xd8f602521004b3d1U, 0xd6e1defbe91004b3U,
  0x26dc33e4edfa26fcU, 0x3a330d1551c12ef7U, 0xcc5c0bbe80d27faU, 0x11250336c4cee9f3U,
  0x62091837053e1920U, 0x19b6f00c0f21b61cU, 0x2315f3692820d67fU, 0xfd2fd8365febd75dU,
  0x68efd13a45f0103fU, 0xe3d907d7dfa23b89U, 0xd3cd313d46e0e50eU, 0xe55509df44eafd04U,
  0xede338e597f9f4dcU, 0xefb0b451cf2c250fU, 0xa729bff96d4716U, 0x32f72f1e2115aa4aU,
  0xf0e81238c23ff10eU, 0xb607ca11df2a7109U, 0xcd53fcf33943d910U, 0x9125fd7320c50ff3U,
  0x2a810ab13b0b2d02U, 0xe573fa21dff65deeU, 0xedce9604c0ef4c1bU, 0xcd26ea074a3c0077U,
  0x1e1f7f4dccde220U, 0xd8fdf9d3e82f3101U, 0xd5fae20327f28133U, 0x11d0e11481bff30U,
  0x1ee9de002fcce6f8U, 0x502cd64b1120e010U, 0xcb3463d31c2e0124U, 0x3907fb0442ef035aU,
  0xbea5d807205b2eeaU, 0x29e8c9f9d5eff0daU, 0x30ffdbf2c00bdf37U, 0x2c31d70ef72b56e0U,
  0xcacfe0e500f32e13U, 0xf311fc2ac51733caU, 0x110bd7cba436e5e6U, 0x1eebe2342019de24U,
  0xf1ea3b273d5fe319U, 0xaccb4c3207d6dd42U, 0xbd8e300381ee3fbU, 0xfcad87f080ce5d1U,
  0x31e510252d0ee415U, 0xe7cc11ef09fdf1d7U, 0xabeee216e0c0cf1bU, 0xec0bcc24ce4b17ffU,
  0x4ba7ed13c3236fcU, 0x1400b63fbb2aea2bU, 0x4121bdfa1fc04b0bU, 0x58fd7d1cdbe1e347U,
  0x3605b3df20f2e430U, 0x408ed413bf2f85eU, 0xcd7f0aa253004832U, 0xc9a4f8451c0a0a38U,
  0xedac0b38f7950ee4U, 0x9a1e0af0fdcff14eU, 0x9e0640d10918111aU, 0xddf804c1b1fe57U,
  0xebdad5f5bd1ef52eU, 0xdf1be402fb20cbf9U, 0x8113c40a0d06bcd5U, 0xd21f6f416092ec1U,
  0x73e93f2352f82509U, 0x40ef1d017faf3d6U, 0x11b84c17f2125f01U, 0x37eff802d22014c7U,
  0xdecffafdeaceccc5U, 0x361264c730ec1014U, 0x2a173efcde6e30d7U, 0x4ee52403de37ee1cU,
  0x41fee0d6261cbeefU, 0xe908d324190addf1U, 0x3ec9e42a2eeb0c23U, 0x20f72e0fc7bfd2f0U,
  0xf2fa1dd122fcd8deU, 0xfd3f4d123e10ed35U, 0xd53f1f1b17940621U, 0xf30630e814abe02fU,
  0xfcbf25f20416d31dU, 0x5c2dcab55e7f04e0U, 0xd8c9e7c90c4a0215U, 0x32f50c15c40621aeU,
  0xc40ecf0800bfc1e0U, 0xb628143ddb02f1eeU, 0x3abf2af32510b51cU, 0x3441f32ae314c724U,
  0x1506e7054b1b07daU, 0x9258a8d1ea0c36f5U, 0xbfc80ae7e301b328U, 0x2fbaeadc2c2a15c5U,
  0xce7fc2ca4d29eff9U, 0x57fb40adf456f0e4U, 0x3da1df08f2f2e528U, 0xea30c14eaa27ffc3U,
  0x26dab1322f7f2d2dU, 0xd63d45de05c951f7U, 0xdf22f30922dff21cU, 0x2702f6f8f81031U,
  0x3a0c03334bce2915U, 0xee02f2e11f0ad637U, 0x18dee13f08dff4e2U, 0x27dce12a241afe1eU,
  0xeae1ee311fe8ddebU, 0xbbcf6f0c6ef0406U, 0xf003f73be9efc9faU, 0x6f321d21847cfe2U,
  0xd5a8f626179ebd18U, 0x9f1ac9d2481102e0U, 0xdfe8c251dcc5dd14U, 0x221eeebeee1cf2f5U,
  0xb6e7e10049fa3fc6U, 0xea23a333e4eafb74U, 0xdcf3f6d67218bfe6U, 0xe101ea023e97e8U,
  0x33dae144b1c64f03U, 0x4ae850f564f6d357U, 0x1cecaf66deda390eU, 0x18f9ff114b7f3151U,
  0x20ed81a4e808d729U, 0xf1af36fcb5a06bf3U, 0xe3613051f72bf5ecU, 0x8be3ae05d3bc3c2U,
  0xcfe80b0960defd10U, 0x1f226301c04dadeU, 0xeb7effebdddc1c1fU, 0xd20be31e1109f31cU,
  0x930a0a304f36f900U, 0xd83e47a05463d1b1U, 0xb2fd332cfd08fe18U, 0xece4f9240883ddb7U,
  0x19dcab24c140fcd4U, 0xd9dd00000af20616U, 0xff1f4611cfd210f4U, 0xccdeec5d35d9b840U,
  0x970c25db1308e7b7U, 0x3c07dddd1ad1a8d3U, 0x35ec19d3f6fcf2edU, 0x5129eccc0c54fa21U,
  0x42f71f3ff2d9d006U, 0xfef99711430ad6ecU, 0xbe8e05273b7c090cU, 0x390d3913f4dcff81U,
  0xbe11612335abf2e2U, 0xdeafe33039201218U, 0x4909f2cbeab00a1dU, 0x4fdc3beab8f60e0bU,
  0x8452c7a2c910d61dU, 0x9a7f3d2cde3ffe0bU, 0xf8dfc1cc3f07e8ffU, 0xfe62e81ee2fec8daU,
  0x420ed24edaa28dbU, 0x5f0402d9fe2ab7beU, 0xd2a1abdf2ff8f31bU, 0xdf41fa383f1c3e2fU,
  0xdbdb21d4f622e36aU, 0x940531e1ffdb31a5U, 0xa32ade137fe2e70fU, 0xf8540f35fdd4032bU,
  0x19051d11fac71234U, 0x1f241de4f10d13eU, 0xfbbed1d1f4c3e335U, 0x1c3cddf9242d0be4U,
  0xfbcc102b0616c40cU, 0xe8a1ce0f726e192U, 0x1dede92ca6491416U, 0x324fc18d31fb63aU,
  0xfe0d29001efc0dedU, 0x12bbf5fd1e02000cU, 0x222423e9e7182309U, 0xead40ad8fefc31efU,
  0x24eff910e0fefccbU, 0xccbf81c00d8d63eU, 0x12f5edec22f8dce1U, 0x2935e8310afb5e42U,
  0xbf080cf5f51ef583U, 0xdf140ef5177fe122U, 0xefd2cbd80cf853ddU, 0x1a1f1f00390bd8U,
  0xd30ee1082cd1eb00U, 0x39edea122b10c9edU, 0xe7ffd4d9e5f5313aU, 0xd743f7e0fb11e012U,
  0x44e8e4f7d9f0ef09U, 0x29a03a7ce6e8e7dbU, 0xd3449e81fcfb4429U, 0xc1da53462a91c438U,
  0x90e2ae1ef2a2a12U, 0xfa405336092c24f6U, 0xccf31f5925351455U, 0x1345d83223b21a33U,
  0xe92781d6edbec8f4U, 0x1540ef3601101cd5U, 0x2ccf3ed716ed22f4U, 0x20140354cef5d40eU,
  0xf1d02fc8315d4035U, 0xda13abf53a2522cfU, 0x7b05e7fbf2e5e5f8U, 0x441ae3123e51b27U,
  0x29eb0cec26dd0703U, 0x35f2ded64a32e803U, 0xe5140a0edc07c835U, 0xedd42a23583b32d8U,
  0xb0efd0ba91a2e09U, 0xc612d6342309f6dbU, 0xf20cd1e0cbdbed18U, 0xf2cde3171cf2f220U,
  0xdf3afeeb2f13ff05U, 0x39ee07c93719dd13U, 0x2795e5ec06bbc028U, 0x711bbbf2b7fe41eU,
  0x7dcf31109f3140fU, 0x13f7f4d11f1929b6U, 0x47b607b1fa0dd2ebU, 0xe566dfccdddade05U,
  0x231e20952ec4f75fU, 0x2409b41ae0c94ce6U, 0x1527aeddc4298f07U, 0x54e01f11062022eeU,
  0x39ebf5062ed9f5edU, 0x860ae7d93611053eU, 0x5eae91850e8b8eeU, 0xa3fe2b6e1dbfc17fU,
  0xe6c65aced4c9214cU, 0x1dc5183c5fd42effU, 0xf181e0503d0c9b0U, 0xe5cad835ca4ae855U,
  0xfc2c14eb19f7ff0bU, 0x14fc17f3172a13eaU, 0xfbfbf91fd9f6cc0aU, 0x29080517230433e7U,
  0xece5321f1fcff926U, 0x4e3416faf3e72b00U, 0xee112ef8aaecd6eeU, 0x2138e6c2c031faefU,
  0xa01cefc2ec60d05U, 0xfcdcda1727d91702U, 0x290832377f27dfc7U, 0x1f818f7c0d711ecU,
  0xc81ae6ff2811aa05U, 0xdff3fd292ca50216U, 0x27d95108bc0d4601U, 0xe226241601e81281U,
  0xc6161be8d7ed130bU, 0x130d432f36e102f2U, 0x34eff305002adfc0U, 0xd41a35e50fd5522dU,
  0xf7f40dccd2d3f0a0U, 0x3739214219f2fe04U, 0xf0b9ee0109494f0fU, 0xeceed7f221f62a9aU,
  0x18ffd02004e004efU, 0x15ca1e0cbd2a0907U, 0xf00be4f4f40ce624U, 0xf2e7fe3022fff515U,
  0x1e08e9ed0e0fdd0fU, 0x231dfef80810fbf7U, 0xe035df19cd05e413U, 0x7cf0a03e2d234f7U,
  0x221ed052e215930U, 0x77f25fa1026002eU, 0x4dc1aec2a093618U, 0xe3d21546dd16eb11U,
  0xe92411da19f4d7e9U, 0x9a12b091e0b0ab2U, 0x1cf7d30a640fbe0cU, 0x122d154716c91818U,
  0x9066bd4112fef5dU, 0xdcf4350831e4f513U, 0x25e8e200e5c1ec67U, 0x3818e416e252fce3U,
  0x914fa1bb0f8e124U, 0xf3e0012d35f45481U, 0xa5c4f2dabada1a4eU, 0x451181e9c49e2c2U,
  0x55129f436f70a32U, 0x1f1f0cff0f01fdfeU, 0x29daf81b0703c8e4U, 0x1e281c1e2324ed1eU,
  0xfef80d0016fae152U, 0x40cc16fbf5f4d5d2U, 0xee7f0707bffae531U, 0xe209f4acfde6cb1eU,
  0x1a1b0911ff28483dU, 0xc53ee60ffbd64106U, 0xe0f439e11cef0dfbU, 0xf2ee2824011cda4cU,
  0xc0604fbfbf2f2f5U, 0xdb022e21bd0522d6U, 0x25310601d237c820U, 0x30f0c3e636dbf200U,
  0x2ffef607f1dadcffU, 0xd22220d716f5e3e8U, 0xfcf0b1d5c40adc36U, 0xd21ee426ee041c62U,
  0x1dbede1df7d7c33eU, 0xe2b7e0dd21aed6a5U, 0x1138e32fa381993dU, 0xeb2feddbefd2e9c3U,
  0x290721b5112c13f7U, 0x2f1104eb262c02e2U, 0xebcbd0dbe0f908efU, 0x152ae0231ff826d8U,
  0xdf0f370d0028032eU, 0xe39836e10936fc1aU, 0xdd504f5d7e6cf0aU, 0xc534d433e25b14dbU,
  0xe10715eb1da3fd15U, 0x8d5191046b1fcc7U, 0xc4f1f2d7e9f881cbU, 0xeedf25dac0dbebb0U,
  0xbb34f1db2dabce42U, 0x2af3e2cdb93fd91aU, 0xff2013cbee10065dU, 0xf0110906f3bf584dU,
  0x63c1535244506e3U, 0xfca52e27fdfbeccbU, 0x97d42d05a54d2d5eU, 0x9dec491afeffd3e8U,
  0xfd26df2eb6efe61cU, 0xb606630bdf1af5e3U, 0x81a2c20ed48289f7U, 0x81e1e2cd350d4fceU,
  0x24c9341a29080719U, 0xea2cf9fb1bdaf2f9U, 0xc708db10beb5e328U, 0x2016fa6dfd32c4U,
  0xe0fd365d4f2601cfU, 0xa847ee1010e5ee28U, 0xa51ec69be5deeee9U, 0x3f6e71109f3cb31U,
  0xb7ccf0c70808eae8U, 0xfde60afdd9d66b0fU, 0x6921710d5ee17beU, 0xc1822d3a9b50e36U,
  0xf202d80116490602U, 0xee2ffffa06faf404U, 0x16080e07151d1300U, 0x51ef83216c8001fU,
  0xf3cd15ea072a1d11U, 0x28f70a2fede902e3U, 0x1ee6c116e1bdedf1U, 0xbe231c220c9f524U,
  0xfce5ff1207e8ba0fU, 0x59cff20b7f0638dbU, 0xefdfefdfedf810ebU, 0xf9ede21c1c12eaf7U,
  0xed5bba30feac600U, 0xf307e01426dadb1fU, 0xcf8e90be321b4eeU, 0x4171efe0bdc2942U,
  0xc0517eaed57ce05U, 0x1df21d0f040e1bc9U, 0x3be7cb4cfa0fecddU, 0xe2dc0fc21a06e2adU,
  0xdc33ef0732deefb7U, 0x3ec443e864cb34cbU, 0xac19abeac61dfb0cU, 0xfb70e54cd1f90881U,
  0x36d1280b66d0df6dU, 0x62c1dd22cb51e14U, 0xf01c101318eaa89bU, 0xf639220c4d251828U,
  0x340e41b4d63e2acfU, 0x23da01d421d803c1U, 0x1bce3c1aa2e414f9U, 0x1d57083fce21d7f4U,
  0xa7c449d23a0fd81aU, 0x3d805c2e3a63ae8U, 0xde167f1af2bea7daU, 0x2fddcf26eceecdfcU,
  0xd54a61022328f4f2U, 0xf4ff2b410c2025f7U, 0x20a9ac64704bdf0U, 0x212a2a2931e122ddU,
  0xabdcedcf2ab5f651U, 0xb93bbd4e09ffc91cU, 0x61d9dce7e7021526U, 0x49cd0ef6f2f1feedU,
  0x1c23615320d5b7edU, 0xb1d9ceffcafbe567U, 0xf5b8d614edbacb31U, 0x4d9f3268f811eecU,
  0x36f9f707eff6edf0U, 0xf1061defe714c7ecU, 0x21f9f8eee0d508deU, 0x1b0d260bb7ee19ffU,
  0xb00fed3fa1112e6U, 0x3f103351b1adaf9U, 0xf34bdfb7fcd8f718U, 0x2cdd39fcdee3c303U,
  0x4905e216cf3ff2d6U, 0x1812267fecf84316U, 0x4a2a11e734dc4737U, 0xc81a130e06e9a550U,
  0xdefffdf01807bb3aU, 0x21f8dbacefcfddd6U, 0x3910011f00e8f24cU, 0xd53ead27eedf1005U,
  0x59e003f6d1090803U, 0xa2c9e9dcf0e0c1dfU, 0xf08142793a3cdc08U, 0x260801e35c7b265eU,
  0x4d3003fdac50e6daU, 0x48e71bf35cebdbf8U, 0xeffa9848e303bca3U, 0x45d6d2eb99229cccU,
  0xeff7c5e5ed0af93aU, 0x3fe27d226385c12U, 0xeff720dee34e27bcU, 0xd223e912d4060e10U,
  0xdbb0926f781f709U, 0x2fcd21e7ed03113cU, 0xa71e1443e414c538U, 0xf83cccdcfe272edcU,
  0xe02b481fd1f7d627U, 0x32efd6e22ae7ddfeU, 0x46f7fcb647ca0e0dU, 0xf4400a1c95b3089cU,
  0xddd610d5d4d9f3f2U, 0x2d35d20003422c16U, 0x2611eeb3fdffeafdU, 0xe841f4c6e6ef002eU,
  0x2d513e1153a2bf9U, 0xfdfa3cf32ef829f6U, 0xa447c5f4f62bc101U, 0xdebcf50e41ec38dfU,
  0xf755bfe3dbd62428U, 0x327f0fc3a27db411U, 0x2de1ccac12cc25dfU, 0xf02ac8f2c3b0ca20U,
  0x1512e83b413845edU, 0xdb1dd7fb8f0b1bccU, 0x3e09e216ddf3f9c4U, 0xf7d22c1d543ae7e8U,
  0x7f1ebda3ea8a3deU, 0xf530f22cca54e6f4U, 0x68d5f7da09dd241fU, 0xf12b7a2ff5d8ec26U,
  0x17d2da0011b0ed3cU, 0x83a6fcdfad09f21fU, 0x71bfeb43fa81f53fU, 0xe263e3d513a70c4aU,
  0x1b7be4aa2c3429e2U, 0x6b9c63fd20be0932U, 0xb61f1f16061f0ff2U, 0xcb14dfcbd05621e0U,
  0x19a2ff5a28e32ce2U, 0x3c045fe21badf3b4U, 0xe30be93cdafa3ec0U, 0x183952ebb409413fU,
  0xac04c94c81eb0f5dU, 0x14959f412a62d001U, 0x100c2edfa6c02085U, 0x9121d5431e62e21U,
  0xdee7c5d81ffefe5eU, 0xf33df3e03bf005e5U, 0xe02c004be907d61eU, 0xda400bfdf5161130U,
  0xade51fcc3db20349U, 0x2edf3722de0a03e5U, 0x7f39e8a2c66c1a44U, 0xb54ec1e5f810408aU,
  0x9709e8cb9c44fed2U, 0xfb764726ecb0f713U, 0xd61cc341773b7beaU, 0x2130efecc5bb00d5U,
  0x1ee8e911bd20157fU, 0xbd4ddd163bec730bU, 0xb919c5bbc83dfa16U, 0xee08d124d2fe0b6dU,
  0x2d0211bd2246f8f5U, 0x1ae3120c3e000d40U, 0x28cbaac8e0392dd2U, 0xf245190809219b1cU,
  0x14d82421c5340610U, 0x10e1b4bfc30a22e6U, 0xaedc18cd11baa5bdU, 0x1e15d8a8d74d1311U,
  0xd730dbe63ed6eea0U, 0x6ece516f535dc23U, 0x122cf9012c08b105U, 0x2df1e1511ff6e61aU,
  0xfbde08ff43ee63cbU, 0xc4e5f0da1d102fc8U, 0xe5e51c0781c3f223U, 0x47b5dfffefcc1bc9U,
  0x357e19ef28353527U, 0x3248fff949f7f343U, 0xe6cbd91323da12e5U, 0xfbd9d803d323f513U,
  0xb4dae1e41933f2e2U, 0x1a1952cf198ee209U, 0x36f4ec04c6f335a7U, 0x3715181ce8d20bdfU,
  0xf0fdfbf1fcd95b1dU, 0x29010d2d2908132dU, 0xf8dd0df332fd4edeU, 0x1dd06142ffffa21U,
  0xfebb2b201b23cfbdU, 0x82f7bf9540dfff4U, 0xa19930fa066c2258U, 0xfbc0d7f9dcba2881U,
  0x261d180e0c51e8c6U, 0xd831ca10fb26e731U, 0x88faef2513171d1fU, 0x1c24e8f915e400b5U,
  0x34a5dd0b24d8ecc2U, 0x3b5a2156f810f613U, 0xc6491bb9bf1a1718U, 0x1adedaf3d1de0113U,
  0xea521e450633010bU, 0xeff6590517e1ffcdU, 0x3281384ff6680f1aU, 0x9f1f9fc0293c3d8U,
  0xf5f9f7a2e281dbb8U, 0x41d5b441456cd31U, 0x12d02b7f91ccaf9U, 0x3d004f7de40d738U,
  0x35420ac0af52ee5U, 0xeefb04ccef2faa01U, 0xbe12e90452bcb562U, 0xfbd2e8f01d55cfdeU,
  0xfabc1b31fcb7e643U, 0x2c33ffd6222a3692U, 0xb80296abbbe8be39U, 0xea382b17a69df9dcU,
  0xba56d721247f8e18U, 0x4809d320d53d15e9U, 0xf80ddd14d023390eU, 0xcb24d2090deff53cU,
  0xe9bd202520094ed6U, 0x521551cf66bcb9e8U, 0xeb7d01b1f0fdecfU, 0xf9d202eac9a9585fU,
  0x5c45cdd55aa90eddU, 0x2b279c1716cbbb4fU, 0xcbef5ae87a5f1229U, 0xe576ed4be8191001U,
  0xcd37002442ef0e08U, 0x16ecf916c6191136U, 0x19fefffdf9ac0706U, 0x47fd4a4ed020e0ebU,
  0x74efc90f1a062035U, 0xf5670d5916d5f1f8U, 0xd761efab18c5d2edU, 0xb9080216d6300cU,
  0x1fb41ce4cd3746ebU, 0x207fc3f9361d0820U, 0xcd9ef3153949f436U, 0xe4cc18fddd2019c9U,
  0xfd2fec121c16ff00U, 0xef0404fd1e26f7f3U, 0x28d2e71b03120f0bU, 0xea260717df060508U,
  0x1006cd2106c8f6b6U, 0x55ef16410018c8daU, 0xaa2dcb2cd49fd5e0U, 0xf7fb46dfd2eece1dU,
  0xb02857eb12d3da34U, 0x78ea42187f6e3111U, 0x203ecd1f03411deU, 0x26f429500fb9f259U,
  0x29d2f44804ca21e3U, 0xa729b420561cb621U, 0x18c8f0e643dafa9dU, 0xc7014ebc03caeedaU,
  0x66fca458e0f8f9ceU, 0xd3be434da4d2eb00U, 0xd5bdd9feaeb013bdU, 0xfd3b23410be4c6b6U,
  0xd2cce335303a04e3U, 0xbfa64455430c5babU, 0x5bd1074842569181U, 0x51a0809affee341U,
  0x2b01092009391a18U, 0xef2e15fc14e211fdU, 0xf4e608fbf702f6e4U, 0x71c001419031befU,
  0xe4e6ffc307e90b40U, 0xf0c547fc0301f411U, 0x2e7f0e9bc5d91ecU, 0xf0ec01ce22123f07U,
  0x92ae2db63d03917U, 0x1c684127fe36ecbcU, 0xbe2cee610f841fdU, 0xf8de380be6c68111U,
  0x9d8fef9c0021b1cU, 0xff0727e9edfadce3U, 0xc2219fe132e1b1eU, 0x330e09d90100f7e8U,
  0x29ecbae519133ad6U, 0xa4e116f01e1b22fbU, 0x9314264b4957ee27U, 0x15f62372e32713f5U,
  0x2e4d8f82df30427U, 0xcfbf37dbf4a41714U, 0x1afbd97ff6bbfbbdU, 0x2befdefee1f725c7U,
  0xf81d0c121ec6475bU, 0xf4c2d8d9d62d522eU, 0x2134f66e26fa4012U, 0xcfe724de1913d146U,
  0xcf3207f93d2e1cbeU, 0xcad52c1208214934U, 0xec3bdf81d3dce082U, 0x302609d04d0f02d7U,
  0xef99f9840107d6afU, 0xb8c137ff26e3e6d5U, 0x24200d26efbb0e99U, 0xfa0f093f4630fccbU,
  0xf113c8e81e46e5f8U, 0xafafb2e14f7ed20U, 0xfd01d423e4ef18f3U, 0x9da300c1a01f6f4U,
  0x29f20effd3f8fcf0U, 0xf01d0d51171ccbf1U, 0xf01cf9edf0101aedU, 0xd9e3eda13eee1e7U,
  0xce1c0e10d6dcc701U, 0x5e0e76eb3322be4dU, 0x690316e9182aebd4U, 0xf9cf20fef3812a1bU,
  0xd72907ece0f3021aU, 0x632817fca3013bbcU, 0x1165f53b7ff541ffU, 0xc2d0a60a16d9e6fbU,
  0xe1bf5bf8ed844ef3U, 0xc7f80f6ae414b9d7U, 0x890cae3c3cee2f03U, 0xf7391954e4b91235U,
  0x10f8e26fc9af1d29U, 0x9aecbdc210f24ce2U, 0xd7b4bef5ee42cb08U, 0xdb2adb27b52127ffU,
  0xe90002dd27f12430U, 0x301416e418e23ff5U, 0xa12c2fc06f20dfeU, 0x35db27f7deccf331U,
  0xef0617100b1f3fd6U, 0x1bebd618e902f5faU, 0xf941c6c44efe0c2fU, 0xe4d63cea10fbd8fcU,
  0xf60d09fb18e70cf6U, 0x650e2d25c300fbfeU, 0xca1781d1faec412aU, 0xcad1e602ed19f30fU,
  0xe2c1cd3439ce3011U, 0xac34f9b704f2022cU, 0xf0f5c8560efe210fU, 0xac6d2e0e3f63024U,
  0xf6f0121a0f4a2edaU, 0x2abfe0e2f46d50cU, 0x1660d2baf5fa7f20U, 0xedcfde1547110ad8U,
  0xfdffebe4f62eb830U, 0x213ce972be0d54c2U, 0x2f63e5292ed21dc2U, 0x31ddee3de2b8ea2cU,
  0xebf6cbbf24e065d5U, 0xe623fcd4fa3026fcU, 0xf60adbb5a907ed71U, 0x3fd2e52906f4d1f9U,
  0x2f33d90b36d6f881U, 0x1202e00bade60430U, 0xc204b7c52578d3c7U, 0xd718ff63fc54eaf3U,
  0x2bc5b258e126bdf7U, 0x7719f6150461d70eU, 0xae1d9cadfea900dcU, 0xf2fade2916151749U,
  0xe64bc0d508fedad8U, 0xe4e9d3381913ef29U, 0x2df61920e3f50624U, 0x2e27da33c9e406bfU,
  0xd524e8c4ebdc470aU, 0x42e634e428de0909U, 0xc83dee1f11a1d914U, 0x1f0567f2218924e0U,
  0x28314c07ff12cbdcU, 0x6e59e6d5207f0d2dU, 0xb6dbf6df0c2a28b6U, 0xf8fee74924cecdedU,
  0xefed12e40aceccf1U, 0x481efc23fef90304U, 0xe0222708d01e01fdU, 0xf7080a0b3afde1e1U,
  0xf0c116171f2122d3U, 0xe41c025a40fad516U, 0x20410dbd240df1eU, 0x261a2e06b4e11d00U,
  0x225bca005935154fU, 0x293f6c49ec1f3de1U, 0x42e6c237242a7fc9U, 0xb2921e0ad8c28335U,
  0x32ccfba49eee814U, 0xcecb3051ccdc2d97U, 0x3edb4f33028ca727U, 0xfdd4962becc86068U,
  0x62fd57e90e18e912U, 0x9281fe191c39cbccU, 0xd24efa2c48d945U, 0x965050952fe07faU,
  0xa310cbf341b5a31cU, 0xa97d7ed20d95003U, 0x39a90057a2fcd51eU, 0x131307fdd2fbed22U,
  0xff04fdf63cb61918U, 0xbce6d6f60200f0faU, 0xc12172326e8e7f1U, 0xd0f9f1c7de0d10e5U,
  0xcb0709def8f22105U, 0xebd32f22edfa0e28U, 0x1efcf0c72819e6bbU, 0x622cec9432ad3ddU,
  0xc0d7d7c5ccdefbc7U, 0xfaebf92706e5f681U, 0x2f130a0ef8fde2c8U, 0xf42bfd092807e8ffU,
  0xd5b7b61c3b1d1debU, 0xd540b81e1fd2cc0cU, 0x1735d7f8a5e0f809U, 0xf7fa25fff2aebbe1U,
  0xf842fffdd75542ceU, 0xd11519f8c5f9e129U, 0xd9f70edd4824fb08U, 0x1ca82301523f5619U,
  0xcf0109fdcb46c7fbU, 0x2f273fe03d4eca63U, 0x81103a90c5ffefeU, 0xcbf5f50ce70c3181U,
  0x5400f11280dbcf1U, 0xcae90a1ffe1fd71aU, 0xe60c361c34f3fbeeU, 0x2a00e425252a2903U,
  0x3dc8f4fefe262fd6U, 0xfdf8aa171de91308U, 0x9dd603b3b8effe06U, 0x3bef09d4c1e2f101U,
  0x20503c01e4fa46f7U, 0x8200ede8fbfadb2fU, 0x1a811808f316d3efU, 0xe01b28f9d424bb3dU,
  0x14f2928eb0f27d5U, 0xdc46f11609e1a002U, 0xfac922f4030af921U, 0xcf1a31d8f0d34fd3U,
  0x320217f8fd031bdfU, 0x6e277258eee2e105U, 0xd22f5e31c217caccU, 0x300554cd8fe8b619U,
  0x46bbe6ea22d7c0f7U, 0x501dfa35680e7f28U, 0x57ef35faee1e9a13U, 0x11e994d2274bU,
  0x15eefffffbb3U, 0xfffff544fffff514U, 0x1479fffffc8fU, 0x49c0000023cU,
  0x501fffff911U, 0xffffff06fffff218U, 0x3ccfffff457U, 0xa37fffffbb0U,
  0x18a0ffffee65U, 0x33f00000bbdU, 0x65200001839U, 0xfffff6a900000f3fU,
  0x32900000f88U, 0xfffffae2fffffb6aU, 0xfffffb56ffffff47U, 0xe2400000440U,
  0xfffffae4fffffbfbU, 0xae0000000b3U, 0xfffff8cf00000670U, 0xb8afffffda8U,
  0xffffeebf000008ccU, 0x259000004f2U, 0xf8e0000054cU, 0xfffff0e6fffffe12U,
  0xc78fffffa8dU, 0x225fffffd85U, 0xfffff257fffffc3bU, 0xfffffae100000d05U,
  0x1b7b00001cd5U, 0x1cc900001596U, 0x13fa000002faU, 0xd1900000d8eU,
  0xfffffeccfffff339U, 0x8fb000005bdU, 0x69300000d77U, 0xd4dfffff67bU,
  0xfffffed3fffffbadU, 0x204afffffaf7U, 0xfffffcbafffff6fdU, 0x8b9fffff3c8U,
  0x46f0000039dU, 0xfffffa36000012d2U, 0x2450000117cU, 0x2f4fffffa11U,
  0xfffff380fffff978U, 0xa9600000ed2U, 0xedcfffffe0fU, 0x1dacae32fffff165U,
  0xdacfe3690a4ef8b1U, 0x33d23824a56535b4U, 0x4be700cfc501541fU, 0x4229c8b2c67beae7U,
  0x2aa223da0fbf2a30U, 0xc81dc4b730c4edbbU, 0x7f34cbccde59fc17U, 0x164702b3341de6e5U,
  0xff3795b70a9dfbc7U, 0x26e20a3618e3e653U, 0xc2873c3e0bd5badcU, 0x7fd1a72781e00038U,
  0x85baf87f36638433U, 0xf99c6716d02eed9bU, 0x6b29d9c539a7784dU, 0x533291238153f6a4U,
  0xccf7e992299b5f0bU, 0xa6cca4e262e5ab81U, 0x2fa81873a7f2cf8U, 0xb2584981fa2fbb0bU,
  0xf57ffba84b291281U, 0x7f0dc8c72e00f67fU, 0xdfa4eb2463d5d681U, 0x5fe6dcf9a029532dU,
  0xbaf3031823079901U, 0x23e4150c0db983ceU, 0x46fe52e03ec07040U, 0xf62d950c8a2512a7U,
  0x81340da938cd4bf7U, 0x81b1beef49a3a4a6U, 0x64e59f81404e38f9U, 0xd4225abc4d6fce1cU,
  0xe4597f2d4402e49bU, 0x6afccac4687f1034U, 0xa3ada6391ae581aeU, 0x4cbd943e0e677f15U,
  0xb7a8ef5f1eb8f39fU, 0x1c85421a82972f9eU, 0x4c21b0eaa716f64dU, 0x23d8a215d51fb8d4U,
  0xf981c7c02daaf0ecU, 0x96d0a9900e7f42c4U, 0x64cfec01a32cd34dU, 0xce4b34cc3b4cbebcU,
  0x4e3388a92d8104ccU, 0x184011ed3520b35bU, 0x81d9d34548c0ddb7U, 0x75818179c8f2b05aU,
  0x8181115a7f51c40aU, 0xac97712181d3cc81U, 0x7fde1489d82c377fU, 0x760381019fef938bU,
  0x82e881816d81f5daU, 0xac8ca5b2663ed7b7U, 0x76d717dcfc23e420U, 0x277f69956a7f81a5U,
  0x4650d2db7f84559fU, 0x4e52ac925e639712U, 0xbe408a783281fda5U, 0x4c8ccf59e27bc47fU,
  0xa8f72c1f677f81d5U, 0xe2de7f01d49481d6U, 0x6bc169812d0a7f56U, 0x2367db2682bbc181U,
  0x81f582d130910103U, 0xf991c6397f0c81bcU, 0xe3a7bee57f00db0eU, 0xf4072ac63709dc5U,
  0x21305bb165d82fafU, 0x385781a07f71c807U, 0x117d985d47a518f3U, 0x1211c863267f6159U,
  0xecdd2a0d3eb233f4U, 0x3481ef63b0a837f2U, 0x27f581f68165da1bU, 0x6751c9f0f5d7b410U,
  0x14aed0c36be1c4a8U, 0xe1cc4cd2f5d77603U, 0x708c27299fde9c6cU, 0x503732e27ff8c4aeU,
  0x5b0fa4811abd0fedU, 0xe2341f9cf07dba38U, 0xdd9da1a79e2fbf0U, 0x53f1c77feae5f141U,
  0xe09177ed57c2aa81U, 0xa393337fabd62da6U, 0x4b9acbac847f0d36U, 0x7f7fb54cc98181a9U,
  0x90b6fb977fc88181U, 0xdc8d7f2435f04f0dU, 0xea82597e04e1817fU, 0x4b5d7fc453ef9181U,
  0x7ff5c58759b47ff4U, 0xf37ff9a72d6381fbU, 0xa97b817f7fbdaf25U, 0x450ee344214d0670U,
  0xfdbb7fe63647cdb9U, 0x81ba3449c781dbcbU, 0x378117a8ab5d2024U, 0x6624007fbb85b09eU,
  0x8c42cbc928bbaef6U, 0x1a81447f60baf0dfU, 0x8e81ea594ef2bd39U, 0x7f335edb2d4daeb0U,
  0x4ae11aca50086804U, 0x974d881553cacc5U, 0x3d7f926528cfa821U, 0xffffe58253705336U,
  0x11d600001c71U, 0xed1ffffe208U, 0xfffff5a600000f03U, 0xffffec39ffffea80U,
  0x1c1cfffff5bcU, 0x1fcd0000139cU, 0x164b000007a2U, 0xffffed9c000018a9U,
  0x237affffe53bU, 0xffffe67600000b12U, 0xfffff43cffffeac1U, 0x16c7000011b2U,
  0xf1800000295U, 0x1ce5fffff9bdU, 0x63d00001335U, 0xfffff5d50000247dU,
  0xffffe9fb000020e2U, 0xa8cffffe506U, 0x1c3b00000478U, 0x1bb0ffffe952U,
  0xb5a000011acU, 0x1475000021deU, 0xffffff27000006d2U, 0x524ffffeca9U,
  0x178a00000688U, 0xffffef7700001091U, 0xfffff68300000fdcU, 0x351fffffc95U,
  0x1492000006abU, 0x1570ffffefcdU, 0xffffe4e000001b9cU, 0x1686ffffec9fU,
  0xffffea0affffdee9U, 0x1735fffff900U, 0x122cffffeb91U, 0x1041ffffefa6U,
  0xffffeed200000544U, 0xffffef6effffef63U, 0xffffe3a200001274U, 0x1a2affffee24U,
  0xffffead300000e4dU, 0xe4bfffff541U, 0x14b700001168U, 0xffffe59affffe71aU,
  0xfffffae0000019d8U, 0xfffff0d900000faeU, 0xffffed46fffff300U, 0xd981440400000582U,
  0x56cf42100ed8e40fU, 0x3fe5f1f6ef1df799U, 0xeafa23eaf8c7684fU, 0xefbfa2f081b4f22U,
  0x3121231d1ddfb22U, 0xb346a62ad99efd43U, 0xf2db1d2e53e3fbabU, 0xd00aeacedc0dfa3eU,
  0x321ce2d41e2f170bU, 0x2369060fd6514214U, 0x30ddb1321e350ed7U, 0x5266f6d70325fae4U,
  0x3838e6b56aedd76eU, 0x93cc41a90434c5a9U, 0xae9b40e54a824a97U, 0x3b26ceba27dababfU,
  0x14ff3cd110912df5U, 0xfb5c25bce0f8aee9U, 0xdf32d1b9726f1dfU, 0xdbcb5cfcc6157f5bU,
  0x4e2d99ee44d84af3U, 0x19a7141a931940dfU, 0x1801f2e3e2e434d4U, 0xe2424f40d5fa076fU,
  0x6fb2abae5bef914U, 0xcf43c601dfc8d9e7U, 0xb520f3102819e84bU, 0xf514a3ff5e399fbU,
  0x9e56b532ec3d409U, 0x7f2829dbb326bea6U, 0xcdfd2d5cfcbc12fbU, 0xed111ff90aeb21edU,
  0x79a093eac3751c3U, 0x41aa0ec2a0dae4dU, 0x4e0f51c5bc6f3b21U, 0x478c42d9ed1f2cc1U,
  0xa19ddf30ea7b2eaU, 0x401e6605f32dedf9U, 0xcccff4f5bcf245f9U, 0xb131677fd393180dU,
  0x1defd96749320bcaU, 0xbb3d1a2898cc4318U, 0x20cb10e21d14f246U, 0xc75bdd15beef2a65U,
  0xc8c7f1d129422f37U, 0xb930243acca45784U, 0x1e07e12129483d31U, 0xb10448fb355fb1cdU,
  0x284be7e924352cf9U, 0x5ce3ecc7461bfbbfU, 0xef53f8c6ecce3532U, 0x1d03ed0efa15e67fU,
  0xb519d5be0d3ce0afU, 0xf919d9574407c8U, 0xbbaa2459c3a29dadU, 0x9e0ed72f5ceb6dddU,
  0x9836324bdb304a1eU, 0xd2d6d6562157db38U, 0xf95815073d1ad7b0U, 0x39213f24938ccd2dU,
  0x61e6144143aed630U, 0x6400d640850662b9U, 0x8faf4101cfffc14U, 0x9ed7350205e1effdU,
  0x43fa5ded0333af45U, 0xfc06f10e00334ac3U, 0xe75ef7a7b4aad515U, 0x221a43fee0fda5dbU,
  0xba312419b24d13bbU, 0xcd0126d712163cceU, 0xf8db11d68141e90eU, 0xf9363649e9bccdf8U,
  0x361bca09c2e557f4U, 0x290205545bf2b732U, 0xc2d0503917f4972aU, 0x7f15cd3f12224312U,
  0xb1ea2d1f1fd76254U, 0xf518d6fced0b0dfcU, 0x214f100bb30c194aU, 0x4e3abe273512dfc1U,
  0x4cabfef4e64c10e9U, 0xd7c643d6d1f58a2dU, 0xa38cae3db0c000bU, 0x4c10e0c21673aa45U,
  0xcccdd7ea343debf2U, 0xfc654831fddaf25dU, 0x263039fffe1a3990U, 0x2ff309307fd649feU,
  0xeddee1fde6e9e810U, 0xdb1522d31bbb15e6U, 0x4936afc55fc8f93bU, 0xe50ee0ee3b270ab2U,
  0xa36a3a5fd5412815U, 0xd52dbb42180ffe46U, 0x26db6d064cc80f15U, 0xf1d860f0dff84d31U,
  0xd5fec3000ac3dafaU, 0x28bf0e22f3fc284aU, 0x322705df303b241dU, 0xf5e8422ce20d8170U,
  0xd5292e2406ebf8b7U, 0x1f2a11d3d913e93aU, 0xa82b4d2200d6fad9U, 0x4ce012d2f0fa4246U,
  0xe7e5f4ddccc0f0faU, 0x29ccf325d6edf208U, 0xca4df7cccfeff8d0U, 0xfffe04ebe23b2c09U,
  0x410ffa023b142f30U, 0xb8e1e1cd5c0be345U, 0x56daafb7bbdb0c30U, 0x2a6addc6dde1f8f4U,
  0xf5c925bc04a729c6U, 0x181d5f12791d81fU, 0x5e1bdeb904cc3deU, 0x82cb9251113a523U,
  0xe816d83086d127e5U, 0x2a2101da5bce01U, 0x26f534c41cf33813U, 0xc63a1ffaee223232U,
  0x5e12eeea3e0ff0bcU, 0xfd1d4a11510a2ec2U, 0x28e765dfff470c2cU, 0x1f04fa084d0641f2U,
  0xe93736ee08d28135U, 0xeaf6e313bcd1c651U, 0x36adeea916b71fb9U, 0x25ba28fbe8e648bdU,
  0xf6a1ce48f2f760efU, 0xf3fb02202fb63fa8U, 0x2216b40420f31f49U, 0xcf734b90668e123U,
  0xeaf3b3c8db692501U, 0x52e300c02eae0563U, 0xedfbe851e8e63355U, 0x3734edd915c00f38U,
  0xb010e1e50e4a34cfU, 0xaa17c342c0511d20U, 0x33e1c3353afcb738U, 0xd8f4d817f9044a56U,
  0xdd1ae8cb58e9c0f1U, 0xf7dabd39beed47d8U, 0xfedd1c631233307fU, 0xdba618b84bd1eef3U,
  0x31ab0a15533137cdU, 0xd8eed7bcc6271429U, 0xa214db303bb43eb8U, 0xfa33b7210656632eU,
  0xa3e7e6baf9d7d3d1U, 0x916f9decde5e209U, 0xbf1105f8fbdcd91cU, 0x15d7611ee12bec20U,
  0xc763370f2f7fd743U, 0x2522f0d8cea8154bU, 0xd4d744def0f32306U, 0x2cfdf52d62d52fedU,
  0xfd9cffdf11cfd46U, 0x4f063720e3303f36U, 0xbe03fc0d63e9c620U, 0x2f13cab9edfb12c1U,
  0x11130c260c03fd35U, 0xc3e738c208d9dd1eU, 0x185042ebd20552c8U, 0xe946a33ce0d60aceU,
  0xfd4521ff4b2820d7U, 0xc8e4f0e5360381f8U, 0x22db054cd061cb12U, 0x379438d42c4f652U,
  0x6ff6cc0ac6250cebU, 0xe726e3c7c3edd143U, 0x6cf8c4ebcbae20b7U, 0x1f1cefe0dc4a89bU,
  0xe12c5130dc2d4552U, 0xc77f1917d6da18fcU, 0x99c600ea2df94607U, 0xcfe9e652b7d1a421U,
  0xa41af9ed3aeee90cU, 0xcaa9ec1ab6256ddbU, 0xd70646e50fef69ffU, 0x2545e4f2f2fb100aU,
  0xa7dcfcbe37250614U, 0x45b8565208f2be43U, 0x5329582a14f446eeU, 0x211f9b12ac17d200U,
  0x2406cfebb8f5fba6U, 0xa150d19320a1f9aU, 0xabdaa303fe3cc5d0U, 0xd4fd4be00738e796U,
  0xc7451929eb371fd8U, 0x45ef59dc811316dfU, 0xc6b52149341d90cbU, 0xced60cd0d0a4f93fU,
  0x6bfdeb10eae03a55U, 0x35060dbc2d4250caU, 0x1fb6e5093d0302b4U, 0x1518c7adda34e2bfU,
  0x5ae5d981b2d1fe31U, 0x3e5722decceae518U, 0x55d6481b3f2c4a4fU, 0x5714bbf71f02d81dU,
  0xe4cbcb5f4be6e829U, 0x3bece5dee59feaabU, 0x82f3510ba244df0U, 0xf9174633472d7a36U,
  0x2241e0503edb37fU, 0xc9cb35f818b15343U, 0x27ecf62a2eaf342cU, 0x2628d1d2c148b5f4U,
  0xc82846064b2c21a5U, 0xc144ede3eee5cf04U, 0x7a8b81a26d53736U, 0xc9a48a8e3742fdd0U,
  0x3cbfe2420ff8253eU, 0x16421abd93b2caa7U, 0xebb74dafc3a8e1c5U, 0x58b8eec143b23840U,
  0xeffec99ee800d826U, 0xf4b00e1bcf31aeaaU, 0xee218120ff42ceaeU, 0xccd616ffd450b629U,
  0xc15cb007ded89d0eU, 0x3d8217d7934dce1bU, 0xfbd1f529ceec05d0U, 0xf8e4f5f315e31a17U,
  0xc7259ad73e062517U, 0xaf03255496e8aa05U, 0x49d353beda5b0036U, 0x40df00df1123d62bU,
  0x52ca2fdbd1baa819U, 0xddcd2b380c45001eU, 0x415d164d2abf2a5aU, 0xdfe7fcc35999abfcU,
  0xfee1dfdc2b444eeaU, 0xef65cd49064fed33U, 0xeb535f0f9ead0923U, 0xf4264fe32b12bee1U,
  0x3b37194315cf4114U, 0x203125f009308130U, 0xed0607ea28bbd746U, 0x35f453c13bd5d05aU,
  0xc20a72fde841d93fU, 0x104db60212feeafaU, 0xdb336e6e4502177fU, 0x420209ecfa171b1dU,
  0x2b2d14c539ab07feU, 0x35205ff4333c06daU, 0xd5bc043fede7264aU, 0x620cca01f3181639U,
  0x8eeb134d030d325U, 0xa2c6520bea3e67c3U, 0x3e28512508d8c0dcU, 0x2ca97fdbff4706ffU,
  0x45dfaf4fed04d2c6U, 0x28cd5022a533a05U, 0xd02c7adef05be1aU, 0xf20d0fad0c432632U,
  0xc13c30d500ef95fU, 0x38c6ff2124fb440bU, 0x1f611a5fdbd4d86fU, 0x550ded10622263a3U,
  0xf92c083ef4eebb00U, 0xe0eb36d10d3cc512U, 0x3290ca105546110U, 0xc414e31520a041ddU,
  0xb7d4d100b60c3100U, 0x3428002c014cd158U, 0x11431063848efe9U, 0x1c15203b104140eU,
  0x31fabcaa03ded6eaU, 0xb411fafb0ecd0c23U, 0x932a2d0df725c4e8U, 0xcc6cf0905eb7fb2U,
  0x2807d11acaeb0567U, 0xf017c61db1573b3fU, 0xae0be45ddafa3df2U, 0xbaf59000a8e1b613U,
  0xcb3c000ed012b509U, 0x1a1dbc1df1d0d08cU, 0x23c81c0230c4f301U, 0xe863d7092dbfbf7fU,
  0xcb3e04cc029d1c1aU, 0xc6b04642f4df350aU, 0x73c5ddcdbb6d0206U, 0x24f4c6c9c83058b5U,
  0xc7424d56d9b66c7cU, 0x2c5a410e35033742U, 0x16c50aaf38fc395aU, 0xe7eb06f0f8ed0addU,
  0x40a677623712aeceU, 0xe310c1801ffce0aU, 0xd8e6e9021ddf34fcU, 0x9fffd11918277e75U,
  0x1e24d32928e05bdbU, 0xd1eeeaefc7e0ff50U, 0xfa9822ff33ee15cdU, 0x2cd4fa0015703becU,
  0x21c7d2e05044090fU, 0xed4adbf42cc725d4U, 0xf8ca81cfd2ddf90aU, 0xf7c5c027f7e4184bU,
  0xd6b774c9efbb4124U, 0x952d42db2a3205ebU, 0xfb281039f1f735e0U, 0xc435c0c9dee59ac9U,
  0x81d9d555a6e1f394U, 0xb450042df95de2abU, 0x2039d3cdea0f69aeU, 0x61d745fededc5d42U,
  0xe2ab3a1601171f13U, 0xa019beafe8f8a423U, 0xe7e9ab371bd30234U, 0x329c4e014255fb60U,
  0xbd1f5512acfaecffU, 0x20e66a2519bb81eeU, 0xead350e93b3b3395U, 0xe93ec0db140d1940U,
  0x1848c4cabe4cc4eeU, 0xf01e9a00c5e80b1cU, 0xff071193fcc902acU, 0x570000f9eedb6618U,
  0x3045240e73b0aecU, 0x48c7b817d5edc8c1U, 0xa4ebc1fd2a01123cU, 0x616ed9ee5ac2ebfU,
  0x4dcfe0effa5652f0U, 0xcd81ca13183d25e4U, 0x380d08ce139a2fc8U, 0x8d762f813eed3ceU,
  0x220e09ec4049d04aU, 0xef144ac63a3a595aU, 0xd93c032894b41aedU, 0xe3c715294b11cc28U,
  0x7c0a5d0502219U, 0x9ccad30172d113aU, 0xe39fe75d326df9beU, 0x67e9c93dddde3a68U,
  0x9dfa475afd3bdd5eU, 0xc52a44665b54254U, 0xc16bffe0fb01405fU, 0x67144d376af02649U,
  0xcb071e06b91e5f24U, 0xbb0ac5f52c3f2913U, 0xbcf0d5edf5e2f124U, 0x1d361032fee73281U,
  0x404ed1dee54bcaccU, 0x75f87440da60a6faU, 0xe5fd14857adf5e2U, 0x29e0fe5ae924e89aU,
  0xbee66091dc53c243U, 0x8c3de2f1bce904feU, 0x9a15ebd5e62f1530U, 0xdf81a0d81814e088U,
  0xff0d8f3251f4186bU, 0xe03b537c21edeba7U, 0x4afcc76be0e3e593U, 0x54611094f5d16750U,
  0x26f02bde4ff27addU, 0x15ca5675439c9daU, 0xdb09d6d4085ec8c6U, 0x6c65f3154aa3f1d1U,
  0x3f0ac959d2fe2a29U, 0xdaf8ede503d40c24U, 0xdfcf055dfc0ab4ceU, 0x238fb17b60a35b9U,
  0xfb02d44d1edef4eaU, 0xc05710fffb471be0U, 0x5de1d7d915f0e454U, 0xa5ec282b2470d381U,
  0x2609141a34c2b556U, 0x19fbc2d10547be20U, 0xa2d2b6e824f7f4e2U, 0x342d3f8130551276U,
  0xc93f66b8f0f2f410U, 0x2bb7df0700e61b61U, 0xe80f41a815094b1aU, 0xd0d2ed4df3dcf805U,
  0x4fcfcccc8004e55U, 0xe6220c893bba0605U, 0xfcf1cdf62ed0eceaU, 0x69c8e6c01d19b5d1U,
  0x353afe05b8aa0a15U, 0xabf5fce5de4150edU, 0xb809f201ffdaa732U, 0x9230f33505c924f3U,
  0x492a29bf3520900bU, 0x183fe5d7e10bd2d2U, 0x2b61efe7c6eff42aU, 0xfbd699bc01ab5f04U,
  0xc316dcae2619b017U, 0xd90beddbe43f0e7fU, 0xe466debd46ed48c8U, 0x2f0de945b7c5f616U,
  0x4771ff98700e309U, 0xc9eced2565c7da07U, 0xc4fafda426133426U, 0x3c313506192e6b0aU,
  0xb3be945ebd2f0b38U, 0x51390e2f22e4c307U, 0x9e0937cbc1ddde1aU, 0xd9eac1431a7ff22aU,
  0xbcd5a50cd0c1429U, 0x43531f0691ef130dU, 0xa3d3e5c22f27d6bcU, 0x941e31e3ddd36a69U,
  0x9d10f5475ae92504U, 0x1172cb141ebec8dcU, 0xb2f130d524393c3bU, 0xe9c0d63423bd3537U,
  0x1965e27c23302de3U, 0x5ac6ff0d3c3de79bU, 0xd7070e040a103531U, 0x159783df252d38daU,
  0x6c0a9dbefa050987U, 0xc8851122fff1901U, 0xa08dfbb51600b80fU, 0xc57f1a4eef0c6041U,
  0x1223b8350fe90691U, 0xd13c221d08e40be9U, 0xfdf007e298cf4ef2U, 0xcf585c4ae6dd0e30U,
  0xc32d433ceea305c8U, 0xa8ed4f0c3e5f35deU, 0xdfbb07ecd956f8b1U, 0xbffd27e6c1edc9beU,
  0xac3eb0eb87fe009U, 0xfd72261cfa74dd12U, 0xbe2ee4f0a811a03dU, 0xf9e5fac9b2dba752U,
  0x1112132b2d51a51U, 0x12d5082d23bd98d7U, 0x46e1237bfda2deb4U, 0xbf02b902d2492d5cU,
  0x2fb8f79cf5cf3dedU, 0x4008b63465f8f4e2U, 0xb216c4a0ff3425e7U, 0x895524419bef0f28U,
  0x944062b20b0b8f1U, 0xdb295aecf1f1d7f1U, 0x23afb52d152cc7a7U, 0x21707f96da239b05U,
  0xbeb7e8264b373b5fU, 0xf21c5af92108f363U, 0xed1941107acb45bcU, 0x50538f6b24c2cfeU,
  0xe9ccddeae1a72e5eU, 0x133bcd14254e1807U, 0xade200ae06ca06f2U, 0xe5b00a340541eaa7U,
  0x1f721315481631bU, 0x632135690450f0cU, 0xfe19e9d5fdb1d71dU, 0x3bb966354ffb5e7U,
  0x2f4a12899acfdec6U, 0xe020d31931d6ed4fU, 0xf701e5d0c514194cU, 0xa2d35d4fa3f5169cU,
  0xe900f81d2f17a4beU, 0x1ea852c1390a0c04U, 0xdd5511e6cc0cf3caU, 0x15f39a04c89d27e7U,
  0x241f78c1e72603c3U, 0xd4c358e30c89029dU, 0xdc719663d1e40b0U, 0xb5e02ed53eed05bbU,
  0xee1f6fd12840deb0U, 0xe700c6027fd7bbb6U, 0x38cfa3db89e9509U, 0x5ae3261ce04113c8U,
  0xf7b2b50b2c4a464eU, 0xa1c93910d89702e0U, 0x3b04a1911a49593eU, 0x47fa3708ff012bf5U,
  0xf7263412f3eeba03U, 0x69dd4df17ec0daaU, 0xdfa01828f8fb69e2U, 0xab397fe0510227acU,
  0x4dfe10d3dbf5d724U, 0xd359223f1b125f15U, 0xb4400b370e2c47e9U, 0x90d1eff201fadb3U,
  0xd2cebef736420630U, 0xb82c9ffc234431e0U, 0x3041eb37197fabe8U, 0xf29104be50d12c7U,
  0x2f3fd4d7dcbc52b6U, 0xf8421e002e9e2be5U, 0xf30e22e00953bbcbU, 0x2aebd6400ef5e4fbU,
  0x39223a0e51a7c2b2U, 0xe14f908affad9cbU, 0xe9c3493f07ceba2eU, 0xfadfdebe38c4f7d4U,
  0x38eff40b812de335U, 0xc4b465c1a8abdfd7U, 0xe4dfeae8c4b7fee3U, 0xdc41905103dd745U,
  0xf3fd40e3342e9cf7U, 0xd41d110b06c7d151U, 0xd05efd1429c62413U, 0xce4c76247b238cdU,
  0xdce30a3aba0e0bfcU, 0x131038d90c26c72dU, 0x4c0f911143cc0b2U, 0xf60343cb08cbac0eU,
  0xefefe4f5f44a3517U, 0xeadae80edb0addc3U, 0x9dd0151dddb11324U, 0xf5ace5df0905fd2cU,
  0xf8e3f9f32c1b40c2U, 0xa83f0ee53b81bd34U, 0xafcc050423151907U, 0x520dcdb26f4cafbU,
  0xd20ee31ec73a1be0U, 0x2e9a48163ae4e9bdU, 0x28bfc3f5462bfab6U, 0xade1f6bbeae32c38U,
  0x37aeb0c3170c6327U, 0x2391094bc5d736b0U, 0x20ecf15a47010e37U, 0x254d57582a91a8d7U,
  0xc211a3d6257dc8bbU, 0x3f130ec32b45e301U, 0xd65dfe58124ad8c5U, 0xf3a417cf255b2b37U,
  0xfa1001b239a04901U, 0xed53062b29c1c381U, 0x5d1147d10c15aa26U, 0xb42735e3300ec2f0U,
  0x3fb1ad8effd4de0bU, 0x1e20122afccc2318U, 0xc0b4acead15ebd3fU, 0x1fbb20158bb81c19U,
  0x152803e2e6d71a48U, 0xfaf3122f173eebcdU, 0xb2d4ac26e4f5dfd7U, 0x10c30a3ee5cac6f8U,
  0xad5ab6a021e81b15U, 0xdced17063912c048U, 0xd0e3acf825d91f31U, 0x7fb9dd1e188138faU,
  0x31eb235a261c17edU, 0xf7252bfbe2d107efU, 0x32341c05f00bccd4U, 0xefeae234542cd6a5U,
  0xae2d11a2057ff3cU, 0xdd05a5c449fb09eeU, 0x2013ed5903ccaf64U, 0x435625f8014ddeffU,
  0xf4a6ee13f71700cbU, 0xebd3d6f9cee4bf2eU, 0x30d4bbedcdc542c2U, 0x37a22eb9d1c72909U,
  0x1602a935bcfc0221U, 0x4ce1c3cbd037f34cU, 0xc808c21de6c4eadeU, 0xfae82b0333e5cc3eU,
  0xd23dfed2d24fb2aU, 0x41485e44dfd35d19U, 0x17b93b8f29eab57fU, 0xfeef1fc5bff554c4U,
  0xadb46cde9059dceU, 0x96122bf7a42fdac9U, 0xfee01d411b9ecd48U, 0xdda74141241ae7d0U,
  0x16d021a2bf0614faU, 0x10bb16a105eee60eU, 0xa53608c2d00148ceU, 0x152425fa18e3f29cU,
  0xd713ee007f111001U, 0x7e9ffbfba4eee5dU, 0xdbea0b1ecc1bd7f4U, 0x15eb4c45482bfc00U,
  0x1ab0ea11c4f4ce39U, 0xd7f727b7ac3e28cdU, 0xbc4eeb170a46540dU, 0xb2e909e4df0850feU,
  0x4ef8083e575cd1d0U, 0xc5a654f826dcc028U, 0xe5e0324ac3c33b2fU, 0xcccc0840e7fea716U,
  0x3c9a71f6d582c48U, 0x453c24aa182153b7U, 0xdd3bf1c84ea93b38U, 0xe14d63d415d51700U,
  0xe3b3be0e42ccd536U, 0x3af2b825577f1ff6U, 0xda0f1b2d760168b9U, 0x2292effcc8402a29U,
  0xecf0f711cadacf51U, 0xfc8136f5f4e638fcU, 0x12e8cac7060e2c74U, 0xefd9b4f8301adc20U,
  0x48c6db7ed30d2bf4U, 0xd36c0fdcc03002f9U, 0x36eb110238f2567bU, 0x4db5a45ba8c8b936U,
  0x3df4eaae4ec504b9U, 0xeee8dc1bdec84c1aU, 0x5e65e4b8208a0a25U, 0xa5fc122c293411abU,
  0x7f14ee4716fa22e3U, 0x1a0d33c0b1c5d1c0U, 0x53edc9c909090e14U, 0xea1203ca265821f4U,
  0x52171bfdee143330U, 0x362f1fbcf1182b47U, 0x8363f73a4c05ef5U, 0xea30f31d0bc06256U,
  0x1922e73ff2ed0302U, 0x225800c7b4585b10U, 0x3ce3af10f250609U, 0xb22d8d0157fa35U,
  0x97ee3539dc2310d1U, 0xecd7af78951c9edaU, 0x45172c19a716c119U, 0x53d3e617c751e6baU,
  0x6152c4ed5502c518U, 0x3319710dca299f50U, 0xdff7a81ce4d60ccaU, 0xd400366abbf95d7fU,
  0xb61739242a55bbc0U, 0xc7f57408c49d1b03U, 0x7b1b59fb48c6eb0cU, 0xdc91fdd21da3f603U,
  0x2c0c31b6e630d4e2U, 0xd70cb0b3230f2bc1U, 0xb30c20b4214a4b78U, 0xd511e0fb2a3e2336U,
  0x23e5a53beab2ffdbU, 0xdcc7130a7ff50762U, 0x323d9dc17e7023dU, 0x464c34bc28f460b8U,
  0x343cb7d92bdb30baU, 0x2ff7daeb1bc8ed12U, 0x33922d59d1bd406U, 0x64c05d2ec02bfc22U,
  0xade612f345afced9U, 0xbcd4120023febe0cU, 0xe8e6283a8c3eca1cU, 0xe15d11c6dbea8130U,
  0x21d62a04414a6339U, 0xf81de8c7ffbee983U, 0x374400e669afd1bdU, 0xa6c2404d2adeedb6U,
  0xcdc458f30746a7cbU, 0x1b8a0d0b01eb55b7U, 0xdf03488f28e8ee75U, 0x47572ff7b2341bb5U,
  0xbae148ef2dd08b42U, 0x3dfb11313dcba9fbU, 0x39deb1c81cd5a59fU, 0x1eb43ecbfeabc32aU,
  0xd900dfbce839319eU, 0xb1bc4427f3a519a3U, 0x8100c47b521c1852U, 0xe916f4b0eeba32b0U,
  0x4eddd53b9423f3c2U, 0x40d70736c22de9f0U, 0xd91fa812e4320ee6U, 0x1d24bb473cff22a8U,
  0x5396e8bfcf1492ffU, 0xc4e449b4a10353b3U, 0x54e5e82dcb451905U, 0x392c81c5225457e8U,
  0xd5f3503e2a33cdd1U, 0x9bd1270fc3c11ff4U, 0x45dcca605fdebf2U, 0xd2f46b97914aff22U,
  0x316a72c706be09f6U, 0x4ac7d865bda32068U, 0xbeab42adb0f9ba2dU, 0xe0e54b34db3e6b3eU,
  0xd61bc134e8ec6513U, 0xb70c51d5a101e781U, 0x161d10cbb8cd4c2bU, 0x2972b013fa0f81abU,
  0xf3d1ff143f3c1ed2U, 0x1cb1bc0f3b1f0c16U, 0xd4c325e90102f5f0U, 0xd0de021825041164U,
  0x283cd4c3f236d9f9U, 0xf4cbccced03d2a40U, 0xd02ff7b3da0be0e3U, 0x49deb1d4105ffe47U,
  0xd5e834eed72eb3c8U, 0x40b8bad3e8742cd5U, 0x3dc0ca53b82b1df6U, 0xe3afa65214e04445U,
  0xf217172b448f0b69U, 0xaaf0d2e4dff6d9ceU, 0x1f5229fdbe422edeU, 0xd9e85541f2f34658U,
  0x14eefd544d7fb6c9U, 0xdfdc2a091307d509U, 0xece605e0fc50826U, 0x8e3f5c0d54d0558U,
  0xfe01f2e8fca2b5caU, 0xafdde528ffc02f19U, 0xb632c0ab6d0c81ddU, 0x3fc621d969e233d5U,
  0xf7ef1b877cb007fcU, 0x46155328291f79baU, 0xf3fe431bde1a16f6U, 0xbd181aa1493232bbU,
  0xe6558efc3777ad37U, 0xcf0918ef27e80decU, 0x2339e9b88afa35ebU, 0x419e30b42ecfe819U,
  0xf8d23831b8205bd0U, 0xc620e3385a29bb05U, 0xe83adb2ced44a704U, 0xbf1edb26f614db6aU,
  0xc4d1cda84d2728feU, 0x2008f6ef065507deU, 0xdaf2ba21c2ef5babU, 0xe22e426350342181U,
  0x95dc41136cd558d3U, 0x2b1ac6c4d7f522d9U, 0xb401e17e355ba99U, 0x8c9b3aa0f4c6d939U,
  0xc0d57f3a172f41b0U, 0xbae5ce0cf3bc120eU, 0x15cae11ba3f3b85bU, 0x1a0bc8aeb572c23eU,
  0xf158b264a2f3434U, 0xb7e26da45955aeeaU, 0x7c1e1aefa855c62bU, 0x1c3015fb55602b4eU,
  0xa30d4ca808e0611dU, 0xd117f9dc5f152238U, 0xdc1af3fc3b433d4fU, 0xee36fbd66b021a39U,
  0xbcde332f10d5cbf4U, 0xcb2545f9bfd6ceb6U, 0xe8f80c210b2c1e20U, 0xa105e4e1f11ff2edU,
  0xc8a63319dbf45753U, 0xe80517ece417f7fdU, 0x1c6f548d505d89eU, 0xc136213033e8d4e2U,
  0x3320d8b612fef903U, 0xb97f0042f5070dfeU, 0xe014ec2e2632c7c8U, 0x89e3813330c44aU,
  0xee0100b3ec19f0f8U, 0xc8738cc95df3b240U, 0x5dae6fe43bbac1bU, 0x320da23929d7a9d7U,
  0x303cc2f110d3da2bU, 0x432edb22e4d729edU, 0xdfcdba4043ecfaeeU, 0xb5175bf3392ef835U,
  0xe9e857ce01f529fbU, 0xdc563fd4180751ecU, 0xaef708f0c513e038U, 0xd12bfb11d103fdf2U,
  0xf8b9a8c8874a0f5eU, 0x2428ee1a381be2feU, 0xe6f82d1652cac2eaU, 0x2e510edf142423f9U,
  0xcdb7e0bb04f26006U, 0xc5b0cf9c896be0b8U, 0x9e34dd90cb7fbb5aU, 0x294625c2010ae5aeU,
  0xd9f1e3edc3d4009aU, 0xe2ccfa25d5b8b82aU, 0x6b1f3a31753ff811U, 0xfdc83734fc5c9b45U,
  0xe0e8f723ff40fadaU, 0x85f532aaf690fc28U, 0xead126fc4b2654U, 0x7e1030edcebdde7U,
  0xfb23811205cf3c10U, 0xbc2530f2dc276b47U, 0xeedad328d41a2a98U, 0xe0e3bdc0fddbe2d6U,
  0xfb6c9ed34590648U, 0x11abd6f2ec1ac89eU, 0x16fbd50053f516b9U, 0xba8138e239eaab18U,
  0x8a02f8bc740b35deU, 0xe6b616fb40da012bU, 0xf331259a5c0f1ee5U, 0x144ec870e4cdc520U,
  0xe8d4a235e0d7c122U, 0xa90a04f4ec06e229U, 0xc1b735401afdf023U, 0x27fada2c0e0efdd9U,
  0xda2a1ed22bf3dea3U, 0xe8db54da20e2c2e1U, 0x31c4b512ad15d518U, 0xe456a62b4c43d138U,
  0xe1e2333ee1a74fd3U, 0x43f9250fbff1f232U, 0x3129ddda301a8196U, 0x2fd4f7d9cb03d62bU,
  0xc725dc22d0241230U, 0x111641f5bceaff1eU, 0x3314f9983202b3eeU, 0xee22f72224cee11bU,
  0xf79b2f060b8d0ad4U, 0xb0bfec2d03355fecU, 0x2bea22441bda16bbU, 0x1eea16cfd71c1026U,
  0xc0df3138deed25f4U, 0xe7d164934150fc31U, 0x72322dffbab23ddU, 0xb214741f3e1145f3U,
  0xfc4b19de176b4fbeU, 0xf1472116cfd8e0e4U, 0xe03b32f083cc71bU, 0x408129f0db14ce02U,
  0x3ad7f83bb1cdb40dU, 0xfb212a1cea4ef0fdU, 0xe8dbb0c4eed8e4e8U, 0xdad433ca8ed235a9U,
  0x5192eb11d1cfaacU, 0x590a302bc1e01ec1U, 0x99e9d6ecfd99b143U, 0x6100e61ffd571916U,
  0x141d103f2d1612eeU, 0xd30ee94216d2fcb5U, 0x2a151009cee0a31cU, 0x35fea5c35f49272cU,
  0xb7eef2b625b23d1cU, 0xf4fc1c102f6a1416U, 0xe1e881071349262aU, 0xc4ab4c1bdf6e217U,
  0x8b5f32de3f39ca27U, 0x260e811c50f1ec20U, 0xf938c000f2351a3bU, 0xef04ba179f62d174U,
  0x5ae02ce2ae949c9aU, 0x31c8f7535008361aU, 0x15d0dce8a0d640d2U, 0x2c18b8d2d93afa61U,
  0xb46526dce0fdff32U, 0xdb3fd1f5e80ad15fU, 0xbca6bb720a568447U, 0xd7fa44076b2a8806U,
  0x1dc64720d9d8ff1eU, 0xe2af5bfc07023831U, 0xf80222dfe80ccc51U, 0x341c28d246ed05efU,
  0x21c8def9fb05e91fU, 0x1cffb31b43e4c6c3U, 0x1efdd4c012efe09U, 0x2beaf538540207b1U,
  0x9c13f3bcfce221b3U, 0xf02900f6d5b8c381U, 0xbf0621ee48ecbbafU, 0xa4efafdbd453020U,
  0xcfa8d187bf275bdcU, 0x182ebc00fbc80529U, 0x5b12e8521a6a283bU, 0xb4bf010b092a53d8U,
  0x160c2d7f32554c11U, 0xa837cf162b214eb7U, 0x6f1da764b4810329U, 0x49f5d916dccd50eaU,
  0x7c2bfb299d169636U, 0x404630123748b3fdU, 0xc7ffdf4f60a9d1f9U, 0x3bb23ef9d2641920U,
  0x1a2b73c5c7c8d808U, 0x5ec44751b5f2ccc9U, 0xfab41004053bceb5U, 0xbf6cfa5b312a36c0U,
  0x16a8c5bc0aac388dU, 0x29d8581de5e81a10U, 0xf35a0554587700e7U, 0xe139233afe01357U,
  0x9df8efc9bcaf7f28U, 0xdca5d915d87fc519U, 0xd51af202f9da171dU, 0xd0c61ef9d25fecc5U,
  0xcf410d08f23a0c35U, 0xee81564129623ddaU, 0xeb1cc8dd21fedf3cU, 0x26d2f82d2cebfff2U,
  0x1cea2be740ff45aaU, 0x55cf46632d4f14d8U, 0x36e8262317febecdU, 0xe29a52f0c47d90bU,
  0xee002913241d1928U, 0x448c83ee4d710f7U, 0x3824dc67df69fe10U, 0xa2214c4b350d26f1U,
  0x6d836f0a9862ceeU, 0x8cb9ce2a275c4a5bU, 0x2d22b616e37f140bU, 0xaf2f064cd1f2c158U,
  0xeff8a3e65aac3c69U, 0xca06d9d7f41d09e1U, 0xe34cb1d769ead7cdU, 0xb4ee344cbcddae2cU,
  0x5a724e55320c5d9fU, 0x3ab1b5ae46a3561bU, 0x321cc7b85847381fU, 0x9f0ab55d2c412eb6U,
  0x37ff1420fcda0bf2U, 0xc92ac6b4f907ff08U, 0xdb0be94e24ed4af0U, 0xf219d7e828d8262bU,
  0xb7e3b035091a5a1bU, 0xef2bf40efdc981d0U, 0x3bc53919b01aa142U, 0x5423164efa9c5c4bU,
  0xa0f4b3035dc0040U, 0xcf524807c42af1fbU, 0xc4b6b3543dc168d6U, 0xc6eb273435b4b1bfU,
  0x54be3d8cce3e3958U, 0x1423e23660273bf1U, 0xfa2b4049b8003881U, 0xd4220d055df56d40U,
  0xacf4b65352c6cc42U, 0xc7b5f747363f9f0dU, 0xac0341eeeecd0849U, 0xa9965d10f643a9d8U,
  0xe2bebd3feec5e05fU, 0xe5923d0147e2dc1cU, 0x30f7ce8c1b25d725U, 0x55360ee411a0d520U,
  0xa92363b8cec08b4dU, 0x7b9f81b60ecaee1U, 0xbbf141cfd7ecb646U, 0xd12dccfb3eef4a92U,
  0x335e09adbaefa794U, 0x3747f666f11e9ce1U, 0xdd3207cb1af0e348U, 0xc4cdeece5214c5e4U,
  0x287fb34bf512cdc1U, 0xbe0e05a919d7e433U, 0xe40cd887ccf994e5U, 0x82d6df5bd6cab9f1U,
  0x70daf22c56cd1250U, 0x128b3145390a0251U, 0xdcb930fad81d140aU, 0xaae1e2dc58ed3de4U,
  0x6d27a00902502981U, 0xe0f846f6d6385335U, 0x5eeb4df5c82f2534U, 0xe607ae2f10c94b4dU,
  0xf3c0ee5a00427116U, 0xf5344f1bd3076893U, 0xd9615026c2b8ebbaU, 0xfb2aeed820e3de31U,
  0xf41c7f00f1f4df47U, 0xd7c5b60e19fce768U, 0xb20d21080dcdfbe0U, 0xd88c2ce026d40d52U,
  0xffa8ea0e2c50ba1aU, 0xf7e98936f5d835d6U, 0x222b091bd432e8eaU, 0x3eeee50f0bee0152U,
  0xccfa3a424affda10U, 0x3ee8c04f0c1c13ebU, 0x97bbd40baff0dae2U, 0xfc57e70506382227U,
  0x6432db35201841f4U, 0x47a309bbf10dbd12U, 0x1320082eaaff1656U, 0xfacec5181335e50eU,
  0x39495709ce58c756U, 0xe8b5f2ed3381e7deU, 0x6d4ebc9c41a2f46U, 0xdb26dabbaee24c2cU,
  0x16cbf43207b3cb35U, 0x1410fe27150cf901U, 0xc9d10d37ce0bf21bU, 0xd0f40a58f6a5421cU,
  0xa01d8132b0cd5d5fU, 0xf3601ceeb809f727U, 0x12402cf5fde52fdbU, 0xc0d7573feacb51ecU,
  0x10d0f967fabc084eU, 0xf8cebd3c151d18c4U, 0xbed476f017c945dbU, 0xe60c293950e6392fU,
  0x40ec315ebd8dc5b4U, 0xf57e163e05f2f1b1U, 0xc5d4e05e135113deU, 0xd6dfbb49b83c3910U,
  0x7fefeae779d7a74fU, 0x515906e9f35dac35U, 0xe2baf272372a093bU, 0x29e28b33aefa15e7U,
  0xcfda61c6fe0834c1U, 0x21f9a62d169b23e0U, 0x7bcd24c4eade1aU, 0xd6bba1f3d1b97c19U,
  0x35a90631cfece4bfU, 0x8c053a2ee6f2f17U, 0xc8e27f9a36964399U, 0x1b6210f0b32de02U,
  0x2ff229bee36419e2U, 0xbd327100b9e23dcfU, 0xe3ef30ceba51ab00U, 0x332804ffc7cfb036U,
  0xdc8ceb812d1a0fc6U, 0xbfe4e527a6b4c9f5U, 0xd1e221d03c6a03f5U, 0xd8080ae21dff0126U,
  0xc08f00da22f63b39U, 0x285c10bfbcd7262dU, 0xe60216cfc735cdc7U, 0xaab39ac534b95cfcU,
  0xec1b57de2a1c2e39U, 0xba4b15236e17c2ffU, 0x3e170632081b8b1eU, 0x1bd6511e591a497aU,
  0x3d1ecd382d0a1e28U, 0x1f5f493b9be32d2bU, 0xdbc8135526b7c92fU, 0xfe09e80b4f0aeb33U,
  0xea6818664e7f1c05U, 0xc1eab1daa74640abU, 0x27c6e5cff4cd3bdeU, 0x9b0aee0816e1bfcfU,
  0x7cd0328ede720bfU, 0x2442ebe017c34544U, 0xd607b21efd50c10bU, 0x5ef0313cd12b581U,
  0x14f33f0a2adcd71eU, 0xe2de29b20c16d03eU, 0xecd3da07a13d560cU, 0x8e6d01718e94a26U,
  0x2c4fe364e1edd98dU, 0x21fc150638f564d8U, 0x15d65299e3ed4909U, 0xca0552effef33104U,
  0xaa66c3b6a339d18bU, 0x451d2c7a6bfbd10cU, 0xb0be65bf0818ebb4U, 0xe5e858d6171baafcU,
  0xea0b76b043dd5d3fU, 0x337f7441d435dc1bU, 0x9451840972551f8U, 0xe8010d8cbc13f194U,
  0xa6fbb6f2cb1ce620U, 0x5904492d52b650b7U, 0x14f51e59fe643951U, 0x14fd9157757641f0U,
  0xadb63e401015c4f9U, 0xb1afb80edbba34cdU, 0x75e049cccec8b64cU, 0xf2fafa73fae50ae8U,
  0x45eb3db5e8ccd2f2U, 0x1d5565b92b06c212U, 0x1deb94f6c4700269U, 0x7fb71b0313d1fe47U,
  0x65c81fca916b52dfU, 0x38bce5f6dad5e45cU, 0x8b25be11f950b149U, 0xdd88e8e250c59fc8U,
  0xbf1c93eddfdfbee4U, 0xae2c2a05b627b2e7U, 0x9b2c1ce2f9ffb85cU, 0xdbcff70651f41f38U,
  0xee2cbd25f9d7e530U, 0x6828f1e9f8ea0e08U, 0xbbbf179cd7a51a1dU, 0xed1c16f6fb43c6ebU,
  0x386cf0db24c6e44cU, 0xf10248b94a01feU, 0xbb24dc2c01be8101U, 0xaf02abfcfe28d0cdU,
  0x47db364fa4100749U, 0x8b0bdc4c3af2fc81U, 0x2bf931fadfd049d7U, 0xa72321e5f3f50d6cU,
  0x14f3ff720144b94U, 0x5ab86adc313f9dedU, 0x969c4f0fd814f3f2U, 0x691ed1fd3dd3efc5U,
  0xc972deb64147306eU, 0xb67be1e2f69a88bfU, 0xab2d5031c4999ab5U, 0xc93e0dc6b3033ffdU,
  0xc6e6c956bf092ef5U, 0xeebfc70a4909fa0cU, 0x336080628ecff0dU, 0xff37022ffc4dd6ecU,
  0x31edc8ff2002ae14U, 0x2d04dfe5121fdebcU, 0xf5ebbdd609c7de01U, 0xd4e5bed2f5001ffbU,
  0xf10541143fe30bdeU, 0xb08f393414307f20U, 0xe26330f1d4a11faU, 0xba63149f4652ace2U,
  0x6a4ff2062c498d02U, 0x70ac0e29ebb1eec6U, 0x2d28e8fb17d3cd20U, 0x4fca48e0266415e7U,
  0xc04123bc1b2601faU, 0xe364e1d701947348U, 0xe331e71acbe7113aU, 0x2ddb2d09c52a27d2U,
  0x642ce6c3654f861U, 0x91ad0581d1273bf5U, 0xed35b29f6d57fdfdU, 0x56f9b99cbb2cf4c8U,
  0x46ea32d617aa39c4U, 0xd619341c12f3ea83U, 0x24c6c90d32eb2b51U, 0xde164dbb00446400U,
  0xe717dd3eea2b1d34U, 0x6a534d305e33b28U, 0x8740243dedf73c36U, 0x40cbb3a481f5fa94U,
  0xd0f20020e31234edU, 0x1bf0cb1c0d501083U, 0xea061ddb3b086125U, 0x129205e121d8bfdfU,
  0xecf4ac1363e35711U, 0x410d7bfb123e2b6U, 0xadcb5d3862b2213eU, 0x4b0fd7129fcc8120U,
  0xf2f5430bf8e34626U, 0x2bad10e72d00cbdeU, 0x72a461d350caa28U, 0xcaafe8e6051b2637U,
  0x3644d60ac42fe40eU, 0x84f2e004133f1acU, 0x3ee5eb1c2110ce40U, 0x3c18f5ddf4ffce1dU,
  0xc6cc723908e43139U, 0xc6d9cadf6aef283fU, 0x1844b5e437f0379eU, 0x9ced25293f2bb6bcU,
  0xc1c1220cda7f4156U, 0x1b2422dde4aebd2eU, 0xd71d405969c06cc3U, 0x3d2ef1f6b830469dU,
  0xdcda2d1212cddb06U, 0x1e20da2cec21a728U, 0x9d2bf463e1adb740U, 0xed9c0649a4b5d9b6U,
  0xfb12efe137e1340bU, 0x171b1decd11f3822U, 0x37054a5b38c59912U, 0xe55f19f7c0d3e41fU,
  0xcf69a427ca17d241U, 0x33dd2b4cfc35ddaaU, 0xb579d1bcf0b006d9U, 0xc5e2ce1c9b082acfU,
  0x44e7621de9d72213U, 0xbf4e4052b5e204b9U, 0x24cd81480913260eU, 0x8ed7f7e5f7db5d3cU,
  0x13e904e70523dc24U, 0x15f211121e02081cU, 0x5a14afdb1ae01038U, 0xc6f7050303e27f07U,
  0x1713d14035d7f518U, 0xe8d33d1f3619bf07U, 0x2bd4ebebebfb1e21U, 0xdaa9f44423df1a13U,
  0x6d7e20605b5f5d9U, 0x2fc847e931e437d6U, 0xb50cfeeae613f645U, 0x12f13ba71d08e4d4U,
  0xeb4de931ec3ac432U, 0xc606dfecaa0245f2U, 0xc1dd2d0602d84f2bU, 0x19f7dbe6fff881b5U,
  0xdb024b476deecf4cU, 0x8d0c18201eeafe2dU, 0x123e823f515e528U, 0x23c7d6f6f4035209U,
  0x542af5c4d7e9145eU, 0x67241feb55e051eU, 0xe10ca803f226b72cU, 0xd41348420cf3e1c9U,
  0x544e8fd88127070eU, 0x104d31d0fef11512U, 0xe07f44c35eb3694U, 0xaf53173e3a05ea0cU,
  0x3c0a4327e91eb904U, 0x3cdd6d0d7e52b15U, 0x5fdee20292d3bfe7U, 0xd022a233e7d723cbU,
  0xdf585c359a6a72dU, 0xe74edb341cf24658U, 0x2833f223055d04d7U, 0x5e9dcca39d9f30fU,
  0xc3d30bce04cf24e4U, 0xf10e0d2d43e2a4d2U, 0xe022cadff426ea11U, 0x48251429160ff249U,
  0xc1321d5f1b35df00U, 0xff3df50406052308U, 0xf2ce08d52cff14cbU, 0x6fbfde4db39e4e3U,
  0x8dc66f0e6d40ebbU, 0xf33106ffecd8f209U, 0xec5fe7f22c73dfaU, 0xf30713ed340cc5U,
  0x1aff44ec21fef94dU, 0x1dcd04f6e40116d2U, 0x7fddfbfe3bea24e5U, 0x2cc2f3efe20522U,
  0xf824ebf0cf19ff09U, 0xadd0e10ef2d229e6U, 0x26f60df70af20923U, 0x20d629eb1ef83207U,
  0xf11adaff2d2a2f32U, 0xddfb1125ce19fd17U, 0xe9f5ecf631be0af2U, 0x1eb0fc03fb0a16e2U,
  0x160e7fd61228fe09U, 0x4ad8230ed0dfe7cfU, 0xfb0a1a19fc11cb0dU, 0xf193722db023d2dU,
  0x3c2100f026f4adbbU, 0xcddde3e226ce2e2fU, 0x1751c210e4d523fcU, 0xfddedf19cc17a4dcU,
  0xa625e290e5020b34U, 0x21ffff23d522f204U, 0xca0cf72873ba073eU, 0x18efcf2219ca0e0cU,
  0xe3fd275b3805d93eU, 0xe76e41de1c06dfb5U, 0xf1fc110dfcf511f9U, 0x9f81fc9c3f6f2e4U,
  0xe618fdb9311523d8U, 0x932c7fa3a76f63fU, 0xce27ee0e0778eb07U, 0x3a8154cbb5c3f369U,
  0x1373a7d8eef74b90U, 0x13e1daff2d19aac2U, 0xf103a9091aba41d5U, 0xf4e8cfe4d31fc6f1U,
  0x22ae33f1035e1d7U, 0x14ddedef00c9ead8U, 0xd90f4fdad4111c2bU, 0x140513f427a24920U,
  0x90acb0c03048111U, 0x2a3d18c9a453f20fU, 0x213c17d31326f61bU, 0x20c935ddb9267223U,
  0x2421d420fb371bbbU, 0xf0aae5b00c56572eU, 0x532df4db032d32d8U, 0xb7f70a1de5ea0effU,
  0xfde2d825fd0be4efU, 0x1acc2bfc0fef011eU, 0xef02fa04fdfb21f7U, 0xf1a1501e1e021f3U,
  0x81017bf1dda1811U, 0xdb39bf27d60d100cU, 0x419f5224741cc12U, 0xddfd22d9e2eb1922U,
  0x19e80d2b7f161d0fU, 0xdef90d0842242ceaU, 0x2f2d7e9c620172fU, 0xf1deea34fc2ff3f0U,
  0x1aeeda0b9615323cU, 0xf503f4dde5ff10e8U, 0x25e6ff1219162514U, 0x2ee322f10ff40a40U,
  0xafc0c112ff8e2f4U, 0x2e3f4c319f7e20dU, 0x26f9e1f822130305U, 0xf181040836e615feU,
  0x4012f0cad8c3d7e2U, 0xa40afcde3a36f037U, 0xdcfce537e4d9edc6U, 0xf1e016fde7010adcU,
  0x29bf05fa0932ba14U, 0xa13151f3b3181816U, 0xf1172d3e11f138c0U, 0x603f81d1e18080fU,
  0xdb17ee7f162f3739U, 0x40619d51d91f9f5U, 0x1eccc6f11cef0407U, 0x20e125010f20cc20U,
  0x11181fefffc75e43U, 0x4a6cf52bd8050b01U, 0xf6c53ae53f0abf07U, 0xf5df7ff02a280ad2U,
  0x1c26f1d2ea05ee05U, 0xe7d51bf5e1e8c0dbU, 0xb6e1ec45d5ecc2c7U, 0x1509a0e7ca12f9d1U,
  0x1cf2fd04c8063411U, 0xa1b112d60ada03a2U, 0xf201f335f88fd80cU, 0x183746934a29df0bU,
  0xecb4d31b2fdc1a63U, 0x1b21ebdbb01cf640U, 0x3dd480a1a07fe1aU, 0x26681049fb0f090eU,
  0xe4480ce30450475aU, 0x14dad5f74e3ddb5aU, 0x39344a0b3a1b52d2U, 0x12e1f1c45ad7113dU,
  0x1502cedd492481daU, 0x5c931b32c72222c7U, 0xf5f7d5da08143ee1U, 0xf5e557d1a7c539f0U,
  0xcb27eb4eb321f035U, 0x7dad4c0d744e1a9U, 0xf4d603bb01e0e645U, 0xee34e0cfa26a30bU,
  0xcb0ee25e18cae927U, 0x1ba304f5432028c3U, 0x1dfb473cdbdd03e4U, 0xf1ffd922b0c08e3aU,
  0xf9565081f81004d3U, 0x3801161b69bfe709U, 0xa63b005bd6f8d7ecU, 0xe00f13a30dee0de2U,
  0xdaf5c70ecf21c8e1U, 0x3b13d02321406804U, 0x205e21e09d1ebedU, 0xd8c4f9d00b29f786U,
  0xa7583c372ce0c715U, 0xdc2db333d2574767U, 0x32d91b430e0e32cbU, 0xf5152509f3148f02U,
  0xf1cbb8b62ceec6bfU, 0x14141fea363947f5U, 0x13022ac9f9db02feU, 0x365d06e816f71af6U,
  0x21c4b80009b6121bU, 0xdb1c4823b6121ae9U, 0xe00b0c6b1d81ee60U, 0x30c305d45fc16a9U,
  0x4710e6ab23ee330dU, 0xe1bbfef5d042f64cU, 0x26f22ded02e30923U, 0xadf00abc19f73f0bU,
  0xd172d1ff9bc3ff9U, 0xd611c9810e12ddU, 0x8fd11f71615f11cU, 0xe9b576b9e5debf39U,
  0xa5fd461f1abe112fU, 0x1141246144efad13U, 0xd7fce6c8d5d8f70cU, 0x2eec001b100ddcaeU,
  0x7f20acddefa3911U, 0xd5f41cf3b00d342fU, 0x3421dfc9c72ecff3U, 0xf4a706ed27f33736U,
  0x3811482a1efb3005U, 0x4fa2ce0fbdd6f7d3U, 0x9e30cb961e4d8eeU, 0x7fe9e6cbc1370ef5U,
  0xee31e8cc4f123822U, 0xf7c5ec410ff2c446U, 0x23161ce7facbc1fdU, 0x2a1ef1e9f329ae17U,
  0xd53dde357febcf50U, 0x17e033140cf33de2U, 0x48e9debc21f4133cU, 0xef39e214d7df1c9dU,
  0xfb3b324adf0a9aa6U, 0xf1d2fb57241ad407U, 0xd82c16d2d61d30ddU, 0xf13e8ee38e957b9U,
  0x11f507a9c91af014U, 0x25d4d7452bfee90fU, 0xb1f50ce1d60d1d26U, 0x49fe00fc15e32b2bU,
  0x60dddfecd7b8191eU, 0x2d4d0bd75847e5dbU, 0x4b17aa0f1217a8d8U, 0x1c01021458c7213dU,
  0xc2d4c526e5ec4ffeU, 0xec2f5f01e60cfe4dU, 0xe2d05513c6d525f9U, 0xc41b477f5f1124bdU,
  0x5f0cf140f6f00714U, 0xe3f933e9eeab17adU, 0xf24f1e4dd2c91ff4U, 0xf344b92f221817d4U,
  0xb40501ff83c40627U, 0xe30c060fc9fa1267U, 0xcbce1ac702de0cfaU, 0xf3d15207fa6c2fe9U,
  0xce294d2b000237feU, 0xf43f14e801ee07faU, 0xb4f1092fe54d1529U, 0xe481061a24e81aa5U,
  0x2440095f0749fd0aU, 0xc3c5b60c0c0559dbU, 0x3b4e7f8f9c21bb0U, 0x964ca1a9edf4fd8bU,
  0xb82abc5722a2b1dbU, 0x97eae5f1435de070U, 0xc946d2ef9ba1fea5U, 0x250cd81cc63ae97fU,
  0xd271bb30b8e34daU, 0x11e219ed5814fcf7U, 0xd04b10f0facfcd0dU, 0xa522513f9afdc46U,
  0x41f8f814e60135edU, 0x2ea39efe1435fa3cU, 0xf4bae50151aad9c8U, 0xa71cc39eb756b769U,
  0x1de2c72636474039U, 0x61f92c04902c7941U, 0xd201f7dbe60f07cdU, 0x28fe1beabbee1081U,
  0x1fed4c986ce79b1eU, 0x1104e8e05df42cd3U, 0x59561327ce0b0a14U, 0x12bbd309e84ec7deU,
  0x105ecb189211eed6U, 0x1796e0332b0959d8U, 0xdad8c333d3a5ffd8U, 0x3bcd12fb1bdce5fdU,
  0x28030331fb0e1302U, 0xc418f416a008c910U, 0xb24005cadbd83e3fU, 0xfa57fce91a282581U,
  0xf3040a6b19dad4bcU, 0xfee8e114c80eefcdU, 0xc2bbf621ecdbd929U, 0xfe171ad54f225ad7U,
  0xf10615f5ff1848cfU, 0xd22d1ad7fa01220eU, 0x2600365ecae6bb33U, 0x4b2c3bf0e0cef1fcU,
  0x2c60dd3aff46171aU, 0x133ac4eedc1858c3U, 0x447f291b2932cdf7U, 0x21f25ed946018fccU,
  0x53bdeed8ca30cb00U, 0x19eaf0fb08242b2eU, 0x5706dd12c07efc6U, 0xbc3ce0eefc14bffdU,
  0xdd2bb5a2c9fedc69U, 0xe8aa575208b4163bU, 0x4ae3c33ca1f142cU, 0x1cb5e8e4daf71de4U,
  0xa07f9fef6ce23b4U, 0x528ed8251cfe0c48U, 0xde4725f49d1a2465U, 0xfc2af13bfdb1567bU,
  0xc1e0977cf822eeeaU, 0xd9e11a0b272d1ed3U, 0x4c11f059ee87cbf7U, 0x35fbf1f7a1be2d9eU,
  0x177fcee6bb3a3a41U, 0x69ffcdbdc449004aU, 0x3fe952ca0bfff511U, 0x1d492e4227b4cb23U,
  0xec0fa59eb12e60eU, 0x1061f4df00e82807U, 0xf1f0221efddd1e07U, 0xf4e0f019f2ff04e3U,
  0x6061236e437fbebU, 0xf22738131b0ffae6U, 0x1edfe132f2832e8U, 0xdbb901d219ec5fd9U,
  0x9f11ff87ffc33c0U, 0x6fcc2cbf72019abU, 0xde007f9e9d81bc0U, 0x514c3aceedf42249U,
  0xef0d46f630409030U, 0x2b46e914a7269934U, 0xdcf8babe32c32e2aU, 0xf008b0ded4394fbcU,
  0x8d21127f42f71968U, 0x8d0f0fd4182ff2b6U, 0xd007c65bd4b1f7feU, 0x4fc11ac23eac50adU,
  0xe4d9a931fee949bdU, 0x96cf592011cd10f6U, 0x204e02bfef1ff5eeU, 0xb02eebb014e3988cU,
  0xe12f1a0bc3d647deU, 0xcc4b0061ac3c1352U, 0xbc35d01e4ac040ebU, 0xc72746cf29d4efdfU,
  0xfef0504ed710bfc5U, 0xe35b17553f00ae3dU, 0xe5e0b8081d88aecaU, 0xddb8bda648b77ad1U,
  0xf9dd1f60cddab855U, 0x9b4d030ee22a3de5U, 0x27a581e302e0d4cbU, 0x48fbcf1530aeb910U,
  0x35e802e0ed01d40eU, 0x2c0f2231159c24efU, 0x16280f182dc74812U, 0x1c0ce7ffc41fc4e9U,
  0xf9e658e1fe1796d4U, 0xf13330f0300dfccdU, 0x254bd6f5306419ebU, 0xed495a39e917bceaU,
  0x115554dc07beef7fU, 0xcefcea3f263960e4U, 0xf9e11eeb33f7e930U, 0xe0f1f9d7f42006b9U,
  0x3fe5b0c34bc13803U, 0xe99f39f2ccbc1645U, 0xfdd715caed0414bbU, 0x2031140cdcc02e0dU,
  0x19aeabe802f7cecdU, 0x43dbcdf867e70e43U, 0xe95ad266e9fcc54fU, 0xd6a52314e01ec32eU,
  0xfffbb4ae5900d849U, 0x308101cfeb721b3aU, 0x22e45734f2a4f32eU, 0xa0f710d2d9b82ee1U,
  0x93fc08e01131ded8U, 0xc0e0371c421fed17U, 0xaac313e8ebdd21ebU, 0xe6f5d9edf9f4fb27U,
  0xeb1df7b4a7a524e8U, 0xe0d108bce61bd502U, 0x3fbb1914eae0fbe7U, 0xf75c0fff3d0647b6U,
  0x13c8bb52131b0f03U, 0xe3520aeae7fb412bU, 0xcf2548b42d81d899U, 0x2e96c0709e1ed38U,
  0xa0abcd135370f2aU, 0xd9f5fcfc2936040eU, 0xce0a024f12e405ecU, 0x1e0b00df43ccc0f4U,
  0x31372f4be2103c1cU, 0xeea0035f528b4dbU, 0x1ef53a0db4021de7U, 0x1035bf1c09107f23U,
  0xddafe6fe51b61c02U, 0xd311444d9f02b5c9U, 0xd8194e25fd35e3feU, 0x2ec4f25804fb020cU,
  0xead3ebf52b0f7fa8U, 0xeb9cd8f8b1a9c1d9U, 0xb2da17c308c7a956U, 0xc92930b1f3cdc00dU,
  0xd6ea3b00ece93e3bU, 0xe3062bebbc4c2df9U, 0xfdb821d10b04c911U, 0xd3c7a3bb4d6cc40U,
  0x606000d5eeaaaf0U, 0x8092e003aab1e5dU, 0xe220486f4ad9c2fbU, 0x7f1a081719fe22daU,
  0xe2ebb72719e3ee01U, 0xdcf13902e5e00f02U, 0x1225d807151f32fbU, 0xf81f1d021533d4f1U,
  0xeadb32c325105c02U, 0xee2c0d08efd93319U, 0x141afe0fd6460e0eU, 0xf42528c0bc0bf7e3U,
  0xf40103ee1aeffacfU, 0x2810b801f02d1b1eU, 0xa1bf614f0ebe8e5U, 0xe8c83060f21c2efdU,
  0xe70bb8d4c607281fU, 0x1b1c40b86f022edbU, 0x4eeb02d336bae4b8U, 0x2406f916a246b10dU,
  0x1dd338a5f37d64e8U, 0x521b9ca25ccf9f5U, 0xf4c0700362c0dcbU, 0xf7354c1ccef7d3daU,
  0x7f1610ffee06bb0dU, 0x67ee15df04e510e9U, 0x2417bab316c8e18eU, 0x81d9fabee95ae6abU,
  0xc71423a71fd30f34U, 0xc501fffb1afb0019U, 0xa7ddf09ba1160aa4U, 0xe24dec030af219f8U,
  0x3128f6ec0ab2e425U, 0xe4f2e433180423d2U, 0xee16f934dff7df1cU, 0xbde265d1aaf6e0eU,
  0x1dbf22ed50ec00a7U, 0x26a2eb0be7f2e4e4U, 0x391120f9e1423da9U, 0xe4f19da501d6e844U,
  0xc8d8e41ada532b27U, 0x22f5cb06fde736d0U, 0x10c1a14f52914afU, 0x8d3f9dd074b79f5U,
  0xc300a2598103e9daU, 0x3e8050a04ea06acU, 0xd18e1e05edb9c9a7U, 0x1b19cfdbcfffd9e7U,
  0xc519b5d13df4c504U, 0x3c2cf60ddfcf22e2U, 0x229d7b25c809d6eaU, 0xb8b25b29ddcdf40dU,
  0xc92a2b566d53cd0aU, 0xd61208e6380c38d5U, 0xd522e844d7e0de7cU, 0xf2b6e5c7fac0d1dcU,
  0xf943320a4170bd0fU, 0x2bf8f5f9eeeee9c7U, 0xe7130df6cb213802U, 0xf2274ce319f9ec36U,
  0x9481f6dfc8cc3aceU, 0x55fbfd244a02d527U, 0xa831befecb1e30d8U, 0xe53bcf0b4338fd25U,
  0xce0a2e05333cc238U, 0x3b3adae3ea0af308U, 0x5fbf68d9dce1f2dcU, 0xd9d008c3f7f53406U,
  0x33f20013fae0d238U, 0x30d2f2b3e910e6bdU, 0xff3ae0dfe7ff337fU, 0x1d8b273ea2219a3dU,
  0x59021e05e62deac6U, 0x2606d4f908f90814U, 0x1e35e72037a010f4U, 0xedc7b35a1222e724U,
  0xb8ef1fefbe09eb02U, 0xd3b07040ae435a4U, 0x4ccb0ad92622ebd8U, 0x2a04f2411dbdc6ecU,
  0x4a300b05eb2cf4f8U, 0xf7ff45c70ed418eaU, 0x1565ce070c04d610U, 0x43114e1ac722e655U,
  0x7f26ce0e0e17bf36U, 0xc02b310e22c9fd14U, 0x1c07d8f3acea03faU, 0xd4fd06f5f8201edfU,
  0xc4f9103ae015e108U, 0xe2d5cdbb14f72fc3U, 0xff0e214e09c6e4f6U, 0xf6224100d1673d1dU,
  0x6c4441dbce256e0U, 0x190c10007f2211cbU, 0xff8f3cf0d873f3e8U, 0xd552a41a1ffb0ef2U,
  0x29c1bc4431fef7e5U, 0x103c1b16dcdee2bfU, 0x23cfe99e2fd9cac6U, 0x211ce0e8effbf241U,
  0xedc210ec2023cff2U, 0xdeda28097f2f0230U, 0xe22ff440505c4eaU, 0x9ff134f0e03ac9aeU,
  0xede123dd1c0168f0U, 0xdb1bcd02f2e0ec44U, 0xfed458fcd5d5eb00U, 0x4132f4e92e050503U,
  0xd7e0e4d012ca39e6U, 0x72a2525da06f0U, 0xdaf922dddfc4f7bcU, 0x2881e9b6f92216bfU,
  0x3705e41851fd42deU, 0xd0305f111bf8d2caU, 0x9e1b08bd23f41261U, 0x2a11e9ed1038f4dfU,
  0x6c35565385d5618U, 0x37ef271ffe241909U, 0x73af10d47180424U, 0x20c6019e3552bf0bU,
  0xb2e51abfede51e0dU, 0x3016f1e345c20208U, 0x131b0f2ddd4bd3c2U, 0xa8fef9020fecf2c9U,
  0xcd0744160abe11eeU, 0x339a01e02d3325ddU, 0xc6da81a6d689f5faU, 0xd8cbff11bbe51371U,
  0x1adc5f1f68ff11e6U, 0xe2d62beae817fdc1U, 0x4100f9f04652e932U, 0x2396fefbdbddbf53U,
  0x20094305f617e2f0U, 0xdee5f6fe54f4acfbU, 0xe7c41bb830052cf7U, 0xf50acbfdde40f01dU,
  0x19d6e2fc36fb0d15U, 0x150404d9e01e4bU, 0x2f0db5c0180841efU, 0xa30b19e4aab70ab7U,
  0xfcf5294b00f9b921U, 0xf04de5fed4252c2fU, 0xb908f1f11ce3ff06U, 0xcc81fd09d0fc1afbU,
  0x36f9e4fc3bcc5e25U, 0xa4fed602d1131c0bU, 0xc200fed702f20740U, 0xb01ed7020034f51fU,
  0x1e0ee0c10bf916fdU, 0x25f2e105cb2df513U, 0x50cc6011d09fcbfU, 0x9e900dbf0ebec1eU,
  0x3bf531e461e6f3e3U, 0xcf1bc8004139014cU, 0xfc1a0b0ac0cd0cf2U, 0xfa291c45f0dc81faU,
  0xdd241edef502aee5U, 0xffeee9f043b9ef23U, 0x1d13aa23ef28efe5U, 0x10e32ed0fefbf64eU,
  0xf0e3fe42ebec2defU, 0xe63af8021827e2d3U, 0xdf13e5b10803ea14U, 0x280a23da551345ffU,
  0xa2c30251300a0df6U, 0x260b2ac5ef494bffU, 0xcd2afe3e17e4580fU, 0x14960ddfcff77f09U,
  0x232eeaf1a367fa00U, 0x195cdcbb1fd5ee0eU, 0x4022d4fbcc3029ccU, 0x942de6141156190fU,
  0xed27c13c3ad3e602U, 0x4b08812c753cc839U, 0xf858c6afd8e40940U, 0xfde363f75b450562U,
  0x211c65b834d55b01U, 0x50f7e8284f050d1bU, 0xf701d023f02d2dedU, 0xb8f59cf1ababe0deU,
  0x203e0b1b90cba89dU, 0x6d7f52bdc10de12U, 0x2fa1284f825921c5U, 0xebbae5e6b69ae425U,
  0x300af6caebeac349U, 0xe7c41214022c201eU, 0x74f4f11dc9fb0655U, 0xf3d3ffd4feaf460fU,
  0xf92a9cecf8bc02b5U, 0xdccd3006b7e7041bU, 0x3ae2cfd3cf54239U, 0x8c9f83f42ec072eU,
  0xb1c8fac1c7e4541fU, 0x3ae2e5fec5bdbcc4U, 0x9fcc913d63d390bU, 0xacf91e33bc30087fU,
  0x1c12fbf807260b06U, 0xfcdaf921f4fa14b7U, 0x1a5f14f4eff8de4bU, 0xcfff2809cb1ec9e7U,
  0xfd1b372bf9264946U, 0x22ebfad5fec1fee9U, 0xfae2fb463c7f3c02U, 0x2f96d9adffc4dee9U,
  0xdee940133eeb07ddU, 0x52cddd232534f8ccU, 0xe9d7e3c5b134e011U, 0x90ceb4181c4a1be9U,
  0x1dd7a3379d03fee6U, 0xd71904e9e1d8221bU, 0xd5355315f4f9570aU, 0x52c1ecbd63a62dd3U,
  0x3f3912082ca7f4f5U, 0x11e8dd1c49452a14U, 0xa3921a60e9efdecdU, 0x1f2dba7f1244b839U,
  0x564aa61bf6f0d9c3U, 0xf900e935c1b2f9fbU, 0xb8dc991012bee13fU, 0x5919d40006bf0942U,
  0xe2ceb31dcd1b3eaU, 0x426562e3c821badfU, 0xba17e0b9ea2fb702U, 0xb62613f1b4fd033fU,
  0xc49203194dd5dbbdU, 0xb3b545f944f32516U, 0xcc39021e2e329981U, 0x95ce7bb3e0064a53U,
  0x728cbc718deda8dU, 0xe964463f1b129433U, 0xc5d211f876c4f60cU, 0x12c8242bf5e8cac0U,
  0xd01de16eabde0c9U, 0x20f7173132230ec3U, 0xebeabbf621f9f202U, 0x27100513f124d841U,
  0xc8db0b260de500U, 0xc32602d1f1c8234cU, 0x1adb277fe6e3b9e0U, 0xf734db2001018ebbU,
  0xa0717fbefdadaffU, 0x3cce04d352a99dfaU, 0xfc09c9c0090c0e2dU, 0xf6c11ef6d20f24e6U,
  0xf22fda1dfc15f6feU, 0xc5565fda3c07f423U, 0x121df288f5ff2081U, 0x1db6ee1d5dfdf6f4U,
  0xc9f3312aa2df3f07U, 0xc8a605d2ead1fa25U, 0xede91827f204083fU, 0x2421c23b2deeedf1U,
  0x3a0a38fdb9f0eb02U, 0x52ee7ae33043100U, 0x1a043ff5d2fb14edU, 0x5166fb20dc30f7d7U,
  0xe517f3f231153b28U, 0x41f7d2d43de60cf6U, 0xaafb111381f4a75eU, 0x212d060601fccc2dU,
  0xe7edf223fe64c2d1U, 0xbb2a9a211034e0ecU, 0xd010e3caf032efddU, 0xf4fe22e18f31fcf2U,
  0xe6152e42db0dd49cU, 0xc9a90019076bc4b8U, 0x22f424ce25a10d29U, 0x2a1530e8f02a39c5U,
  0x81f846fdd9d1e62cU, 0xd12502e14313f320U, 0xf61c03e9a8fb1ac7U, 0x8e01704d5f24b4fU,
  0x25fa1218ebb7f815U, 0xf3fad5e0ee17dbebU, 0x36e712e72138ef25U, 0x48c84b2bf0fc000cU,
  0xf20341a33e7ef2fU, 0xd2f032e902f59bf3U, 0x30e325e457b5261dU, 0x42f69bd0e020c24U,
  0xf7f1fbfcc0e71700U, 0x41fcf2d2e2151a34U, 0x930dff5edc7bc17U, 0xfce4c4cede42390cU,
  0x3ef00bdbf6e30fffU, 0x14b000f48ff90b07U, 0x5aa1c153aa63234U, 0x2f3cf7e6db32019bU,
  0x101f225d8f1307fU, 0x27173720daf74ae1U, 0xcda9361d32ffd73dU, 0xf711472cf1ec2ffdU,
  0xc6c4f01fcad2c235U, 0x90d1ff908ec1904U, 0xdcf8d7b837ee1d2fU, 0xbe0bca20b6fc281eU,
  0xef1deb7f292baddbU, 0xe470d61df0f91658U, 0xe54111fab22b2eecU, 0x91664e8f6a6c6f9U,
  0xfe03f2c3f2e70df3U, 0xc9fde1ef590ac7e0U, 0xa5322afedef80eaeU, 0xb407976616ef0a0cU,
  0x5a02f53bf9169edcU, 0xf3054e1701fcf3faU, 0x5fe5063e3edf60b7U, 0xd3d959f61e2015efU,
  0xed0dbae5f1ad15baU, 0xef0d01074908eb1fU, 0x915f8e6ef3d1421U, 0xf5264c04ced2ef06U,
  0x1016e10a14f90525U, 0x713bae57fbf21b3U, 0x162ebf2aeae6e9cfU, 0xbed6d4512622d3e4U,
  0x50f5d1f4d8fc1317U, 0xf4ebe1f146383c7fU, 0xf7151b0b190307c5U, 0xcaf048f80ff2cf4cU,
  0x3df7e7bbffc71adaU, 0x10df0fe7d7fa0436U, 0x941bef2afffee006U, 0x20e72242dfd6bcd2U,
  0x19fd1d16da18e40aU, 0x19fdfaec2e0af6fdU, 0xe21eb031bba40f0U, 0xd1013f03f5f60edeU,
  0x46f9d732f0efe815U, 0x21f1c9b51d2b11dfU, 0x9e301f61abd2aU, 0x51410407280608e8U,
  0xc4f5dad0d1d4b7eeU, 0xf2c9faa3e329270eU, 0x1002f92b0cee3cf6U, 0xe8451beb25e181a7U,
  0x81d14e7c20d9d2eU, 0x575fdff6defb0ed5U, 0x300009f34abee80dU, 0xf0df1967cb28f815U,
  0x433bf835a9fec9d3U, 0xbd2425055d03f5d5U, 0x6d12a14f3d03d53U, 0x663ffe17a656fdf2U,
  0xe236dbe9df8f5eceU, 0xc646610b933f4348U, 0x69f1000726c0dec4U, 0x42b6dd5475de41afU,
  0x6fd2bab31fc4d423U, 0xce4c05280ac6ecd5U, 0x9fff1f7f54bfc6fdU, 0xeaebf203f9e1f4e0U,
  0xe8d6eddcd411e2eeU, 0x1513b9f331e7282eU, 0xba1ad9c4e114d0c3U, 0x1a031ddb0ee1ff78U,
  0xfde91f07e7fd25f3U, 0xc37f4e855f31ee9U, 0x29270bf2e95b20eaU, 0xd41ddc2ad1bc81f9U,
  0xdffd3921cd0ecc0eU, 0xbe2b71d6b06edf9U, 0xf12b2f807c02afcU, 0x23eafeba06361cf8U,
  0x4a03d442d9372be1U, 0x9832f50f1149ebbeU, 0xfc00eac2de16440cU, 0xdede2113fe5b4923U,
  0xe2271142810a5915U, 0xeb9f25f38ad0ef4fU, 0xadb61947439cd0f7U, 0x3eac260112216842U,
  0x3ee7309262cc243aU, 0x11373e46f1c0e839U, 0xebcf68acb45928ddU, 0xdc69e25bb7f23f2fU,
  0x6d9d02d0fe554f5U, 0xee05ac13e21ebe2eU, 0x29f304cf1008f6eeU, 0xd30828eba521ce5eU,
  0xe9b919eb20e010b4U, 0x2292ee6a3219f0deU, 0xde28c8d4a6da3232U, 0xf9e304d10cc61395U,
  0xf09f269f2bfe2298U, 0xd0b7aed1101dd047U, 0xecedee067f0604fbU, 0x3822fa8f75f2dabU,
  0x4e2e24bff110bU, 0x16adf7eda12fee1bU, 0xe9ebe0aa12df151bU, 0xfc2f8ef07c5d4U,
  0xe5fef10e19eec0e4U, 0xe814061ab5f1002bU, 0x3781f9172dd30f42U, 0xdbc14b02334517bbU,
  0xebf7dafe07382df2U, 0x610e0edbd71cec20U, 0x6f8ec0432f21c17U, 0xb30b0c3f103cb1bU,
  0xfbe026e126edfbc5U, 0xeb15f5f1620ed9c7U, 0x1bdb013738d5f628U, 0xdd1135f80ef2e33eU,
  0xe2fc00c89fc8ff16U, 0xb0581ced0817c208U, 0x25da0bcc085529eeU, 0x4df930199cf170f2U,
  0xfa5ceb3ad3dc4c81U, 0xe647e324f114eeefU, 0x3f45db7542c62711U, 0xac0c12ba06370ae4U,
  0x4f09a6c4e0f11ef3U, 0x1ff6ebf909010e79U, 0xdff1c7b2f2f4ecf2U, 0xc1dd0edf5b15007fU,
  0xe8446308c23fdc37U, 0x150ee941f60bdd1cU, 0x253ff119ecc2ea26U, 0x3d8d678edbf7a8cU,
  0xf11c3d120427eea8U, 0xd1a8f939f0ec274dU, 0xf0f53ab013f9091fU, 0xe1de42021dd0f400U,
  0xeeee260d1b1bfaebU, 0x4539ecb4cb07eb0dU, 0x2cebfccffd231de1U, 0xefc037fd47bc4519U,
  0x26c00a1a4b1ddb29U, 0xe2a824ee81d34734U, 0x311dba1efce9e020U, 0x62354f0292419fdU,
  0xfcc1020032ddcc47U, 0x2ca30ce9371cff05U, 0xf20108afc93c1ffcU, 0x95d8a7f6d60c20c1U,
  0x56c4172ddbc625e2U, 0x3edfeda4e41d61bU, 0xdce7bd3edec52eb7U, 0x1cc2f4f50622f241U,
  0x462efa3bcbecf2fbU, 0xfe0fea1aa5b6c553U, 0x53ee91fbef284c1cU, 0x2494fb7fbe0d45e2U,
  0xd8fd1abbf648d5c7U, 0x32aad82320ae353cU, 0xde4306eb4ecde7f0U, 0x275f52171603b32bU,
  0xd726e3100509ef28U, 0xd9215cd104cbbcc6U, 0x5004f3d6f8ee7503U, 0xe10346111a2a011cU,
  0xb7561ae81d37e900U, 0xd5d92b095906d0e5U, 0xcb16c4b89903a9e5U, 0x52d84009bdc4d802U,
  0x5bbcb4f3e5ca9fbeU, 0xef81f0674c2033fdU, 0xcc22afdd81441be4U, 0xa511e505b818039cU,
  0xee3e20812e3eb05U, 0xc2fc4d019ce9effbU, 0xd70643e027e5b3f9U, 0xddb023fb9b1a1301U,
  0x528d605ee09321dU, 0x304df40fa71bf752U, 0xdccf4ec1c370d6aU, 0x34ad3030cd131e13U,
  0xb3b61e8493d2ff7U, 0xd513d6277fd2fc17U, 0xf5209cd5cbd90088U, 0xbbf8f409e8e5e0b5U,
  0xd5fc6df5c320a0ecU, 0xb31917f426150be5U, 0x1319e83f1abbd0e4U, 0x8e11a2fec02ff7fU,
  0xef4f101ee3006e2U, 0x15d8ff196122da1fU, 0xbc19400e3ae2d10aU, 0x1f2b8dfec1fe015U,
  0xbfb619dd293337eeU, 0xd2d511281227edeeU, 0x1217eaead7142e0eU, 0xd7f7d0b22e09efeaU,
  0x3ae835d155e91223U, 0x41c33e1400d8cbefU, 0xad1322100dcf19b5U, 0xe70305e814b73ef4U,
  0x4e2fe7fa09dff1ddU, 0xfba13926b40fd8f9U, 0xe402c971cfc1da77U, 0xec2b08e821e70d2aU,
  0x130fee536bf91b1dU, 0xeb322fcdf4027fd5U, 0x25e01a030febe30fU, 0x97f3f54e2f93a18U,
  0xf02f34f2f0fcdaddU, 0xea06ace9feecfdeaU, 0x6425481204cdfa07U, 0x1918f425010304abU,
