/**
  ******************************************************************************
  * @file    network_1_data_params.c
  * @author  AST Embedded Analytics Research Platform
  * @date    Wed Jul 17 15:49:03 2024
  * @brief   AI Tool Automatic Code Generator for Embedded NN computing
  ******************************************************************************
  * Copyright (c) 2024 STMicroelectronics.
  * All rights reserved.
  *
  * This software is licensed under terms that can be found in the LICENSE file
  * in the root directory of this software component.
  * If no LICENSE file comes with this software, it is provided AS-IS.
  ******************************************************************************
  */

#include "network_1_data_params.h"


/**  Activations Section  ****************************************************/
ai_handle g_network_1_activations_table[1 + 2] = {
  AI_HANDLE_PTR(AI_MAGIC_MARKER),
  AI_HANDLE_PTR(NULL),
  AI_HANDLE_PTR(AI_MAGIC_MARKER),
};




/**  Weights Section  ********************************************************/
AI_ALIGNED(32)
const ai_u64 s_network_1_weights_array_u64[1253] = {
  0x42045049edd038ddU, 0x3e616d540902da75U, 0xc4417afd167f3b58U, 0xc9c202f60bf92843U,
  0x81f0061f1f585704U, 0x2496c0a04e8e096U, 0xf7c90e0becf3f1fdU, 0xf4d92c23f62b194aU,
  0x9d0c14d623143818U, 0xaa19839d12fcd00dU, 0x45060329ea231981U, 0x283c2d021a021513U,
  0x7f2647695029381cU, 0xeee1b40a386e2b3bU, 0x12e5dbd4e4d4e8e2U, 0x9ecf01f4e509e3c5U,
  0x28aec0fc9f81b6a9U, 0xebdf30f8ce3f0bcdU, 0xbd5fe4a37f01a551U, 0x3cf0c44d01cc37dfU,
  0x7f119e2c17cbf0d3U, 0x1e842022b44207c8U, 0x9d1515e059eca477U, 0xc071c47e8a04ff5U,
  0x3e391d1e31262a3eU, 0xbd131c132d433c27U, 0xcdbdafae9381d2c2U, 0x442f1d2420f5e6fbU,
  0x68f7f400cbb3ca32U, 0xa59facddcfca6c7fU, 0xa7e4abad420b1b0eU, 0xbab9b3c90a9cccdfU,
  0xfcd888e9a5d5f881U, 0xbee9cae9c7edaeadU, 0xd1f8dbb9246964e1U, 0xe8c5a6397a7fd9adU,
  0xe1bc3f6f7edab3cdU, 0xfdd78e8404a4d7f3U, 0x141dfcf0bcc00820U, 0x3e47e703f9427b7fU,
  0x47fcde28e91b2c06U, 0xf2cc38ef17f6d7efU, 0xd42fdb0125c4c775U, 0xf2b2f350bcc47ff7U,
  0x4f8e214a8d417efU, 0x2202b681a4e1ee01U, 0x26bfa8d10ee51b24U, 0x30d6371dd44300f8U,
  0xcdd51cbaf623c323U, 0x82d08e9a1dd30b13U, 0x192625ff03fab581U, 0xb3ba162522233e38U,
  0x22dca9aec08182dbU, 0x1230301942430e2aU, 0xc3c2f2f7f1144c31U, 0xb6eae7fa4c7f71e8U,
  0xedd7e9465b56cd9aU, 0x1fc3152fc8e2bdd7U, 0x883e40923409cb2aU, 0x4939a8590e946722U,
  0x5773451096631481U, 0x290903efdfc8ed1dU, 0x1a1ce5bc818aedfdU, 0x6f4b03dfbcecf311U,
  0xedf01ff7e6240049U, 0x3453f7227f4e09e9U, 0x2d0946596429faa3U, 0x2d35a52812dda230U,
  0x32ab2234bf0f4095U, 0xdb073daa1d4a812dU, 0xd118d60b29b50f21U, 0xe3b58cd4ab81fbdbU,
  0x1b141c323e293d4cU, 0x31071f43f2f81d0fU, 0xd44adaeb34dbff16U, 0x7fd5da52ebf52dddU,
  0xeede25f1e25fcbc1U, 0x2d6a62d63df0c543U, 0x1318181401b88b97U, 0x88f2f1e9fbf6f817U,
  0xf3020f517a77bb81U, 0xffffffe8fffdccccU, 0xfffe82d500003a1bU, 0x15a100015c39U,
  0xffffff9a000027e7U, 0x2c2320000006eU, 0xfffffdf300000049U, 0xc368000028a0U,
  0xffffffbb00005370U, 0x3d4000000afdU, 0x8a000000084U, 0x1ee00001b45U,
  0xffffff9700000778U, 0xd150a0ff703f112U, 0xff3ce9fcfffaf109U, 0x50f02f9d40400f9U,
  0xe416f7817fe7df3dU, 0x19e8b70be7072712U, 0x3708102403dfebffU, 0xe03af6e126f0eb3aU,
  0x1ad6cc14eb122705U, 0x33360f4926da0307U, 0xf9b0c0d425dcd401U, 0x105232c5c62b1546U,
  0x18030c0a81d7c2fdU, 0x81960a94278281d6U, 0x7fd622c9877ff87fU, 0x7fbe63c0f4810053U,
  0x823e66d5148f9bbdU, 0x7781bb4ec077c042U, 0x74c577af5b9c5a72U, 0xeec3c008fec8e5f5U,
  0xd2c6bcbb9312234U, 0xd0f0510c0cac5feU, 0x8c81146e9081919dU, 0x79e97f81817ece74U,
  0x4fa574a8ff8b2662U, 0x92097f63b9899e81U, 0x7098eaecb97a814fU, 0x4f817f8138b67f7fU,
  0x82f00000408U, 0xfffffde0000002eeU, 0xfffffb9b00000135U, 0xb790000038eU,
  0x3cffffff3beU, 0x942ffffe3ccU, 0xffffff230000074aU, 0xfffff58c00000060U,
  0xfffffbb8fffff530U, 0x2aa00000b20U, 0xffffe8e500000681U, 0xfffff2d600000874U,
  0xf0dd022803d2c9d3U, 0xfc2ad9113d0af56aU, 0x388129f1003d24faU, 0x404418d49cd30c3bU,
  0x81e9e5fb0d04e045U, 0x5bffa92ec41bd9e2U, 0x25272607feee05edU, 0xf13ef5d972dd7fU,
  0x3237fb262ca5e24bU, 0x55b520301c23eacbU, 0x8126ee1812f84945U, 0x5c24c8c2ef32f643U,
  0xac3de406f165004cU, 0xf212dfcfc155e401U, 0x1315eeac0281f6f0U, 0xc1dcea7cfe7cdc6U,
  0xb853d9d42b275ca9U, 0x3911fc137ad12d81U, 0x13faeaf5f50927fdU, 0xe4e922f501c6b7ffU,
  0x38f881de0e0731f4U, 0x810d19002def0327U, 0x23f1fe0b1de3dee3U, 0x4a070bdee80010f5U,
  0x85e7bfeef60339f5U, 0x1bfa1921814826ffU, 0xe614de3a21c7ec0eU, 0x58da0301fb0e2647U,
  0x501d17239db52d97U, 0x6ec47f0237de2ed7U, 0xbc1a81e5ac1013caU, 0x662c13be358229c5U,
  0x664b7a5cb8389fe7U, 0x9ff1be6f309a7dbU, 0x1b14f51c7ff16370U, 0xf9fc38f72174ebefU,
  0x613f07e7ffbd74bU, 0xdf1241f5ebf4c5f7U, 0x406e317143bfcddU, 0x2def0b2a59de36e3U,
  0xdd2b1501914c4c84U, 0x11b9a1d2de81f31dU, 0x4f815fce002a3d9U, 0x30ce38f6fc12cdf6U,
  0xf1017fa5f25e1fa5U, 0x55f3d7e906058135U, 0xc4e51c0b3657c93bU, 0xb120720c431f018U,
  0xeed4c2f2f73c0011U, 0xcde304ff7f7e2fcU, 0xb7f0684fc0621ffU, 0xecf60106f70bf409U,
  0xce9d8000f10dff7U, 0x500020a0016f77fU, 0xfe2021ff0d1100d0U, 0xfdfaffd2fd020e01U,
  0x47d03810502df06U, 0xa331c0708c1faf7U, 0xfa110481ff0208feU, 0xfed6fd1e0002dd05U,
  0x70bf80ff5f7e318U, 0xb0915000030f618U, 0x81fe0fffe4010a13U, 0xb34c211fafdeb0cU,
  0xebf2bfb8fe40dae9U, 0x4fdeded0813377fU, 0x81e00dccf304f1ccU, 0x71ef23fed917dbf7U,
  0x2ce67001e0e217f4U, 0x81d61ab3dad222bcU, 0x5adf123b00040ff7U, 0x5feb1b061ccbf0fbU,
  0xdd1cf581a3d40b2bU, 0xcc12119bd20ad04U, 0xa08c21c89c4260cU, 0xfc2a7fedf7d0ff01U,
  0x20302b50304eb04U, 0xff1e00d003fc9dffU, 0x2b69518094e01e0U, 0xfdfdfe7ffcfc1efcU,
  0xfdfbfd11fc064401U, 0x7f6f6f0f1e004d5U, 0xf8343af400f84a07U, 0x4f3f1fa7ffc11c5U,
  0x1aa77f0000f1ed09U, 0xe0cfe26bf132ec22U, 0x404e50fd5ec9d1dU, 0xf7f4f4182431f581U,
  0x119da14000f6001U, 0x30611e8fc010d05U, 0x39f5f22333fd6b1bU, 0xf3e903ffd3a92cbeU,
  0x8112cc09fce3f2b5U, 0xf22b81ecfff102f6U, 0x13f3c9f10e32905U, 0xfcd509282feb64d4U,
  0x0U, 0x1U, 0x0U, 0x0U,
  0x0U, 0x0U, 0x0U, 0x0U,
  0x120ffffffb4U, 0x30bfffffd2eU, 0x157ffffff19U, 0xdcfffffddaU,
  0xfffffe32fffffb3aU, 0x1b30000024aU, 0xfffffda4000001cdU, 0xffffffd400000162U,
  0x100000000U, 0x300000002U, 0x500000004U, 0x700000006U,
  0x900000008U, 0xb0000000aU, 0xd0000000cU, 0xf0000000eU,
  0x1100000010U, 0x1300000012U, 0x1500000014U, 0x1700000016U,
  0x1900000018U, 0x1b0000001aU, 0x1d0000001cU, 0x1f0000001eU,
  0xefd0f6f3f5ce0537U, 0x12f14f5fed9e6ecU, 0xf323f4037ffb8100U, 0x868109fbfd06818fU,
  0x20a051b162f00c6U, 0xd91e4f80623fb7fU, 0xf398141efe81fd7cU, 0xff8e7f0c03952420U,
  0x7fe9815f901c7800U, 0x7ff6008181e77120U, 0xdb7f5f75ed700181U, 0xf5d7847f7b7f09abU,
  0xf8cfffdb0bf8fc0cU, 0xfdde03fdfd0afef5U, 0xed03e97fe4020902U, 0x8500e5f6f70f54U,
  0xc71b0e4e0904fefaU, 0xfe10f9090d03f2d1U, 0xfffffff700000008U, 0x200000000U,
  0x200000195U, 0xa8ffffff85U, 0xfffffffffffffffdU, 0xfffffffb00000001U,
  0xfffffffc0000000fU, 0xffffffff000007b1U, 0x49fc06f1ecf52204U, 0x11d6f6f91b068137U,
  0x12296e1626813defU, 0xb38fbd1655486020U, 0x32710f381062034U, 0xe0df39f6fbc317d7U,
  0x301b2c2a151d1526U, 0xd47d350a2a3c81efU, 0xd0ddfe07da088115U, 0xb2e6fd070508cdc1U,
  0x232b30230b43f20fU, 0x28d7ef7fff1afad9U, 0x51fdfa137fe60eccU, 0xed5c6f31ebd52efU,
  0x4776db90ff722862U, 0x3a7f25fa17302450U, 0xe29f9f811b0511ecU, 0x65feeeb9b5e836c6U,
  0x18c348c5e5fe2506U, 0xe629815175ea0315U, 0x9e3a5cfee2eba6f7U, 0xedf6f10d7ff9d4daU,
  0xab084bee7f29683bU, 0x5cdefe0f0b23526cU, 0x7f084a79a01a9812U, 0x12e9313f042c3d10U,
  0xe9eeb0f110f7eaf8U, 0xf828cab081ec0b06U, 0xf6e61018f89614a6U, 0x54fa60df481fa07U,
  0x92e012026810163U, 0xf6062c030bb002f3U, 0xffffff7300000a66U, 0xfffff8440000060fU,
  0x93800000c4fU, 0xfffff9a60000081cU, 0x9d400001053U, 0x4f000000d46U,
  0x4d6000001f7U, 0xffffff5d00000752U, 0xf4ed0ed03b1df5feU, 0x1cdbbb810d12e634U,
  0xcd2400d3cafb0431U, 0x1fc00cf22414d700U, 0xe5b7f813aef3d50dU, 0xd62dcbf10611dd0bU,
  0xeb7f12b2e207fc10U, 0x9fa1610fe11daeeU, 0xe94908fa01d929b5U, 0xb7ba63ef81f71033U,
  0x3e704b0e42bfe1bU, 0xee04d9ed19f41af8U, 0x81da05df0204f5a8U, 0x250e3721dbd62da8U,
  0xdac8ef60ee12f39eU, 0xe1202bc15d42ddbfU, 0xe0fbc740f14a4f84U, 0x77038cbcce1ecd01U,
  0x1c6ed19381015c0eU, 0xc7f58c934adb44a5U, 0xbec311d0a5fc0b52U, 0x5481de2d01551a70U,
  0xd6efddcfeb1eef35U, 0x2e0ad8f7e81306f1U, 0x5e09a81eeb640910U, 0xf6303016f13311fdU,
  0x4f9213819df2e5efU, 0x5bba30c6e052f39U, 0xc91ae0cbbcd8e9e4U, 0xb529da1616e7d42bU,
  0xd3f1022cec02eb01U, 0xffec5016fc81af00U, 0x135cd8fdea03bc01U, 0x7f12e617ba63e75cU,
  0x3ada25c3dd12f5deU, 0x2acdf68dff42e6f4U, 0x231724fdd2ebfbf7U, 0xd51de812043214dcU,
  0x190781d30df4ededU, 0xe70e17cfee01c436U, 0xfe6a169100fae473U, 0xd17f4dc0cdb2d7daU,
  0x5710010771f307caU, 0x538902130706d64aU, 0x1e48e8eedbb2ddf4U, 0x81fbac0f146838c0U,
  0xeb0fc9f71df8ecdeU, 0xf22c24fe0dede92eU, 0x81445afa16bd59d9U, 0x151e08d0340a0ee2U,
  0xd7fbdcee0116cde0U, 0xf5f4e4001d1c331aU, 0xf0cc1312dc5302aaU, 0x4b9c5451d55f748U,
  0x2d281de143b1df6U, 0xb8d1def8ef2bf9c6U, 0xf48a1eec815179f6U, 0xe6bd080c0545c1dcU,
  0xeb01ecca21ef0ebaU, 0xeed100e9fce3191dU, 0xd7f030725cb2ee2U, 0x1ca21b5304b69af0U,
  0xf8accdf518f1c8d5U, 0xed15f7e61fff25faU, 0xe1e701cb2d0ae6f2U, 0xf72d49fe072ce71cU,
  0x7fc4d497f7eaf512U, 0x419423d03e1323e7U, 0xd70104c03eed3e4cU, 0x6b38a7287f14e7a3U,
  0xfff31abbee001519U, 0xf9f7da15fbf8eeU, 0x81a3dd0266d02af1U, 0xf819eb5997ef4e01U,
  0xd91f09dde80f0b03U, 0xafa160f29e6ea01U, 0xdb0ed6f2e7fafadbU, 0x2ff001d7110fc705U,
  0x51bd40f210020f0dU, 0x1181af15223b1ea3U, 0x272e9ef616fad7edU, 0xffc9307fb1f6eaffU,
  0x4f3d80ddf2313afU, 0xf00ac4ff19f40c16U, 0xd010fddec0c6159fU, 0xe8d42ef2ed030811U,
  0x7b20a0bfaa248106U, 0x20d0064bdbf73b21U, 0xa97f02d1541650eaU, 0x31ae39ffecd3d59fU,
  0x1b8f8eae5f00716U, 0xf4f6d2031c001c08U, 0x51f4122ca02ecdaU, 0xc6f6131ada0bfa14U,
  0xc5eb1ff532e8fe62U, 0xd4dd0a813a1daffcU, 0x160af3f50b11f9f0U, 0xa1b007f1cebdce6U,
  0xfbf7dbd7d7b4fd01U, 0x31182a2d4ffefbd8U, 0xb03e8eafdcd19cfU, 0x2816d2fa4a42f4c5U,
  0x2aef0bb7c9c3fa09U, 0x2181e9ee50e2d529U, 0xe808e30c5a0c36faU, 0xa6c0e5f30c15c400U,
  0xdb81ddcb16ecc3f1U, 0x22fde1fe39eacb26U, 0x1c0619e3ef81fddcU, 0xebf8f1fdfe3111daU,
  0x1ddbf4f61afc0001U, 0xf62941fe05ee0210U, 0xf9eef83e1d061d1dU, 0x28f42cdde60cd8e2U,
  0xba5efee891b217f1U, 0xc87f04d4f4dd4f1aU, 0xece83209344a1794U, 0xddedcad7143fc1ffU,
  0xf328f1f4bd3cf698U, 0x81c9080b091f22d0U, 0xfdec242a4d2119c9U, 0x7fff5248e51de7efU,
  0x5fc28d3d7fadff7U, 0x2be214032ef9e315U, 0x2cfbd2d60781e9dcU, 0xfff705d6c568da8bU,
  0x27dbfadcd5cf64daU, 0xfa1cbcc3a6dac803U, 0x21f0000063aU, 0x128fffffe68U,
  0x79d00000802U, 0x4790000113dU, 0xd8900000b94U, 0x77f0000058cU,
  0xf2afffffa19U, 0xfffffde300000d96U, 0xffffff9300000ebbU, 0x52bfffff61eU,
  0xfffffce90000048cU, 0x1e2fffffc42U, 0xb9900000067U, 0xfffffb5900000864U,
  0x3a9fffffeb6U, 0x5c20000036dU, 0x1102e1281224f2d3U, 0x1813e3e210eee31eU,
  0x30061918dfe70601U, 0xfc0150faf0e0420dU, 0x1ad9b9304b41cca1U, 0x45ebc6cbecb8c137U,
  0x47173d36d400db18U, 0x33e367c7cdea4f2fU, 0x4c2d9194122cfbcU, 0x32c5d6ddb9d0f620U,
  0x350a3625eaf2b3e1U, 0x40e436c1e30cea3bU, 0x35fabc493931e1d1U, 0x3d0ac1c61fd4b842U,
  0x532f4e36c9d6e146U, 0x2bd94fe6d9a34d3aU, 0x7796817f7f7f8181U, 0x7f958181e981817fU,
  0x7f727f7f819e8a7fU, 0x7f817f81818b7d7fU, 0x3481c05462649696U, 0x6b81ab9b81cdf13fU,
  0x5d62575ca68181edU, 0x70a05d8b99ce5462U, 0x40f7d22d220fe6f9U, 0x2b0bdad513edc435U,
  0x3f3f4c2fe504d751U, 0x37dd05ebe2b30d36U, 0x7faeb75f404aa0c1U, 0x5ea49f94fabca35bU,
  0x647f72659c109d7cU, 0x658b3ca79d816d6fU, 0x41b0db4b2a59b3c9U, 0x519fc4a9b303fc32U,
  0x4b74414fb0dfba0bU, 0x46a03cba91b37f44U, 0x1561000012e4U, 0xfffffaa3fffff8f9U,
  0x186ffffff000U, 0xfffff8bb00001b10U, 0xfdfffffebc7U, 0xa60000010f5U,
  0x13bc000001dfU, 0xfffffd46000013f1U, 0x822ffffeec0U, 0x16b500000129U,
  0xfffffb70fffff2faU, 0xfffff7a7fffff882U, 0xffffe96bfffff5b7U, 0x88400000905U,
  0xfffffb1600000edaU, 0xfffffdbd000010f5U, 0xe54056f7ddd61010U, 0x42f99d017f10d5d8U,
  0xdde0523c0e70c0cU, 0x2f3865d869deba12U, 0x7e28447ff90b59d2U, 0x64249dbeb30ff1f6U,
  0x817176e3e11e0d4U, 0x69f28c37450c2edaU, 0x4c930452246f1feU, 0xf2c2f1cb020e508fU,
  0xe8be9cb2d636e62cU, 0x1e7fe192c7d63256U, 0xcf85ea261beae512U, 0x343a10f83803192eU,
  0xdd8e94b7f1e17ffU, 0x10f0dfad518f40eU, 0xf526bfe1174eb62bU, 0x6e7fa90f8acaffb0U,
  0xfcc102c7f5f38535U, 0x3a3fef2f05b7cf15U, 0x2ba9dd28dcf8e556U, 0x29e7f05e7a5b3eaU,
  0xd012f3065bf9fc9bU, 0x31e1095746af100bU, 0xe7150f0c3609edc7U, 0x27f108553ccae6c4U,
  0xfc2b093c3af2e6eeU, 0xd4b18123d5c4b022U, 0xf7fa0f4810ce0f3cU, 0xabd5c216361f35U,
  0x32e10efead06350eU, 0x242be67ffdfc071aU, 0x26cc394e2d3dc02dU, 0xe1d8870013f85283U,
  0xfd0d417fa2b1e3f6U, 0x14d9e6fb99ddbde7U, 0x202126fa99127f1dU, 0xd2f116ea2737e7c0U,
  0x3db14e470ee601d0U, 0xe15cffc2cdc92808U, 0xa47fef349ff52321U, 0xedc0e0b5fe4f06bbU,
  0xf9ede7ee57c55dedU, 0x43b8b90e57ced93eU, 0x3f720d63f766946eU, 0x3b2643cc3ded5575U,
  0x153a3dc9543489e1U, 0xf28d60eb260cde7fU, 0xf1dbd12d27c6377fU, 0x20c5281b01b9bbe6U,
  0xed652efbead31a3eU, 0xdc15c590c0b20eddU, 0xd9819c42c70e51c1U, 0xc554ec53c070cf6U,
  0xc103dafbb4a5fbfaU, 0x194698e454d13c1cU, 0xb31b1f1122d239e0U, 0x2e7f20101511e6f4U,
  0xf92610dc0b1246feU, 0x21263f040206e2f0U, 0xedfa461f7fc25b75U, 0xaf2baa3c20a4eb69U,
  0xdc9a2f8d59d40010U, 0x2af0f52df7f35b00U, 0xfe25d4f82d12f70aU, 0xf1c71b19e27f1b2aU,
  0xc927fded0010b609U, 0x220f32d4bd2feb42U, 0xee25d9f1af1a1f1eU, 0x7fdd3c72f3ed4e30U,
  0x1296230db6f11c14U, 0x27173117040f0d1eU, 0x317f19e82ff4d9edU, 0x1f17f6ebfbb4130aU,
  0x22e241db3e913c0U, 0xd81aeeec9d590f65U, 0x16e1ddc8fa0a22efU, 0x90cdd0c3e13d9dbU,
  0xe534c9e12df637d1U, 0x7df0e13cef07f53U, 0x11be21dc141c2ce5U, 0x7f829f1e0e1dc613U,
  0xe7ab4fa2591ac3d0U, 0xbc11e2d94e5d20bbU, 0x2913b53327f2e846U, 0xeece1210f9ed5728U,
  0xd020da17b9340f81U, 0xcb10dcad3032f1d5U, 0x2716cbd627a81a95U, 0xe0aa1fd84ecb36d5U,
  0xf5d700373b13387fU, 0x445ff2f61dd6f336U, 0x6c1e21448fe990e4U, 0xc658bf301909e87aU,
  0xea8106a19e394ca9U, 0x1e0fa8e0cef5c065U, 0xecf40a031bf581feU, 0x9040009f4fcf907U,
  0xe9f1fde0ef04f900U, 0x701f804f8fa00fbU, 0x55caa28135380529U, 0xf0220015182afafdU,
  0xef42f8aec4e01805U, 0x2a1cc538d1ef07b5U, 0xdd3accebe40c2313U, 0x9c60bcf3e2546d6U,
  0xf57fda0bcbd2fb0bU, 0xd9b3daf93a00c8f1U, 0xf707eaf5ff42f4U, 0x3ea0ff41d03fb18U,
  0xf717eee981ef04f7U, 0xbda1afd1dfdd1faU, 0x1f87f10fe03e5f9U, 0xff48cffaff1905ccU,
  0xfa06f8f80411f710U, 0x3f0f2fd05f5f6f6U, 0x57efc1d41efadcf3U, 0xdf1009f8260f81a9U,
  0xcdb0915ce0c1398U, 0x100eedf5a50ce6f8U, 0x800f9ebeb2291e1U, 0xcaf5f4d710fcedf6U,
  0x5dd13331fd7f2ae2U, 0xfe2013f901102fe4U, 0xb3162c81fa334707U, 0x51294b0fed1a64cU,
  0x5a511de15ec8228U, 0x7f67d3ef6cf3a42fU, 0x3339dde011e9fe15U, 0xe704f60781e802faU,
  0x4edfc05e7fa1730U, 0xf0090bf0c22a0d08U, 0x133f814123f6f7f1U, 0x1b547022e11fd2eU,
  0xfe92428ef0c0d48U, 0xfb0cd502af2a1e06U, 0x1ad4f7ff007f19f2U, 0xf1fc0702ef05f602U,
  0xb0b0ff322ed8308U, 0x8f500fee50eee03U, 0xc7813dee172ad3d3U, 0x2281409209620e1U,
  0x15ccf906f607e116U, 0xe4ee243600eb180eU, 0xf9392bdb07abf2edU, 0x1cc002ee2000cfaU,
  0x810297adfa0599fbU, 0x160e08d112101a5cU, 0x32e13b7af111bc48U, 0x7f10e021f0120cf7U,
  0xf7d41634042fd405U, 0x2311df4f05d2f601U, 0x9eb6034c300027beU, 0x1d020f2365187f06U,
  0x265b2f0be9e6f932U, 0xe0bcff571d051b07U, 0xc89c54f3f86081e4U, 0xe6c2171f29b6e14aU,
  0x228ee756380f4ec0U, 0x1cfb2d9714330307U, 0xd1e9131948e800e9U, 0xb781b90018521ebfU,
  0x22e8250adcf60f30U, 0xf61c1c1ee7161302U, 0xca1a152cefc4f1edU, 0x14eb1b0c08001020U,
  0xa104bce1e706ea2eU, 0xf603f126da1a7f45U, 0xb10f14ceecdc7fd6U, 0xcac6ce2e1af9037cU,
  0xd8f8e8c20ff2383fU, 0xe85293e43845c7b4U, 0xfa0908ffa3dd25e2U, 0xf9f6ece423f1e9dcU,
  0x81e48da404fda1f0U, 0x4004061e01154e6bU, 0xf4cd81cf1ff506f3U, 0xc1626d3e0febec71U,
  0xf905f1f20b0b143eU, 0xcdfcd9e5e26700f5U, 0x34b0d8da0916b70eU, 0xf5e514fd9ce7ad00U,
  0x1081070dfc4bc5c1U, 0x4170722c7032c1bU, 0xad4097fb8fbcff6U, 0x441afe0f5dd65c2dU,
  0xaddad3b2c101f9deU, 0xfcb8c9fbc7dfe112U, 0xb8c0ea221a07c7f0U, 0xf0e01f0247f2742fU,
  0xe438d90081ec0726U, 0xd9b6ecec09ea8affU, 0x0U, 0x0U,
  0x0U, 0x0U, 0x0U, 0x0U,
  0x0U, 0x0U, 0x0U, 0x0U,
  0x0U, 0x0U, 0xfffffea20000009bU, 0xfffffff40000026cU,
  0xfffffba4000002ddU, 0x29c0000055aU, 0x10fffff9d2U, 0xfffffba6000002b6U,
  0xfffffee9fffffba5U, 0x4eafffff6dcU, 0x427fffffdbaU, 0xfffffe24fffffd0bU,
  0x4a50000015bU, 0xfffff83efffffbebU, 0x1900000018U, 0x1b0000001aU,
  0x1d0000001cU, 0x1f0000001eU, 0x2100000020U, 0x2300000022U,
  0x2500000024U, 0x2700000026U, 0x2900000028U, 0x2b0000002aU,
  0x2d0000002cU, 0x2f0000002eU, 0xf8f7f616f10fd808U, 0xfefff61f0318e905U,
  0xe2ff0d0d13fd0f00U, 0x1f91fcc0d7f3ffdU, 0xfcf42a4381db8804U, 0xa24ef37fbf0fe374U,
  0xff15edf6e90ee1faU, 0x1600f7f7f81cebf6U, 0xe6f908031c03e2e7U, 0xfe190bc116e18107U,
  0xe4d1ee56f1f40a8aU, 0x1f5f52efd1fbec10U, 0x7f817881819d2381U, 0xa37f69a465817f7fU,
  0x7ffc81b881817fe8U, 0x1f038164d0e4ef0cU, 0x7fd7fe81fddc060fU, 0x26e2180ebbefe328U,
  0xf1250018f90cbc02U, 0xfef040ffa18fbeeU, 0xf2d61415171bd6feU, 0x22d7165698f70cf1U,
  0xf40981a919a70717U, 0xee81c1a69bc7f481U, 0xfbf4f3f80b05200fU, 0x31f5ec5500fcfdf9U,
  0xf2281d04180d1b10U, 0x46d0000000bU, 0x1300000006dU, 0xffffffcffffffffaU,
  0xffffff01000000e3U, 0x4f00000029U, 0xfffffff700000351U, 0x17000000f4U,
  0x1fa00000261U, 0x900000022U, 0xfffffc72fffffea5U, 0x35fffffff6U,
  0xa4ffffffdcU, 0xd8e803fc0b7f0fb3U, 0x1cf2c4095b010f0fU, 0xe1e5fde3edb8fffcU,
  0x68252411d0151c4cU, 0xc150d7600dbe0e0bU, 0xd1f6db2de67f3008U, 0xe362f5f1f8f6da04U,
  0xfbf9e214defbe5fbU, 0x440a7ffd2d260205U, 0xd9f1e5d77f02adfdU, 0xe649d3e054a40b18U,
  0xc807eaffbbd03261U, 0xae81e1feac21eda7U, 0xea55dee7ba16fe4fU, 0xc7df3ed8d9f1ead3U,
  0xebcc07fb865029b6U, 0x22e0040fce390e29U, 0x487fede6f5f51903U, 0xf4bb167fff3f0505U,
  0xea34786116c67d03U, 0xf228354892d117fcU, 0xfaece3cfccca0a7fU, 0x10b0e40b0c97cff5U,
  0xd52f1bedf0b7f30fU, 0xee12c37a14f6423aU, 0x30afece71beb2281U, 0xf19cbe937e2e825U,
  0x64f8e117dbd1db0eU, 0xb030e2fa4ed044e8U, 0x38e6c1cff27f13deU, 0xf100cee81b4cc620U,
  0xcb43d7ee681ddd1U, 0xda16eee302e744b6U, 0x3c0137fccf04410bU, 0x244b18d2397f0a15U,
  0xcae9310b5b0ef529U, 0xc50a1ff2cb1a0fb6U, 0x1a131bca1bb81cf9U, 0xe3e7f228acf07f22U,
  0xdb3514df232797e2U, 0x81575f7814cbf5f9U, 0xfb2f3203cbb4721aU, 0xf3f95d1612e43631U,
  0xe97ff6360fc4f943U, 0xf82beef5d4ecfdf9U, 0x5bd0d51d3ad1132fU, 0xef101ad3d97fe3a3U,
  0xfdd7e3e00bfee7f6U, 0x86e57760acfc37ccU, 0x6311e73c73eceec7U, 0xd621ccdbbd81e6c1U,
  0x203281e3e7f20f13U, 0x4bfc24de060ef106U, 0x2dc71bfffc155decU, 0xe53f67482f2d13dbU,
  0xcc0ce881f90a2d32U, 0xd00dc7bf042d31b9U, 0x387f1bea25e70061U, 0xffb6e0f6ce2200e9U,
  0x27fbe1083d25d3e0U, 0xe6ffbaf0be0a2cf8U, 0x2e3ade192119017fU, 0xf907e402c3d047ccU,
  0xefc4dcfb083f0104U, 0xe1d7321565da7dbeU, 0xe335da7fd2dd316cU, 0xc437f0ace000ef3U,
  0xdef103ff132e255cU, 0xee192df3132a49d5U, 0xfbe820e604ddb0caU, 0xc60b29be550a0c25U,
  0x7fdbec0f05f7c9fdU, 0xfffff9e4000000d1U, 0x63e000001c5U, 0x56e000012cdU,
  0x1594fffffac1U, 0x44c00000a6fU, 0xffffee3c00000f78U, 0x10f000007d9U,
  0xffffff4ffffff85fU, 0x26c00000511U, 0x778000007dcU, 0x22800000199U,
  0x382fffffa4dU, 0xd0000000cU, 0xf0000000eU, 0x1100000010U,
  0x1300000012U, 0x1500000014U, 0x1700000016U, 0x292f0fb00bed0508U,
  0x814dd21a08138bffU, 0x815ab90b8ce0a932U, 0xf7f14cff35dff51dU, 0xd802ece728f682e7U,
  0x22cb830b8171c456U, 0x25e5bb27157c81b2U, 0x9381d97fdf7f8efcU, 0x2c62817f5289eef9U,
  0x1800153bc1fefdfbU, 0xd806b2f00e9690f4U, 0x6be9b9c9427fc381U, 0x1ed81f7f0caf4c9U,
  0x19f0f02b244U, 0x732000007f4U, 0xffffff76000007feU, 0xffffffa800000b97U,
  0xfffffe9c00000028U, 0x1d900001266U, 0xd04aa4e00000403U, 0xc3f1da32e16781ffU,
  0xfafc4f6f0aafadf9U, 0xfedfb839f7810a42U, 0xe4c0557f1b025d02U, 0xcffa08f0a5da7ff0U,
  0xe3c67f23a7c6faf5U, 0x1239020fb7161c15U, 0x6a23cf7f075edf3bU, 0xd584157fb801daa3U,
  0x20281f0c41a13915U, 0x98162dd236024947U, 0xb26d2f17eecb7f5fU, 0x7f1699f61047b5f1U,
  0x5df30f4601ca067fU, 0xbe81098261c3ce07U, 0x30d8e4c1c72af6dbU, 0x18dcfdc8277928c2U,
  0x16af7fdc07cfU, 0x14400000658U, 0xfffff85c00000badU, 0xfffffc53fffffddeU,
  0xfffffc5cfffffecdU, 0x1c3100000181U, 0xfffff132U, 0x200000001U,
  0x400000003U, 0x600000005U, 0x800000007U, 0xa00000009U,
  0xbU, 0x200000001U, 0x400000003U, 0x600000005U,
  0x800000007U, 0xa00000009U, 0xc0000000bU, 0xe0000000dU,
  0x100000000fU, 0x1200000011U, 0x1400000013U, 0x1600000015U,
  0xfd02cc2600000017U, 0x31cffcbf06e34c30U, 0x6e43e6d3030d50e1U, 0x2ce4a2582816e7e2U,
  0x14c8150bfdd2abd2U, 0x523186c2ec412c46U, 0xf128e3e77f8d68e5U, 0xda1434f129cd020aU,
  0x390215d40e100be6U, 0x1d0104fd23f1bde1U, 0xfd02d70235d3e4e9U, 0xf22fd8dfe7050b7fU,
  0x5bc9ee4be1d3ea0aU, 0x371e6f2d4366531U, 0x2f905de039f2eed6U, 0xbc2609e553eab03fU,
  0xfacdbe0709f2e9d0U, 0x7fd99ba2e57420b2U, 0x2c71301541329fbU, 0xeb150d0de71e1ed3U,
  0xf012ead013fc0df0U, 0xc6bf203bd628f7f9U, 0xea02be0f0b2feffaU, 0xaac22cf6ed082881U,
  0x2ce73ce4ecf217ffU, 0x1cd92bf904110942U, 0x170616cb4413b3f9U, 0xd972b1eb9f9813cU,
  0xa52ff1ee2612dfc0U, 0xcb030212d309291eU, 0x6509da0ffdeb0ff7U, 0x1fd918af17812ed4U,
  0x128d763205f279e8U, 0x14f1edb89a2e172eU, 0x9b4d1a52b5598c19U, 0xe55aefc30628271cU,
  0xc2dea7eed3a70294U, 0xe12131e0bccee511U, 0xdb81dbb734075b2dU, 0x33165afcd1ccf5ffU,
  0xe6faebe62cb0c5dbU, 0x576036f30e5611ddU, 0x55222926d9d8bba8U, 0x120ceae548b681d7U,
  0xfefc161311dbf28aU, 0x3de8a0011cfeb464U, 0xaf0cafd750d3baf1U, 0xecdae9e100496f1bU,
  0xe620eaca25ab14b0U, 0x99e95fcfdd16dd17U, 0x2417f2cff518c326U, 0x222bf7d33313f6e3U,
  0xfc56e248f92425f9U, 0x3781e2c3f5b103feU, 0xdef7db22b61cf70dU, 0xe3fa2aaf8ff8f6f2U,
  0x372a1a2102eedcefU, 0xc0cb8b0938522e3fU, 0xae9a21e917f7118U, 0x84980a00e5cef610U,
  0xc8f9cb2726c357eeU, 0xd9427fa0eb0ee80aU, 0xf64f1f460d3f9d02U, 0xea5d58b12ae3efe4U,
  0xfbee1dec140371f8U, 0x600f72322d81e2cU, 0xbce72001abcf0229U, 0xe20bebf86e29b610U,
  0xd02530ec08c4e3e4U, 0x4ae429dc0e283936U, 0xe59ddfb0bc550f2fU, 0x81dd1a099e30f251U,
  0x7f1902e320f9a949U, 0xc5024cc460e130f8U, 0xc3c8d80738d8332dU, 0xfabaa7cb7616cd39U,
  0xff5842051232bdd0U, 0x41bd4aac5d825d2U, 0xebf31c7217121dbeU, 0x526229f719d2813dU,
  0x604e6681030d0c8U, 0xed0fe8f00ed5fef9U, 0xf8fee9fe311bb7d9U, 0xee6cfc012d0190bU,
  0x10e5193223084de5U, 0xcd01ff080f030becU, 0xebdf10e53cf9faefU, 0x12e80341f034f6e9U,
  0xbdc5c0e73a50eae0U, 0xb2b75202b2232781U, 0xe9e431fd1f8bfc21U, 0x120bfbfd0606090aU,
  0x4f81503e714ea01U, 0xbeb2d629f208efd9U, 0xc6de10d3ceda05eeU, 0xd153c7c207dc0d2dU,
  0xc15c0f831847fcfU, 0xdd4408b4dd026402U, 0x1000db09d81f031eU, 0x2081a6bef1d7f24U,
  0x2d182506b7e70b03U, 0x3213d08f65060c34U, 0xe202c9eb0e1208f2U, 0xb13219ec10e3de22U,
  0xdbfd3b7a1213d700U, 0xe609fdfd2a36d7b9U, 0x12f1e1373dc97feaU, 0xd7fefa1ddd0bfd0eU,
  0xe2c68e0991b231f6U, 0xb219fcbd1781f3d7U, 0xe4d613e65122f2f2U, 0x610f9f4fee0072dU,
  0x6e1de221f2d15edU, 0x370c0907f40e00d5U, 0x6dc635a41112ed22U, 0x23a3cab5b415cce7U,
  0xae6bfae51c6f7dc7U, 0xf707e1237fe6eeacU, 0x423fc0836f2fb16U, 0xc37e4f1eefc37d3U,
  0xbb4d3ae40c1ef21eU, 0x12eb7e3ed40bc829U, 0x222a461f0a003336U, 0x4ed281d8becde8dbU,
  0xbcdf17cbda3dd60eU, 0x8cb2d5ec90672b18U, 0xe9e60ef478d255bcU, 0xeae3e8104520f3e9U,
  0x1dc2c251602fafcU, 0xe2b1a6682721f8ecU, 0xcaf0d0079e3f2f00U, 0x88d6abe481b63c37U,
  0xd63418f537f35506U, 0xe11af3cdfb09392cU, 0x4c0a01281cf544c5U, 0x2929d10e26f5f018U,
  0xdbfbd4cdd8e8eadaU, 0x33f8d8e8dbfff27fU, 0x5fd083912d6120eU, 0xe0bc2a1c00f741fcU,
  0xd30017b905e300c7U, 0x1d19001eedde12ebU, 0x1de7e9bf281b810aU, 0x2236231f9f4e26ebU,
  0x16490f2329068e1eU, 0x2dde0f7f44d854dfU, 0xd736fbd041d7bc1dU, 0xdfc6cbd62a0318e2U,
  0x152a0eccd14bdc0bU, 0x901eed9f3012918U, 0x3b08d51b05f80715U, 0xfde7070cebf9f52fU,
  0xe4edf8e337e4c3f7U, 0x1f95bc4ebe04e5fcU, 0xfabed5ea522eccc1U, 0xd9df0cc6ce656101U,
  0xfea450860bf7fb5U, 0xd7357f2b05e028a9U, 0x17f4cff0b3e6ee05U, 0xdcfd391dfae70ad6U,
  0x720aa10051f2c04U, 0xbdfa94e7fc3f34acU, 0x2bf00cfe151c0507U, 0xfce0500ba30f37e1U,
  0x7f403a2310efa32fU, 0xe424ddce50b0443aU, 0x2427f2451dd40b4dU, 0x3b6b1c0f1ee7aa1eU,
  0xe2faa0edbbfb1ed0U, 0x690409e514175d16U, 0xdd167ff9f0c31852U, 0x8f8d50fd06001e5U,
  0xef0233c151bf1f9U, 0x5f8cfdffcda18faU, 0xf14d1a0036ce43ddU, 0x94647eac41b1216U,
  0xadc005151ee30507U, 0x1d2eca0a00ee2360U, 0xa423eda10635d2fbU, 0xa2460e81c85b1915U,
  0xb80eef653bba080aU, 0x3ae8e70829ead19bU, 0xe6d440d14b1f6c0aU, 0x29f818d722e62309U,
  0xeb0ed1fdf0d38110U, 0xf631ad1ab1d1570aU, 0xc1551e9372ba6f7U, 0x1133d4d410fe2936U,
  0x34e5040945f509f7U, 0x16caf30fe418effaU, 0x32a2f9d3290ce2U, 0x34fef4eede81f731U,
  0xb5dc5fd0f007d722U, 0x81e928ac2ccd1f1dU, 0x10441ce90e1bdee5U, 0x6be232cf824fefeU,
  0xfc18ea13db0123e0U, 0x2d9fdcf2ce924ebU, 0x2a25f91fe1f8c207U, 0xda2e1c0d062ae5dbU,
  0x1de410fe13242c1aU, 0x22e381fdd92e23f5U, 0xcfd9050b0602f618U, 0xecedf5eccf0f23f3U,
  0x412ae85321f70dccU, 0x515ef1bfe0ce8b8U, 0x1781c8f3bfc51fb5U, 0x6ff6ee37e419bc45U,
  0x400dd403d43d059dU, 0xbfcccfc97bdb6fU, 0x1fe8b12b351b5debU, 0x1d240cbf8152f4bfU,
  0x43fb313f128b732U, 0xed0db8ef0a38e00fU, 0xe54f1b3346ddd9eaU, 0xcab113104cdfe241U,
  0xf5fcc4e7fa1365f0U, 0x1d38ec2422f5e2fcU, 0xdd1b2544ccfef6dfU, 0xfd7fc113dffb59d3U,
  0x33ccbeb4022f0663U, 0xecf511f6d42a0b0cU, 0xd80ace63eeddd221U, 0x16e7db235341f3bbU,
  0xdbb930a2f6e23be2U, 0x22f3e7d1e1fe46edU, 0x3b14d6f5050e8837U, 0x352ddc0a810a1f05U,
  0x900c3a090b439d00U, 0x20392ee00100fde1U, 0xf722ae141768a6e9U, 0xe85244b5db7fdeceU,
  0x4af8e1e7c0de2af3U, 0x10cf00fbe0e92024U, 0xfa7f0d253aee293bU, 0xd8e2b809eebdd35dU,
  0xa1081908ed0bee25U, 0xf9242542233afeU, 0xe2ee00ef07c62e52U, 0xde0be9eee41e1dfcU,
  0xe8fc39fe30d9d1ebU, 0xc7f33ec2004e7f9U, 0xe1d18d9d6db2bd2U, 0x20ecdbb242c09eaU,
  0xfc1e15ddfa43edc5U, 0xe21613e5e904f7f7U, 0x2634ebee1d250507U, 0x10c70c08faed352aU,
  0x132c080f3f02f0e5U, 0x19f0ab542d28b3ebU, 0x2e0df2ffef17d7e7U, 0xf10bccceda175235U,
  0xa25408607ff056c6U, 0xb259441b6f8d53e6U, 0xfec20717e2e1d325U, 0x35c181c4a2219551U,
  0xc212951d161584d8U, 0x39e41c08fb074906U, 0x1f07e0e426ebe6bbU, 0xefda1500fff20bfbU,
  0xe0db3207dfe6eec7U, 0x64c2f31d2cffed15U, 0xfc9dcb9f919d3f2U, 0xdade4a5181520705U,
  0x1b023b6f05dea611U, 0x31d737c3ada52428U, 0xd8be498cd17f10a3U, 0x27e8fb0bcac7a1bbU,
  0xb0b4a4f0ff48e307U, 0x1dc0f7e1a5da350aU, 0x312819ef4306bdaU, 0x30f5fec9e4d4299fU,
  0x11c1eefd46c6a2fbU, 0x2324cdf6f1abd8fcU, 0xc73c16e0f3a8e906U, 0xdb0205f1fb4147f9U,
  0x15dc12e07aeff5c1U, 0x162102143234d425U, 0xf405fdff1c1511efU, 0xe7133af207dc2afdU,
  0x1312ef0d811b2e4aU, 0xfd30917c9d2e011U, 0xfea26814dbfa13ffU, 0xf6420dea4b3448cfU,
  0xfa1e26e511491342U, 0x42b9f2e681932d04U, 0xf0e7dbfe3e76ddb8U, 0x201458dbea0103edU,
  0x6cdc93b281cU, 0xfffffff6000004ceU, 0x45600000a1cU, 0x821fffffd71U,
  0x78bfffff4ccU, 0xa420000162aU, 0xa650000104eU, 0xc7000000501U,
  0x10ab00000850U, 0x1a700000a1bU, 0xc07fffffebfU, 0xbc00001428U,
  0x1f2000017afU, 0x601000009f4U, 0x460000004fdU, 0x91d000005feU,
  0x816fffffe47U, 0xfffffb9800000766U, 0x5afffffd51U, 0x8de000012b6U,
  0x39b000008baU, 0xffffff3f00000ddcU, 0x230000122dU, 0xfffffaf60000054bU,
  0x2f0U,
};


ai_handle g_network_1_weights_table[1 + 2] = {
  AI_HANDLE_PTR(AI_MAGIC_MARKER),
  AI_HANDLE_PTR(s_network_1_weights_array_u64),
  AI_HANDLE_PTR(AI_MAGIC_MARKER),
};

