/**
  ******************************************************************************
  * @file    network_1_data_params.c
  * @author  AST Embedded Analytics Research Platform
  * @date    Thu Mar  7 16:54:21 2024
  * @brief   AI Tool Automatic Code Generator for Embedded NN computing
  ******************************************************************************
  * Copyright (c) 2024 STMicroelectronics.
  * All rights reserved.
  *
  * This software is licensed under terms that can be found in the LICENSE file
  * in the root directory of this software component.
  * If no LICENSE file comes with this software, it is provided AS-IS.
  ******************************************************************************
  */

#include "network_1_data_params.h"


/**  Activations Section  ****************************************************/
ai_handle g_network_1_activations_table[1 + 2] = {
  AI_HANDLE_PTR(AI_MAGIC_MARKER),
  AI_HANDLE_PTR(NULL),
  AI_HANDLE_PTR(AI_MAGIC_MARKER),
};




/**  Weights Section  ********************************************************/
AI_ALIGNED(32)
const ai_u64 s_network_1_weights_array_u64[7122] = {
  0x300000001U, 0x700000005U, 0xb00000009U, 0xf0000000dU,
  0x1300000011U, 0x1700000015U, 0x1b00000019U, 0x1f0000001dU,
  0x2300000021U, 0x2700000025U, 0x2b00000029U, 0x2f0000002dU,
  0x20ed13e6f8330ce3U, 0xd70e7fe6e100f20fU, 0xd025332c33faf2eeU, 0xc87cd6b9d91dc610U,
  0x3e34f4340d1d71eeU, 0x7f0cd223fbdd150aU, 0x212a1a14fbc01ae5U, 0x11eb7dcfa81bf65U,
  0xf163e1f24d9f438U, 0x4bf961c8e61c0fc0U, 0x7fa9e3ba135308c0U, 0xa6e408f8fac5160eU,
  0xf0faeafaf72df9fcU, 0xa0338ae1e417fc18U, 0x26462bbc22e4f47fU, 0x1d3a3721d8e213e3U,
  0x7f124dceb7f6e568U, 0x22b12351d3d86719U, 0x95c608580c890d22U, 0xf2eeffdcfe811f5aU,
  0xfe0112351ef6dcfbU, 0xff77fb71cec19faU, 0xe5c7e2c8d81b17caU, 0x9cbcf559ea226929U,
  0x1448d422360f1c09U, 0x305104f2c2ef20daU, 0x54d9200f37107fecU, 0x322d3d23eb31c6deU,
  0xe8f509c8f5c3f9fcU, 0xb085f72e23cc7f20U, 0x3dcb48507fa34e18U, 0xea072cf1089fca58U,
  0xe6fc11014bf41013U, 0x19bc557f031514c4U, 0xee272ceff139f9aaU, 0xf6fc1001f9e4f300U,
  0xdafdcc25f51f0a39U, 0x390d0301160407d7U, 0xe573041de40781e4U, 0x99c38a563b81614dU,
  0x15f1ec03edf7d92dU, 0xf1fb121cf61302dbU, 0x9e6c31d041f0c81U, 0x8170bc9f8e2e811U,
  0xe6ed09d73bf02802U, 0xf4cc28e5f00df726U, 0xaf7f0b25d5dd18f2U, 0xbfc1d60dd15a792fU,
  0xf12123303d3a6613U, 0xd22757e5b72bfa44U, 0xf1fb7f0b2dcdc856U, 0x40cc3de77f1819d9U,
  0xe2cc66d788b22916U, 0xe80f0b050af3d7b8U, 0xfc25f997ed1dfe11U, 0x16ef0aff04cd810cU,
  0xc17f9fd0713f6e9U, 0x1fef0e0a320dfa02U, 0x1565a9088edb3ae0U, 0xfa8f1a18dcfe7f5bU,
  0x1cf03700e445ffdbU, 0x22e92b05f3e438d9U, 0xddf27fca1e18ee3cU, 0xb0de812fb7a7c843U,
  0xb41847c501a40c02U, 0x15fe4d72162148f4U, 0x120df30d11e90412U, 0x174e1f6457fce8eaU,
  0x897fc806191490f5U, 0x31d84317121426deU, 0x5ad6ce24fae1f009U, 0x2fbdaf3377ff514U,
  0xfffff39a00000399U, 0x17c800000219U, 0x4a900001dd2U, 0x1bd5000020abU,
  0x25a2fffff1f6U, 0xfffffe4ffffffdc1U, 0xfffff666000012f8U, 0x117f000010e2U,
  0x1c1affffe9b0U, 0x136a000010ebU, 0xfa00000043fU, 0xfffff6c100000e6dU,
  0x23f3f30efa17f5feU, 0x1b0903f407fbf519U, 0xc4f7e6f106f709f9U, 0x4a01e21df023e009U,
  0xfe16f67f150002d6U, 0x1635c4c3c801ffe4U, 0xff0dfdf9f5fc04f3U, 0xe9fa170b02f7f9fbU,
  0xef08f502fe20f5faU, 0xd9e10c0ee6f5e7f1U, 0x44e2f64202f0ec2cU, 0x7f811a53ecebffe7U,
  0x81827f8186df7fb8U, 0x8181a689dca4a881U, 0x760f7f7f7f817f9dU, 0x1930ea57ca816c7fU,
  0x9f6881f8817f7f3eU, 0x3454b0f7ec480781U, 0xf82afa03212f05f8U, 0xe8f4fe00fbf0ffe8U,
  0xdefa1513d61af6f9U, 0xf37f14387fd4d6e0U, 0xe2f3e9edf1df0764U, 0x2a0d4e2d4f7aa0b3U,
  0xefcff7df3dd8fd54U, 0x5afcf007f5190c32U, 0xe6f9f6ff06a11db2U, 0xfffff75ffffffd97U,
  0x23a000004c5U, 0xfffff89bfffffda3U, 0x604ffffffdfU, 0xfffffefcfffffbc4U,
  0x58f00000145U, 0x3eefffffbe0U, 0xaed000003dcU, 0xfffffb5a00000ad4U,
  0xfffff8c700000055U, 0xfffffb24fffff5d1U, 0xfffff7a6fffffd9cU, 0x9f80810f0e3f67fU,
  0xf8d4eb08f928edcbU, 0xebbd192236fdf0daU, 0xa14fcf5f6c2f4d5U, 0xc81331fad70f107U,
  0x120eaf19df030968U, 0x910f6f2e4337f03U, 0x22597f181efe51dU, 0x68e434db2a302029U,
  0x7f030af1e9111001U, 0xe91bffc0fcf0f6feU, 0xeff2ded8e501c0efU, 0x4d020381ede003U,
  0x1c0301000b040100U, 0x3fe0f0a0c193128U, 0x235a17df01091cf2U, 0x2e8f010cf0ff40fU,
  0xd5f6f5edef81fb20U, 0xaf400f314f40708U, 0x24fcf68c0be7fa3eU, 0xef7fe24eace71819U,
  0x56c4a82a7f1617eeU, 0x361233e809e6f866U, 0xfcf3f9d639da59d4U, 0x1ef0cf82604e4e0U,
  0x35eddfde81c4f2e1U, 0xe1fdbbf1ddfcf40cU, 0x14f37f0814ed6533U, 0xc202fde71b3f12ddU,
  0xe0c01f926dcd71dU, 0x18ef7fc1d80f0605U, 0xf6f12119da073106U, 0xe594e16643c9cf3bU,
  0xd1e47f3f0cddbbfeU, 0x50c2618fc2aedf1U, 0xe0150bc3fde7251dU, 0xbd8e03277f0beaf7U,
  0x390cd801262102f2U, 0xd00edea18071e14U, 0xcdb3c130de20bedU, 0x2d9c226fe8101edU,
  0xe1121b260d0412efU, 0xe7f6b20d03cf0dd4U, 0xe23302fc812a6bfaU, 0xcb48e3e3390169d8U,
  0x6082c0705bceb21U, 0x14fddfebf10caef6U, 0x97f24b6e402fd19U, 0x70700ea030604fdU,
  0xf0fff205f5fd03f1U, 0xfbfef701fd7fe710U, 0xbbf6dbe5f90613feU, 0xf203117f010ce426U,
  0x1ff15141506f512U, 0x1e09d6c0fb8be973U, 0xc2ce305107f763fU, 0xe8e93524ea051471U,
  0x601e50bfeeb1b00U, 0xf70ef4fdf3187f08U, 0xf9f2f401e6ff0a13U, 0xf9e53014e8ea1b05U,
  0x7f9995f91117211dU, 0xc1f89e53e60fe73cU, 0x5f98fe3cd61e1568U, 0x628edafe26f3ec77U,
  0x81cd64ead5e3f42bU, 0xc101b5ee713effaU, 0x8ed1135f5faeb15U, 0xd4f7fd097f105a06U,
  0xe9e9161902e2f50cU, 0xdc7ffb03c7ebdc04U, 0xeeee1d07e6f8ed1bU, 0xfffffdff00000385U,
  0xa100000a57U, 0x4fffffebeU, 0x18b000001f4U, 0xe8b00000556U,
  0xffffffe900001512U, 0x5c8fffffe92U, 0xae0000088eU, 0xffffff84ffffff49U,
  0xfffffee100000290U, 0xe24000002d6U, 0x26000000ae9U, 0xf5fc075dee0e0ef6U,
  0xd6022a0000f87ff0U, 0xfc0deaee2804fceeU, 0xefd818ffe6f0fee0U, 0xfcf2df6ee61817f2U,
  0x7fb8f23ddcf011dcU, 0x48dda8ff072bf13cU, 0xaff6cc3e818b2440U, 0x2ff1d9ecef42063aU,
  0xa7235a54e5e13712U, 0x231408fe52b47fc6U, 0xc4ee705e7b6dffeU, 0xf70f7fa99087d8d0U,
  0xbee411f7680e12e2U, 0xf50132e4d50919c2U, 0xeb8e38f11c04c9a3U, 0x122d2739001a5100U,
  0x177f0909ee1acafeU, 0x24940c5904bf0a0bU, 0xd801fdfffd107ff8U, 0xeae302163a255004U,
  0x3cd2f80615f51531U, 0xe7f8cd137ee4071eU, 0xeae0ef7be87f251cU, 0x392714c3741b4fefU,
  0xcf3d8fe2b057fd0U, 0x229193e1adde1bbU, 0xc24209e525d73d43U, 0x2ff40fed0c9fedf6U,
  0xfff081d5def1e70bU, 0x160b1de057fe3615U, 0xa0a3e003eb260c19U, 0xb7f17fea7e0d1a30U,
  0xc213c0f8157f5b2bU, 0x23361736d4f8a17eU, 0x15112dd33e1ee0aaU, 0x97ac4437b6956619U,
  0xf4020d0a44f67fe6U, 0xfe12fe151ce41d0cU, 0xccee43e02f1d312U, 0xfec4e6b9dadbdf00U,
  0xd0b48bbf27fdfc3U, 0x141a10c4e511ce44U, 0xff071aeb1ff6be7fU, 0xf613eb05e8e8da02U,
  0x11ea0dd7eb0cef01U, 0xbfc07fb81ff0a21U, 0xf80f120af722ef0dU, 0x1afcd4810af31c51U,
  0x2b08dccef1f2bc62U, 0xebdf16b3b6e7001bU, 0x1ce457f8dbe997feU, 0xf648dced00ef38f2U,
  0x2930c7d2260e7f52U, 0x7fe3f928fe17042aU, 0xe5f6ec05d80c031aU, 0x11f608050a19f931U,
  0x2302c3f3c70934fbU, 0xef81380c22edc701U, 0xbf04b00e9bce2018U, 0xa3c7d3ddbaa8180dU,
  0xf5477fefef2ac1d8U, 0x1fdf47de0afe7a75U, 0x1ad856d7b4f9b87fU, 0x31ce28eee5c04aebU,
  0xdd12134517fff70dU, 0x590bacdaf77f17d9U, 0xd0404f9fe0a3a02U, 0x16091d06f5f2e1U,
  0xe826ef7fb119f5cdU, 0x70122a8feb72ae9U, 0xac0fa118ccbf0e02U, 0xedbfffffa26U,
  0xfffffd4c00000780U, 0xfffff4d900001f19U, 0xfffffd80000002e4U, 0x116efffff81fU,
  0x1a7ffffff522U, 0xcae00000be8U, 0xe10000020f5U, 0xfffff0e50000195aU,
  0x1aa3fffff962U, 0x46d000023b9U, 0xf47ffffff62U, 0xfe04081100f0dd04U,
  0xfd001002ea18f6feU, 0xeffaf7f511040eefU, 0xf403fb030614fb81U, 0xfcf1fb11dd4a1febU,
  0xe6d301fce95f0f7fU, 0xe1212fecedfebU, 0xfb3704fbd13f1602U, 0xe103ee1900233a12U,
  0xffa601c940bcf0aeU, 0xfb0a4911fc7f6cdcU, 0x54f7f8119ce21056U, 0xec7f8181817f8169U,
  0xe8817f47ea767fddU, 0x7b7f7f818e817fa5U, 0xd71ae91bef4bde3aU, 0x7c05c19b006b17fU,
  0x7ff12bcdefdb3bb8U, 0x14d611382d08dc0eU, 0x1111e12e6081008U, 0x27f6eb468210d30fU,
  0x7f02ccc2085cd64dU, 0x7f5668816866ec47U, 0x3e1415fa8117fdbfU, 0x4700edf3054208bcU,
  0x161b3edf7f21e6b3U, 0x2ec03f7b50e0b18U, 0x1373000001aaU, 0x35efffff2f2U,
  0x7ac00000adcU, 0xfffff71cfffffb92U, 0xfffff59ffffffd0aU, 0x8fffffec4cU,
  0xffffec6d00000031U, 0xfffff8890000033eU, 0xfffff50bffffff33U, 0x2349000001cbU,
  0xfffff45f000008b2U, 0xffffe6adfffffb66U, 0xf5c5d1f6fbe6070aU, 0xdf394f21227e8f5U,
  0xd24aacca0c7ffe12U, 0x16e1f2b6fc030b33U, 0xe01ff51ed2f80821U, 0xebe210ba177f0618U,
  0x15e4fa2afec97f97U, 0xff1bfdf8ca4fcd34U, 0xd61cca074e16e1b1U, 0x581120f540103feU,
  0x4e9f92907e6f111U, 0xa08df14130444f3U, 0x1ad7ee0023110316U, 0xf9daf481d4f2ff0aU,
  0xf8ff0404110101fdU, 0x2a25181cc2d6097fU, 0x4eeb1ae7caec33bdU, 0xd563d41059090140U,
  0xe9fd0d29e80d0003U, 0x7ffdeb2ad40705e6U, 0x23fed5df1df5ed13U, 0xda1cfa0418edd250U,
  0xe22e121932f1f1d2U, 0xe4e71d22f0812043U, 0x62124fabceaba392U, 0xd0e7e5305225ee03U,
  0x52cb90f9814517b5U, 0xbe2e6727f7641dd8U, 0xb4116cbc413d7f3U, 0xdc8925c132ec7f2cU,
  0x121aebfef4f36b38U, 0xff0ec812dcedff12U, 0x7ff51c02241f53f9U, 0xff19f621477fe7c7U,
  0x28bc7002ebc8551dU, 0xbf06373215bb90bdU, 0x3a5ba9b70704f93cU, 0xbb27cf0ffaf3b338U,
  0xa2ceba3b55dd7fe4U, 0x32ff70481121007U, 0xe210d0d4f3d2cfccU, 0xd1e40413d0dd0b30U,
  0x7fe4fab8ecc652f1U, 0xd0d9431d42ebd602U, 0xe8297014c70303ecU, 0x6cca2410cd140fedU,
  0xfb81b4ed23ca640bU, 0x60d53cd725fb0ae3U, 0x150f5d7ff87fdce9U, 0x16e5ec202c0706cbU,
  0xe7a5e03f6e03ef6U, 0x5070134340204bfU, 0x112d0c33f6ced7edU, 0x97f5fe8d9fdf2a8U,
  0xec1aa4fae7eaf3edU, 0x262c3f3435ceebbdU, 0xdce9f58115eaff04U, 0x1b1f10e37ffb241eU,
  0x1dceec250c4edf04U, 0xd51e018e271d1000U, 0x10fa8113fbe00ad5U, 0x580328f9dbfa03faU,
  0xb3b11f035e5eb03U, 0xc6200716d4f6eb19U, 0x2c7ff40707280919U, 0x38f32befe515cc4eU,
  0xe2f30e11ee188134U, 0x250d3808eb66cfe8U, 0x3fc932352afcef1cU, 0x221606280cd90b3aU,
  0xd921fa0a0ee6f27fU, 0xe51920011a150d2bU, 0xf000000252U, 0xffffff040000044dU,
  0x2ffffffeccU, 0x14affffff6fU, 0xbd100000a44U, 0x4dc000007ffU,
  0x2bb00001282U, 0x859000002caU, 0x34f000011eaU, 0x26b00000607U,
  0xfffffcb600000202U, 0xac00000659U, 0xfec0eb39091b0ad7U, 0x7f01b83f0a0afbe2U,
  0x171ec83d1755e7f2U, 0x1bdfc121a1f1a15U, 0xebfef228054b1df9U, 0x7fedead4f2d5ffd9U,
  0x23add803e4f2e2a9U, 0x5f5ef4fed5c68424U, 0x72f3a91ec77f07bfU, 0xed4e159d9ee44f4U,
  0x315d08f2ca17363fU, 0x6fe2107fcfe3f497U, 0xee2a4ad3aa0108feU, 0x27faaf61a475277U,
  0x45050ec0f14dfb5fU, 0xf67f3dfb13a906f6U, 0xd1213ed51c2a07f2U, 0x27a3fed0ef0ee5a9U,
  0x26f2f57fc5e423b1U, 0x1e81038d4d3eb39U, 0xbe6fecddf02f82aU, 0xcaf77f0d9541b982U,
  0x21aa937dd191504U, 0xf010aea3809f4bcU, 0x9e39f48e48c342f7U, 0x690091333a37417fU,
  0xe3e232299126cca2U, 0x7fe4f5b4f4fde4b9U, 0xd4072803f2e0f9f0U, 0xe935a10a5d660ce8U,
  0x8ae2a4f7fafc08bU, 0x6860f712c06f133U, 0xf84b0400d3fda1a0U, 0xfe0981fa38f0d2afU,
  0x2a3130d10915f92dU, 0x1ea313f6d041aa0fU, 0x1127d2fb29c55f24U, 0xfbdcf1dc281cc37fU,
  0xe0fb2936e3333f11U, 0xd7f2071bfd2d1279U, 0xc5eb4b1a08f667feU, 0x92c37fbaffc849d1U,
  0xc77fafcdf000afe4U, 0xe7ecdcd49779fcfdU, 0xfcef4531cb330148U, 0x9f0a03e1810cfefdU,
  0x5df3721e5d01ff9U, 0xe5ce31a17ae14bd6U, 0xe991b02351c1fU, 0xb4af2d595bd5b17fU,
  0xf03923d0f53cfe33U, 0x81e985223772b0daU, 0xf1e5e90fcacd60ceU, 0xe321f4e37cc833beU,
  0xbf7eb217fe1fe16U, 0x40c17e1fcddf8f4U, 0x8100805e329fe0cU, 0x682c20d5c2006b6eU,
  0xb8d2177ffea8c112U, 0xbe11660e332dd270U, 0x8fbf22d02010b0dU, 0x10effd1f7fe906caU,
  0xfae00df20104ef00U, 0x4f87f0f1e17abb4U, 0x1304173624e60020U, 0xead90609f20b1a07U,
  0x90dbf0d6f813e28U, 0xe80c01f90afef935U, 0xf7d309f7feff12d2U, 0x1cf50d2029dd1925U,
  0x1c187fd205def80eU, 0x1ae61520caef0c18U, 0xfffffe6f00000219U, 0x26300001717U,
  0xcdefffff05dU, 0x1a090000018aU, 0x251600001d20U, 0xddf00000ae5U,
  0xfffffd88fffff575U, 0x28bc00000ffeU, 0x1958fffff4e0U, 0xfffff5a80000049fU,
  0xfffffa3bfffff43aU, 0x1d300000992U, 0xf021fd72af1dc03U, 0xdc0afedb23e2f90dU,
  0x1405ebf50ffb14e5U, 0xe5e0ed31ccfc3724U, 0x48031a9e112bc7b8U, 0xc1013570008def3U,
  0x26f3caf4ea110616U, 0x7f0200dc26f348efU, 0xd619df230232fc26U, 0xbd007e3015e87ff2U,
  0xec5cfebffd0b0643U, 0x1a06f0f6d0e81c0aU, 0xb17f721081816b38U, 0xd67f7fb4817fa525U,
  0xbb817f7f854e8181U, 0x7f32edb8f129067fU, 0x774ef839a7097fbeU, 0x81f85747539cc89aU,
  0xf9ee760301ff32e3U, 0x27e50f2ff4ff1d14U, 0x60ed5ffcf151949U, 0xd22c7f81a7fbe6fcU,
  0xb834227fa71d0a7fU, 0x29db79238129a822U, 0x284246f004fdde28U, 0xb910fb06af0319c2U,
  0x180826013b81dd84U, 0xfffff85ffffff395U, 0xad6000004d3U, 0xffffe638000006a8U,
  0x19cfffff8f2U, 0xfffff85bfffffc57U, 0xf65fffff73aU, 0xfffff6ed000003fcU,
  0xfffff7befffff2d3U, 0x112300000c36U, 0xb0b00000297U, 0xffffee7afffff7c7U,
  0x6f9000006a6U, 0xb02e20808df00c8U, 0x7fce1e1ed708f75cU, 0xc21ded340e1beb11U,
  0x39e5f604f61afe37U, 0x1532440b27136d35U, 0x1ba925fc48287fd7U, 0x25c136311dcdff04U,
  0xe2da994fcb37d281U, 0x24d4b68a5205fb7bU, 0xeae30ed9e42a05f5U, 0xeff641e102ccebcaU,
  0xe81ae1d05ee49faU, 0xffa3fb0f3a38acf0U, 0x9026024206ecdfa4U, 0x37632e7f4764cc08U,
  0x775a5f576cf3ef47U, 0xf505f0dff8b40a32U, 0x42221fe38123da10U, 0xf0737f10b201f505U,
  0x10ff09f234f0fd06U, 0xcc1ee42712fbf347U, 0x36e80a26c49f7fd0U, 0xf4d8bbd5eade59fdU,
  0xf81c1dedfb3c0309U, 0xcf3cbe17f1e5ca72U, 0xcf0508813a0e36faU, 0xbc1be8f2c6472a3bU,
  0xf23c0d0432d6f83cU, 0xf3fbe71bd17feb3cU, 0x5a4aaf3feed13e2U, 0xfee3e8ff0ee9fabdU,
  0x2edcfedfc1f5024U, 0xb8f0f82c287f270eU, 0xece9d893a47f4a02U, 0xf931280bc9f72b1eU,
  0x8f1bf5a42e220ef4U, 0xdb0ee033448fda7fU, 0xa0a5a22e2190f063U, 0xd04034c42af551c8U,
  0xd52c0ef50925e1d4U, 0x1010ee812eb152eU, 0xfbf72238d1f80a81U, 0xe107f1eb2647ef09U,
  0xe7e4641efb0028dbU, 0xc270d5052b8137f1U, 0x3fbeeeffb25ff34U, 0x6eba261e81e4b82bU,
  0x1ef2ff3e30cb2930U, 0xfda1c63010c0337fU, 0xf4eb2ed1f7f012e2U, 0xb2f01d01b8e0afcbU,
  0xf402fcfd1a08f203U, 0xffa431e4f43ffe3U, 0x81a7fbc1b0a2932U, 0x1bfc1cc6261fe8e9U,
  0xfce10ddce8b9aa0bU, 0x25fabdaa16f581f0U, 0xcc0127127fbbbc04U, 0x4419b206b0f2b9ffU,
  0xf823fa0515f11e32U, 0xd234161807ce0d1eU, 0xdc72d82ebd900721U, 0x222b8141163a3dadU,
  0x81dcf722c8e7f5dfU, 0x1b0ee631fa1403cdU, 0xd5f9fa140ff708f4U, 0x202d0553d9e73f51U,
  0xb21ec7f6b4cc213U, 0x3817f748ddedf7d7U, 0xcce1f884fbdf2d27U, 0x31811533bacdff1fU,
  0x7a3633f929d7f714U, 0xfffffec4fffffe2fU, 0x30500000437U, 0x2200000033dU,
  0x12e000007f9U, 0x1c800000067U, 0x68dffffff7dU, 0xffffff2a0000099eU,
  0x1d2ffffff14U, 0x29600000259U, 0xfffffff80000026dU, 0xbd00000325U,
  0x34100000431U, 0xe71efedf1db82cc6U, 0x1fece3d606d429b7U, 0x8a4d40eefd3e902U,
  0x17dd2cfb0ed91ef3U, 0x1f25e2e53ce7312eU, 0x55e9e2410b09d612U, 0xb26137b711812dedU,
  0x48b3bee0ebaa5581U, 0xb6b3ba36ecbff162U, 0x1c1b30e413e20b11U, 0x4845250b0da33737U,
  0x7ec5ed5f3c17e00cU, 0xd25127ea218b16f2U, 0x4bcceedbddd0529cU, 0xd5f1c03aaee4010fU,
  0xf6aefeef08dddf03U, 0x1d2c2f31e4c81a41U, 0xfde011074afbf7c0U, 0xc599fff14bd641bcU,
  0x3be9b516d7c1390eU, 0xe192a735e2bde320U, 0x44fc37250a0b2b4eU, 0x20283ec37ff35f3fU,
  0x60d4cc691d1d1809U, 0x811ddd397fbd7fadU, 0x6a81863898817fbaU, 0x8181817f8181817fU,
  0x7fcf7f2dd8b34372U, 0x7f7f7f81594d7f66U, 0x4d81a2707f7e3029U, 0xa244dd4430ba45b1U,
  0x7f9d8139a09069b1U, 0xbeceaa669dcba564U, 0x39c25d11a181484eU, 0x794761e0ca7e4957U,
  0xcfbb027f6c461a55U, 0xe387f1f322f511f3U, 0x10fbd92bbed3161cU, 0xdeffcf2fd313ef35U,
  0x21c41b61d5fe2b20U, 0x244454aa45d62710U, 0x27e3c827182e1623U, 0xce8181774f3d4681U,
  0x2ad4b67f81b93e20U, 0xabc19d569af89e25U, 0x7281657fa3ed7f7fU, 0x706b5ea669cc727fU,
  0xc2b2814b407f7f5dU, 0xcbf08d7f2f2d2ab6U, 0x33d5ab57a6d52afaU, 0xbeefb83ebaee8e43U,
  0x419c7d5c81e6233aU, 0x762d462b037f5a5aU, 0x81edcb36513e677fU, 0xffffdc9000002627U,
  0xfffff1b9000011d9U, 0x19baffffe8bcU, 0xbf8000002a8U, 0xfffff07800001593U,
  0x17d0000012daU, 0x1f24fffff139U, 0xffffebb000000ec1U, 0x2776ffffe116U,
  0x19370000298eU, 0x269dffffc027U, 0x1f22000013d6U, 0xfffff1e1fffff209U,
  0x124300001326U, 0xffffe166ffffefc6U, 0xffffebb700001ea1U, 0xffffeabeffffeb69U,
  0xffffe8ecfffffc6eU, 0xffffee2e000012dcU, 0xffffe941ffffe89eU, 0xfffff0e7fffff2edU,
  0xffffeeedffffe1adU, 0xe7dffffe639U, 0xfffff98f00001573U, 0xfbebb58a1310fb14U,
  0xd4fc24000ae0fbffU, 0xbf091824e39081feU, 0xe04cffd92c15cfefU, 0x4fe31cf90cf15a06U,
  0x1e110e3537e9ecffU, 0xa730137f5b2cee26U, 0x33d14a1eab31a8ccU, 0xc5312e28f760cae5U,
  0xe6e930b101cf802U, 0xe30b08ceb5295d54U, 0x210e5223164171f8U, 0x71ad5111211b9dfU,
  0x19d3b7ffc307ded1U, 0x27ce17c6212e0ff3U, 0x4d3fcb05332a07e2U, 0x51de0e3e22f4bfe8U,
  0x810506e91905e729U, 0x2d0ff07c4ef1bfbU, 0xe8fcd6ed11fd06cbU, 0xf3f2f5811ed21cf8U,
  0xdae112002ce0170fU, 0xe6c90419f8f9e9daU, 0xddfb15e4f227fbfbU, 0x49ff84f001f2b9c2U,
  0xcd3aeb16810507e5U, 0xdf1a32eddce5b3ebU, 0xdc04d3d7e9b1f5fdU, 0x190419f3dcf74eebU,
  0xf66404006e15b3f8U, 0xdb13e5d8d1e4060aU, 0xec5001f3c2abe1f5U, 0x21e907114e351befU,
  0x52e021ca9cf5d098U, 0xe2c1fcfc1f220ac6U, 0x1e7fe2030a08fac7U, 0xc810413522ad180aU,
  0x189545d0e4dced33U, 0xdbfe05812ff1d3e3U, 0xf7ca303059110df1U, 0xbf829d634e72d64U,
  0xd4f7fb12d8bcc5eeU, 0x1c121296ec13e1beU, 0x340835f711190709U, 0xc7024bc32ee314f5U,
  0x411f11dee62cf581U, 0x3bceee2c241ad7U, 0x5301220ef14bde00U, 0x9d05176910c1a31cU,
  0xa5fb95ff8a2017a7U, 0xf9ec2d9b81b8c13dU, 0x9612e50a4bd5104dU, 0xca6d2d0b8237000U,
  0xe3a920ecd40eeebdU, 0xdfe1ea203019d914U, 0x640bfb099fe71cf3U, 0xe73c413cb98812bU,
  0xdbee19c8052835f2U, 0xe4ebc79938d5c6f7U, 0xcde3b8f607d339b5U, 0x10905190710d91bU,
  0x260de60cf302da00U, 0x202a10f505e51afdU, 0xc1f343080810500cU, 0xfbecf0067f01160aU,
  0xf214ef0135eb092fU, 0xa501bacd06f3dae2U, 0xef24103f2b280f00U, 0xe1dedbc4811ce3baU,
  0xf1d50e0014ebf3d2U, 0x6dbbbebdfebe029U, 0x13ef060e1ceedcc2U, 0xbb00ccc8e62127c4U,
  0x17a556012a272b33U, 0x20082408d1d3c328U, 0xa0fecd03dedfc4fdU, 0x408abf03cef301e0U,
  0x4c73bdee481bf1eU, 0x432f3b3b23e90d02U, 0x8fd47fb3b0f38f8U, 0xf42132fda40fcf4dU,
  0x11c4ef639ce250aU, 0xc527f4dc02bdeef3U, 0xb9ef5f81df184111U, 0x3b17063b0cf926e6U,
  0xe3e1e7013735e6e1U, 0x1d9b8104fa440011U, 0xc3f71ec7e8ed2be8U, 0xbfcbf639cf251956U,
  0xd7bde7a210daed2dU, 0x47f356aef189a45fU, 0x264781dae53eddd2U, 0xe90bbec5dd19053cU,
  0xbde7abf71d3a17daU, 0xbe0bb1cc330a0823U, 0xfc9f4844df36b1e9U, 0xd2f00249cf07bde2U,
  0x31da111a8c1902ccU, 0xfab4302735e50603U, 0xf8ebb7e4ecee10eeU, 0x18caf4082a137ff7U,
  0x43bbdafadbe43428U, 0x7f00ffe1f90b24ddU, 0x90cebfd13f1900dU, 0xed0818f5fc12c610U,
  0xe4e7fa0a0bf9eeU, 0x5fc1609eff512f5U, 0x7020318f6e7fff4U, 0xc71c1235def61619U,
  0x279d151450e8e00dU, 0x4e5e3714f0815128U, 0x6725e113ef25c7d9U, 0xebd17cc0cd2eaa0U,
  0x26a53f0bfe07fdd8U, 0xddb7ea966da247U, 0x68f5e22e7fafeaf5U, 0xe009471a341807edU,
  0xa6fcebe7f5f92b5dU, 0x634dd72324b77d2fU, 0xee13f695d43233f6U, 0xfdef512114fc1c18U,
  0xce0506cff718f5e0U, 0x94f1048141e2dbfeU, 0x1e2a191f4fee0e21U, 0xcde819c208e857b3U,
  0x54ff04ff7c15f4eaU, 0x41f281f3c711aac3U, 0xa40a231ba3c8eae5U, 0x45e741c0aede1c12U,
  0xf018122bb9c85b26U, 0xfd05f12bc714f59cU, 0xf2fb1422bf51a0cU, 0x591734c6fe1ce8eaU,
  0x1981130e252779e5U, 0xd31e16f628d3dec8U, 0xf108ddf83421e405U, 0xfd1720f9d61ff1f0U,
  0xe01e2515e40fbe41U, 0xbe54ccbd834052bU, 0x137e11e24eb4ddeU, 0x344ae436f53965a8U,
  0xffde5441931031fU, 0x7f0ecdfbed02b62cU, 0x59090404ffd0ee43U, 0xee1fe0816f3dcb8U,
  0x1ef0f1123adbe026U, 0x7f18f023e135d3d5U, 0x1e12bc1af7f2e310U, 0x14f0f2f2da1a222aU,
  0x14ed3e2401f8c62aU, 0x49120923f1618126U, 0x3202f5dff4eabbefU, 0x332ff8df56b9e1f8U,
  0x162efce42122e232U, 0x1a2a8ce502fd0dfaU, 0x1223160b02dad4bcU, 0x16374ede32511b96U,
  0x1fb83f28ebd0fa19U, 0x5a2402dcc0c9d050U, 0x21138428f1c915a6U, 0xe5e5e4ba003f12cdU,
  0xd4e945e23f813a37U, 0xe0ef0df9140281caU, 0x803261ff9eaeaf3U, 0xeef822e0fe070d13U,
  0xfbe0fde001161308U, 0xfbf4030625f1f6faU, 0x3002a1015f70affU, 0x1b0b9f3f05deaf5eU,
  0x200ec9efe4ecccf9U, 0x180efd4cfc070a1fU, 0xc1f9f2d4e22a0e37U, 0x470cf0e4140cbf33U,
  0x4081040b1f0b2e17U, 0x394ebcea18c4fbU, 0xd21d0ae1bde02b49U, 0x7a0d38d2b6f481e6U,
  0xf62de8e0d829eff1U, 0xe3ed30d22235cd42U, 0x3006dd236b398923U, 0xd6151fe6b537edfdU,
  0x17b9b92af50f17aaU, 0xd25828e60ff7261eU, 0x22cbf9509c7f1d69U, 0x5b070cecf45b4cdcU,
  0x1d04a2b3e9aedfe1U, 0x8f0877482713173bU, 0xc41b351eab0c7fd3U, 0xec07224636dd63ecU,
  0x135d7dcedfe1623U, 0x1ce91eec0c2729f6U, 0xece2f89c2e1b053cU, 0xe2fbe2d84648c0dcU,
  0xd6e13ddc71d1513aU, 0xa8312a4348ad4fe7U, 0x68dce3da501db8faU, 0x28bd03ff27f02d00U,
  0x379c146aae0281d9U, 0x1eed5040f6fcb958U, 0x8170933f11fcaf5U, 0x3cde226d31ecf61cU,
  0xbcf1efa8112050dU, 0xf9f11f301a1ccb09U, 0x14cdf8f8baed3e29U, 0x8124afd8d7eef522U,
  0xc8a036aaf2008e37U, 0x1ad72cb8f5db33faU, 0xfded003109cbe4efU, 0x352315d9da08a31bU,
  0xb7180d490030c6c2U, 0x200b3cebeca2876U, 0xf50c399a1b0af3e5U, 0xc1f73444e7c10481U,
  0x6343ec0e10d00a9eU, 0x1bcb3ae210d985e8U, 0xf2e6554767c72b12U, 0xd7138ce749fd81e1U,
  0x24fe0afe04fb020cU, 0x3e92bed0625e8f9U, 0xf40bdfb9fe16dc0cU, 0x17f8e0e5eefef208U,
  0x170b00540bfaa8c6U, 0x45e72e58245cd8d9U, 0xcbf2c1051b5be832U, 0xa1cb29fcdd1d1e58U,
  0x15bc06e8f20c24ebU, 0x31ee8108f50f0738U, 0xfcc2f5152008171bU, 0x2a01f20823f408e6U,
  0xca7f2aed022fcefcU, 0xf5e9222414e10cd5U, 0x82df305e1030c1bU, 0xbe2234ffe1f3f1f9U,
  0xf543ffde1d130212U, 0xf9dfe5ffe6cb43d1U, 0x12b5ebedc8d030f3U, 0x8dbd8f0f1c54203U,
  0x19812bd9d30c43fdU, 0xf43f752010e1e8fbU, 0x37eb3ce32ced28e4U, 0xac04351c1c5e31e2U,
  0x40a87f38250e4a16U, 0x40e52fa55bc698a1U, 0x11ebdbff583c1c25U, 0x48cb13d718f5c86aU,
  0x24c809eae2c647f4U, 0xce1a45f70b073217U, 0x10e4d5e9db5ee903U, 0xf5040b45122b1900U,
  0x23f4ec012cf949deU, 0xcff881e2021204d1U, 0xb16e9e103fc06feU, 0x120ee621f8f6f92dU,
  0xd93a1b3026091623U, 0x380cabfb2405ed22U, 0xabc3faecf633cef6U, 0x7b66e034074f4417U,
  0xc10f3b07ee7f411bU, 0x1cdac9c302d9464U, 0x3e24a1019bee40f3U, 0x501f010aadf4be9bU,
  0xc1ee0f43bedb91dU, 0x2011e09e9e3811fU, 0xfd02161bd4481e0fU, 0xe83cec50db9eff7fU,
  0x26163acee5d122fbU, 0xe59c0e16195cedfdU, 0xefecdfd0fdd9d820U, 0x15d1fc01d3fc0876U,
  0xe809ff91eee8cbebU, 0xdf087521004afaeeU, 0x4794fd5311ebcb06U, 0xd319be1bba29f7f2U,
  0x2f0c7f43251fc929U, 0xcecb573ee4c2f0fcU, 0xf920bef0dcbab6b9U, 0xf42b4466b1d716b9U,
  0x293305db81f94410U, 0xf1ee94c757e3f632U, 0x12b7b5d841f5debbU, 0xd5ead503921e0fa9U,
  0x1dd86615f7d16ab1U, 0xea4952ce9a0707e3U, 0xc2e4fce3abe049e9U, 0x1a7fececf6afc462U,
  0x9627c21906309cdeU, 0x36a825d405e514fbU, 0xd82256f6e6eef5f8U, 0xfffffea000002b9fU,
  0x2c5000006a4U, 0x41d000003f5U, 0xfffffebe00000e24U, 0x63b0000110cU,
  0xfffffead000006d6U, 0xfffffe1400000d2bU, 0x6ec00000639U, 0x3fa00000fb1U,
  0xfffffbef000005f8U, 0x1950000070aU, 0xffffff87000005abU, 0x14d00000270U,
  0x51e000011dcU, 0xfffff5e8000001a6U, 0x37d000011baU, 0xfffffe7200001a47U,
  0x104700000056U, 0xfffffdb80000042bU, 0xfffffb7f000002bdU, 0x3f0000175fU,
  0xfffffd9500000571U, 0xcb10000062aU, 0x1f100000b12U, 0x65b181c7b72ccc09U,
  0x2c4d2d5045f81056U, 0xb307c9c512f65509U, 0xfffefb05f4f1d2e8U, 0xfcb8170afe083e16U,
  0x201dede4e0dde014U, 0x3e13bda881121c81U, 0xf7f0aae5ba0625daU, 0xfc782b25ef77c6d3U,
  0xe8071c122c870414U, 0x1d9d184dbe29fe08U, 0xe2e2939fafe0cd8U, 0x371c681fffe2eb81U,
  0x10a325fab02a4dd4U, 0x182905fef047a732U, 0xf565e85c022ce4f4U, 0xe40b040d1a062130U,
  0xd5bddd2be71300f9U, 0xfa09fc4a23d5ab11U, 0x2ad531d00001f74fU, 0x34d01314c25bdb3cU,
  0x370bf9f9e0b8420eU, 0xf73bfeef2c49e1e1U, 0xdfd77fc0b0023615U, 0xddd0e9e5eceff3d8U,
  0xd9ee29dc18eafad7U, 0x5b8bffcfe81e3eaU, 0x2efa5018d8f00511U, 0x36fb241721e0f4U,
  0x402e0a16f35b21c4U, 0xdcfe65f4bf20fdbU, 0xfae407c5fbe4b623U, 0xf836341b1e4e0a48U,
  0xecdbd4ef9d08399bU, 0xd97f89ff5310edd0U, 0x202963c5e4ff04fcU, 0x490810c60e98fa89U,
  0x4905ca2a04c3f37bU, 0x3f12c4ffe4ef6fceU, 0x3500efaae872fa88U, 0xf5dca1456126e01fU,
  0x30174b4181cb06e0U, 0x80164e1ba082c2bU, 0x612ecd370ceffd11U, 0xbc0a0a04f0dad3f6U,
  0xe821ff020827c5ebU, 0x25f0aa24c9247fe1U, 0xf2011adb09cfb314U, 0xe1402dfdd00fb5ffU,
  0xbdcc47efb34dc4e7U, 0xcfcaded059693a6bU, 0x272ef70af221b82bU, 0xc7a409e7820b366eU,
  0x81db1ae5d303f3e8U, 0x5df02cdefc7bda5U, 0xfded303ece17db4dU, 0xd5ecc23df6a4c00bU,
  0xcbe80ae847e803d6U, 0x26edc6fb3fd71754U, 0x3aea81d7e4f6fadeU, 0xfcaebd1e20e5de2eU,
  0xfc48ed4e06d71a03U, 0xe12fd98104c72777U, 0x4aa7b908a515b8e0U, 0xada9f4254dc79966U,
  0xed2b0fffc4fefbffU, 0x40216eb02038115U, 0x1bf7e2fdf9eb12e6U, 0x14f1edfdda10ce0aU,
  0xef350309fd05e0fcU, 0xf217e40be5f90ef6U, 0xe200ea310204d8deU, 0xea31e3c3112afb1aU,
  0x60feeb3c13005af9U, 0xaae454ace017e008U, 0xebbdb51145d64213U, 0x2bfde7b1ecf818faU,
  0xa80d361a14c481cbU, 0x39181a0b1826fd1aU, 0x141ff8ffde2f2d07U, 0xe4edecd91a53df46U,
  0x2ef2401cd81f101U, 0xfdeb4d4300fd1e42U, 0xe7c1daf9f3bdbdf1U, 0x48854a51d5ffcb4aU,
  0xe621040ba20e170eU, 0x340ce4b5d89b7f62U, 0x5dd3a0fd91ccce9bU, 0x33d5c30821c4c603U,
  0x79b8a4baf82fcdb5U, 0xfe3ef390ea00f0d2U, 0xd2f915d4991af8daU, 0x6fa27ff7de68e904U,
  0xd627d9e4e9249045U, 0x4d29a2c9f41fd1aU, 0xecaf239f09b3c33fU, 0xec2347eafde814f7U,
  0xf6f3f4fa10eefdddU, 0x6fd0441502c3607U, 0x1622cfc47fe50a00U, 0x3f50dc8edfd002cU,
  0xf7ec050430cab9dfU, 0x170deb1d3e14c2fdU, 0xcaf37f24db31f8e6U, 0x7d7c23f0c08a544U,
  0x28da9bd1fa39e2ceU, 0xf8e2c80d62340bc4U, 0x365053fed4d2bcacU, 0xf11e480f09e8d1deU,
  0xeaf8d9ecfce2bdf0U, 0xff19ede21f19fd04U, 0xb0c4caf01a1634e5U, 0x13068119b91f1b29U,
  0xe521d7c8d8003606U, 0x27052cf8ef8114e9U, 0x18231d0028db1fc4U, 0x9e5de3ba2527b4f9U,
  0x602dbb213ec01d4U, 0x3cf4c61206fcead2U, 0x4a1c0613d635a5dfU, 0x22811edcfadcf704U,
  0x1516e3f1efc62bc0U, 0xecf3e61d2ae40411U, 0xe604f6020813c4efU, 0xe2c9fa27ccde17feU,
  0xf818d700fc05202aU, 0xc940e37de0211c3aU, 0xec238c16ea140d04U, 0xbfef48e76019f552U,
  0xb9cd49640f974261U, 0xec717d81bbfb3823U, 0xc40b2e362fb81ec2U, 0xd87570fc7f9be4c4U,
  0xc12beccaf108fed2U, 0xb717d816f1d4aef6U, 0xeae0b6cf55de62e4U, 0xb33ee5360b3317f3U,
  0xec0d40c9db9affe5U, 0xb3324ea855f2cf06U, 0xd89fe43e13e9c6dcU, 0x241ca6cecde7c3c5U,
  0xd6020ebb7ffa620eU, 0x8d3ebf0d084bd3b6U, 0xf68e47201c11edc0U, 0x3af77f2b0d14e319U,
  0x82adb040f0711e7U, 0xfdebfcd0e51e052aU, 0xef03e51beffafef0U, 0xddbf209f81ff60cU,
  0xf106f2e9e1fef4f3U, 0x21e602c3d800f908U, 0xe4f7c0270c392204U, 0xe6cdf5e3290f08fcU,
  0x81de11272820f338U, 0x3097d23d0e420e4U, 0xcfabd0d9d2c1f7daU, 0x477f416f0e6c534U,
  0xfde1ecea17effcf3U, 0xfcf25849db013ccfU, 0x60e1ea0c22fbf91eU, 0x3fc5fce6b06cfcbdU,
  0xc0d31234d181a2fdU, 0xfefd1801f60bc181U, 0x1ff526e904f1191bU, 0x242c2efe02de05d4U,
  0xe3efe5e7f310fa05U, 0xea12fd1aecf61040U, 0xc81f0d17030a0ecaU, 0xfb2c7ff6001ff0fbU,
  0xeec9d1e80ce216daU, 0xc2afff3e942233bU, 0xf9b9cae81fdfca28U, 0x3e0ee745eb0f0116U,
  0xd8cd02f912bc93d6U, 0xf22218bedb2aa47fU, 0x8ecf021423d8d3d7U, 0xcbfaef02372ae743U,
  0xf9f6f6cafff305c3U, 0xedb1b7ed2d69e20dU, 0xd8bf0dabfbc5e48fU, 0x812bd0e5e7ee1005U,
  0x8c9ff60f3a948e41U, 0x473ccb10cce1ebdbU, 0xf0c0300202bf03ecU, 0xb9f5f71a313817c8U,
  0xf4c0fe2027f8feecU, 0xe2fe17f78882bf5U, 0xcefc8b31431952c6U, 0x1e6e2e4d854d86ecU,
  0xb3cd1b2361e0039U, 0xc7c2d5f0f4f37fdfU, 0xae91f170e1126a1U, 0xf403f876e307d141U,
  0xffd7173b402d1e0bU, 0x151470f822d4e15dU, 0xd9cead2bea2e9000U, 0x472cf72395cd0cb0U,
  0x47f3c024ad2099fU, 0xcf2a62eaacbc9ff0U, 0x29f6ef0c18df17ccU, 0xa931ce4aba09f3c8U,
  0x68c37fb87f043912U, 0x3cd121ae407ca28U, 0xa189929cbe7cce7U, 0x5323bcce0b140143U,
  0x4b6de6f5cf1a4143U, 0x73522a52dffe4b7fU, 0x7dfbebf531f7c74eU, 0x2c9411c443e15a0cU,
  0x2e65352ee8d3fd04U, 0xf801ca819d26a30aU, 0x30b7eccc64d4d457U, 0xc5d1e50bb5084ad7U,
  0xaf2fe1310b1be0bcU, 0xb27fcdd45c1eebeU, 0xda5203dc0a66ec0fU, 0x590e9c4ef11e0c4U,
  0x28f9f013def424d3U, 0x9c30f12cca81530fU, 0xb0dbd33d306e7c7U, 0xe7b315bceac9f25cU,
  0x120fda0ce808f5f7U, 0xf3e6d543fb84aef7U, 0x12e8f4050514fbe4U, 0xcb7c07ba27150aeaU,
  0xf5fdcacb6600edfdU, 0x2ceddcdde01515f8U, 0xb033dcd2d6f881f3U, 0xf702bb247faf10baU,
  0xb3e52cd02a4eafc6U, 0xf5043d28eec2fe1fU, 0xceca4ecc1904d542U, 0xc5ee1179fcdc7d27U,
  0x2ded387042cc1a18U, 0xc71135ddda478e54U, 0x17fffb237ffcc807U, 0xcf2af588c427230aU,
  0xeceef03013df51fU, 0x21bfdf20f7ff2c0cU, 0x6fe1e0028f4b2e5U, 0xfe007ad3ef1419faU,
  0xce135ba61e91adeU, 0xfd4923ce3c187fffU, 0xc4ffe450e1fc01ffU, 0xebb42464c3ff4c41U,
  0xb7020af146f1d54dU, 0xef2743ff110c1401U, 0x172014ece403021dU, 0xf5fef6bdfa7fedcaU,
  0xc06d6ebe9ef1308U, 0xfb13ea2c032ef804U, 0xfee90fce0bdbe9e8U, 0xc63e2c2539d9ce2dU,
  0xd3a8be290f6a226dU, 0xf0bf1a814e13d140U, 0xd3be0f45e7faeaa9U, 0xf208cf3556f13067U,
  0xbf07f7fcfb03b50bU, 0xeecac39110b7e91eU, 0x51f26490c28e921U, 0xf37f0568f7f2d9ecU,
  0x73f6040f1465d8d5U, 0x13e50909221b2105U, 0xf7f01a3f34c9daefU, 0x12247fc8d91b060cU,
  0x9f80e020125f5U, 0xfedd18cd07eec30aU, 0xfdde1625bf1ee503U, 0x17f8dc3bf81de50cU,
  0x1ae606d32bdc1becU, 0xf86cde5c0928f9f1U, 0x1332b2bfb0002e81U, 0xabf450ebda1afc13U,
  0x3fffbc1e0f850e52U, 0x2ff636e0d11d29f0U, 0x433a332be0cacf05U, 0x2f173147877fa826U,
  0xf6fa0fea8312f836U, 0x340ebd5fe54abc1U, 0xce2920c4ddf775d3U, 0xd7e517f42be208fbU,
  0xdad3f4ba2f99aeffU, 0x25dfe3ecaee4eeefU, 0x3dbaf07fd6f5fef7U, 0x2d1537f90fd11a00U,
  0x49c3cd19ea34f258U, 0x20fce310eacc0dfdU, 0x451ae6271fd2deadU, 0x5780000118cU,
  0xfffff67effffea59U, 0xffffed1a0000192aU, 0x256fffff42fU, 0x3266fffff92dU,
  0x8ed00002688U, 0x9d4000013a3U, 0x142600002419U, 0xfffff905fffff639U,
  0x10ff00000d82U, 0x5d0000013d2U, 0x2a3b00001985U, 0x1dd7fffffd83U,
  0x880000060eU, 0x1afb000005e4U, 0xffffe54600001a2eU, 0x7d8ffffdd18U,
  0x1468ffffec2fU, 0x14dd000035f7U, 0xfffffa82fffffe84U, 0xfffff706ffffeac9U,
  0xffffed82fffff336U, 0x47800000099U, 0xfffffd6400000a41U, 0xf1b0df12b921ddcU,
  0xc8fc121b25ebba08U, 0xc1f88be0ead3eaddU, 0xcbdd170f0122ffceU, 0xd5eb19d40196ee0bU,
  0xcc1f08e12be00d15U, 0x714431f1378a38c6U, 0xaecd574d3e20e2efU, 0x810e81beb08ab5beU,
  0xc7986b28c53851b8U, 0xa9e045dfc8c8bd4aU, 0xa9310ec61fbe2f79U, 0x552747daeea41fc7U,
  0xcfe647681d46e5eaU, 0x94124fd8b1c9dabaU, 0xccbd731dc8fd2ae3U, 0xbff224ead745d628U,
  0xca07e1cd0ccc2527U, 0x224ec9f65eeb2eceU, 0xb9b6b40c54cda6d4U, 0xe142a0b1d2afd80cU,
  0x4d040f2d8384df5U, 0xd2ac42eeacb2c92aU, 0xce31d1ba63c1327fU, 0x7f7f5ff829ad7f81U,
  0x8181e2757fd58182U, 0xaa7fd18187818116U, 0x9f81763a817f7f38U, 0x81817f12810a817fU,
  0x817fc2817f817f7eU, 0x70447f3e8181509dU, 0xb3aa427f3218c89eU, 0xbd4762c4819f88ffU,
  0x85a2637f93385053U, 0x90bc6336dc7fa553U, 0xaa56a1b4368f4d99U, 0x841c6ec64081ce6U,
  0xddd2810a3dc5dab3U, 0x394555c1e8f00825U, 0xeaea47ebd9212c11U, 0xeec712f799fee716U,
  0xfb3baed436de2646U, 0x1f730324f1f03fa8U, 0xb5d78b444c818281U, 0x5f7d3e99dbc9db7fU,
  0x81ca7ff38d5b477fU, 0xb6b6697f8b1faa5cU, 0xc35f81c35ec27f19U, 0x2e5d397f89d425c3U,
  0xdb01483e23b0d3a7U, 0x283f16b6b5d58c60U, 0x9ce62a33b32f2364U, 0xc5ca5e68e751b83fU,
  0xc92cb6e02ecd4a86U, 0xfffff5680000149cU, 0xfffffe5a00000da5U, 0xfffff711fffffa68U,
  0xffffe978fffff14bU, 0x1f1c00000999U, 0xfffffa0600000a8fU, 0x21efffff432U,
  0xcec000016dbU, 0xb64fffff98eU, 0xfb700000f44U, 0x6f000016fcU,
  0xcbfffffe8fbU, 0xffffe89dfffff1d4U, 0x7b8ffffee3eU, 0xffffeb0bfffff400U,
  0xe6100001176U, 0x12fefffff885U, 0x11ebfffff8ebU, 0xfffff8ebfffff62fU,
  0xc35000011cdU, 0xffffe87bfffff74fU, 0xfffff5c100000ad8U, 0xf14000012f4U,
  0x7c5ffffef30U, 0xd01cbb2fc818fd03U, 0xb804bd05183a32c8U, 0x5edf9380830ed0cU,
  0xf324edc4297fdcf6U, 0x9e6faf318d7131eU, 0xf4fd07fa24085a31U, 0xd865d3a7240e61daU,
  0xe2cec049ae64534U, 0x2462002ce024d2eU, 0x20ffed12eff508daU, 0xf5fb440e2b04bb34U,
  0xce81371825001132U, 0x37fa04b72527f20bU, 0xe21da1d8dac8102aU, 0x99aed229c8eee32eU,
  0xf008e70986d4e602U, 0xe4e1bd23d1ff8c1U, 0x51d4e7c2071f7fecU, 0xb63e60dfccdc0deU,
  0xb50018c9fdbb26ffU, 0xf0eef2fefff4e2f4U, 0x4d811da100b9cd4U, 0xed15e8c3d5f32bf0U,
  0x2ded4cd2fb7fdef1U, 0xb1172307a74dd4afU, 0x32350d4464cb81f5U, 0x5d24f4eaf8cdb259U,
  0x35132ceacdec35edU, 0xf629f1019216e654U, 0x24e2c263fb1484b6U, 0x5a50b1801f1feecU,
  0xec0d0dd92c0f2413U, 0xf202f3e0d7ea2bfcU, 0xbc52a0f20b79eddU, 0xf610e513ffe6120dU,
  0xf22936c88105e308U, 0xe615f9d62141f8f0U, 0xbd4900f9ed1581b3U, 0xa8d1b33e418cbd8U,
  0x2ef4eb1bdfa4f454U, 0xd4c919f2e51756ccU, 0x28220f0ad5e6f40bU, 0xf9db043117ae6ce0U,
  0xe215d6dd81f402b3U, 0xf44b683517e7dd20U, 0xd12ed509f04604d6U, 0x31acfd22e2cae7e5U,
  0x172256489eb6e73aU, 0x14e50d02fd182afcU, 0xa3ffc1a5b8a00381U, 0xb9d8092cf5b316dbU,
  0x22efe3e35e5d905U, 0x521dd54b0114d00cU, 0xe14634bc9d93251bU, 0x3107130bf3cf6106U,
  0x7ffa29eddc51f314U, 0x1de1fa9cf0caeaf2U, 0x371623bcb61f5217U, 0xba5fe449e9f51dfbU,
  0xc0c0523beed9decU, 0xd754eedfd4e1b1dbU, 0x2df1ed251ca064d3U, 0xb5819f140b1fd8ddU,
  0x4604f7e5bcc8cbf0U, 0xf539b600502857ffU, 0xe2ef1a28a9ff5be4U, 0x7ffbdfb4b70ac82dU,
  0xf529c746513d9aeaU, 0x27b13434b1efd71aU, 0xfad2093da335fa1bU, 0x4537d80c20bb50f4U,
  0xd0c42a23d1f825f5U, 0x16f5e6e310e5def3U, 0xf907fef75106edfeU, 0x38812ce2f4690c0cU,
  0x76f8fb46b5c4f0d8U, 0xd33d26e515c539daU, 0xcdc90b2b2f03172cU, 0xe98cd1fd18ee3406U,
  0x3d34e344250f632aU, 0xe90afc117ff25310U, 0x2513d53b06e17bdfU, 0x26df1b02e32ff5c1U,
  0xeb24f006e0dcbafcU, 0x51b8bf0e5e81c64fU, 0xec40e84c1e44e92eU, 0x529116f7a62209f9U,
  0x8b473dfb815cdd4U, 0x382b145b13ea4dbfU, 0xdb07291ab3e93f27U, 0xdde915d70c06eedeU,
  0xc7cec077be90523U, 0xff30bf26cb1152e7U, 0xf6bae5c4c1d6c360U, 0x3237e9ee0d19ffd3U,
  0xdaed79e5816153dfU, 0xce0eda1a14e600ffU, 0xc68129d30c13dd23U, 0x568d12bf21e54be6U,
  0xff20e1c141edd9e5U, 0xcfd0a14d06e91423U, 0xdcc1c2c6d8d014f9U, 0xab7f5722b120f50cU,
  0xc4d4db0bd74575c1U, 0x26382a065138abd9U, 0xcc1027170bc10d5dU, 0xcf101e12b039065U,
  0xad5707572e17f412U, 0x69d7faf15c43bd0aU, 0xfe02c6cb3c1977bcU, 0x402c2434f510ec05U,
  0xfb01f4163f010059U, 0x120275121fbfb07U, 0x2a17f67f2beeed0cU, 0x3dcd0dd7d12be7bdU,
  0x242509e8ee29c00eU, 0xdc42d3e2608122dU, 0x7f0df2e722f927faU, 0xab07df0fedf6bfd0U,
  0xff01261b3e010c11U, 0xdcfc062d21280c26U, 0xe64e40f6d6200743U, 0xbc5ecd5cdfd0f52fU,
  0xfbc334da32c0f234U, 0xacf32ad4a602aff9U, 0x7f04e535101e02dfU, 0x452931fafdd9e439U,
  0x1fb409f916d50d05U, 0x1cd71b81d151d816U, 0x1a48f20cc91e3a29U, 0xbc1be6de5afa2cb8U,
  0x527e83bfe08c21eU, 0x8cff6935c2f311feU, 0xe8fb4e9dd0d91f4bU, 0xede5310ee22919ccU,
  0x2bffd8ed107f47d9U, 0xf6bfed08bcd455a7U, 0x1b2c0c2f89ae9e4U, 0xb1ab3407220adc72U,
  0xc0fdf130014454eU, 0xeba3112624f81c20U, 0x1481cf4a14e4fc19U, 0xc7e1df08d7d006bbU,
  0x25fad3ff36293a19U, 0xa0d18f809e32becU, 0xc4f0151ad9fb07e0U, 0xf581cf0fdf32d8feU,
  0x50307ea08c6f3e0U, 0xe00c18251f0419f9U, 0xcdf183717cad816U, 0x235e05e01985df29U,
  0xba32ffdc22339e49U, 0x1312070b007101ffU, 0x11dfce4f30f0da95U, 0x6ebc311d72f7ed8eU,
  0x28cae3487f5c0506U, 0xf5121220e2cdf255U, 0x3181d0625b217f6U, 0x191de30b13c313fbU,
  0xab18fe7f2d4ff0f4U, 0xf2fef3de02cfc5ffU, 0x383b25cb1aff0208U, 0xe30139eff1fcb9deU,
  0x1afbf4e2e7e11605U, 0xed4b26d81a812c07U, 0xe020091e3d1c0d30U, 0x4beddd27e9f1ad1aU,
  0x11c5c3ea04210a00U, 0x29205ad973334b38U, 0x27ad16cdbc18f3f5U, 0x1aece33805fbb7f3U,
  0xc303d14cfd3538e8U, 0xfaa301d3e37fefb7U, 0xf5e32101ddde53dbU, 0x6411e8d81ed1f1cfU,
  0x51f1ed2d53fc01d1U, 0xef92af4dc3f072aU, 0xeb21f0e03dd5eb0bU, 0xc8277f0805b6fef6U,
  0x1a13215efdf700edU, 0x7318142c19daccU, 0xdb984d8af848b51cU, 0x4c1969fd91ecd51eU,
  0xd60d1efcc8e5c9e9U, 0x3fcbdaacd406f0dcU, 0x81e503c82b3b10c4U, 0x500b1ce516fa2600U,
  0x2b07410422ead1c8U, 0x304f4416db0bed23U, 0xd3f4e1ed0a11bd4fU, 0x91dc0c0fa67fd835U,
  0xd3bdc43956db21afU, 0x1d130ef7dbcf3861U, 0x61afc180e1621f4U, 0xf718220cfd1ff940U,
  0xbd07cb2505e7f8e7U, 0x220f3bbe191609ecU, 0x2431f41116347fedU, 0x23c2dfe843002cc3U,
  0xea1acc9d1f1b00faU, 0xcc0229602b67f0dU, 0xd71ae500f616ea47U, 0x42701f7ecdd2101U,
  0x24a514e8e0db0322U, 0x2df6f704f2deb925U, 0x2ea393eed2affecU, 0x7f2501f70d271005U,
  0x210e1c19fefdd7eeU, 0xe92f5cf8cae4f35eU, 0xe3e4153c33c3110fU, 0xf2edf6f7ecc52bd4U,
  0x2e912e0d00e2221U, 0xf503f8ce12de2110U, 0xb0dcf0e3fcf3f9f7U, 0x7ff221e7f6f52f30U,
  0x2bc8a6f71801dee7U, 0x53bd414ca2df97eU, 0xb3171d14b4c004cfU, 0xf2bc1b19ee11175cU,
  0xfa2f547fd71ff9d7U, 0x2d630f852ff3f1aU, 0xe527041cfe4bfd76U, 0xdf15b459cdaf0014U,
  0x1d4a0e3bab25f20dU, 0xf1e7c4dcdce420efU, 0x58085bfdb14c817aU, 0x89fe3c34511cf7f7U,
  0x40390e643f6b326U, 0x214f9eef613ed7fU, 0xeae2e73800f8f0f2U, 0x22e3061502132607U,
  0x28120115c2080d10U, 0xad11fb30e7fb2813U, 0xc207ef1a17d275e1U, 0x904b9f394909c77fU,
  0x2cf6f423d9b940e2U, 0xb51aa94671dd008U, 0xc3e13bad133802eeU, 0xfe30360bea832ee3U,
  0x4b09743a121758f4U, 0x6209dd4af5e8c458U, 0xea1800c7fefadfdbU, 0xf5bf37f82d22ef3U,
  0x21dc461e3f67cf4bU, 0xfc2f340891be2bddU, 0x29d4011fcc171c1bU, 0xd62e21fca8fd2c0eU,
  0x5f29b603e88fdfa4U, 0x9ee9d421c31a3046U, 0xa737d7d4c5d7ef04U, 0x423c62cf816f899fU,
  0xf31002680ad726f7U, 0xf5d2cc25141725c8U, 0xce86270a062d09edU, 0x33d72d09ece70c34U,
  0xac1737ddcac3dfd3U, 0x10dbeb9d0a274f01U, 0xefef8134f50dfa06U, 0x255af314c3fc45a0U,
  0x81f3a56015e4f40aU, 0xdcfcd93a39258edeU, 0xf93607db524719ccU, 0xffb23f50db2d15eaU,
  0x15c2f16b250ac6edU, 0x9e620a232f32eac1U, 0x4737dcf0421821b3U, 0x1740eb8c1eaac6c5U,
  0xe00a11d7f47fbddeU, 0xf6dee93ef4cd1131U, 0x48ff8ffd3819e336U, 0xb92df305130fc03aU,
  0x17fc0b81ab250bc5U, 0x4321d8cb46ccb110U, 0x21cc3d670ef1d724U, 0xd3efea04fc3bb11fU,
  0x13e63d30eaf49660U, 0x44d311ae091cf3d7U, 0x81e21ae7fee4baf6U, 0xf711ff0721d04b81U,
  0x31bf20dd0b38a7f6U, 0x14d6dd52d7ecf726U, 0xa41c43d0ff22ce70U, 0xcafdf00ac6d82710U,
  0xfb033b7f152eee17U, 0x373dc5d74b1f1b7cU, 0x113b9ad11907c7f6U, 0xe2f30ae5eac6b40bU,
  0x2f62834153af3d2U, 0xfaf0000164cU, 0x282000007cdU, 0x3b4000005c6U,
  0x20500000aecU, 0x8000001234U, 0xffffff7a00001586U, 0x5ad00000045U,
  0x66c00000f11U, 0x4eb0000242dU, 0x4db0000055eU, 0x19e00000b2eU,
  0x225fffffefbU, 0xe7f0000060eU, 0xffffff00000009d7U, 0x66400000774U,
  0x91600000f8eU, 0x4e100001663U, 0x619000006a7U, 0x3120000109cU,
  0x55d00000aa7U, 0x91c000017f0U, 0x4fc00000352U, 0x38800001ec0U,
  0xfffffe3f00000622U, 0x300000001U, 0x700000005U, 0xb00000009U,
  0xf0000000dU, 0x1300000011U, 0x1700000015U, 0x1b00000019U,
  0x1f0000001dU, 0x2300000021U, 0x2700000025U, 0x2b00000029U,
  0x2f0000002dU, 0x3300000031U, 0x3700000035U, 0x3b00000039U,
  0x3f0000003dU, 0x4300000041U, 0x4700000045U, 0x4b00000049U,
  0x4f0000004dU, 0x5300000051U, 0x5700000055U, 0x5b00000059U,
  0x5f0000005dU, 0x304ccaf4d1f74f58U, 0x7df17223ab9f1a05U, 0xc9f93229971ae62dU,
  0xc1510933bf7f2098U, 0x414edfcc3020944aU, 0x1b0132dd1c34ce17U, 0x831e02400dee09ecU,
  0x9727dde309bdf6a5U, 0x94be4e80bdef92bU, 0xc48105f4b9b32851U, 0x1617fef1d3fd1d21U,
  0x380d21e9ffe5d785U, 0x2038511959c2c846U, 0x32dfaf0bdfc11875U, 0xbf18d0bdca6a23c3U,
  0x66925981f6fea44eU, 0x9fff14151e3abd4U, 0xae293bf16522c5bU, 0xfbcee6bbe6170811U,
  0x13330e1cfe32dd27U, 0x7f2c08df3943f0d9U, 0x8f6e3ff3df0ce90cU, 0x2b38fa9adc05f01fU,
  0x41c307dac02653abU, 0xeaf6010af944c511U, 0xe338441ded0e29c5U, 0x21244b2bb9fc494fU,
  0x40c8f95925d21826U, 0xe84b5216f91f08e5U, 0x2a58b27fc608b90dU, 0xe3f070102eeeb45U,
  0xfadf5ee8fed2f4dcU, 0x577ff0160923f8ffU, 0x30712cce6460b2fU, 0xd7d71da1872be6e6U,
  0x21e3bad3d8001b18U, 0xdbbb7805ee1dc1ceU, 0xd5fea7e1cc13c51dU, 0xb7e817d4eb3a1fecU,
  0xd4d14be02603e20bU, 0xcb327f6485f54444U, 0xf50dd4d1010bfde1U, 0xf3f73acf931efa68U,
  0x2fe53ebb29e4efe3U, 0xe27f09bfee39de01U, 0x203a4116230fdf00U, 0xe613eac0e80827faU,
  0xd5e34b2ff9073710U, 0xb4fa6d0ff0e430f7U, 0xc4cc169ce935d2cbU, 0xf61ae802580abc23U,
  0x1849f0f03e8df268U, 0x37f9d2a8d5c15331U, 0xf4817b59f356bce3U, 0xcd0eb51fb63efaefU,
  0xc4335916143ffdd1U, 0xcef8c02deee2df55U, 0xf1ce1f21440c341cU, 0x7f01e01409e5dad9U,
  0xf2143113ff11fcbeU, 0x9cfef6180f4afa30U, 0x3ce64e31333124d7U, 0xe9e6b80dc9f1ac05U,
  0xdf49f1eeb9ee1eb0U, 0xea4da9c0f1f52317U, 0xa9f317d047e48142U, 0xeaea2de0067fdef5U,
  0x152fdef6eb1ee0f8U, 0x8c1eefa00a5e410U, 0xd90405dbfbb7037aU, 0x1d66d21a2af05af8U,
  0xf00825e6d531b9e2U, 0xbc7d1d302e301f9U, 0xac5827a1efff30e0U, 0x27a6e4cf3b0246fdU,
  0x124c00c9480bda7fU, 0x305132e02e3d34dU, 0x30f40a34dbcff606U, 0xee52faf62d24133dU,
  0x3008e84a272a0b7aU, 0x4f909e496336b36U, 0x82a6b55f07c1111U, 0xd0e5701a05210211U,
  0x2b7f3e1329a93d23U, 0x80cfb19200ef0b7U, 0x1118fc0f1df11406U, 0xa0e6fa1816f6fc32U,
  0x3e03fbcefd50ecefU, 0x4f7d42d01edd5e6U, 0x1ef8e2ab7f0ad5f2U, 0x20eafbf822e441a9U,
  0xda2ed22419e88647U, 0xb3451eecf600cb02U, 0x4c7ff5dec8fbdb35U, 0xd9c6d92a2ff47a30U,
  0x1d71e1b1dfbf2cfU, 0xef6a3cd039e3fa28U, 0xca2b30c8176fbd0aU, 0xdffe03ee314fa7fU,
  0x301e236af639c320U, 0xbf3707d43b200003U, 0xe0fe3613f2ee32eeU, 0x270c153aba32d2d4U,
  0xeeca00eafdfb0802U, 0xb2926a5fefcfc0cU, 0xa07f1febe4ecdc0aU, 0xe530ef2bf0e30fd5U,
  0x1ceaecdbcfa362fU, 0xfde901ea2709c3dfU, 0x51fdf9d14db9a3ccU, 0xff1acb2d23edd1fbU,
  0xc8b7fac0e2c8d9e8U, 0x7feccffedbc2ccceU, 0xacb26ebf1f8eaa8U, 0xd3082517dcf8aedcU,
  0x3f4e1202d411fafaU, 0xd82ff82904e638c8U, 0x4ecbeb4dfd8ff70U, 0xfcb2e4e4ad810b3dU,
  0x601ebdecf2addcfU, 0x4d17073977f8f63cU, 0x39e345fffb1ba9c0U, 0x1bc32937b84681faU,
  0x7fcc38ffb82b7be6U, 0xc35122de518ab28U, 0xfdf65230cef9b546U, 0x52a9f37fbd13cc02U,
  0x37d22b050c13df27U, 0x10c6131b0f0ecc09U, 0xd01e2af71d0350edU, 0xabedeec4ebcfea07U,
  0x26fa31babfe5d1deU, 0xdb7100618e3c6e4U, 0xfceefa2cdf436717U, 0xc8e7d6ce08030863U,
  0x717fdbe9d8140ca9U, 0x9bd5bebfcdfe816U, 0xbd03c7024103cabfU, 0x2f4ea40f7230e12U,
  0xd8f481f7f900dcd9U, 0xfc0ef52812f7f30fU, 0xe2bb20e84afc222eU, 0x11ffdd200b22dad5U,
  0xf0b8c8dceebf1a00U, 0xe7f1cccfdd9c40acU, 0x47eeff01de5a15c5U, 0xdd60291805a92ec7U,
  0xf0aed7c00c13ea28U, 0x8130f2bde6e24ce6U, 0x5b430b77317e027U, 0xefe4e2d4f93c21ecU,
  0x2be9f5f07ff61432U, 0x16f4cfeb1027fb16U, 0xecfb12df350e2b0cU, 0xeefa564d0911d4fbU,
  0x1ea22091ee0d01cU, 0x581bee5236d020f7U, 0x2c190420146b21c7U, 0xd736efcab5049ff7U,
  0x93cab30c34cbc510U, 0x34f2b59de70111edU, 0x7f1a00481b52dbdcU, 0xe8df3738d0e30101U,
  0x11e47ff3d5201dedU, 0xa7e20f19fe194ff7U, 0xddb1df2c6aa1c49U, 0x462dbb09c2ee2829U,
  0xc336dfbbf000e950U, 0xfdf01549bffb1b16U, 0xfc9f21ed05cceeeaU, 0xc15df3253ac6f030U,
  0x76b73cb43732aafcU, 0x2dd8d081ba910e11U, 0x75cc8a00f8bcbdd2U, 0x2bb266ade841052cU,
  0x51a2c81a3d1f8fcU, 0xac02c3e8fb05e0a3U, 0xf7c8d1e717bacdb4U, 0x6023b506e1a9322cU,
  0xfbc7d90f0555f199U, 0xcbf91d38cce0039fU, 0x423705d81b71ecb6U, 0x141f5ccd2e7fd0a8U,
  0x2fb0050cddb6e133U, 0x5230d6f0201e2932U, 0xc600a378f4bdd91dU, 0xfffe2ec746d45f20U,
  0x1d5211eb210a2c23U, 0x16949f8b1327f16U, 0xee2cf5e922de673cU, 0xcefafd0c0b33ebddU,
  0x260a07de08ed3dffU, 0xf9fa08b52907025cU, 0xdf3c81e4bdef042cU, 0x6d707d1e5fa51efU,
  0xd6c531184d0e4f53U, 0xe60af14d1541dc2cU, 0xe46f3af5f0fc123eU, 0x100f2117eec4e407U,
  0xc72e19f403ed03e0U, 0x7f4a0fc9f6c7eb14U, 0x6f1f13619b0bf03U, 0xe2da0cc9cbd015dbU,
  0xffc0bc37c4bd1126U, 0xaa8df1b121d0c4c7U, 0x1b1d3841fb68fdf9U, 0xc7c0c3b96ddb5506U,
  0x7fbbc29895fee0bbU, 0xf63210e000c2cd3aU, 0x31cfc7acd4dcdbf7U, 0xecf92b1b432cfadeU,
  0xea2ced1211f5e5c1U, 0xf224a610c5d748efU, 0xcefe0be500a57fa0U, 0xe9d7e314c0dddd4dU,
  0xd863da3b3553c9d3U, 0x10ecf103f5f9f903U, 0x26e9f3dc170002e0U, 0x201418e0f3e6fae9U,
  0x127f0a04fecfdf13U, 0xf72af00ffff914c3U, 0x25e2d6def01cf9f2U, 0x1b09e20f2f68fe45U,
  0xbb0abc0d4f1d7f69U, 0x3153cedf3e6f4c9U, 0xd9ea74fedefe092fU, 0xf2d5f8134eee7f9eU,
  0xf73ce4fcff040ae0U, 0x32d0c2f417e414fbU, 0xd1c347dcffab110U, 0xe523f8d9b1fadf5dU,
  0xde799c1d4e2e547U, 0xd97fd70ae9c5d3e2U, 0xcad247eafd28efU, 0x4958bd3361bd3309U,
  0xc06fe3dbeac39700U, 0x2a372df6c9bb9f00U, 0xc521a8277f4dc8a7U, 0xf496ede9acd6110fU,
  0xc0f39f0ebd0c137U, 0xf0f1cdf90bf7e8faU, 0xf9dbeb2cedf51b81U, 0x1c08e0e700e7fe0dU,
  0xedf40af70af2f51cU, 0x2ff9f8e1f403dbefU, 0xf1f317e5f322d71cU, 0x54ddd8c4257273f9U,
  0x4070907043dde2dU, 0x31c84e1e81d36beaU, 0xd3404548b2385016U, 0xba0a66f07150f41bU,
  0xdcef02f535ea26dfU, 0xf504c808ee213b03U, 0x810cef2b13f3d4bfU, 0x5d90f23f5fce4baU,
  0x122f07e3e0100b21U, 0xfd263ad70f2fea0cU, 0xf4f4d6f9f93bb1ebU, 0xaec6ca05c61de460U,
  0xc8170ed728142e1aU, 0xe5cef4e1e502002eU, 0xf44210cebe8dfe4U, 0x407f6b034c0ae723U,
  0x2e201402ff02330dU, 0xd50418fbeb13a506U, 0x11f8d5e120e5df0fU, 0xb7180c02c83e1dU,
  0x321701fde38f9af5U, 0xe91fb743b4e01ac4U, 0x7fe32421702b1ec8U, 0x39215a7f261422e4U,
  0xc0081324e9a4c93dU, 0xf70321cfcb1300e3U, 0xe14d64041d7c013U, 0x4421ee0616ff781dU,
  0x29331822e5c03750U, 0xee7fe30fe4e82fe3U, 0x3095bf3ddf72adfU, 0x88f425ef00033e07U,
  0x1fce301ffc5edb4U, 0x99c20ece261fcb20U, 0x3f9cc5ba21531e20U, 0x24e2e2e31333ccf2U,
  0xfcff0802fe050f6dU, 0xf395737be044258U, 0x9260815b6de5349U, 0xe529034b1bf70401U,
  0x44077f62070823b0U, 0x457effffea43U, 0x1f5f00000636U, 0x135cffffcd43U,
  0xfffff4f800002a5fU, 0xfffffc080000147aU, 0x147f000010dbU, 0xffff9292fffffb5dU,
  0x88e000000b0U, 0x193fffffccdfU, 0x33ef00006766U, 0x2173ffffff04U,
  0x219200001699U, 0xfffff3cf00002644U, 0xda000002592U, 0x50d800003859U,
  0xffffc18c00000a92U, 0x1d7fffffeef6U, 0x1e3a00005e39U, 0xffffe759000013beU,
  0x2cec00000e15U, 0xffffc9350000230dU, 0xfffff42700001676U, 0xffffd02c00001216U,
  0xffffda2f00002608U, 0xe61ede0c1e227ecU, 0x80c16fcfd0008dbU, 0xf3bff1f0e07def0U,
  0xf92ed9114a0f040bU, 0xfedb01070f11f93dU, 0xf107f8efe5280906U, 0x1e370c40053a1e1aU,
  0xc75a2587f0076bebU, 0x267f12fd99edb0d5U, 0xf526b3bd5adc810fU, 0x5c27f00132ad231U,
  0xe7cc4dcad0431e49U, 0xf727edf93a2270cfU, 0x115140b0af642f3U, 0xdfeb1cb104fa0f07U,
  0xd9f7c507b6070c08U, 0xe5f30034f7eed1d5U, 0xe9f3f6fb0e1df80eU, 0xa2f49e9c827674eU,
  0xb93a33ac101b5df3U, 0x25c10410b8f181e0U, 0x20a612b53208dad9U, 0xe5ce33142dbc2ab7U,
  0xcc1ce353e227100aU, 0x981287f7f7f0381U, 0x91c281817f7f307fU, 0x7f114c7f817fdb81U,
  0x7f58d6814f81b381U, 0xe811f8181818c61U, 0x7f36819c2573817fU, 0xc9088112c97f72e0U,
  0x468112c3dd20fc0aU, 0xaef04732b40775efU, 0xf9ea810a81edb53fU, 0xc3b834d5d6d88181U,
  0x1681205db10dd569U, 0xf00e0c1718b74d3eU, 0x2b49173702151df9U, 0xe3eee3d7e5f5e0fdU,
  0xf397f3d5c9fedceaU, 0xffd5fd15fc0de7aaU, 0xdcd2042c102b0022U, 0x81ef5cb4187a7f40U,
  0x7fb60a2eec13ec13U, 0xe89d7f6eae1a10feU, 0xf681f1cae141f9b8U, 0x81d1d4f5e5132186U,
  0xa17bb41817fcb02U, 0xfb42dff6c0f31319U, 0x27c20a01ebe78112U, 0x941e5412e4f4e2fdU,
  0xddc5f6e8dbf9ed16U, 0xecdc02f111f6c519U, 0xe300147feb3afffcU, 0xffffda58ffffff96U,
  0xfffffd84ffffe874U, 0xfffffc96fffffb3aU, 0x815fffff8d5U, 0xfffff517fffffa45U,
  0xfffffac4fffff930U, 0xfffffe8c00000ea6U, 0xffffff4700000395U, 0xb4100000c7bU,
  0x1e8bfffff669U, 0xffffea16ffffed60U, 0x155ffffff0eU, 0x175c0000085fU,
  0xffffffbb0000082bU, 0x152a0000151bU, 0xfffffc73000009aeU, 0xbbc00000ba6U,
  0x76c00000c67U, 0xfffff1df000008e4U, 0xe3c00001368U, 0xcd2ffffeeaeU,
  0xfaaffffe4d9U, 0x80afffff803U, 0xfffffe8a00000656U, 0xfbb41f00da1b1e22U,
  0xb900ecb1f5920cebU, 0x31d934b68bfacc0cU, 0x3c081e5eba10814aU, 0xfefacfeb103e3ee4U,
  0x251202f725ad30faU, 0x8e1e1b64f5d1f535U, 0x7d410faf605c949U, 0xdc702bbe12453f1U,
  0xeff1cc054fe2f204U, 0x15c57f1b2123243bU, 0xcd90624eb2522deU, 0xd3f331f90a70bd00U,
  0xc026a6d4f581b8e2U, 0x10e3302fd89fc324U, 0x302655231a200cf1U, 0xef6051cdb5a10741U,
  0xf503ecd90ef20124U, 0xb901f3e4fe811da2U, 0xe41c200ff9392f3dU, 0xea08ecf07023ee0dU,
  0xe812dad3fd20d518U, 0xfdb201b9fbe71ba8U, 0xe4fae9d1d5ed13e8U, 0xe4f8211116dc39c9U,
  0x2781ca21ee7592a5U, 0x25071765b3af5b37U, 0xbe4060b43f20630dU, 0xd12c02dde583be29U,
  0x921d2d0f2fea2227U, 0xfe0ee3b20e501ffcU, 0xcee70f4d1116ae58U, 0x2030cdd3ba3d0d13U,
  0x371c31dad2d41bf1U, 0xd00138cf0df605fdU, 0x43c9816203015854U, 0x310e28fd051ef331U,
  0x25253cfbf1e50beeU, 0xf755e20efa0b2f0bU, 0xee0df009c3f52d2cU, 0x1ceffd81e627010eU,
  0x171ede22fcf91b01U, 0xed20f1fa1406e313U, 0x49eaf6fd5bfdd8e5U, 0x11316a77f033e35aU,
  0x2b3b1fe6f9daf6e7U, 0x4aedcb9e271fc32dU, 0xf9be3b20ff3d81c5U, 0x3daea1bdd835c628U,
  0xbae924edd9edf61fU, 0x11e558e4c4cdffe6U, 0xcf0c83f729d47f53U, 0xa0f6e43119dc5521U,
  0xddffecb634ca499cU, 0x3bd5eaca48d4abf2U, 0xfd1f5ce810cf1c24U, 0xe2c698bd2c4c0110U,
  0xf54720f93ed7e414U, 0x39e80d2c169e155aU, 0xf9dd150eaecf7f04U, 0xdc42310c7f3fe3bU,
  0x203a0e383b31c9abU, 0x31511a70423596aU, 0x2244537fddd0fdeeU, 0x9de0ebcbc1db1107U,
  0x1feee99352e60026U, 0xf4272a3922effc1fU, 0xf52d0c1ff25edaf8U, 0xc5f8303650cee0f6U,
  0x3beb147f56179e1cU, 0xf06f5e3e5ecd6f6U, 0x2e22f9f116dbd837U, 0x340019ea06fe1e10U,
  0xf3053bfc5cf80306U, 0xde03d512fb3d0809U, 0xd61c4621d6dc19d7U, 0xe4fcd4f6ecfb07f2U,
  0x33ba0228061a107fU, 0x45fa45ddb2d610ccU, 0x81f824dcf216f506U, 0xc1206350fe9ab0fU,
  0x7fc49eeb206dae9U, 0x1ae203259a332438U, 0xef51ce7f7cb1806U, 0x6c8cfb1335d4ad30U,
  0xfc8b2ed6c2cd0f7fU, 0x57c0c5f9eebf4920U, 0xb37d5eb24a21732U, 0xeb0ef8c8d3b96a14U,
  0xe30a07e538f1fd22U, 0x17dbdf2f18194640U, 0xb6ee5fed0852b212U, 0xfe3c09c11b36f524U,
  0xb1521a1107b931b5U, 0xc9bf17c70af133c3U, 0x8c1d0abc7fbc2dc2U, 0xc52cf4ee17e0bf14U,
  0x90b0700e913efd5U, 0xf9023010f77f0f1eU, 0xef24190bf30cf90eU, 0x7f713ee17e50d00U,
  0xe0f4201222d7ff1eU, 0xf8c1b1d79320f60bU, 0xf61f67d517f30631U, 0x20e9f002d330eff9U,
  0xeff9f30254182715U, 0xe3c2f74fc81b0e31U, 0x7f0514b3e70f07e4U, 0xbf35cc09e8231a2bU,
  0xe009f10f7245fd58U, 0x21f7e2dc1eef0d52U, 0x437cfe615112831U, 0xefef07efbc0b1a2eU,
  0x81f5ba2a38d74479U, 0xeda05100eedf72cU, 0x10e8b5b62c14f93eU, 0xe4814e139f9b370aU,
  0xa2df4253f1e3b4dU, 0x9cdfbee8059b27efU, 0xc8e5dc94ffea1d33U, 0xd6fbca2f68ad01deU,
  0xad1603bf487fe21cU, 0x20e423fa31c0c42fU, 0x3ac1f177b60edae2U, 0x27a02eb4c3434702U,
  0x2f89e8011fcf0ce0U, 0x61113e3b8d219f9U, 0xecc8ef64adf98aebU, 0x1f1cdd5b8afcf81U,
  0xd5fc74b9ebe5ecd8U, 0x7923b1435e9e43f9U, 0x390429ed01c3ece2U, 0x2146f614e465270aU,
  0xdf18e537fd0716e5U, 0x24ddd22081aafd11U, 0xde2908b5ff5224bdU, 0xd82bbf4c112a54e3U,
  0xb5f4bcd231f507d7U, 0xc605cb45e6d4e8e8U, 0x3210ededd0f10f09U, 0x1d0cdbe3e72e7f2dU,
  0xe1a6da93e1032fcU, 0xe3d11afac4e2cefdU, 0xcf42f0e7e0ca42eeU, 0x30d0567fa71a17d0U,
  0x2fa9ef820614a9d4U, 0x514adbd2f7dd1b71U, 0xc9f3dfba032524cfU, 0xeefb0309f2150f10U,
  0x6f51dc530d63857U, 0xfd92e5e9edd43314U, 0xf5c082ef218b607U, 0x333c3e7fe4ce78b2U,
  0xf1ca4339edfd759cU, 0x592306634e3fc61fU, 0xdef6c5b6113e261aU, 0x2618304cfbfb3df5U,
  0xff2cb4bd43c7d9f5U, 0xf2d8b9de15a9dd08U, 0x10f20a40d5c62d2fU, 0xc5190ccae0320302U,
  0x6d0e8d5aa7f75bcU, 0xe20bbed70dde20aU, 0x1422e201142132d6U, 0xfebff4dfccda1501U,
  0x120625e65cfddfe1U, 0xedcf2a5b14def324U, 0xdadaec11f332c281U, 0x3cdc4fa959816d32U,
  0xa5ef0f92e7b5e319U, 0xc1e4280acb17ba29U, 0xe80220c4de58104dU, 0xccf6f200e28aff5dU,
  0x4eefb07522771c8U, 0xd8c62df5e5f17f10U, 0x35c9d9ba0fd4fa2eU, 0x20ea09f42203f3a0U,
  0x1538d835f815e131U, 0x16ca0a0bf0296030U, 0x4812ece9df2c9c08U, 0x2bf70ef832b5e30fU,
  0x2ef2b2681e40bdd2U, 0xb5eb2cbde7e29800U, 0xbed1d5f10de527f4U, 0x5823ab11f9974c7fU,
  0xa0e51a03672011f8U, 0xdf2015ea20caae09U, 0xf0ce623cdd045e3U, 0x2a0cefdf126411ffU,
  0xe3ee0b7b49b5d8d7U, 0x8137ac475f23ac55U, 0xeaf513d0265ad905U, 0xfc0ce70844dfa6cdU,
  0xf22112f059dab7fbU, 0x3d31df0681fe410dU, 0x22d6d33d46bc2cb9U, 0xefb6f018f0ffdfU,
  0xdba806292af50e01U, 0x59f8f6e72bffb1f8U, 0xfb160b0bafdfe8ddU, 0xece6c92f270defaeU,
  0x442af8edaf810322U, 0x102ba5150147b8daU, 0xb94dabf5d5fcb433U, 0x27167712d01f49d4U,
  0xcfe647c7417ff809U, 0x224245b08fbd3f4U, 0xe3fec22fcc45c902U, 0x17e13cfbbccffe21U,
  0x2253dc1a06c114f2U, 0xea07dd41fb922ec0U, 0xed1bcbde62d3039cU, 0x2e3e0a4f6b3d439U,
  0xa81b9fb0a14df10U, 0xfdff28db081edb0aU, 0x4238cbe3ebc9f008U, 0x317dd51dad321fbU,
  0x1ef300d630f0e921U, 0xff1b2e35cf172919U, 0x382dc31c30370333U, 0xf3d3192a81090300U,
  0x42fc1e0b110bd0bfU, 0x176021dccfe7230dU, 0xebfbc1cdca45f4d6U, 0xc63a8e2def5c2717U,
  0x490c5927d9dd6204U, 0x147fd247c1cd74e7U, 0x1cfe1bd7ec632addU, 0x803fee902e81217U,
  0xdef5f6f718f3d25bU, 0xf7e23afbda3008f3U, 0xf22f00804b4e8b3U, 0x15811a2d1f07f2ceU,
  0x4ce10c1301ccdcf0U, 0xbff82cdeee56d5d4U, 0xf700b0003366caceU, 0xd2d5ff20d83e2f3cU,
  0x2ed6db1b0d21e50bU, 0x7ffbb00b62e2411cU, 0x1b12faffc1b2fe1cU, 0xb04e6f2f8c7af16U,
  0xe0ff21cee70fee14U, 0x12fc3dd530cbe9e8U, 0xd3c12e609cb07c4U, 0xe1fbd6810b20c7d1U,
  0x1cf53be0ebee00e3U, 0xd8e1e50781705324U, 0x19d6e2fe28fb1ecaU, 0x29cebffa57091fbfU,
  0x8d16805f425e202U, 0x26183f2e19fd1ec5U, 0x28db00ed08dac2dfU, 0xf6cc6503f7ca04e7U,
  0x4d02b83716e73f8aU, 0x7fdf168c2fec6222U, 0x73d8a96b178111f7U, 0x52f1b3d749190e94U,
  0x1e03e74e97b4890eU, 0xea1331183d31f010U, 0x333ea2116e1deb5U, 0xcf4ce9f12ad4e7a9U,
  0xe92a4cf7ef57dffbU, 0xff027f0605fef21fU, 0x60607f9191ceb3aU, 0xcd8250b08f1f103U,
  0x1602f20534f419f5U, 0x381912c0e6f5f1fcU, 0x230807ea170b120aU, 0x2ee09812a13bd1aU,
  0x17d2e50cea1bf80fU, 0xffbc29310aeb43f5U, 0xfafceec90f4f8fe2U, 0xdc1c0b0bdd610912U,
  0xd11d12ea200eac28U, 0x8101d023272a0227U, 0xe90ff13f1cd153ffU, 0x14f0f681f81f1529U,
  0xf6c73422240de709U, 0x29c75e05d9f1fd26U, 0xfdccfda2ea042750U, 0xc228dc00f6122b1eU,
  0x27f496c0cc06ff3aU, 0xf42cec150cf47f60U, 0xf9b24d9eec130e0dU, 0xe64ceabbc11c030cU,
  0x4ae2401653c85efbU, 0x50d6e4d726ec93c9U, 0x13f95bd3aaf9fc1bU, 0x41a000018f2U,
  0x4f00000628U, 0xfffff93600001928U, 0x3e8000002c6U, 0x74000001113U,
  0xffffff4cfffffff3U, 0xfffffc7d00000229U, 0x3f00000c95U, 0xfffffb4400000ff3U,
  0x7b2000002beU, 0x6d300001264U, 0x303fffffcbeU, 0x3f000007ebU,
  0xfffffdfbfffffe81U, 0x2b7000018cdU, 0xfffffe2c00000cc5U, 0xd30000009feU,
  0x3c500000350U, 0xfffffd7f000017aeU, 0xfffffb54fffffedbU, 0xfffffedd00000473U,
  0x609fffffd35U, 0x3de000002a8U, 0x8fc000003cfU, 0x200000000U,
  0x600000004U, 0xa00000008U, 0xe0000000cU, 0x1200000010U,
  0x1600000014U, 0x1a00000018U, 0x1e0000001cU, 0x2200000020U,
  0x2600000024U, 0x2a00000028U, 0x2e0000002cU, 0x3200000030U,
  0x3600000034U, 0x3a00000038U, 0x3e0000003cU, 0x4200000040U,
  0x4600000044U, 0x4a00000048U, 0x4e0000004cU, 0x5200000050U,
  0x5600000054U, 0x5a00000058U, 0x5e0000005cU, 0xbbbd92dccd50f10U,
  0x28dfd1eddc201e22U, 0xf0ee537f1ea9ba1dU, 0xee03d9331344f8e4U, 0xd50929f4dce2284eU,
  0xcd0feec52bf220e9U, 0x2f819cd58de5cc2dU, 0xf8e2b8bed2417cafU, 0x4c2449a1b44231fcU,
  0x3150e5d82acaf8c5U, 0x1cf013fe0a578455U, 0xd0d7dd30cb11e275U, 0xcf24a0c8145ee0c4U,
  0x4297100d34ae7fbeU, 0x35bd0df69b50ed16U, 0xdee4f008f0180b00U, 0xe92e18f5eedef6faU,
  0xee2fb5ddef1d16d2U, 0x19e205813f07538cU, 0xfe23c90e390135c0U, 0xb44c5d23fa10e2dcU,
  0x54e8955d4827f65dU, 0x211deb1dafb451f1U, 0x240fbd25cf1505ffU, 0xc05e0f30ff01f0d8U,
  0xf2713516eb0d81f0U, 0xfb1911bd478acbf6U, 0xf8151f16182c4130U, 0x41dece9ede7ec18U,
  0xf11eb5de110a161bU, 0xd9271112e53ed062U, 0xb0f35d6cad1b8efU, 0x1a03e95dc3c0c0e2U,
  0x3c7fd1b3c40dc18U, 0xc2f60e7f20b323e6U, 0xf006e113312208aaU, 0xf7e81d05346336f5U,
  0xbfb70d214914d702U, 0xdcaca2c9d4dcd9feU, 0x30e3154ac7437faaU, 0xfbf6d0f6c11011cdU,
  0xf4f3f3861ff9395eU, 0xcef76d261274b0f8U, 0xb0c9bce6442e311dU, 0xd61b03fd200e3a81U,
  0xeb2a52f94b1e43ffU, 0xc616cebe59063b29U, 0x2ce7bb200ec80aa6U, 0xf032a3ee9e00015U,
  0x7f2be1d7fdc8f9baU, 0x7bf4e21fea15e60aU, 0xfd09db0248ff2d1fU, 0x1beadd1968051905U,
  0x208cefeec36f5ffU, 0xdbc0f6251c3e40eaU, 0x54f8f932dae3df1eU, 0x1feff9fe1781d164U,
  0x351608fbe00afc26U, 0xf4c8ec0bcf003818U, 0x2ef4f3214af23decU, 0x14d7daefede1d60eU,
  0x1381f5fb9bd8e2d5U, 0xee1501e6f92204f9U, 0x3eeed414ed24e7f2U, 0x221c110818c02a1cU,
  0x1745cbeac81b35f0U, 0x117f1202db405fc6U, 0xe5f3653ab7152123U, 0xffb7503fd0064317U,
  0x2fdc1eea07bd46eaU, 0xfce3e537f5e5ebfbU, 0xe644f1f405d9e522U, 0x3a7cbf9083367ffU,
  0xdb0cd009c910c355U, 0x947ca1f81a5f3dcU, 0x1c10f00ea5c8721aU, 0xe3f586e0f01a8eadU,
  0x28f841b5e7d9f216U, 0xf82deef5ef0217e5U, 0xe1d2c2d20c1dddfaU, 0xe5e1dbe8e07fe450U,
  0x2ef3ff09e0eb3ddcU, 0x15b6f5d80dea3327U, 0x1a021413eafdafc8U, 0xac1b53ccb11a137fU,
  0xffcc0f4eb465d81dU, 0xfd4318e2101be807U, 0x19e1c950e2a11013U, 0x30d8c9dd251f2ce5U,
  0x211909cab20e031bU, 0xc7fde9153ce52efdU, 0xe10b1b511adbee06U, 0x137fcefed4c8abe4U,
  0xe2031618f300f70cU, 0xf233bfd1fbddffd9U, 0xd01aebf205df0d21U, 0x24273f07b4061f03U,
  0xe10a1f0fcbf8b6ebU, 0xe87fce1cf2e6efU, 0x2440a42e2421aa95U, 0xf8e5f21a26f804faU,
  0xd1b16202dcfee0ebU, 0xe57ffe4afdbbfe19U, 0xf02404072bd7ec30U, 0xefeaeb50b913ab29U,
  0x38e1104f06e234f3U, 0xbef91ef7ed0226b3U, 0x593423d836c8c1fdU, 0x4afb39d20cbb2af7U,
  0xda0901125bea3dcU, 0xe9f41f1fcc81aa14U, 0x3ee6b3490147ea42U, 0xcc06e6ffe8f9f4eeU,
  0xf10fecd8d9eb0dabU, 0xa6551162046f2af5U, 0xc72c704f9e402beU, 0x460ce1fb02d61a26U,
  0xf91066eec281f915U, 0xea1cd667071bcbc5U, 0xb9cf34e825fca068U, 0xb3280904f0d3ba19U,
  0xfb6d08e3f3e9090bU, 0xa06c3297f12d10fU, 0xf62b391a07bdf9e7U, 0x509fc2a06f31917U,
  0xe7d5e929242ee61fU, 0x6948c17fc903a93eU, 0xf843ed3189d80a01U, 0xd20a41c5b606f1fdU,
  0x3a20ff6ffe0be011U, 0x5d7a4b31defd814U, 0xe10603d2fbc5c4c6U, 0xcb36f999f5fcd8fcU,
  0xcc3e0574fc16eed6U, 0xd5a970301704db07U, 0xe5a353efaeff9ccU, 0xda4fbfd781e61149U,
  0x1d36e2f0413fed16U, 0xfce2d4f60cfb0d21U, 0x56da11aca9503131U, 0xac0eab052681fabaU,
  0xcf1c0925ff21fbe7U, 0x5c3b2319fc3ffdd8U, 0x13ff202fe49c2c08U, 0x81051e693cb1d3b0U,
  0xaffcd3ddf744ea09U, 0xf64d103068a7060bU, 0xda1303310cf5e726U, 0xdefd113410a6e00fU,
  0x1e74f705f7373bdbU, 0xc703d24be043e805U, 0x3cdb915060e2f08U, 0xe9274e287f60eb1fU,
  0xde0ef8341707ed10U, 0x20fe13094fc225eaU, 0x28dfc9f0d623c9e7U, 0x1732eefafffc7fc5U,
  0xf1c81efc1e232112U, 0x9e569e782401646U, 0x2c9f4f728f73706U, 0xbfd20bfc3fd5092cU,
  0x541b9be7360c060bU, 0xfe1b1400fb161ce7U, 0x381848022731813eU, 0x2d33ffdbe1130125U,
  0x2fe18ecd9cf3ef2U, 0x2ee100f3e5f4fff2U, 0xbb9eec2e1b390be8U, 0xa6ef2c0417087faeU,
  0xa73ceb1947d1e660U, 0xd9c4e004e8174a42U, 0x3110fd09d55816e4U, 0xfeaf96bbf08c0ed0U,
  0xa9fbe6b60856167bU, 0x1c5d4cf281cdc028U, 0x10db11cde0e0f59U, 0xb9f22039160819f5U,
  0x20e4e31bec2ee0dcU, 0x62db0f15226b16e5U, 0x2ee4eabbaf4ce735U, 0x2f183afc1df926d2U,
  0xc2dc58c52511f5ecU, 0x7f312e07e82bf7d8U, 0x1dbd0c23224104dfU, 0xe69511fb30e2e606U,
  0x10c40414fbf4d0dcU, 0x81c3f9c8dcfebf08U, 0xdbd0def6cfd025d3U, 0xc1d2bd5e111e249U,
  0x1403c2bfd4dd4627U, 0xf73240dce433b0c9U, 0x47d67b6af1181df9U, 0x31fdb3fe0d4624d2U,
  0x7fd411e80f520bc0U, 0xf619bbc3f3eb1cf0U, 0xe8e7f23929e349cbU, 0xab25d6f912572405U,
  0xd001fe2452c9ec1bU, 0xdc81ff9a95dcf59fU, 0xe035cf3d4ff513eeU, 0x21955e714c20930U,
  0xf0e4fb5d17665d64U, 0xa3ead9e2a2bda512U, 0x77d0345a2db2b9a0U, 0x62d3f0d7f71cc3dcU,
  0x21faf6ead7e5bf0cU, 0xdd573e5d81efd1a7U, 0x4db5040535e2dbc0U, 0xadcfcfefe2f5951fU,
  0xffe3e3b151cef2c4U, 0xc13faf0dff13a14U, 0xa7d32c81ebec17edU, 0x29c80f0dbce454U,
  0xcc5a2067f0d60f21U, 0xf334e5f30dfa33e3U, 0x1b29f4ea251d0dc5U, 0xc041385dc1f42cU,
  0xe56a1c6f7fe9abf8U, 0xf2f3e8e8d024c9e5U, 0x45e64f1b916e0cdU, 0x16aac4d7e0171944U,
  0xb910e9ffdedddfeeU, 0x99d6ead2912cb0dU, 0x3f1e0281edb91872U, 0xc311043389fb3997U,
  0x9a9181f790766c9U, 0xecdc08ebf8b82910U, 0x5cddf3f8a9af327cU, 0x13c3c1c36705aa7fU,
  0x2dfa0713c23035cbU, 0xfbe6a8a2dd94cc0eU, 0xd95832bcc626bf0bU, 0xd81920d2fa04e8fcU,
  0xd328103a42e76ca7U, 0x943f69177c990f6cU, 0xd2fba881ffc6d7b0U, 0x37cfe421cffb1524U,
  0xe99cfb1d091421ebU, 0xff04f3030fd9ecf4U, 0xa7e8fdcb4e384fe6U, 0xbe705353becc814U,
  0xdf314c0ae716db11U, 0x37129b717fe4d7f5U, 0xdb210b5650fcfdffU, 0xb1fc6c1a57efab40U,
  0xfd10d6f5161a4d10U, 0x43eae0df5941d726U, 0xcdbd80abd340510U, 0x46ca0fac270723d0U,
  0xf8e67f103bdcd7c3U, 0x1d262ff31d701bf0U, 0xf248cd04381b8715U, 0xe22ecf32bcfa7f50U,
  0xda1093322bd9d425U, 0x12bd001821c4fad7U, 0xd0aa912f10a1f32U, 0xc6edead821faea67U,
  0xe618bce01108c415U, 0xcfe5f3fcf06b3b29U, 0x851c01d1bda6c916U, 0xb796d143bd0ad267U,
  0x7f79f2f51106ee5bU, 0x32c249c544d1da58U, 0xacc8d4458dace9f5U, 0x9dbe9e3562873816U,
  0xdf87fb287f2054cfU, 0xfad98e84e1211003U, 0xb5f031c52bbcdd58U, 0x3a00396d96009613U,
  0xafb0d95a39ed6d0bU, 0x20071c14127f1419U, 0x20bc0af4cf1ef4f8U, 0x1aa61cef5908abcaU,
  0x37d3fafdbb2626f4U, 0xf7a623a33516da27U, 0x1fd9f115511c43f4U, 0x2201d0caeef17923U,
  0x255b118edc17cfdeU, 0xcb68caf35ba6ecfcU, 0x53feb55f1d14337fU, 0xdadf452d2400515bU,
  0x49040bf40cf90b05U, 0x6825f6feccfd04e4U, 0x1db52b00aca91d6U, 0xa05369fe0386e34fU,
  0x2726e95b8bb0eb0eU, 0xe4f8172bf3ec2d0eU, 0xd7e481d4f7bed9f4U, 0x3aa1fffff9ccU,
  0xfffff9ec00003b2dU, 0x201f00000441U, 0x23d0000197dU, 0x2cffffe46bU,
  0xffffe3db00002649U, 0x1ce0000046e4U, 0x1887fffffde0U, 0xffffe31f0000028eU,
  0xffffecd500005582U, 0x929ffffed76U, 0xa74000007d5U, 0xfffff1c800001c76U,
  0xfffff855ffffff3aU, 0xfffff4550000298aU, 0x396ffffff338U, 0x276500000642U,
  0x1013000050e2U, 0x1c7900001343U, 0x378600003faeU, 0xfffff82dffffe53fU,
  0x300a00002026U, 0xffffffd800004082U, 0x32c8ffffd6b7U, 0x32281061cfd2327U,
  0x9fdf81e0dfa00ffU, 0x2bdcffe6f8f53b05U, 0xf4d11906bef3efedU, 0x16feeafe29dece19U,
  0x5ed147b5f10b08b0U, 0xf12a4a4f8121ec7fU, 0xf9e0ef28bcb6f2cdU, 0x1d7cc47fffea3428U,
  0xa8bb222adef73e19U, 0x13efeec12f53e884U, 0x777fcdcf0f48e29cU, 0x100419fbfcff0526U,
  0x7faf8d1e7c8fd0eU, 0x4a151044f0452661U, 0x1305fe01eeddd3eeU, 0x310cfdd8050c84ddU,
  0x551bdcc9e202f240U, 0xb3f885c5fe1d1116U, 0x7ff82f203d070e2fU, 0xdff521e381dcd71aU,
  0x2de5f5ff81c3ff0eU, 0x3fe04c4b38f20dc2U, 0x46c47f811051107fU, 0x81814ee84781810cU,
  0xa57f25581d81817fU, 0x817f7f452f817ff8U, 0x4f41f97fec814e7fU, 0x97fd97f7f7f81deU,
  0x7f094c99e67fbb70U, 0x5194e81fde6ef00U, 0xb2f44eff05b6139cU, 0x50c61c3c37e33951U,
  0x817f0214a82ffcf6U, 0x7f24cfda295d3ce1U, 0x6afc710a4b32f6c1U, 0x9e2e5daeaf40f07U,
  0x7704ddde12de11b3U, 0x16221ceed8272541U, 0x611d3a2b4f2f20eU, 0x14f40de8d524c9e9U,
  0x3cf11c06150335f0U, 0x9abab33b021af234U, 0xb9097f817f1dd490U, 0x51cf22d903c5397fU,
  0x38eb81cb265881f8U, 0x3ba97f391805917fU, 0xc5420f8c7f247f3fU, 0xec2c2a07d713f3f9U,
  0xf30a4dfc20c919e6U, 0x1aac0fe61be2fc46U, 0xe829ec1cb3f121f5U, 0x111ff81b20df0410U,
  0xfce142c531f214c4U, 0xe97fffff812U, 0x5a4000008efU, 0x36c0000073dU,
  0x11eb000006cbU, 0xbe10000092cU, 0xfffff1cf00001202U, 0xffffee260000013fU,
  0x227fffff6ebU, 0xffffefafffffe786U, 0x298000013caU, 0xfffff483fffff36fU,
  0xfffff680fffff7a4U, 0xa9fffff410U, 0x1ede00000c9fU, 0x95afffff722U,
  0x2dafffffa87U, 0x19bd00000e7eU, 0xffffe822ffffe860U, 0xfffff8dcfffff386U,
  0xffffe190fffff94fU, 0xfffffaedfffff90aU, 0xfffff1fdffffdf68U, 0xffffe04b00002bbeU,
  0xffffd3abfffffaf1U, 0x210824f5ee0a2604U, 0xf9f505e22322e6f2U, 0xf82617e72cb64eefU,
  0xc7e8d2def6b2d523U, 0x110e4c1ce90fe642U, 0x7f18fee1fc3700caU, 0xc8bbceb62adcf906U,
  0x4aed30ecf4550ae1U, 0x4095f644fcb54070U, 0x2ed31b63c6b2e335U, 0xefd11cdcc2c9d8a5U,
  0x6429814fbd04ed09U, 0xa392018daad0d59U, 0xefcb18108531f7eeU, 0xf238b6b83f50f847U,
  0x701006f91549ed59U, 0xcf1e811ff642f117U, 0x134130ff434d1b27U, 0xa5c2320508ee0ae3U,
  0xfbcac94f9fa416ddU, 0xf831b7f3ee3be00fU, 0x813a462c9b12506fU, 0x2ff8d5e8a4e0f311U,
  0xe610f507215a9e7cU, 0x15dfd4cb341d2a30U, 0x210e3004f57fd319U, 0xac9fd32e043e3cb2U,
  0x8dd08400228fa16U, 0xebf121fc49d8a0c8U, 0xdc22fd3cfd7eb1d2U, 0x97815bf4f612e01cU,
  0xe4e635c4029f7cdfU, 0x3e34aab918dbb800U, 0x6fc0df1439422f7U, 0x1f01a5c1d7286cdU,
  0x9c945a21bb94f2a0U, 0xfd0ce212d11b0c35U, 0xe0a73d31243db05U, 0x280bf719da811c0bU,
  0xd61804c4e050921cU, 0xfa410edfefff0de6U, 0xc4dcf1140b3013e4U, 0xe5330001f2e8a7d0U,
  0x7fe10e3f24d612f6U, 0x161e0bae934ceeceU, 0xe2badafefae4efe1U, 0x2421e050db2bde0fU,
  0xddc0b2d1710f35bU, 0xef9e209d401fc09U, 0xf7d2b009f6cf33deU, 0xdbdfef588ff4c42eU,
  0x8d081f26f0ed7ebU, 0x2614171fefd2d1U, 0xd30cfd2bc25526e3U, 0xd2e2660df1d7d905U,
  0xfce607bdfb3f8108U, 0xef05f41c1addee1cU, 0x3ce6c4fa3d142434U, 0xdc3ced1007fee508U,
  0xd8583c003448d1c5U, 0x5efe2beec1ee171aU, 0xdbf25dea2f0d0922U, 0xdc2202eafe81efc1U,
  0x1b1a2af036d40cccU, 0x22e6cc100bdec34eU, 0x5404aa2112fffe0cU, 0xfabc0f724ba1646U,
  0x8ae629c95d0406d5U, 0x40fb543f6ace36aU, 0xaaefc0020e210de9U, 0xd17f2b42f3f202a3U,
  0xfadcd33e25e7e023U, 0xd8ccec813ff122cfU, 0xedd70e2c02280fefU, 0xc1fbc01a14dbeb02U,
  0xae52a03f8e3e9e3U, 0x16dfb835b24c31fbU, 0xf8f12c371011e0eeU, 0x30fdeb0de7fec7efU,
  0x21171df2f8270f0eU, 0xecefe5240325e17fU, 0x71fae2929343af4U, 0xe004092006dac9d1U,
  0x42f52e0dbac216faU, 0xd7a8c2e3fcdd3118U, 0x1e32c905fa1738e8U, 0xda26e5cd06ed0a10U,
  0xfb2c394a26f007eaU, 0xfbc16e81a1e91fefU, 0xe4f8b3341ad93420U, 0x56d535acf5eb30fbU,
  0xf3dca40c6018e204U, 0xd53b341629cb21f1U, 0x3de903c31d303320U, 0x81e0e330cf2613f9U,
  0x60dbf90de118f641U, 0xff7000c074b170eU, 0x67fe516240d00d9U, 0xe913190f03fdfe34U,
  0x5e308f01a35ebfdU, 0xd72e0113f3ed15e0U, 0x1af9f611f502e6ffU, 0xc0eb35d7cc46fb22U,
  0x1c2fe1e3360afc08U, 0x4e599e20cf2143d8U, 0x1242e34ddce3e329U, 0x2e49f27f100e3a1eU,
  0xcc49a2201b0c061bU, 0x12e0f64cfa3112d7U, 0xd50e01d2f2063a45U, 0xbed4cc101d11630bU,
  0xa1f72ec97fdd150eU, 0xdbd0b126fc4d0120U, 0xeae4402252f7d224U, 0xc709162bef2212e4U,
  0x96f311f10d5f017fU, 0x140df1e8fddc41a4U, 0xc103162f00eef03dU, 0xe18746fe307adb16U,
  0xbbc2f1fefddcdb77U, 0xf8cfb82dcbfdf5bfU, 0x93f2b9df210d8109U, 0x1ced43a451cedc6U,
  0x2d6e5fd12adf3cfU, 0x1008150cf8df15d5U, 0xb7c857ed3a16a821U, 0x7ff3fb63f70cd41dU,
  0xcbe8ecd14b3e4dccU, 0xccc6bd020dcf64c6U, 0xeed743a02519eee1U, 0xa1f284334a2bccc9U,
  0x4d1259e320db9ff3U, 0xfbc9041d46d87f1fU, 0xf600db1513691430U, 0x526d443f35ae421fU,
  0xf33fd2de48725facU, 0x2511259903fea206U, 0x4f213c460037e9c3U, 0xd5d3e3275b0e9bf8U,
  0x4249c2d7bbfa1dc3U, 0x8116210628ffbe06U, 0xbbddc2b1172a8824U, 0x1afb258edb2cbe46U,
  0x1042ec55d5b0cc1dU, 0x200b4b14fee3d26bU, 0x27fbf322e90481f2U, 0xf24906d5e4ff02e2U,
  0xe50ace03fee370edU, 0xf1120c17a4370354U, 0x2711190836f9dd0fU, 0xda1cf7110e1642d9U,
  0x37f3cee5f765dd13U, 0x31f0bea03493b0eU, 0xbefdd1cb02f19daU, 0x3e1d03069532f2e9U,
  0x6341705e5810fd8U, 0x51d3251201ae4605U, 0xde09fdd003e1aebdU, 0xf406dad8f5d602efU,
  0xf8e3e23530160c01U, 0xf47f3ffa1a0a1af6U, 0xed111d451c2ee9ebU, 0x50303243d46e9a6U,
  0xe67f3efd14b1ea00U, 0xd9f1f93bbb07ec27U, 0xdf1f232127731a5fU, 0xe2ed0efdc405aa1aU,
  0xb0123e7c729cfe5U, 0xbb02ea0638e13fd3U, 0x28ecb3a7a60f411aU, 0xbcdc0037f205d403U,
  0x47ff1f3f630e537U, 0x20ec1ed20c231840U, 0xfc3342f9b7e9f1dcU, 0xe8124f811dabe5ceU,
  0xf5251fffca3ef924U, 0xc620281a0f093836U, 0x316047f900f4ecc9U, 0xd5e7e0eac58bfae9U,
  0xe86225c725332cf5U, 0x2f31926f201cfeeU, 0x1ef6d0f0dc0822f2U, 0x7fee2eeff1e0f8faU,
  0x91db2ee328a90ae5U, 0x9f1b075414303428U, 0x2645e740101206edU, 0xea1a3fdd3b328d74U,
  0xf0ae951fc06e1ecU, 0xe739ba7a55bd8108U, 0xe712fcb4fc971ea1U, 0x15ee0be3eeaeee1fU,
  0x3983fc0be8e5e9e3U, 0xaf09fc0601e41532U, 0xcbd87f1063e33d12U, 0xf07f9e0c0d83de7U,
  0xf0def6003cc847ceU, 0xdb0aeae9cf2ec0eaU, 0xe423342d13b40110U, 0xe5333e3260890731U,
  0x6360597fa7cbefa2U, 0x3033658a953f079cU, 0xa40113c34556e445U, 0xc63ac6e70eeeecfeU,
  0x1808204fba49c2U, 0xf1f455d009382b10U, 0xb6204c7fe01cef13U, 0x2b4104491cf7e6d7U,
  0x20cacb3beadcad28U, 0x9e1ce726f9c0111fU, 0xf0d5e01ffa1b3b3dU, 0xa5fb0209f2248903U,
  0xebf172b38e1e342U, 0xa3c91020f97234cdU, 0xd2f2af0c35e5f881U, 0x8a180d31b5a4dce0U,
  0xe4d11e95f1adf2e9U, 0xe6fb251ceffa4eeaU, 0xcd755f1f4f8fc03U, 0x257ff108031a1403U,
  0xadb170c0ff0174cU, 0xfde6eee03fc20f1fU, 0x6d8fc49f6131710U, 0xd32e20ed5540efc1U,
  0xea04e678f72a0d59U, 0x36ce2315eac12df7U, 0xac1920e5fee9162bU, 0xe0b9a551d218ec40U,
  0x5ed2023537307f43U, 0x17810bfb19cb18f1U, 0x2304f4b2e5fd0311U, 0xf3e719434211feecU,
  0x1a2728be20f02314U, 0xfacf150d27e40beaU, 0xf323ccb1ac6f3ddU, 0xf20a33ff6e5f70eU,
  0xc6dad2df1834c0d5U, 0xc6eeffef232116f9U, 0x573a2d39f0090a11U, 0xfdd381da24120237U,
  0x70eeba4dce0f90eU, 0xe1271a1d0bd1f7U, 0x280708ec330bdb1fU, 0xf6f536222235dffcU,
  0x262c2513f332f0dfU, 0xbd08faef68270b0cU, 0x7ff90b4aafce01f1U, 0xfe7f6e1af8396e8U,
  0xdfd627fdc6ff18e1U, 0xb39e7ca9a57c5f6U, 0x43050d0cc75e1f3fU, 0xeced6fbef8f935ccU,
  0x2352810707f9f011U, 0x3e708c9d1cbdeebU, 0xe01ed7f40a7fe7c4U, 0xf741d4e60830e448U,
  0x2afafdaec71922c6U, 0xc222c105d33ccacdU, 0xf2e620c01b8f0211U, 0x1133e10cdecf174aU,
  0xa405f5ebf806d5c6U, 0x4a147f01dc00a103U, 0xca3c30e9ece24626U, 0xe3604a188207f520U,
  0xdd2f16c501d3bae1U, 0xe61e1c2a230bbcbeU, 0xc1bda07c01ee1fcU, 0xc9edf3cddf143527U,
  0xc90ee6a1ea5d1247U, 0xe8d0ca16f0051281U, 0xced3b0811f4e8f5U, 0x21e4e31b261ed9U,
  0xece316f022fdbdd4U, 0x1df345c4153f2906U, 0xf00a81e5162c135bU, 0x13261bee2ceb3600U,
  0x29f50c260c11200fU, 0xc7b11ae284f63c37U, 0xbfd28e6833bed06U, 0xf4f81ed020393316U,
  0xf6db0130e4c2ea0fU, 0xd7db3812cceb1331U, 0xf3fdfaf028587f09U, 0xdbf7d4dcf35b2129U,
  0x1f29b3fcbd08051cU, 0xe2b935e2561fe5e5U, 0x17f604fd131cea0dU, 0xfcea337de681fe28U,
  0x5dd33e1e334fb3aU, 0xfffffc47000015c5U, 0x87f000008f5U, 0x11700000c0fU,
  0xfffffc9800000315U, 0xb240000098bU, 0x2defffffc36U, 0xfffffd3f00000c35U,
  0x5b5000003c9U, 0xfffffd0000000fcfU, 0xfffffc5bfffffaa6U, 0x124000000b6U,
  0xfffffb8200000bb0U, 0x3bb00000978U, 0xfffffc1d0000025aU, 0x4ac00000844U,
  0xffffffc500000bd9U, 0xfffffa8000000d5cU, 0x19f00000dd9U, 0xfffff9f900000d4fU,
  0x9500000175U, 0x4600000ba9U, 0x76200000534U, 0x390fffffcd8U,
  0x6b500000401U, 0x4aff0a0be3ede455U, 0xbc9e004fecf81b1U, 0x1ef19ee40c12c16U,
  0x128e1224c22cf1e4U, 0x11f0e9bdc427080bU, 0x44314bd001fd414U, 0x317f2c330d31dd16U,
  0x497b37d863614211U, 0x91ee5a205f103b9U, 0x6d04230a2e99f0e8U, 0x39d714bbdbc32137U,
  0xf92020e9d03afd54U, 0xd0b40b7f136f187dU, 0xfcceea54382ce1bfU, 0xb4d3da032efa4749U,
  0x351ed92ec046cbcfU, 0xf92e3bf6023f1e3aU, 0x1c042bf1d81ced0eU, 0xed0e1c81740bf01U,
  0x3475108104c97322U, 0x39afb11c23d3b817U, 0x41bfed565cddfa29U, 0xf6f4150b96a3268dU,
  0x4a16274352cc8cfcU, 0xc417f6e4f644be58U, 0xf31a0308d0e7d17fU, 0xe10d14ddfe1b1931U,
  0xfcea043422053c06U, 0xec3915e4ef22c902U, 0xe606e311eceaf300U, 0xd637ef38fce1dc18U,
  0xf52a1d0cc2047ff5U, 0xdddec5df02183840U, 0xd71bd2c30afcf6faU, 0x18ec72c719dcf8eaU,
  0xad5f841d2b0cc28U, 0x223f34172b057fb4U, 0xfc465694da7d3c10U, 0xc3ffbc2fbe44ee30U,
  0x50cd2ad3b4953641U, 0x5308a1f01400fc3eU, 0xfef7f024da521604U, 0x3229190c17071dd9U,
  0xef08fe44263fcad8U, 0x1cf2cee4277597deU, 0xedc37d2cb7f3f0aU, 0xd2d0e1f612381cd7U,
  0xce3adf02e641e0feU, 0xb1dc17f04c6f2330U, 0x7fe4e7030e0e51feU, 0xe506e2d60d361227U,
  0xa600b1f4dbfef1d6U, 0xf5cd22dffefc1ee1U, 0x174bea561b3aec29U, 0xc1fe4b9f6f66cd26U,
  0x1aebd40952f427ddU, 0x260a0006bc61c4c3U, 0xcbae432fe23e23e0U, 0xf0afb6c6acd27adeU,
  0xb32fe43a25f3811bU, 0x151fa7e3e61bd0fcU, 0x3eed7ff0baf440efU, 0x33014416feeffd7eU,
  0x1a1cf414cc2cc4d6U, 0xf11c11e6cdde41f4U, 0x13ec2a04dd20d890U, 0xd5d21305e802ee16U,
  0x1d12fcf8d706ce7fU, 0xce7f113021015f9U, 0x15f20dfe15eee3edU, 0x2025ea01eb0e061cU,
  0xe61aec05d4f2ffffU, 0x104c811626e1bab5U, 0x796505b5b8b2844aU, 0xf8ff70ecc1aef02fU,
  0xd1dc4a427bd23a28U, 0x150adfecda9814f8U, 0x62149ff4b52ebd20U, 0xe9b5b0c0071e0b81U,
  0x2735ea4cc42bc803U, 0x7ddfee8000c61eeU, 0xd3f3c730203137d1U, 0xf0161707cfc9cbd7U,
  0xd02819fbf1f2fa16U, 0xeddfe9bc1a1f2ce4U, 0x2e50cffefc7f4fe3U, 0xde7db8edcdac224U,
  0xdce005e30a0b3755U, 0x1f5046f30bf8a2c2U, 0xc6324b371adcc152U, 0xe53dff57a56a2015U,
  0xd4392609e27f3fb6U, 0x46c7c7f309eb3035U, 0x5b1060b3704b502U, 0xd51ed9d20a2bf20cU,
  0xc7c1be0d2804c320U, 0x3f411572e9f5e13bU, 0xe4e34d21152fa6e9U, 0xe54ff7d51810d490U,
  0x49d9b0f81c0a9ff2U, 0xe01d0a171d2e4c05U, 0x1169f6e07f4e2233U, 0xfa066aeb08397f0fU,
  0xd068c012bcf004f4U, 0x2e350e0f33f8fbd8U, 0xfaecacde05d8eefaU, 0x4ef552e05504ddU,
  0xe4a4c7fb3e262efcU, 0xcce77fc3f22e22c0U, 0x37e0f72cd3dbfc13U, 0x66ef1a1ec1b13444U,
  0x65c952de0819ed0bU, 0xf6f00401f0d40cc6U, 0x4d4f4fae1f620f9U, 0xb72c13d4140006d4U,
  0x1119ef0e7f26e9f9U, 0xf1e31ca0821edffU, 0x915080be3e8ffe5U, 0xee00ef29fbcff4U,
  0xf0f2d728d449f108U, 0x1fdf66ef4abb234eU, 0xb448cf7dbd22c2acU, 0x8acfdf03cfb9cf09U,
  0x613cdbfd81bdb3f8U, 0x93dc1e64ddfe10e8U, 0xdd220d88f5bec5edU, 0x1023f33f58ee0e3bU,
  0xfd062f311dfbfa37U, 0xe4d00f407ffc3306U, 0x2042e8efa7f8f52bU, 0xc91ee904d5fdd205U,
  0xe0e0f2b9bd27d7d3U, 0x17d83530c8508184U, 0xaf011fae3d002f5U, 0x4bb300121cffbaU,
  0xd3f7c0332dde40dcU, 0x30ebb3e3a2f80c2bU, 0x5e1eff342d4e80aU, 0x104d7f1f2303333eU,
  0xf1054afa167645fcU, 0xe8770c6b4ef30560U, 0x35d8c7cf19b7f8f6U, 0x1021a5aae7ffeee7U,
  0xf5fd511338ec2be9U, 0xa51b4b7f4e44ef14U, 0xf5cae2add944ffadU, 0xa2eeba4f09de415U,
  0x7cbf5ffead6278cU, 0xf6dd67c54a355cc8U, 0xd31c0fea0953c655U, 0xfd1516d2d8ced63bU,
  0x60fbe404c717f31cU, 0xd4fc127fc7f6063dU, 0xd3ec3003fd041bd8U, 0xbf908e9213713f4U,
  0xf9241729d3fde03dU, 0xdcbac3f6eac3bf2aU, 0xfd452bf756561156U, 0xb0b08dff0effe01U,
  0x17e701087fe23deaU, 0xf34fecf1f6d8f33cU, 0xcdfbd428f5cff8eaU, 0x490a1d2804ff49e7U,
  0xd42bfd0ffbb4bfdfU, 0x631ef0cef41fee0U, 0xeed200f8f7250c26U, 0xead4cd1910d5137fU,
  0x15130f0bf7fe060eU, 0xea17420d79dac8faU, 0x1c292704f5eb2252U, 0xdfdee9d002d1d1e4U,
  0x2fdb407f081ee08dU, 0xe3e0fdc1d5ef1de4U, 0x2b656c13e62b0408U, 0x269c9bddb366e914U,
  0x9ceae34933bd2688U, 0xfa59f6a000e20420U, 0xa308e4a92d81eac8U, 0x534dbad909ba00d7U,
  0x5df5e7cd05b7d602U, 0xc1e5f22533b37ffeU, 0xe715f50dea02f9f1U, 0xd903f80b04e305e6U,
  0x29e3f9e209edf0dbU, 0xeffef1d2f5d816deU, 0xe9f505e8151ae3e1U, 0xb9dba2daa94afbc1U,
  0x7f531ad8882d4175U, 0xe710b8f3db971463U, 0x151777ed0006d6e8U, 0x31b703a099f5f65cU,
  0xdcf3e68cced9c6e9U, 0xf402f2be411a21dbU, 0x1cc6130706ffd766U, 0xd9c8bfca41e900f6U,
  0xdee3154601d11af0U, 0xccfec1d090b2823U, 0xf0f0e3132f2381d4U, 0x489cdcf4d37f1966U,
  0x20f7d51cf4514e44U, 0xbbf536b1394bedb8U, 0x2cfaee300d3a0830U, 0xfaced131de0324ddU,
  0xba264b0a1e103e0dU, 0x2215dfaa9b2d15bfU, 0x205ebddaebb7f740U, 0xe91ff22016e1814cU,
  0x2a192729143bc6dcU, 0xb1cbadc51676cf0aU, 0x43ee6b806fbcf32U, 0xb8fe3327fad5e725U,
  0xf81fdb23e87fdcc5U, 0xf8d8d8345b44c541U, 0x30c3e40ceffcef2dU, 0xf334bde8031c0af5U,
  0xe824270dfff1d749U, 0xe1970681f15e51a3U, 0x48dd2d265ed42ffcU, 0x491b5a60c26e6b3dU,
  0x10c92a68d938f020U, 0xddff18f2e6fb09f5U, 0x5247350e04fdb2e9U, 0x2a101000ae2fc525U,
  0xf0123df42a813f2cU, 0xd41dfbfcdff5190dU, 0x17e4fb290fbffab6U, 0x2e4801ec0207f1fcU,
  0x3d2f33e8fff5f1ddU, 0xbf567ff1520332cU, 0xb34d19dd480b60e1U, 0xbd41e972813e5717U,
  0x71e649ffe1df63d9U, 0xdfddcad8cebb3b20U, 0xd8442dfbc7c2e3e1U, 0x3b17fceef92101ccU,
  0xe1e48c7f920000fU, 0x22225a00f4181af3U, 0x29e4de7f182f0cfaU, 0xf0ecf6ebdf2854e8U,
  0xd5efdf1ce1f9eb2dU, 0x4690e92f110fdb26U, 0x1401067f00cec8f9U, 0xb7eeba040403daafU,
  0x371b3b4f02cb1a32U, 0xfd01bd282efdebb7U, 0xf8eb1cdbf102fa2aU, 0x17f1fb25eb31daccU,
  0xdc2b381a253d1206U, 0x2d12f813f7f1bd57U, 0x3795cde932d17ff7U, 0x34512ac528ee4929U,
  0x65c315f909f3e516U, 0xf20376cf1c1c1eU, 0xeae1edf5a0c306d8U, 0xc0082381fc5239f3U,
  0xc6c1d0cbf4f35c0fU, 0x8e7bffecfe2fcf5U, 0xca05e33a38cf2707U, 0xabe93b8ef65b12b7U,
  0x3b0081ffd1fdf1fcU, 0x3e23b8e81e365d12U, 0x4007ce27ea556228U, 0x8a363117fae2ffe3U,
  0x4a5eb5cce6f0f5a1U, 0xe0107f364b903e1aU, 0x57303b7ad1f2fa26U, 0xcb6bfa944ed3f00U,
  0x1b19d32c532ff615U, 0x5d0803ed0f13e7dfU, 0xde8cc41cea8d7feU, 0x21973987bae4e0fdU,
  0xf3c9154ae336cab0U, 0x2b59b7f1a1dedf06U, 0xecd5241bdbba0ca9U, 0xee1627dd16e75720U,
  0x253a32f7357fe750U, 0x7bdc2e3df6e84224U, 0xc5fe81fdc1d1c1baU, 0xe0d7eb51ddacfcd4U,
  0x44f1f0d68a196d1bU, 0xf02316fbed5d096dU, 0x7ed3228529263dbeU, 0xde2ded0d1ad1fa2dU,
  0xc1ee0502eed64259U, 0xd5c63d61f81c750U, 0x4b1609e0eddc1fbdU, 0xfc1fc21fec81d0dU,
  0xcabaeb2d1024e50dU, 0xffffcaeb000020a4U, 0xffffff17ffffdca0U, 0xc7500000a34U,
  0xafffffd5a6U, 0xc34ffffe903U, 0x9c000000dc9U, 0x1c9d00002a15U,
  0xffffef3ffffff71fU, 0xffffee29ffffe1d9U, 0xfffff858000011b5U, 0xffffede500003e17U,
  0xffffb14000002796U, 0x500001696U, 0x592fffff950U, 0x4573ffffe94fU,
  0x1ddc00001872U, 0xffffc18c00000264U, 0xfffffa8d00001f12U, 0x2d2ffffec16U,
  0xffffe712ffffed1eU, 0xffffe5da000002e0U, 0x11cc00002a8fU, 0x1c91ffffeacdU,
  0x6b500001dd5U, 0x17e6f30eedacbd09U, 0xef52050012bc0dd4U, 0xc8a52c12f42dc90dU,
  0xf8304bdae538a80fU, 0x455bdf0be8371b0fU, 0x152826f21dfbfc04U, 0x2caee2d1fb97fe3U,
  0xdeeaa92cebaeae81U, 0x8181815ad34e2900U, 0xd2f2198df2fd81d7U, 0x7c4c00130e7f251dU,
  0x25115b03317a651aU, 0x1b1a1212140a59eeU, 0xdfddcf02d369ecfbU, 0xeaccdbf2f0f605d0U,
  0xddf1feca231517fbU, 0x27810813e14cff13U, 0xc7e50d160a0b2cdaU, 0x2b0ee7f946d24a3aU,
  0x1f5e3cfde48c81daU, 0xa1cdc319dafe1b1eU, 0xec4702f1953e09edU, 0x1e4e2339f8261752U,
  0xea2c311adfdcd8c6U, 0x818181817fc2da81U, 0x7f81247ff8a59248U, 0x1da0967f81ca7f81U,
  0xc77f0b0a816a1d81U, 0x88867f8181207f33U, 0x4177f7f1228b581U, 0x53fb0de8cc7fbe0cU,
  0x573619110baf8a26U, 0xb7d6cd370de641d5U, 0x316f8138237f1cceU, 0xbfb1fe19ba257000U,
  0xd8811e487f1f410aU, 0x27d6012b1021432eU, 0xc2b30fb15e52d25U, 0x3405c2f30bfde610U,
  0xb73df7b713fa1a01U, 0x1f162525fbf7fb27U, 0x902effc0aab1bd3U, 0xfce605dff6eed11dU,
  0xff3b7f1b7f7f2b6fU, 0x16d9f920dd811fe6U, 0x811aea811a2e0c0dU, 0x7f4806f7873b1e7fU,
  0x81279be0e88181ddU, 0x3b0c000fe42cbf1eU, 0x1c0e21001019ea51U, 0x48d9f5e804033deaU,
  0xf622dc0b08c03203U, 0xe5290209bc1dec54U, 0xecbfd40d07cffbedU, 0xfffffc100000017aU,
  0xfffff7660000048aU, 0x6c30000072eU, 0xfffff86200000cd0U, 0x129cfffff9e8U,
  0xfffff9eb00000ecdU, 0xfffff5eafffff0e1U, 0xfffff6bbfffff93cU, 0xfffff17900000e56U,
  0x10ee00000870U, 0x196dffffecffU, 0x80700001ce5U, 0x1bc00000df9U,
  0xce1ffffe90fU, 0x52600001053U, 0xaa4ffffec5eU, 0xfffff415ffffed27U,
  0x1ac5ffffe3deU, 0xfffff07bffffff70U, 0xfffff69efffffe57U, 0x3d400000d84U,
  0xfffff2cb000004ddU, 0xfffff38efffff13dU, 0xae400000310U, 0xc8d1a54cfff714e7U,
  0x4cba3fcbfb090cffU, 0x505b7153d00e13fU, 0x3dc0d37260dea86U, 0x9edab4d81eb9fdfU,
  0x24e0c546db0df477U, 0xf52eb13f0bf708d5U, 0xae1b1dd433dbdd1dU, 0xade8172b05b62b01U,
  0xc08f2b3262ee8faU, 0xecc502ebe47fe21fU, 0xd9db2d402acfe9fbU, 0xcaf4f702b0f1ff81U,
  0xa811111225341ec7U, 0xf737ae224f01b1efU, 0x4c12ba46dcbee2e4U, 0xc711d125a9ebfc00U,
  0x190ad1e5cad9a6d1U, 0xb7d20e58d7fb2a07U, 0x3fe11c1b61f8e0ecU, 0xfe234be0ef0ff8cbU,
  0x36b71046ad1922e4U, 0xd450c402e013da05U, 0xb6224e4e81deff39U, 0xdfcc8971b4ffd1bU,
  0x21c20e102226fb38U, 0xdd2d0881d70fe2feU, 0x17cd020232f0e942U, 0xe5075d3966b00bf8U,
  0x23daddeef109223dU, 0xb10052dc114e90cU, 0x9a3009c299020510U, 0x2501fdd0bf343fbdU,
  0xe6f8e546417f073cU, 0x3742f7cc6c1eb727U, 0x3835c2ebff03e2c3U, 0xe2cf3bb0f7911cf7U,
  0x31cfe9d07c0fb47bU, 0xc88df6dcd8d91a05U, 0x23f74523dbd97fafU, 0x50161f00d7e7d5f9U,
  0xcc484821273532f3U, 0x3832dbec06eef8e2U, 0xfd02d8e56431dd39U, 0x241913eb7f2906e5U,
  0x230be102ee480c3aU, 0xd69de7e707e13a17U, 0x4997f1411bd440bdU, 0xf7176b21fa170b30U,
  0xd1c4c7abcafa363dU, 0x1530d915eaef0fcdU, 0x4c2336fed181ff20U, 0xf928e60fbc12c7f8U,
  0x1f3124f22326cf1dU, 0xe617d3e40be9dc20U, 0x3b2f50fa2c5db90fU, 0x32222225e7d32a05U,
  0x43dc27f1c2c7cb1dU, 0xd6ad4ed47fe2c12aU, 0x25ee21e42d1a10b3U, 0xdf2761af9fc0ff3U,
  0xe3011ed30fea241dU, 0x3c3bb815f327f4f3U, 0x18810a1cd3fd1526U, 0xe3e1091357d6184fU,
  0xf9f7b70ef01ce8a3U, 0xd4c7f3c4a47f06fbU, 0x4dbfa2be7e50b2fU, 0xea04fda535ef0743U,
  0xf6e385f7ce91d723U, 0x4c53c09170ea5ecU, 0x2af922192a13051aU, 0x1ec90e18e4dbee0fU,
  0xfd1227d532d3b057U, 0xdeb5fe5d3d7f835U, 0xfcfeffea1504f6f3U, 0xd32ccdcd881cc54U,
  0x23ef2e471dda44d6U, 0x1bfb6f0553502b2fU, 0x1fa64e7f1e2a5cd6U, 0xd8c852e8c343debcU,
  0xfced3141fddb5544U, 0x9f7fb080118f3c7U, 0x5ac3f826e44f9908U, 0xe3cfbe427eb3f04U,
  0x687cf2f9d71cae96U, 0xc7273dd2fa071e3eU, 0x4d2156cef4d2a1cU, 0xe1d71211e2d4d413U,
  0xa10c50cffbe97f29U, 0x19ec7f12d9123ffaU, 0xe5f70738cfc3e124U, 0x5cd0414519ecc902U,
  0x11f691da9dd31e3U, 0xe92f0a0f09dcda4aU, 0x1b3dec5debeb18feU, 0x16eee4054cec1508U,
  0x7fea29efcaf141e6U, 0xec27201efef24b38U, 0xeefc0416221f31fbU, 0xf12206d9d35c33f8U,
  0xf31513b31d1ae615U, 0x7fffd5ff1c002c12U, 0x1c0fee321123cff1U, 0xf80de2ede30a1023U,
  0xd2172d01300f0ee6U, 0xf3eb24de0c0bcb11U, 0xfbcb0d0825eb0ad9U, 0x1d35d33f43e9f2e0U,
  0x30f71f0728073fc6U, 0xc706140046997f20U, 0xfaf70dd62be43693U, 0xc22102d6e5162befU,
  0xb11f32f71cf5a34U, 0xd8121be82a26c5e7U, 0x69da38dfe3381d4U, 0xe0ebf4f2af062a4fU,
  0x36caf561b119f7fdU, 0xaa1be901b858b520U, 0x312108b3f402f3d0U, 0xda03f604e42503dcU,
  0xefc70c0515d50913U, 0x8dc8dd41b8152d9U, 0xed7cf717e61719aaU, 0xd8163090ec304c10U,
  0xed54c7f32eefb759U, 0xb8f9ba145112aac9U, 0x3c01b026be14b2eaU, 0xe76414fc1ebaca1aU,
  0x5bb21295324f802U, 0xafcffe810eb6a503U, 0xdac24dc309a44e0dU, 0xe4cd05812dc50284U,
  0xf1f602e33eea4435U, 0x2dd169e6df6707c7U, 0x301503e0c3e4fc00U, 0xeba0251e882105bdU,
  0x3e3ce3eadd7fec4U, 0x2681232904f0ba4cU, 0xffe000d320e8c914U, 0x8c87e9d6f294189cU,
  0xbcda2ffcefb64123U, 0x51293ad7bd441307U, 0x5e44a1b1c24103dU, 0xcbfc05b7ef1626ecU,
  0x1f1fffa0212ddd31U, 0x3140008340d27c9U, 0x2fb82f2c21f7eddfU, 0xf6522deaacee6281U,
  0xdc2ac63adc144b2cU, 0xbaed4a02dc930444U, 0x2d141824811f1fd4U, 0xbe5c09401afca0feU,
  0x480d2257ac1d00faU, 0x2f2c0f20ead61efeU, 0x11f02e137ae3c4d0U, 0xc5c3ede4089ac3a6U,
  0x88133d4f14a170eU, 0x163e5de9d9a4cd24U, 0x26c8970ffc2200b6U, 0x95b2b187f88fc60dU,
  0x210a16f5229020e4U, 0x4acddcbbae16faa8U, 0xb0f509dfc22f3c47U, 0x431d203afd7fd0f6U,
  0x2718baa4b19be303U, 0x371099e23e3bcc90U, 0x14d9701bfdd3f4faU, 0x4418821444d9810aU,
  0xd60214c906362d3dU, 0x2b9eeebf605043eU, 0xd2ffa760b04d0bbU, 0xc2ee33c3fd0ffb12U,
  0x3c01154f67f70bd7U, 0x3433feed781d7d2U, 0xebf2e9d6accf0d0bU, 0xe1fe1f42ed8e32fU,
  0x32e6d8e0ad4af0f0U, 0x1bedd0d916e90000U, 0xad24fdcbdae20723U, 0xd3aee513d8eb2145U,
  0x5fc8cbe5e5ddf39fU, 0xe9ee4031037d4123U, 0xd96bd12c8881577aU, 0x3d32a3d7af0d178aU,
  0x1634afee9743300fU, 0x2b190a00d41bc51aU, 0xffec81daed2f1d03U, 0x5fccbbcbfc09c6deU,
  0x14e23cb7cad306d5U, 0x29fc18fee4ccbefcU, 0xfbf2de4e2233f7e0U, 0xd3e21a0de902c01aU,
  0xbbed135bfe0ff015U, 0x1b4a3bbbd0f9ddc5U, 0x5f3531def6def385U, 0x1515451d493bd9f6U,
  0x194536f2ed13d17fU, 0xd1dc0bf930e222feU, 0x3d53fe6fb5516dbU, 0xaa36ed7f343d51a8U,
  0xd25064c4d6e5672aU, 0xc6efaa08cb146556U, 0xe8fbf331f83549f7U, 0xc889f7ea0ce3ec22U,
  0xe318c7a3fbd523a7U, 0x15d533b6b93e16e5U, 0x81afe84e23fad73eU, 0xfd38271510e50215U,
  0x3cc3dd499ba8f51cU, 0x681e806da0135f3U, 0x7132cabeb15eb04U, 0x34ead9eaca0a1c0fU,
  0x31a7193fd521f20fU, 0xe80d410444103e3bU, 0x182ac1f427160c1fU, 0xb3c1274d2e1108e8U,
  0x340d2b0113eec5d0U, 0x8f0f9cc19f90281U, 0xedf9ebfaf6c2c4cdU, 0xddb2fb30060ccab3U,
  0x465b6febbdc8fae4U, 0xc2fa41dfca1fb738U, 0xf058a52a553248f1U, 0xf9e7f7d7aec644f8U,
  0xd0dd78902e934f3U, 0xc5d8a07fefe2f91eU, 0x1c01532e184a8e0dU, 0x53edb60e09e8ecf5U,
  0xcf3bf3f437111439U, 0x44c0ff93109a3e2U, 0xde86143e2cc504abU, 0xca224629eef215bfU,
  0xc3287f93ff1fdd15U, 0xf527483be2f305efU, 0xe646ae34e2d0cc17U, 0x63cf7ff7a3d33c4cU,
  0xd2d4544595efad18U, 0x53b98c306fe5cae0U, 0x3589f0b14dfb2ee7U, 0xd20c069e362f42beU,
  0xd50bd238592a3381U, 0xd5e020c828f2ec3cU, 0xad1b90e61b29d7ebU, 0x204bbd2f3f5f008U,
  0xdfdcfdee2412e9f9U, 0xc4e111e008140924U, 0xf30f6d1d6281c2dcU, 0xf4ccfe5fdfbc8d7U,
  0x9c28d401fe20eae2U, 0xa523a727110ed4e8U, 0x74fdf005db0c1019U, 0x11e11920e0a105e2U,
  0x1309fd1216db0410U, 0xffce30deb6217f96U, 0x3c162969d1200bd3U, 0xe50eea031927f71aU,
  0x2a091bc5de0d1c14U, 0x161dd928fd060802U, 0xeaf923f1180a0613U, 0x30151b25d9dde6e6U,
  0xd5daf61c1adb1281U, 0xcf9f42526d7ee4bU, 0xf0d229fccbf2f6f7U, 0x14d4e50c22cc0c0cU,
  0x7f06ede7b61f50faU, 0x581cc7c9bd1f2d26U, 0xe5040dfe01a0cd10U, 0x47ebba250f060603U,
  0x42c5f13719ba8912U, 0xea493cfed8e33bdfU, 0x6d1f533617fbdb5U, 0xbfa852b01868f0daU,
  0xab91d6397d50caa5U, 0xd30178bb0ac1e4cU, 0x33f4f6fb7bc50f32U, 0x330423f4de0b05e5U,
  0xf120420dba62e95eU, 0x5311de2b81242ed9U, 0xf254e90fc808ecfeU, 0x18f4da2109daddb7U,
  0x1e03bf71f412e5d6U, 0xffe5c3a047362e81U, 0xd5cae8eecd15282bU, 0x21d80914fd984720U,
  0xfd81cc2f115270dU, 0x30393608c3d616f7U, 0xcfdd21d5c2db14d1U, 0x63e000024bbU,
  0x6c400000a23U, 0x28a000008b6U, 0xfffffff4fffff9eeU, 0x6a00000088aU,
  0x22e00000483U, 0x521000005f0U, 0xffffff1bfffffef8U, 0xfffffcfd00000e89U,
  0x33fffffff46U, 0x34cffffff2bU, 0x266fffffd7cU, 0xffffff160000096fU,
  0x24dfffffa8eU, 0xfffffed300000449U, 0x8b0000048eU, 0x2ab0000160aU,
  0xfffffee60000042eU, 0x502000006e8U, 0xfffffdd4000000adU, 0x2170000006cU,
  0xffffff59000005bfU, 0x760000049dU, 0xfffff9b000000426U, 0xfa75efc408eba91bU,
  0x26d334f3ca1e1eb4U, 0xffbb230f01515d1fU, 0xb224c7fb1f168743U, 0x533c61630441f7fU,
  0x11ebc1df23d23007U, 0x53e105f73b0411adU, 0x2e0bdde0e592f907U, 0xae020baec9a8a706U,
  0x3682e41b7afd0dd7U, 0xf81a0dc5814a2aefU, 0xf8d149b411b8070cU, 0xd53d081e6a81085fU,
  0xe39dd0de006cdae9U, 0x2421f43107be1ed2U, 0xf55fecd6140e62cdU, 0xce326d29a1141931U,
  0xf766f0cfeaea11cfU, 0xc7b981114859e648U, 0xfcf1f91402dc57feU, 0xcfb515400c0617e6U,
  0x14ad09d7eb022ff0U, 0x123cdd00f81cc3e3U, 0x1e48f11204dcc5c3U, 0x13c351f10942cfc5U,
  0x57223351a0f32e4fU, 0xc1f2270aa7a07f03U, 0xe2e832de7bd00dd7U, 0x2dc1edf4539de4aU,
  0xbf11d3909f8ebafU, 0xd5f6035859e03c81U, 0xf9e43a691adc464eU, 0x13ebe8f4060dfe37U,
  0x53f85dc7d8d358ddU, 0xfe1ce8d8f3d6dedfU, 0x272d23ffe52ac3a0U, 0x1808c1b2c528f9a4U,
  0xf97a0548490ee827U, 0x24cb2cb0d4275907U, 0xdfdef42322e81f24U, 0xaffe9e111c3fbdb7U,
  0x81b61dfce3bec5d0U, 0x2125f907f6d93f2dU, 0xe0c451be9ff6d205U, 0xcefaf315bcef1a11U,
  0xc8d4fd02bae70a09U, 0x33ca1535e734ed30U, 0x27e57f9633302e0eU, 0x332e34e899b2e52dU,
  0xef2de13ceaf5d00fU, 0x7f2ed5d150fe56e8U, 0xad0aecf9f5cfefe8U, 0x1821eafad9c7f8cfU,
  0x4306f1d335edce20U, 0xeff64ec318485008U, 0xe57f13d90cfe2f25U, 0xd1e21d41eb0eb3e7U,
  0xe4ea02fbe1f2defdU, 0xfcab4cc8b53116e2U, 0xe22214ebf8cc22dcU, 0x24ea15fadc4e0cd6U,
  0x2dfcebf4f5e608e3U, 0xeaebfff62af5edfbU, 0x1158ee120d087f2dU, 0xef202115f3f72ee8U,
  0xf9c82540ef32c964U, 0xe37f47e2a88b11f8U, 0xf5780e2d6d45b469U, 0xeace2ad6907eb36dU,
  0x32e000148d626e7U, 0xac01d7ca27360da0U, 0x7749cb0ba1eaf74aU, 0x34557fcd23f74036U,
  0xf0fef1da1eee19c6U, 0xeee305ea161720d3U, 0xf1fae8c5d3d5fcc4U, 0x521d04e10911f7e2U,
  0x29ef23df0fecf121U, 0x480b58187f48f216U, 0x749e3f6ddc9f2ddU, 0x5fe7200c30ca06eeU,
  0xb8f1e8cec439dfedU, 0x211ecfd16f411caU, 0xf9f41618c0dbefcdU, 0x73f0f76a1848dc51U,
  0x23f31b46eda281d5U, 0x50b15309df091d06U, 0xdc0d1389d35dc94fU, 0xd8fa0fb48aeadf19U,
  0x3ee7d65640c9cbd2U, 0x44bc00fefb183316U, 0x3f1744743282d224U, 0xf338efeb08090447U,
  0xaf247e72581ec0aU, 0xe72719e23524f9b3U, 0xf5c3dc17251b2053U, 0xe30ccdca322153ddU,
  0xcad5be30ce0a318eU, 0xe5e47ff113411b44U, 0x1a081ad1cac8d6dcU, 0xe21bdff2a81b1200U,
  0x1b0a1714f201c845U, 0x37ef0b0c17e2ee26U, 0x1ef4fd74bb1a6276U, 0x2cf5cfd20081eb15U,
  0x2d160cbf70372b2U, 0xa8b1f1e7e2dd0ef1U, 0xf40b16f7ca493013U, 0xd1035a102af0f32cU,
  0xde23ffd3dc70fa06U, 0xe5f6e97fe10ccd03U, 0xf90a25f61cf5f51bU, 0x1b1d0541de03f8deU,
  0x225fa12f5f90e0fU, 0xc943422809ad51f8U, 0x3ef2c3d61d54cc0bU, 0xe8b0badfc9f7120bU,
  0xbd05dac4e0ffcfcdU, 0xed435c1ea8adc807U, 0x2281e1df0eaa0b08U, 0xe1dcda241ba2e903U,
  0xb416ccf133b2396aU, 0xf93d6108153a01e9U, 0x12dc2bc1bbd1311U, 0x9dbf17f01c5f2d8U,
  0x2ff61ed9b7e7e748U, 0xd8168545f0f44efU, 0x531341fbddd002a8U, 0xf7f1e7cd042dfa2eU,
  0xf2fcfd9a14d9ee45U, 0xfe0b55131008ff31U, 0xc8f9df2ebe220524U, 0xc4f71516023ca179U,
  0xecbb1def0fec0f1U, 0x107ffa3008fc19e6U, 0x1fdd0f0320dcd2faU, 0x4dff04061141f217U,
  0x70b1029d6001019U, 0x815e4caf6726845dU, 0x591605de36b717d4U, 0x83028e0426341ee2U,
  0x1ee9f8f31bc1db60U, 0xdedad5c5f0c5e3dbU, 0xe2082c42d3d7d804U, 0x401a0f680010cf7fU,
  0x4c1212d4c80cdd79U, 0xf9f8416b5f2ef107U, 0xd604c21a47e9ed04U, 0x327eeaf3d01ecff0U,
  0xfbc52514e812c6feU, 0x174fbce20c67e1bcU, 0x1111e8015df54fe0U, 0xdae3c7347f180857U,
  0x35ceb328dbd436caU, 0xcdf202c3dd0f28eeU, 0xe4a11106b6f4f1f0U, 0x114861c37f16350bU,
  0x5e1444f60ef9e136U, 0x503f3033117cfb2U, 0xd80b01ff28411cf5U, 0xcc6f002140c310aU,
  0x26431ccf1006d3daU, 0xf9fbd7ec763901f5U, 0x29eb06ece20e57e0U, 0x4f92cd7f77fe8e8U,
  0xdbd4dbeafa0ae2e8U, 0x400b1ed5d71e0927U, 0x25ebf6badafae8d8U, 0xed4722ee7f210901U,
  0x22c519f506c5ccedU, 0x6e918e1fbe4d8ebU, 0xaf80815eef01612U, 0x1072c35fb1000f8U,
  0xe7ce21c70b30e92dU, 0x4ddded7fb9113cd9U, 0xab1ede03f523df57U, 0xcc4fe1ad13044c0U,
  0x390e33da12d9e62bU, 0x19d7dd22383bdc0cU, 0x847ed051de7b8deU, 0x39115521ec1113b6U,
  0x5e10701425b7f71U, 0xf29faf821195efaU, 0x15153eec0fddcf17U, 0xdef6fe4be4f4ad17U,
  0xc02e8e30c04e3f3U, 0x60fe063bc92aec23U, 0xd8da0314ff58251fU, 0x3314b8bd5119de26U,
  0xc918010be82237aeU, 0xd77f101105da2fdbU, 0xe4000756cf0004faU, 0xededb476fc9b1710U,
  0x4481f3e7a4316ff7U, 0x532b5dacf431c518U, 0xa23f8061b121dc8U, 0xa03c23e6ab4ab9ddU,
  0x4120e74be40e19U, 0xac05cb5ed74d48feU, 0x16cb2ccf3b10f64aU, 0xf051e747b3279d07U,
  0x4b06111ee2d2f881U, 0xc73156f96fa8f3a9U, 0xd01b0d9a5be0f175U, 0x5c2300bd0f7d0a08U,
  0x69d9fbb3d4eb46f3U, 0xd1d4ef145e160563U, 0xb74321ce9a9de681U, 0xdbc3fffad257e4f6U,
  0x2bf02a22e0fdb4a7U, 0xf623c624c0d0250eU, 0x419c5de7feaf526U, 0x150e19e413eb1fd7U,
  0xc645b538f017ae24U, 0xce020dceb752c02aU, 0xf5efffdaf3bf0a0aU, 0xf81c9c7f58594922U,
  0x25f2e11c39041ddcU, 0x4fe6e658e2e1061eU, 0xdbf1e53107b3d8f1U, 0xe70ae30ce87ad5f4U,
  0xcac112d6f4ec2df6U, 0xfdf8aa3423fa79U, 0x47bd2cae09ecab19U, 0xacdde11dd80d4530U,
  0xd6eea7320428c322U, 0xf6e06530ff7ff6f0U, 0xd617f3add9d125e8U, 0x12cf0e167fd6f15aU,
  0x3ce3a7f4ebe82018U, 0x2de1c1fa2bfee4ebU, 0xa2e7e7bdbe750954U, 0xfb453deef1253cf6U,
  0xdcf6eab6d0dbfef0U, 0xb8381181d2cf9692U, 0xfbfaf6c30eeaee06U, 0xf6450a02edf313deU,
  0x313d32286604f1e4U, 0x702d54bedfae575U, 0xd810c9e3b82dcee3U, 0x16e8ff524215f908U,
  0xd2111523a54b1243U, 0xd0ec03f87ff6c745U, 0xe0eefc4fe92506ddU, 0xe715d5f2be0bebb0U,
  0xe6d20af47336f2deU, 0xb0f3d72cc733e03dU, 0x65a3df1138b3cbedU, 0x55464c272a311581U,
  0xc706c11fc307bd27U, 0x91f3f910a63ad236U, 0x3c081f2bbf81fa19U, 0x22d1ca0ce32bf3fdU,
  0x41f927ef7fb4fe28U, 0xb8e3da12fb34f301U, 0xfce4eec024e509e9U, 0x9f5e6150134a4d9U,
  0xd0ecd7e0e95c25d9U, 0xd87ffaad2665dc0aU, 0xf6f714080ec00ee5U, 0x55abd564cfdb02ddU,
  0x68dcf3ecfa0e2ef1U, 0xcd11f033f1162cd7U, 0xce1b31dbf52cff29U, 0xee2a06d6c816e91fU,
  0xc74750d3dcbda249U, 0xecf67f31847b0c53U, 0xe948c6dd2ab7d1ecU, 0xe033f9d7e60315b2U,
  0x66c2e9bef402e130U, 0x477f1885ccccdd44U, 0x5156c11911380207U, 0x52c4f02afc1a2416U,
  0x5de9601e0e7d53fU, 0xf41a431cd430c304U, 0x40dfd3051d14fbf9U, 0x74372036cfc215e1U,
  0x8a4e2773b7fc757U, 0xace16020ebc10f3U, 0x4101fff3e1063d0eU, 0xdcebf6b4f9e20614U,
  0xe17033c0bd735edU, 0xee335e8f98a91fd3U, 0xc1fa81f9e5eae1fbU, 0x1f49fd1abf91f8e9U,
  0x3400a2a74409b4afU, 0x9f2bcde91ed33022U, 0xe107f859183c4a45U, 0x4171fffff3cbU,
  0x13d1ffffdbbeU, 0xffffe4d3ffffed9aU, 0xc72000036aeU, 0xfffff04800000405U,
  0xc3effffdd1dU, 0xfffffda0ffffe680U, 0xfffff51200000413U, 0xffffe6fa000005ebU,
  0x21adffffd581U, 0xffffef560000077aU, 0xf18fffff335U, 0x67effffbd71U,
  0x15daffffc4c7U, 0xfffff7aa00000328U, 0xffffddbdffffc81eU, 0xda7fffff80dU,
  0x1a13000003e0U, 0x62a00000217U, 0x44aefffff968U, 0x1159ffffd343U,
  0x9a00001bfcU, 0xfffff4b900001cb4U, 0x4819ffffdc06U, 0xb421f151bfe78efU,
  0xce31f8050cdbdce2U, 0xe3f2e2c4defafdfcU, 0x13f8a8db0201ebe4U, 0xf6eada081011cb07U,
  0xf4f2291b29134efaU, 0x1f7ffb340d2b7e6dU, 0x2465c114f1549e54U, 0xc575cb03ec0ac5b2U,
  0xed5567dfd79e1a03U, 0x64681f3acec1706U, 0x7f7f5f636e3d4be6U, 0x297716e104ec4d0dU,
  0x20de64107cbfa1bU, 0xdcf3c229fd141dfdU, 0xfefa7becf9001cdcU, 0x720fe0e90fc111cU,
  0x4433fc041e16cd0bU, 0x7f42e25ae3663dd6U, 0xe20a0a04e527fdcaU, 0xce0d81411907d29cU,
  0x61bce7fbec50c6e7U, 0xf1048c74be6feeaU, 0x1df4f7cdbce122f3U, 0x791e7f1181f57f2aU,
  0xd17f7f7f817f8152U, 0x817f8b467f6981b8U, 0xd8817f7f7f777f81U, 0x81234f8162817f81U,
  0x4641b3a77f7f3fb6U, 0x6cc36281bcb7197fU, 0x81ba05f41acd0823U, 0xb6f7011f59e63bd2U,
  0xa8c25807e9104fbbU, 0xebf8a26481ff279aU, 0x3c26153221032414U, 0x2cd40917f01f2ff7U,
  0x215108d7f2d7b8bbU, 0xd54534342be727caU, 0x70169a04e6f9f9d6U, 0x17023ff5ed0aea0aU,
  0x2a0fdabcd0fe810dU, 0xf10c0fd3d381c241U, 0xeb65e7304f43ac81U, 0xab45937f687fce81U,
  0x9ae8032b1e81ef2fU, 0xc81170afcea29bbU, 0x485581811709be81U, 0x2fbf33c5eb151529U,
  0xb92dfd1b2633dce4U, 0xc7fd4a28305500c6U, 0x81cc0600e61f0be8U, 0x1e07d20296003debU,
  0xd914f3e2fefe6bc0U, 0xffffe08cfffff015U, 0x123d000001b4U, 0xfffff20200000199U,
  0xffffe9f1fffff00fU, 0xef100000201U, 0x42afffff801U, 0xfffffc83fffff73eU,
  0xd74ffffebe2U, 0x69500000f81U, 0xfffff114fffff357U, 0x1439fffff072U,
  0x1dc2ffffe904U, 0xfffff45600000d80U, 0xfffffbc3fffffe08U, 0xfffff3ccfffff684U,
  0x8720000110fU, 0xffffec5300000fafU, 0xab200000939U, 0x1490000083cU,
  0x8a700000021U, 0xfffff8a500000849U, 0xffffed7dfffff4d0U, 0x6e3000007a9U,
  0xffffe2ccffffee9bU, 0xd90a2307f1f20922U, 0x18eb15fe24fa07fdU, 0xb6f63cc5ddf301eaU,
  0x2ed4d2616c2a7f12U, 0xf10efad0cb02feceU, 0xe7faf70d49e815e9U, 0xc906ec3e60468d81U,
  0xd3c4d8697efb2f24U, 0x2bbf392cf952eadcU, 0x55f13feef80903d5U, 0xf64d14eb95fdc71bU,
  0x9ff207cdc2a3aed8U, 0x27b8fbe232dafbdfU, 0x389dedd200e5290aU, 0xe495025f458ca29U,
  0x61e602eaa04981b0U, 0xfceb17d2b13fb726U, 0xb27f5edc3eeedffU, 0x11ee11e2f2fa9ee9U,
  0xe7fc020be625c4adU, 0x1607110ad1543507U, 0x634c229ef1a11bbU, 0x5c19efcb0a0028f7U,
  0x287f38f803ef2cecU, 0x2e020542c4c71ed7U, 0xea10812e2b1ae30bU, 0xe91c11f802112cdeU,
  0x20920fbe81105b9U, 0xc0b45ba32df54f2U, 0xf2f802165b6b1041U, 0x41ee0502cd15551eU,
  0x5cef64527fe32cbeU, 0x325a231218112db0U, 0xaafde0ddf0dffb14U, 0x131632d6142c0a47U,
  0xfbfdb035cf30ddf8U, 0xe9bcbd7f0caf0600U, 0x38f6d5e1e3f1ca31U, 0x5d44f9411664f93fU,
  0xb5f34843011dda0fU, 0x17e5311ee7731cf1U, 0x7170bb7d31fd81eU, 0x14453c44ff2d08f3U,
  0x35ad8a7f5ddfc2bU, 0x6b185907f2eb2f2fU, 0xfdf270b7f261f04U, 0x17ccdeb80cf1fce2U,
  0x2f743629b26124ffU, 0xf34071c626ebedd5U, 0xbbe90148d4e0be00U, 0xf2cd81fb04512ffcU,
  0x1ccbe1020ffbf340U, 0x5109e3d21d20ce23U, 0x941241f1b34e15f0U, 0xdf2c24d4215f0971U,
  0xce9eb11f5dc0211U, 0x4fee1e30ff2e703U, 0x2b54ef0462010dedU, 0x8cfdf8e408c881e1U,
  0x10e0be4c9f40d28U, 0xe891341e4406f324U, 0x2e4c6f2827f20f7fU, 0x2edd0238ea2af909U,
  0xf023d2cb15ddf3afU, 0xf9b70fbf0afdf00aU, 0xb1463f34b1dbea19U, 0x2e126e919b13eb9eU,
  0xfcfbfbe1f5cd0833U, 0xf40206e7b8c23504U, 0x54e781490ee2550cU, 0xfec110c0fbe304d0U,
  0xbddde73b00425bU, 0x3baaffcd29e0fd25U, 0x3b3ccf173215f716U, 0x4729f5dabf5a0452U,
  0x185324f826c6a8f7U, 0x17fd5bff0dfd8dfU, 0xd1be651716a12a9eU, 0x38c44a7fa61632f8U,
  0x13074b140b2bc2d4U, 0x12f423c54c36aaU, 0x12b42b3b2efdd543U, 0xcbc8371801e847bcU,
  0xa382621110314bcU, 0x4f81112c08d2f292U, 0xf035eced3508e2a7U, 0xfc0bd446c242de84U,
  0x3f452a2515ca9793U, 0x21e9dd8ffbff1872U, 0xd653c35f7c233af0U, 0x3cbf1ee1b7fdaf7U,
  0xe41409f509361002U, 0x6d8f8a211181536U, 0x161b1ff6e5ec05ddU, 0xd13118e7ebf605f4U,
  0xd4dff00de616020cU, 0x3ef7fc5ff22a062cU, 0x9357b25e30c3dffU, 0x44b6ee814bca170fU,
  0xb7db30021a4018d1U, 0x34c0e9f727a5b2f8U, 0xd3e1a5cce212ba17U, 0x94f710f32a24d707U,
  0x9763e0f8aef8b648U, 0xfeb7b8fa813f71abU, 0xd7c2d9d5fa07e8bbU, 0x27d219d76623ea5cU,
  0xbe0505c08204da79U, 0xff27d805f0c25716U, 0xd29a0b0be6a636caU, 0xb77d0a4da8917fd1U,
  0xcf1d6e0622ae0addU, 0x12bf268f6fb0cebU, 0x5d1e108d6dd091eU, 0xffaef2fd65f6fe17U,
  0x7fd9072ad924a908U, 0x2800c5cbfbfe1418U, 0xadf74123ff0eef1aU, 0xeaf2fc6a9ff7f73bU,
  0x1afc251b11d0cbceU, 0xd6cbe5ae04007028U, 0x30e8d0d801da27f0U, 0x45e7f10d1d5504d3U,
  0xeeb900d6271faa55U, 0x81afec065fd3910cU, 0x378d00e0c9eaef20U, 0xa2557fd1e32116dfU,
  0xf9a32b1803db720aU, 0x47f2a7ecbafe4713U, 0xf00b52e117eba614U, 0x15660d434446df66U,
  0xdad54032c3b2f602U, 0xde09093ac109e1aaU, 0x17fdffc9397f3de4U, 0xe80ce41cdad119e8U,
  0x3f43c1e10480cc5U, 0x2bfc5721e81d46faU, 0xe04416d2f1232dd4U, 0xe3fffe426308ab73U,
  0xaff3f76f29f818b5U, 0x51c4e4ed28dc12cdU, 0xc021f4dffe00137fU, 0xc71616bb4013e03aU,
  0x1284c5c8692ae016U, 0xde0a33038211dd1dU, 0x5605abc2f5f6f3fcU, 0x45e91631f420d4a7U,
  0xe5a10881470d470aU, 0xc0d4ebfb14b2dc9aU, 0xf912100e0dd6efacU, 0xf4d4f608faffdd31U,
  0xc2fc2c2723402e49U, 0xd804ecd7dd46f4d5U, 0xf9d3367fedf70dc8U, 0xf0e913f8f723d817U,
  0x1bf1d7561ccae717U, 0x935687080b6472caU, 0xcea82af4e70e99f2U, 0xc3aaa61a4559f16fU,
  0xf01f414942e8f926U, 0xe6af9bae4507ae84U, 0x211ada54f77fd851U, 0xb16ca26eaab04f5U,
  0xc0aedde03cb1fd9U, 0x227e9eb3ae2c810U, 0xf732260524f34be7U, 0xf6813a01e0e1c205U,
  0xbd821071a10cdd6U, 0xe0453ae8341721a2U, 0xcf7606cac481da02U, 0x62b448f68718dacfU,
  0x91bcf337e4101ec6U, 0x10c3cad9330ecffbU, 0x18d6f69142430eefU, 0xddaef35f306eb2fU,
  0xd9114e1d0f040732U, 0xc6ea7fe72cc81ab1U, 0x90312c2a3ea09b6U, 0x2b1fcd0c4b020600U,
  0xfaea304f044f5771U, 0xc619d933c2e3192fU, 0x3df4ecf603aad70eU, 0x812a11f08dee26b6U,
  0xf0ee5a375a3a74ddU, 0x4e2c42add617135eU, 0xeeee18163e192c05U, 0xe6fb15c9810a0433U,
  0xa0f11ecbde083b23U, 0x721801f2e8f00605U, 0xe244525bed0ef5ddU, 0x57fe1c0bed0041fdU,
  0xc8aff10bacac1d13U, 0x1fcf0edfbfe294fU, 0xb0a10c7164d33e9U, 0xf210390214b4811dU,
  0x2b2909dca41be6ddU, 0x9e0bba15ed8dc8e3U, 0xe5ca314dd11f3bdeU, 0x1a0a2de82401db06U,
  0xe07ff301011b2ad7U, 0x1b37e8cd8ae6dc42U, 0xf29bfc1af41602ffU, 0xc518f336f0b5ac2dU,
  0xff241d14440fe4f5U, 0xa9d0febef608bacaU, 0xe308d4cb9be14b03U, 0x925e2f71809362bU,
  0x1eb8e5e8fbfb2c79U, 0x51d8aba7405f4a0eU, 0xc67f1ac2c942049aU, 0x5ab302d92aed06dbU,
  0x7f7150dcef8f300U, 0x255ce031f5190d18U, 0x1002f4ff0339e317U, 0xf1d5e5e5f91707efU,
  0x1c8140d916db04feU, 0x1fe6c0d242e122cbU, 0xfbc1dcdbf0fcfe29U, 0x6416f011ebe92dd7U,
  0x149bfef00dcb3a48U, 0x2822daf2f330e4fcU, 0x7f25e9113902fa50U, 0xfcf60ee222de1d02U,
  0xc9e0c1e7d2f40fd8U, 0x461f0bfc2b04fc65U, 0x22ddf700afdae2dbU, 0x2a13f0e8142f5981U,
  0xeb3ddbe1ff60ed08U, 0x11efb852e718ad09U, 0xc63e2b1902cd4eabU, 0xd3e6162be0c6d6c7U,
  0x7acadb3b122681e0U, 0xb04951056bd922ceU, 0x1dc015ed2436df1aU, 0x3de6cfd1feef0922U,
  0x13f2274f340ffe0fU, 0x6dd3dbc904dc1344U, 0xf51de614364cb737U, 0xa25d2bee6e34d02U,
  0x9b0437127f02e80eU, 0xdc1afc0689e2db06U, 0xe5c823f43fd100f8U, 0xe20812fec507ed3fU,
  0x1b1f2ecfc5dc1bf9U, 0x570247810b0205efU, 0xedebe9182e550f1cU, 0x24e8c80ce6b43ce4U,
  0x2e00d3d917b8410cU, 0x202000970579d6fcU, 0x1dd441c0303bc3fdU, 0x1ed43e81fcba11feU,
  0xcb360fed0abbc4f2U, 0xf7d523ab30bd0807U, 0xf9ff18c2f0130d27U, 0xe2e42323f0ffe4faU,
  0xd1be432fc0243328U, 0xdf0ed6f721e9cf28U, 0xc308a6d91f7fda05U, 0x3b18f3ef1e0c56bdU,
  0x2bb863360be2f523U, 0x4810280f81bc2255U, 0xfeddf5b41de238e3U, 0x23fa15152783fc9aU,
  0xbbe0b746dc311eb1U, 0xcff06fce11542d8U, 0x110c7f2d38f8cb0eU, 0xc9ed0502c3eacffdU,
  0xd8022e5bf7660b13U, 0x472e160202bac0f8U, 0xe901143cf7f8f808U, 0xec60105a35f41605U,
  0xc3a821c67dfa2e00U, 0x10e10f6eb22ef12U, 0x812404ed03104328U, 0xec60f513daefbe1bU,
  0xca2eeff6c3fd341fU, 0x17591d237224a6f6U, 0xee36c30184c8f11fU, 0x4b410d22be1c4acaU,
  0xbc1f9c4a31cc3b33U, 0xedff2ab550d5d1e1U, 0xc4d8d28150eff8c1U, 0xbce3d41937d732f9U,
  0xd2afb4206fde4e9U, 0xb73be9ef2e0a130eU, 0x6325d6f636c81531U, 0x35fd014cc6dfe4e2U,
  0x98812be721eaeee6U, 0x577000014b7U, 0xa0000001d2U, 0x12b00000a17U,
  0xfffffc4400000768U, 0xfffffd7600001608U, 0xfffffb2efffffa00U, 0xffffffb100000758U,
  0xfffffe27000003a1U, 0x626000011a2U, 0x31a000002fcU, 0xfffffed500000763U,
  0x31000000a36U, 0xd900002cafU, 0x16400000634U, 0x14a000005bcU,
  0x32cfffffdc1U, 0xfffffc4900000b81U, 0x4b00000373U, 0x2b10000059cU,
  0xfffff8cb00000649U, 0xfffffa0000002102U, 0x1cf000004fbU, 0x45200000226U,
  0x479fffffc21U, 0x146bceecf1f1618U, 0xfe10e1177fd72003U, 0x44a254cc0d2ae9eaU,
  0xc22e2d1d633bfc8U, 0xd01bdac75b190dbfU, 0xec1814e12dfdeee7U, 0xcadc58bac91a7f9eU,
  0x7fd593f6f2f054c3U, 0x1c2a54f82824e42dU, 0x18e4a82adae92924U, 0xdaf90793d1b1f3b7U,
  0x61295130f7e002e6U, 0xcfe6f8223cadf27fU, 0xae09139c332836f5U, 0xd6d575d6ebd20b0eU,
  0x33db0e43eaf6b259U, 0xe92effdcfd3bd665U, 0xf8cb15f3e6f404c6U, 0xcb73e226edcbcde5U,
  0x177ff545adfd2912U, 0x18323ae434e9101dU, 0x31d20aee110f192fU, 0x48040818e4dc3fecU,
  0xf5dbad0d102206c2U, 0xbd290b18c4271e34U, 0xe3cdf3061c011fU, 0xe5eb1c0a8170610dU,
  0x2922f25dedf39656U, 0xe11502012000f231U, 0xac190b2a38f8d8b3U, 0x3801f471d752e337U,
  0xf9fe14b510000dd5U, 0x45aefb28cf294bc8U, 0xc90c33eff53de339U, 0x8eec3a21b8f6cef8U,
  0x4c7fb60b12fdf3c1U, 0x6701de252dc27fdaU, 0xdd468f1fdb51642U, 0xfa1d09b82a3b52fcU,
  0xcc104b5afc140a1eU, 0x3a3015989d1fa46fU, 0xfbfade3f30f213e5U, 0x54211731fe1b77a6U,
  0xfb31f1b4e51c31c6U, 0xb4b11c641d26b41bU, 0x33ee2a5f3fcbe3f5U, 0xc5fb38fa13e88104U,
  0x14f1f245fceaba15U, 0x2e55d244e6710ef2U, 0xf181db26af8a20U, 0x7241f20012222ccU,
  0xccfc4e1afba3b3ebU, 0x15b71555062741a4U, 0x15b2dd3849e8f429U, 0xfcff62bf61790a3U,
  0x3afde60cf50f03f8U, 0x27ba1537ac2ed518U, 0xe8d946add2c8ebU, 0xdfe9ec711c7f25ebU,
  0x5206d1db50adf80eU, 0x4f2b09feec311348U, 0x19ebe4cfdb32d0c6U, 0x23f946d93e6abd59U,
  0x20d8e5d2ef07f816U, 0x3f26dbf108da4efcU, 0x66c327f2ddc1f01U, 0x2ceb7fbed60f4911U,
  0xe9f7efc1d816efd3U, 0xec4ab015d31b32e4U, 0xefb4d73d13caf4dcU, 0xe4ed6eddee30ff4U,
  0xd1f40d33bbfd8f0eU, 0x46ecc3f27f706eefU, 0x12f3dd310dbeecd3U, 0xe5cb31f01009e607U,
  0xe4c0baeebdffcef7U, 0x10101607113419fcU, 0xfb2021ecf9bbf9ecU, 0x5dea1d4e08be190fU,
  0x2abd04e53b5f4aeeU, 0x220632f11e4b39d0U, 0x7d52d0dbeeb0d21U, 0xfaf01fdd3a251b42U,
  0xffda25379d6b81f3U, 0x2a124cf27f263e77U, 0xebe5fef21302e92dU, 0xf94cae8e6f70d97U,
  0xd4d7f2cbd3dfc319U, 0xe2ce320bfddb67e8U, 0x323be8c317cff532U, 0x522568dde0c98d5U,
  0xbc4a19e7e2127f07U, 0xef4cca2bc814f94fU, 0x5102f8f932c83643U, 0x7525e80828062ee1U,
  0xdfba0442a532710U, 0xe67fe71206313bf7U, 0x28d8f4c2c2f4fb33U, 0xe00cd80c09d7d10fU,
  0x1aff582166a0f3dbU, 0xf7e61edf0833d002U, 0xd02bfd15fe1ed107U, 0xeb1e0ad363b468ddU,
  0xc9a4c5090647f2c9U, 0xecafbb9f60231c7U, 0xb9f14228523b205cU, 0xe92fb71c70cde249U,
  0x45cc7ff194fa1200U, 0xb0de17dab20281ffU, 0xeb49674d3216dde4U, 0x193195e03ebb2a99U,
  0xdc1bb0fa0edeecdaU, 0x17e6192efbd066f2U, 0x68c2b9d0f3da01cfU, 0xee80228067fc018U,
  0xe1e3f5090dea01ecU, 0xf0f307f2d31301e5U, 0x25f0f220edf1f0e8U, 0xf717f305e1ef0f3fU,
  0x9021ee913fafc11U, 0xeec814552f6cffc9U, 0x34dd0cd00c2bfdadU, 0xdffddbf71027fed6U,
  0xf70a247fcaffbbcbU, 0xf2e4fe39eb1efae0U, 0x1cde20e709e80836U, 0x9df3edc2e13ccc81U,
