/**
  ******************************************************************************
  * @file    network_1_data_params.c
  * @author  AST Embedded Analytics Research Platform
  * @date    Mon Jul  1 14:57:07 2024
  * @brief   AI Tool Automatic Code Generator for Embedded NN computing
  ******************************************************************************
  * Copyright (c) 2024 STMicroelectronics.
  * All rights reserved.
  *
  * This software is licensed under terms that can be found in the LICENSE file
  * in the root directory of this software component.
  * If no LICENSE file comes with this software, it is provided AS-IS.
  ******************************************************************************
  */

#include "network_1_data_params.h"


/**  Activations Section  ****************************************************/
ai_handle g_network_1_activations_table[1 + 2] = {
  AI_HANDLE_PTR(AI_MAGIC_MARKER),
  AI_HANDLE_PTR(NULL),
  AI_HANDLE_PTR(AI_MAGIC_MARKER),
};




/**  Weights Section  ********************************************************/
AI_ALIGNED(32)
const ai_u64 s_network_1_weights_array_u64[7122] = {
  0x300000001U, 0x700000005U, 0xb00000009U, 0xf0000000dU,
  0x1300000011U, 0x1700000015U, 0x1b00000019U, 0x1f0000001dU,
  0x2300000021U, 0x2700000025U, 0x2b00000029U, 0x2f0000002dU,
  0x9f70e24dd101804U, 0xdd371e160a04f507U, 0x217a45e291aee81U, 0xef810bf2fed3ef06U,
  0x302fbfa201410e6U, 0xfcfdfafbfbf3fe08U, 0xa6f5f87fe6122970U, 0xfaf10b00000f0cfdU,
  0xfaf0f610f6fc0bf4U, 0xd3ffface73fab8f4U, 0x1c378d22f11bed21U, 0xf805811efc92f899U,
  0x1504fc01c4048107U, 0xf9130f05ebfb04U, 0x21bfe0e0c0cdeU, 0x7719f1190a0d1581U,
  0xe7fd1d0306ffff1bU, 0x8eff11cf4080bf1U, 0xef44102eb10fb02U, 0xd9dc197f0d14b3ccU,
  0xcdf9dfeb8211eb05U, 0x705d704ff2dfdeeU, 0xff01f7ff81f4cd0aU, 0xfa070505ff01fb0bU,
  0x20d11f3e32508dfU, 0x3444b25afa1ef911U, 0x14f47fd95241e649U, 0x1d0024010e1a000cU,
  0xe922f6d105f18184U, 0xc7f5ebfd2615df13U, 0xf1162cf3340bd507U, 0x19fb4e9afe35dbcbU,
  0x810a000a5cda1d18U, 0x23c146fff124130bU, 0x20631520fbcf9a81U, 0xc828dd03e122c456U,
  0xf903faf3bf00f704U, 0x7fa7f0ddfb0a04eeU, 0xef53cce5f98b1e11U, 0xe090ff432d37f0eU,
  0x80ef921041add06U, 0x190101fa0cfefb13U, 0x81f50c0b16e4005fU, 0xfb09fdfeff04200aU,
  0xdfd1208fefc0406U, 0x10f0d9fce7d51a02U, 0xc0d3ff7fee00012fU, 0x34b9cdf4a805fcd3U,
  0x14eb810ddfbe0005U, 0x80ffefaeceb33U, 0x2114000a0809f813U, 0x4bfa9f12b21f3e7U,
  0x227b2e11e3af97e1U, 0x126ef213f207813fU, 0x19fe0506efe5f009U, 0xed19e99a02ecff1dU,
  0x11ed02fd7f15f7feU, 0x7f0cf3f41404fe9eU, 0xf30dfffd040f0a2bU, 0x11ec1706fbf9fc20U,
  0x1a1c5fd1260f1539U, 0xb0a0e74f629d681U, 0xa302ef199e020005U, 0xdf4e8c21ffdebf0U,
  0xb081862ef82ac800U, 0xd8af29d93e044fb3U, 0xdf81020202d90714U, 0xfb02ffff140f12ecU,
  0xf8fbfa01fe000110U, 0xf215dc080e2702e9U, 0xff0502fc81fdc90dU, 0x201fefafbfe030dU,
  0xad900002a97U, 0x48a300000e59U, 0x61d000012f3U, 0x63000000e43U,
  0x87effffd008U, 0xfffff4eb00001c99U, 0xffffe6da000020aeU, 0xd2700001006U,
  0xfffff8500000045dU, 0x90efffffcaaU, 0x368b0000168bU, 0x2310000080dU,
  0x1404fc080bf00403U, 0x14b801fe1b01e8f9U, 0xcfb0efc32010f04U, 0x14ed45f21be8e80bU,
  0xec810cf43915fc1dU, 0xf3e7f69a7ffae10bU, 0xedecf90002fc0608U, 0xefefaf7dbd71308U,
  0x30e084006ff1301U, 0xcf04060418070819U, 0x448eff94e20e9faU, 0x4091c1bbff12de5U,
  0xbf7f8181817f8181U, 0x7f54817f7f817f7fU, 0x816e8109c27f818eU, 0x7f1113e1f80ffaf5U,
  0x7311ce2a91491e2eU, 0xd811b81f003257fU, 0xfced05070af40206U, 0xfe0a0bf5f9ef02f7U,
  0x50707e5fc0010e5U, 0xe8152e0300dcfdeaU, 0x4c1bd13953452140U, 0xfef40750d622ed09U,
  0x1107f50704f90cfdU, 0x1bf0cb13b212e908U, 0xa08030a0f080ceeU, 0x432000019c7U,
  0xe75fffff3e6U, 0x16f000003efU, 0xffffff36fffffaaaU, 0xfffff6bcffffeae1U,
  0xfffff940fffffe04U, 0x19b2ffffef08U, 0xfffff892fffffeb8U, 0x354000001e9U,
  0x98fffff536U, 0x7f100000868U, 0x22e00000129U, 0x9fdab358f4eb122fU,
  0xeb0ed5dd21bf17f3U, 0xdf81e63f02e2f454U, 0xf93f10f5f3ffd6f7U, 0xa0616f7a4e87fe7U,
  0xef0a18bae3bdfc91U, 0xf81ef3e14f08e92aU, 0x391dc97fed0efb08U, 0x3f7fafaf926fbU,
  0x852f5ee3bec0720U, 0x5cfb1fcadb389faaU, 0xf7ffefbe0381eeffU, 0x95f4bad6edf40b0aU,
  0xeffb7c05bd28f01fU, 0xd48100dcf6ebf097U, 0xe736f01deff4d90fU, 0xf6a8070ff6e1e30aU,
  0x32e705fe8125050cU, 0xf8f7e728ea027d21U, 0xe8109e00106ecefU, 0xca251b11afddfbf2U,
  0xf4940412ffecf101U, 0x2daf6f0f0f5c5c7U, 0x1f0402f3357ffae6U, 0xfd0bd40beb81fa0dU,
  0x1fd0ffbfbfa0901U, 0x3f3fbfe0103010dU, 0xf310e0ef2037302U, 0xfb7f0c0ff3ecee05U,
  0xb61e0e126c180905U, 0x1207112521f0e81dU, 0xe0032ae7d712f9b8U, 0xd8fd81ffe7e4750bU,
  0xeeee15f3fcfec902U, 0xd4724fa050611faU, 0x4ddafd047feffaf1U, 0x48f34d01cd44e75bU,
  0x634bafab57ffc11U, 0x155bf99602cff083U, 0xf7ecea2003109df4U, 0x1c020adeef13baf6U,
  0x813a1323001c2114U, 0x52b050f0001f9ffU, 0xeaec17f9f72dfc07U, 0xf0f8027f0701f728U,
  0x9bafc1e2ed91af4U, 0xc9811b1a0fd57ee3U, 0xd0f2fc2916730efeU, 0x76e259d8f616db2bU,
  0xce0efe04609206deU, 0x134ffd5a00db187fU, 0x5f1192281d9ec65U, 0x301f5effa0bfc06U,
  0xeaf9dffbe812f402U, 0xf1f200e8ce210281U, 0x33fde1bfe20c0465U, 0xd0ebc04082a2909U,
  0xfffd0c13fff7d417U, 0xe31d181cf7ea1313U, 0xeae381f20adf5ad6U, 0x4ece88c22f281U,
  0x11f8e6410fe9fcb7U, 0xedfff60d07e815f4U, 0x16c2d0404f5dafbU, 0xf00f29e27f096bfcU,
  0xe5f10cd4fdef204bU, 0xdda112701f00412U, 0x37082df805811ff4U, 0xfdfb0fcdf8170617U,
  0xfe153f0ef71e040aU, 0xf37f0400faf8f6fcU, 0x713000d530f0203U, 0xfffffedf00000224U,
  0x1e00000dcaU, 0x20effffffbaU, 0x2f0fffff8fdU, 0xffffff46000002abU,
  0xfffffdb400001879U, 0x89000004c8U, 0x499fffffea8U, 0x12a300000158U,
  0x3dd00001b89U, 0x9400001cd2U, 0x88fffffe60U, 0x1d1b2806353133eaU,
  0xddcafb2b041bf620U, 0xf2581d157f5b58c5U, 0x1eaaf4072a518e0fU, 0x240b1ef83bdcca0bU,
  0x28e8f2812712e9e9U, 0xea7ff708e9fdf8faU, 0xf7fdf9ebfddaf2fbU, 0xec0334fdfa00f809U,
  0xc1f0e4fdee0a2a06U, 0x6af581efcb3cb0dbU, 0x4101ccde600bf0e7U, 0x4725f5ce160f0ee4U,
  0x81cfc084892d17fU, 0xfed011a0dfe8ea13U, 0x7f10e0f6f008da01U, 0xf802f1ffe8be4db5U,
  0x60e0e1dfcf1f605U, 0x19e1ffec070af4f7U, 0xfb0403f8bf1b0581U, 0xb0e0914fe11eff9U,
  0x240710fdf8eef7feU, 0x3fcfcfeb7e11181U, 0xe61610200b0c1e0dU, 0x3ce71311edf5f808U,
  0xf2f3f4f2eb7ff606U, 0xee0c260ee40cf607U, 0xe315f1a70f15d912U, 0xbc606f42ff7507fU,
  0x60642c0f71ee3d2U, 0xe21106ed0801fe00U, 0xf9f0040cf9337f0cU, 0xe2fa24f1f0030efcU,
  0xf1ead6e681e788feU, 0xfc0ef5e415110ff3U, 0x9d50b0711b1fa0bU, 0xefe13042a81f6ffU,
  0xf5ff1a2f19f2fcf7U, 0xf6cc0313f8140f02U, 0xf3cc1effeff1fe08U, 0xe10f8fddd7fb0cdU,
  0x10e1b390c22f020U, 0x100103fa130406fbU, 0x5650f536050203fbU, 0xda362bdbca15b47fU,
  0x2bdfe63103f6040fU, 0x92f0e45c79d7fU, 0x2e1cbbb09e91c01U, 0xcae045ff0c0115fbU,
  0xd2087e36e80c928bU, 0x9e3f37fecf11bfeU, 0x80de5fd0403f681U, 0xff01020004060205U,
  0x103f80f03f6fcf8U, 0x1e2c4810c0c161dU, 0xb90360e70ed0f5d9U, 0x1632e7f8f502efd6U,
  0x14f4f723efebfdffU, 0x2f1010030f60c7fU, 0xec0414dffbf6ff00U, 0x60504110302f6fcU,
  0x9aafa08fa0418f1U, 0x811514f8b40df4edU, 0x2151b0e0a810302U, 0x43f71c0cf2e9decaU,
  0x2ecf43debe511f5U, 0x8149f1fb06fff512U, 0x1203fb00e9ffe6c8U, 0xfc07230c020d05U,
  0x17ad150222dd7fU, 0xfde50508dc0118cdU, 0x1e10f81d10fffddbU, 0x16b2ffffe729U,
  0x3d8400000366U, 0xfffff9dc00002a78U, 0x2727000031aeU, 0xfffff6a3ffffef21U,
  0xc92ffffef95U, 0x22b6000003ecU, 0x272c0000066aU, 0x2e6000048acU,
  0xfffffbe400002ecbU, 0x1b4600000d13U, 0x6ff00002e5bU, 0xb01fc06fdfbf0f4U,
  0x700f90ff7f804fdU, 0xf503f9ff00fc0b08U, 0x9e1803e2f6f4fe25U, 0x13090b0803e8d7f0U,
  0xe2f7f810eb1d270eU, 0xbe60b1af4f807e8U, 0xfe0ef6fffa0ed6e6U, 0x606fc06fa060209U,
  0xe9f30106f8f034f6U, 0xfe0a0df2e9201fecU, 0x52afc0e8106fa0cU, 0x7f96819e9c7f8181U,
  0x7f8143c27f9e757fU, 0x7faba39d78818161U, 0xee7fda7ff4171ca7U, 0x7c08b813dcc8146U,
  0xdf037f0212f61507U, 0x7010dfd05fafefeU, 0xfc0bf3e9ec001ffaU, 0xf0cbfd10e10705f0U,
  0xdc08c0bd7f2de8b6U, 0x83bab2df0d7f1f3eU, 0xf67fff8117370d81U, 0x1ef01310d0b0cf6U,
  0xf7d37f1e0f55ab23U, 0xf7f916f5f10207f2U, 0x37400000f96U, 0x1affffff797U,
  0x6f4ffffffbfU, 0xd60000008bU, 0x5ccfffff410U, 0xfffff9f8fffffa09U,
  0xc30000058dU, 0xfffffa8a00001776U, 0x1f9ffffffc0U, 0x3bd000005b2U,
  0xffffff5a00000cc9U, 0xfffffdaffffffe25U, 0xf80afffcf6fd1a1aU, 0x50a00f509000cU,
  0x7f02fa24e7f476fbU, 0xbfb90506ecd2d6e6U, 0x810dfe17ededd408U, 0x1c3e7fe3311ea48U,
  0x1ffe01007f05051fU, 0x80403f2ff1d0b0aU, 0xf60bf318ffc4f873U, 0x166ff781fc102debU,
  0x222320e5fbebf3fbU, 0xfb4212fbc8030afaU, 0xf91bddf7fa61b32fU, 0x1915f92532111b7fU,
  0xff1226db28ddfffeU, 0x2b81e81d1ae2ae07U, 0x38dfb422e7f3a528U, 0x60209fe6222ecd9U,
  0xd6f2faf281040401U, 0xea1401f7fa0df9ffU, 0xf9fb083a01e501aaU, 0x7eb3010eeaed3a46U,
  0xeec77f04e8c5c2d4U, 0x869da1ed6023025U, 0xf7ff060d1b160504U, 0xe90d68fefa0a08f6U,
  0x381f2fb0404f7f4U, 0xc27b03bfcd2f120cU, 0x81ba12e40acd15e5U, 0x2b6131dc4351568U,
  0x31f9f70830f608fdU, 0x7f0c1713ec2005feU, 0xfd1c06f2ff21f4c3U, 0xb9f337b016c6213eU,
  0x1398aa5244ed5bd5U, 0x1badae23681efb5U, 0xeaa0e529f1733de8U, 0x4f2ead503fdca2aU,
  0x1321d92181f1f607U, 0xd6f15e86e149cec2U, 0x4ccd4cf9caf31577U, 0x9a619814228e80eU,
  0xfcf6e217f6fc2f7fU, 0xea65f76376ee030eU, 0xf3fbe202fe091405U, 0x130df31cffebf7f4U,
  0x1a0b101b09f8560bU, 0xf9f9181581e5fce1U, 0x107310a6702fd0cU, 0xf40410ed018e0014U,
  0xeef8f61100e0f581U, 0xf5ef177f024e28fdU, 0xf9030500eafedbccU, 0x2503f2fbe905100cU,
  0x14fbfb24fe021212U, 0xfff4070ef213f4U, 0xdb0a81f8f20d0705U, 0x18e8ccf120fdf000U,
  0x172028181881fcfdU, 0xf4012014300affb1U, 0x5d0281e7b9e2fd05U, 0xd7fb00f4f6ffd5f7U,
  0xf5effceeebd51433U, 0x61e7121a270937e5U, 0xe43981cfda1afbd1U, 0xfadd805cff030dfU,
  0x307e7050b12f0edU, 0x7fcee3511050e1eU, 0xd0f0854017ffa26U, 0xefe34e1002a070fU,
  0x81ebe3f2d8b41f7bU, 0xf801d1ead3f50c07U, 0x18900000317U, 0x10400000116U,
  0x32300000ec5U, 0xfffffca0000004f7U, 0x2e3fffffd17U, 0x5e3fffffe19U,
  0xe3500000437U, 0x2d600001166U, 0xfffffc11fffffc94U, 0x1f5afffffe09U,
  0xfffffb9b00000228U, 0x1a5d00000fe9U, 0xf2e67fe8f54b8a18U, 0xb38197b2f153f739U,
  0xaeb121bfa62435afU, 0xfcf80afdfefb0181U, 0xfdfe02ff03f70304U, 0x1fd0002fb08ffU,
  0xfdea0c00fd00ff7fU, 0xfff40bfa05f30a08U, 0xfe0701fefcfe0a02U, 0x1e5581342e3d40f9U,
  0xebbfa009e62ce8e4U, 0xa1f342a212c23d01U, 0xfd1435dce520f807U, 0xe5d9e721032af808U,
  0x7ffc740edbb41132U, 0xffef7fefe5db9ffdU, 0xe3303fbde83af003U, 0x1bc4b354e76818dcU,
  0x267f10fcf750d1f6U, 0x17fb0c0e0ccc0b23U, 0xd71a0011fb070d15U, 0xfffd1dbf7ffbfb05U,
  0x1fa0af6f90703eaU, 0xff61207fc080504U, 0x99d203db0d03170eU, 0x474fc581ab3d1410U,
  0xd590e2f3ef31575aU, 0xd8f6e8ff111cd8fcU, 0xfd42e61307f71c04U, 0xf7f402f6810b17dcU,
  0xbe08108511cf001U, 0x512ebf8c6e9a1U, 0xed05f503c5f5001eU, 0x40ef0ff6030d130dU,
  0x90b34c694969d5f3U, 0xa36710e41230b481U, 0xfff73806f1070a05U, 0xe3d4f331f923fb09U,
  0x1ce08109d904150aU, 0x292f60fcf726d7f8U, 0x2f7c72b1a353a83U, 0xbcff148104e2373bU,
  0xff20f828f9ef280bU, 0xa88d81b9c1edd3c4U, 0xb9c3228efa280aa7U, 0x2f5ea7fa4eff506U,
  0xeb04070af10ee2faU, 0xfe0b050af91e11f9U, 0xf51c1a02fb032f01U, 0xfb0eea0ff047fc7fU,
  0x1f3dff53a06f801U, 0x5e71c090522047fU, 0x80aff0306ddfa07U, 0x7ff030404f50600U,
  0x609247ff4fb0503U, 0x30402f9061504f7U, 0xfefc0a00fc070907U, 0x16137fe2cdbfae10U,
  0x10d7edebf101f2f8U, 0xb803cee4d4e50404U, 0x1a240aee2002e201U, 0x95d5e0fdad1a9dceU,
  0xf3aa3173f87fe9faU, 0xcadc2f2864d90f0fU, 0x5d649f8fe10ef9edU, 0x1a98cefaf6f77f7cU,
  0xd0ae51981fa0b03U, 0xddf1121dfd09fbe8U, 0x41604ff060cfdd5U, 0xfa08d00a0a7f2ff6U,
  0xfff3f01101100709U, 0xeb022fdbffdd1c19U, 0x9cd000032e9U, 0x2286fffffd43U,
  0x1361fffff54dU, 0xfffffc7a00000a1cU, 0x1e0000000ff0U, 0x96c0000374fU,
  0xfb100000b7aU, 0xe2b00004667U, 0xfffff019ffffd8ebU, 0x2e42fffff6e1U,
  0x31600001d08U, 0xffffff5f0000320eU, 0xf6ff0be6f3080215U, 0x14f6e427fd03f9d5U,
  0xeced71fdf8f1fde8U, 0xd3e93e8f2d04023aU, 0xfbf4107fdef0ee44U, 0xc81b09370debfd03U,
  0x7f70ff2e8c1d70cU, 0x2801ed0e0d01370eU, 0xeb168103f71f0cf9U, 0xcdeeb719bdebf00fU,
  0xd81bcfafccab933U, 0x1315fe0adc000f11U, 0x7f7f817f7fddef81U, 0x81ce81b0817f997fU,
  0x7f81ca7f7fb9fc7eU, 0x5fbb818be7f7f1bU, 0x848dd417cf637f36U, 0x1b3a3704f252817fU,
  0xafd1afdf104000bU, 0x12ffbaeef1f70016U, 0xfe168216f60e03eeU, 0x8f8381230fcfc31U,
  0xcfd40ec0f33df025U, 0xa91ff9232266fc6cU, 0xd40019feeae0eb06U, 0xec0bdbe5f22b050fU,
  0xf1f07d16f9810954U, 0xfffffe45fffff791U, 0xffffface00000046U, 0xc74fffff9a8U,
  0xfffffce7fffff638U, 0x624ffffdcd0U, 0x1928ffffe37dU, 0x293affffff8aU,
  0x1ab200002e71U, 0x4c6fffff399U, 0xfffff3b60000007cU, 0x1e0ffffd3c8U,
  0x19afffffea5U, 0xab3629ffd80df50aU, 0xf0ff22ef81ffe59cU, 0x2b63dcefa1a0d0bU,
  0xf9edfe09fc05fe0aU, 0xff505040a08faf6U, 0xf90a1cfe017ff902U, 0xed1739dd51f9ed21U,
  0xfc2825180320eaeaU, 0x7f1b18eedc13f5fcU, 0xf2f1fd0e057fa8feU, 0x14effcf810e518dbU,
  0x40efdf9fcfbbdf7U, 0xbe034cd49030e97U, 0xa81970edc12fc39U, 0x6f10de6f317f488U,
  0xab02fa08fafb1712U, 0xd3fffffb141d1036U, 0xf9810bd811c509f3U, 0xf6f041d02b03f9ceU,
  0xebe122f0097f30f1U, 0xf407d7c494e8060cU, 0x7ffefbf610040903U, 0xafa000cc3fafbddU,
  0x69f509e9bf120aU, 0xf50501f905dd6ef0U, 0xb18fdf310fb10e8U, 0xf9fffbf3080a7ffeU,
  0xa81eeeef0f1fdcdU, 0xf443e6f9e3fb111bU, 0xcf924ecd5f911fdU, 0x3df0d7f0ef9f731U,
  0xf623f5db2405fcd3U, 0x8704e90405e0fd03U, 0xfb7f16f2f702d5aeU, 0xb2bcb120403f313U,
  0x110731c2fcdb0924U, 0xef05c624e80709dfU, 0x2639e5fde281f20dU, 0xf5130def76f8053cU,
  0x2e11811e4cf30b34U, 0xf4060aec000d54f5U, 0xf0c5b1d3ccb9f609U, 0xcf0202f703f90801U,
  0x810208040fe0fbe0U, 0xcec01df090cfa0bU, 0xfa1ec1d3a9ff2226U, 0xe07ff4e3eb2edae9U,
  0xf14b801bee2b309U, 0x1f0fe381f0f8f80fU, 0x2f5f5ca192601e6U, 0xc7f8040a2501fb0dU,
  0xbf6eaf06c101521U, 0xf2d2c710f31c17fbU, 0x24011b1c8205007fU, 0xd0c049c681f0fbdeU,
  0x18f651f935fac7c1U, 0x44090e6659450c57U, 0xfae33cf51603f02bU, 0x163cd9811eee3ddbU,
  0xfd09e9080308f8U, 0xded7e30438e00ebaU, 0x3e367f9b35a076b3U, 0xcf18a89213f4badaU,
  0x641417cfe600fb07U, 0x7d2021da5c06f054U, 0x187f12c0ec25fd1fU, 0xff0e915fee110781U,
  0x4bb445cd0efb314U, 0xb8fb07f807140efaU, 0x1406c40681f1d90eU, 0x31509ca25953ee2U,
  0xf2f326c0bd02faf0U, 0xffffff59ffffffceU, 0xfffffdb000000726U, 0x3190000069cU,
  0x1c0000002a4U, 0x10030000078aU, 0x1150fffffd69U, 0xa9cffffff54U,
  0x9dfffffff7dU, 0x13ffffffd3eU, 0x1ac000001d7U, 0x10400000375U,
  0x10a8000006d7U, 0x1d17fd0dfcff0307U, 0x24d423f1132fd4f3U, 0xff07282005ebf71aU,
  0xf1a1c16231419bcU, 0xf70705ec2710161dU, 0xfecdbfce923fbb5U, 0x3431ff0c00fc0f05U,
  0x36ce23c4325eb6b9U, 0xd44eb0537d8cb32U, 0x2d1f2a234fce39b7U, 0xa6303fd466143931U,
  0x4bb8ba02a543da9bU, 0x2430f2e1f50c0bfdU, 0x41e32ad12d38ccd4U, 0x2d19e7f044c8d51bU,
  0xf1c085413bf1bfbU, 0xeb3437d232112236U, 0xe7a9ea298130cae4U, 0x4b49e4fefb2835beU,
  0x2cbb1acb3349c6ddU, 0x194bc9fb34f9d13eU, 0x354845fa4f232995U, 0xbe2117c20e1d473fU,
  0x4dbfae08df45f4a6U, 0x7b7f99c3977f7f89U, 0x7f817f817f7f9281U, 0x7f6f87a676a4817fU,
  0x7f7f7f327fe07f81U, 0x817a7f8c7f7f7f7fU, 0x7f908145a17f8199U, 0x596ea2838b5f55abU,
  0x76ac759d5757a4b0U, 0x4975c5997f819643U, 0x4965277f4c9560e3U, 0xa57f3a9d663c5753U,
  0xc981ea408d42a783U, 0x3f47edecfd1720beU, 0x27de1adc2944b8deU, 0x28ffbeed28f30b2aU,
  0x232b31dd375730cfU, 0xc814f4d21e2a3433U, 0x14d0cc3a242cdcdaU, 0x7f7381a881525381U,
  0x43bd719d647381b7U, 0x5f6e818164cccc4eU, 0x557e59ab517f6fbeU, 0xa464fb815b555d63U,
  0x2a91b17f684ea081U, 0x56569481873846a7U, 0x50c760b14f5eabc3U, 0x5c7fcf9572aee62aU,
  0x2b531d082d1f44c8U, 0xae5ed99c633a342dU, 0x83960f783a22a0b1U, 0xfffff2b6000028a1U,
  0x5259ffffc1deU, 0x2d37000009f9U, 0xffffeae8ffffe618U, 0x1d5c000016fdU,
  0xffffb26bffffe2bbU, 0xffffe5020000179aU, 0xffffdf9700003441U, 0xcdffffff4e3U,
  0xffffb928000018f8U, 0xce300000ca2U, 0xffffc24fffffe48fU, 0xffffeec1000013b6U,
  0xfffff4e4fffffcdfU, 0xffffec9bfffff223U, 0xffffed3effffe8f3U, 0xffffb408ffffd60eU,
  0xffffba67fffff2feU, 0xffffe5ec00001827U, 0x28daffffed85U, 0x16f100001264U,
  0xdf7ffffea7cU, 0x1443ffffeb1cU, 0xfffff23700002f05U, 0x2ed4f137fedf9c4U,
  0xfb21f3f161e91ad1U, 0xf04f0f400f96214U, 0x16ba0bb8023204f5U, 0x2e9492ee82a2e1cU,
  0x1e03fb07bc12dc00U, 0xfaf6da0b0dfe03e2U, 0xaedfb0bfbf516feU, 0x12721e2100009f2U,
  0xa026ae1505df810dU, 0xe8cd0decef0d0f03U, 0x3d61903ef16e3d1U, 0x6998fe12270beb22U,
  0x1b030813e7457ffeU, 0xe11901fc1602f9f1U, 0x4f2ffe80b08f3efU, 0xfceb07041e03ebe1U,
  0xdfa070cef1708fcU, 0xf9f0f6de580beed7U, 0xbcdcd2f816ed01fbU, 0x3226fe0405f1dbf3U,
  0xf18d0ee4db1af7f6U, 0xf2dd0081180ffffeU, 0xf23bf915111014U, 0x181307020af6f8f0U,
  0xf60f00f7f312e3feU, 0xf7ddf30ce0ec21f5U, 0xc21b10f60ffde27fU, 0xfd0212fdf6fe091aU,
  0x1e00c6e0e7f5040bU, 0xf0b5f3def109f607U, 0x45323f225d347e8U, 0xe30442e73576eea4U,
  0x73e0b3ce016182cU, 0x432ff0810a1cfad5U, 0xfcec12b010b815e5U, 0x815310fcff030efbU,
  0xe02fb1200a6ddfcU, 0xfe030e0305fa08fdU, 0x20302fcf70103f9U, 0xfaf409fe1002ee10U,
  0xa04f307fa00f80cU, 0x1090a7f05f20a08U, 0xf5f0060e0604030bU, 0xf11108fb02fa1afaU,
  0x2200d00912fcaad9U, 0x650032beef9fe08U, 0xf8d555d40e19f3e0U, 0x4104fd37feeeac2U,
  0x243a1feaea110b05U, 0xade20de05955dfe5U, 0xa00ee42040af403U, 0x3a3dd5c5a2ec62e0U,
  0x2210e02713010207U, 0xf7f219ca37110bcdU, 0x283d381abad605f3U, 0x7f3716e9e62ef892U,
  0x730d5fa23c7133bU, 0x3e21020293db1fd9U, 0xcd10db14fd7cefefU, 0x140881eda8090dd8U,
  0xbd7f70df6ffefe3U, 0xf801090003e3150eU, 0xf72af6f7f0152a00U, 0x414ea0d38f3b8f6U,
  0xff0504fd1e0fcb0eU, 0xf6e5becb54e8f2b3U, 0x26f6270fe90af0f8U, 0x1c2122e7b50fe51fU,
  0xd82927cf0f2403d5U, 0xf9aeee5f42f61124U, 0xef007f1cbff2fc0fU, 0x31507ef2ff9f3e5U,
  0x101c12f3f702ff01U, 0xf2cdfa0dcef043f8U, 0x527a4ee0d08cd87U, 0xf3140008d10e0028U,
  0x1fe77fe3c4180a10U, 0x91cff0df10f0812U, 0x12de19ea810fed0bU, 0xf6e9e2091215fbfdU,
  0x6ef010a19faf7f9U, 0xfeedfefc05f10dfeU, 0xeef8f5fc01e61cfdU, 0xa81073ef4fb5dU,
  0x2f1627fd00102ee1U, 0xe7e3f6fb05230411U, 0x30110f106fbf702U, 0x7fefd12fdfd27f7U,
  0xfcf6041302181c13U, 0xf5fe7fe540f40233U, 0xef16fa0deffc06e8U, 0x5e604ff0f1905f8U,
  0xf01124f9f212e8cdU, 0x1ce00723f7032411U, 0xfef41b0b0932ef02U, 0x10ee2b02c9eefa81U,
  0xf5fc050402e9e4f9U, 0xeefe07f30b050a04U, 0x3f400fbff06ff07U, 0x30007fb0501e7f2U,
  0xfbf8fff8fbfdfa04U, 0xcf912171cf0fd0bU, 0xf024f50f13fbf9fdU, 0x141f37ef0c36f40cU,
  0xe3b0933fef116f7U, 0x3010b7f1dd715fcU, 0xf71910d7eae1692bU, 0xe9d81bfa0a1d7fd5U,
  0x6ee0758edf61f0bU, 0xd907f1fdff040206U, 0x90c02eecaedff00U, 0xffb0ce7ecf5127aU,
  0x20904f5feffU, 0xfaff3916081281f2U, 0x1c0e2b51440c2759U, 0x4fef3efe2ef2fecU,
  0xd61325cf400cff00U, 0xe3e6f2f00c00fa85U, 0x20d8e604d913e4f1U, 0x61420e0e406fcf4U,
  0xc0231cd0c61e21d3U, 0xd140d0afd3f7f6d3U, 0x60d273a0cdff8e0U, 0xdb0c1fb3d34b26d7U,
  0x681c31c0800fd8dU, 0xb1249e678f1051cU, 0x17550719241cee0bU, 0xeabac913f2fa2112U,
  0x606dc1d1bb83237U, 0xc57fc8cc26175515U, 0xd4ebdfda9beacd0bU, 0x7fcff03ef7f04c1U,
  0x905fdd0020bf329U, 0xfb02ff0d07ff00U, 0xf7fd01000606fbfaU, 0x9fe0a0701fdff0eU,
  0x409fb0ff703040eU, 0x1f019ce1f01fff5U, 0x11e0af8dff1181bU, 0x6071508e1fcf317U,
  0x222281e40ef8d5b3U, 0xfbc6220c2804150aU, 0x1df2d3fbedff051fU, 0x2370603befaf915U,
  0x3b25eb8111240505U, 0x4fc05eef8200004U, 0xbfdfa0d1b0af9f9U, 0xe9f8de091d02ded3U,
  0xafbed101fcb0419U, 0xebea21f910051614U, 0x30013804f8d807e2U, 0x2de31a081a12668eU,
  0xd799ebfc0cf5bd02U, 0xffdae4fddfd4e2e1U, 0x15fc23810233c3fbU, 0x7f42b00310f8122U,
  0x16f40c63f8010428U, 0xe6f7fd0dfdf81603U, 0x6e9f513c204fdfeU, 0x380907fb1202270cU,
  0xfcebfc0a0a131affU, 0x1b08fa818a100420U, 0xd72dfcf6260a0011U, 0x44f3e613ef14ff44U,
  0xd4f94024f3c4fcb1U, 0xfa6bd5e021f5dbd8U, 0x3235a27e7fd070fU, 0xd69fe20904400dabU,
  0x3d6fd41902882526U, 0x1807d3b5981b86dcU, 0xcda8db73005f81e3U, 0xd9ca238375f2fd02U,
  0xe0b7560b6383f10aU, 0xf22ebf1a9bdde61eU, 0x4249ebabe34ecf15U, 0x8dc2c3081eb0be1U,
  0xbef3c9f71c02ba0fU, 0x20c51a273d4cd432U, 0x102d360a36bfdf17U, 0xf4fc18fc091681d2U,
  0xc050a25f40e0247U, 0xf701f9fef8f6fefcU, 0xff1000f51bf602feU, 0xebfc06e80406f3c9U,
  0xff04040df6fef8faU, 0x11f8ecee1003f4efU, 0xea94f8f0e3fdeed6U, 0xf43031207f0d192cU,
  0x271824fff10d1333U, 0x211e0a2cda0993c9U, 0xbccf21e0c23ff00U, 0xa1ea2c659f40081U,
  0x25e530f1b20df711U, 0x26f6fef7fb16e304U, 0xf65c05f4fcea00ffU, 0xb4af8e900f5d133U,
  0x1031f839ed26f018U, 0xeb0d26feef7ffae1U, 0x1d0605fe0b0db040U, 0xfc010c0cf3fa1d03U,
  0x823f90717fcf819U, 0xf904fb0014f9e610U, 0x8ee120d0dfa11f5U, 0x17015603ec8122c0U,
  0xeff910eafecfedbeU, 0x7ec0e00090708faU, 0xf3f6f0fb1801eeedU, 0xfe03f6f60ef6d6f4U,
  0x7f7ed13fd05f807U, 0x5f9fffb27ededa3U, 0xf1fa027ff62cecU, 0xf51de2ef050bf5feU,
  0xff34ffe8f0ffffe2U, 0x26122327d9fe0d04U, 0x7fae7040d1907f8U, 0xa05381b3ee801c3U,
  0x44ed1019a239e509U, 0xf1f001db9ec3d129U, 0x3049435ef8d1e0deU, 0x84f83c7f20fb0220U,
  0xa71bdb6eede1e222U, 0x20107d8d7fff31fU, 0x12025e003f30003U, 0xe3f4fae4f0ee1feaU,
  0xed36e7b2f9521b0eU, 0xe13008e7f72c10fcU, 0x8106f7f5131aeef3U, 0xf1f7e9ff7fe70da9U,
  0xfd070e1466e5f3dfU, 0xd16f1f50f01f7feU, 0xf9f4f3fb0407040fU, 0x4fd0415f7f627e9U,
  0xe0c0f20e9fff6feU, 0x120dfdd40bfdfffaU, 0xfef20f000c0dfff9U, 0xed02fbeefb06f406U,
  0xc3090b060510f229U, 0x2481ec06f50a0603U, 0x4fef001f8121000U, 0x2bf7122528fbf9d9U,
  0xe204104cef7bdf8U, 0x3c03f9e481e0ec0eU, 0xf980ff215210c0aU, 0x7d4f12c1eec15fcU,
  0xfee9091e32ed10fcU, 0xe05027f3b03f8edU, 0xffec10fded0bfefeU, 0x3f4f1f41109dedeU,
  0xf81dc30409fa02e3U, 0x18fad5e6f8ee0ffdU, 0xf225420ff623f6dbU, 0x2ea2e1f55fa09e9U,
  0x2e0f36078116ece2U, 0x20e10cfb192f17e7U, 0x16e212e707ff0207U, 0xf7db1906e60b39e8U,
  0x91d0fdccb54e826U, 0x313f40205ecec02U, 0x14110b10f40bf1f5U, 0xb01fbfbf2fd0c04U,
  0xa0d020581f2f9fdU, 0x230500f100f5092eU, 0x4fb03dc04fff70aU, 0xf4fec61415f7f3dfU,
  0x2cec3bfaf70c00ecU, 0xdf8fa281715d401U, 0x6a6fc1ef3e8dd1bU, 0x14f810811540cd05U,
  0xed3c031de225fd16U, 0x7f0f0ddf9070b03U, 0xb212f10f8f2ffffU, 0x82201bbfe04f7e8U,
  0xfb3f06140c0d1209U, 0xe31f2ff5f81ef0fdU, 0x7f0708c1264b0722U, 0xf700f7030881d6fdU,
  0xbfdff2ff4fa09f3U, 0xfa00f0fc09f4fa04U, 0xfc08ff02eeff02fdU, 0x5fc09fdfe0701faU,
  0x309fe07fffe11fdU, 0xeee6f57f2afdf9f0U, 0xc280806c6fd0bf2U, 0x1fff0fefeb16cb11U,
  0xd419ebcdea2dcd2dU, 0xe77a3c1930352204U, 0x18ebf5eefcfb2f18U, 0xffffffe1000019daU,
  0x21aa0000031dU, 0xfffff9d900000e4bU, 0x187fffffdfdU, 0xfffffecf000021d8U,
  0x1820000002dcU, 0xfffffba60000151bU, 0xf25fffff223U, 0x1b700001646U,
  0xfffffff3000017beU, 0xccc000003b8U, 0x3ea000002e2U, 0xffffffd30000120dU,
  0x1fb200002165U, 0xfffff40f00001858U, 0xfffffae20000084aU, 0xfffffaf5000016beU,
  0x88afffff8c7U, 0xd8a00002127U, 0x42f00001a61U, 0x95c000018e3U,
  0x75100000f90U, 0xdcd00001020U, 0x91d000005e9U, 0xf6130608251af700U,
  0xd15e80a0700f6fbU, 0x5c515fc08040a36U, 0x192ab3c40ca6fdc3U, 0xd3d3ee23f8fbeaffU,
  0x21397f10ba00d40dU, 0x1eb19f81ee01efU, 0x7e32ed81011eff1U, 0x163b16d85f483d3bU,
  0xebdc06acf4e0e4e4U, 0xa96f8a2f74c5108U, 0xcc4e07cf7b0e3f2U, 0x251de81f110afdb7U,
  0x3c10cb20df052ccbU, 0x31c27f1b4b0acdf4U, 0xe9d4ddd2fca3d5e7U, 0xe462605e51718e5U,
  0x1d5b10fbcc00181eU, 0xf6390511e321b054U, 0x231820bef508cb14U, 0x5c3b10f71f311607U,
  0x3200c00f41404ffU, 0xeaf8f3f5c4188140U, 0x4a03f2492cda001eU, 0x8dc706dcc7161c03U,
  0xff9c0404dc81dc0cU, 0xf0f7a80862adf8e2U, 0xedf8dc7e2206beedU, 0xe1f3ebe910da12e6U,
  0xec1a0cfae90aacf5U, 0xa5819c10f0eec819U, 0x1ee7f9d004504ec5U, 0xf2f6eb20f80fdbeaU,
  0xfd0a00fef8e10901U, 0xea180a1305f333deU, 0xf2f6052eee0af804U, 0xfee6e8e808f4fae7U,
  0x18ae011613e5fd0aU, 0xfe11cef601c21512U, 0xb8ca4b3e0df618aaU, 0xe1280d06331dfd05U,
  0x4e47fe50fc7dff0U, 0x8fae8464e0cefe4U, 0x2d4fe1cd4e4f016U, 0xe5e2f4f6fcaf0c03U,
  0x21fc0b09f20d2523U, 0xe17f0cf021de0fffU, 0xc90a591ec5ec02b7U, 0x3fbe6cc113006f1U,
  0x200bd5d2e6d6e708U, 0xdbe605caa6add501U, 0xdecedd14f1212714U, 0x31df810f5d37061cU,
  0xe5520fccbf11eee5U, 0x100c201cf3000224U, 0xd20ccb24080d0ef3U, 0xda810d82f6e0f04bU,
  0x15b80ae917d34228U, 0x241e1a2b08a63cfbU, 0x12d0332cc3f4afb8U, 0xf4ff0fc7fefe9f0U,
  0x14ad0916ce5a08f2U, 0xddf321ee1e0a1fd0U, 0x20ec27c14135daf8U, 0xecb07cec1441bbddU,
  0x140de823e629ed13U, 0x1c30ddb409c3c614U, 0xddee37efa6ed46f6U, 0x210c08fb1ef3f9e5U,
  0xfd1202ece2deef0cU, 0xc2c77fd204fff323U, 0xdc141c1af9070428U, 0xc3dfb1f97f3ed3cdU,
  0x256ed9cc5aebf328U, 0x53fd1e06f40a1714U, 0x8db1bf0012033f2U, 0x45ccd89a5f2a41f7U,
  0xb320e6f6d4b709f4U, 0xfd30bdf781e5d8e8U, 0xe0e1c9e899e40a03U, 0xea0c0b06f701c813U,
  0x2cff17dd04dc4055U, 0x9c07d5eb2c0b140dU, 0x37cd28361bb1dbd0U, 0x1919b2213ae1f2f9U,
  0xf1e91cf560f805f3U, 0xbffbfd187ff5f7dfU, 0x17fe1fd8ee0e321bU, 0x1931d128c8fb610eU,
  0xe032c353a22fc2bU, 0x49c5f3d03dcccf72U, 0xa3ab7f42d7c1351dU, 0x3cc7b6c5c5b07506U,
  0xc218d3433e6e056dU, 0xf020a9f3d2c92dfcU, 0xe8c55b34fd37b96cU, 0x1009c60602fe1724U,
  0xff3604f11727f4ecU, 0x1de9f0d9b92ae204U, 0xf21808b90106f401U, 0x2dc8bf81ea011504U,
  0x5f20dde3cff02afdU, 0x6dcb90402f1b237U, 0xfbe500bc0adf2dc7U, 0xedf2e5fdf400e700U,
  0xf5fb0a2ff60a03U, 0xec02150e11effd81U, 0x7f9ff200bf9f506U, 0xf20fb406e0e5d1bcU,
  0x5f09f632ba10222bU, 0x81c3dccbf6cadc02U, 0xc3fdea180b031115U, 0xd0eecef30dbe143U,
  0xc0221551b22092aU, 0x8a49c2fe13212f13U, 0x11d09cfc37309bbdU, 0x4e2b1bde05c6dd26U,
  0xfcbb139b2551067aU, 0xa000a681e4c3bb1aU, 0x6d1c5fe40327c9f9U, 0x4040b033ff7ed06U,
  0xec11e8040710f705U, 0xf8b609fe1112fa36U, 0xb3454cbff6a2247fU, 0xf41ae625020dd00fU,
  0xe45af35c104e804U, 0xa11c303d708fadcU, 0x1f15ffef81d3f50cU, 0xb1d40e0f00c300daU,
  0xfebfbf202f9f8efU, 0x108170c54eedb1eU, 0xe521fe23dc01f7f9U, 0xfbe4a2172be3daefU,
  0x2c4e2d1dccccf93dU, 0xf4dcd1d8c41ae31aU, 0xee41d7f0f27fb6f1U, 0x1dec0d980ada25ffU,
  0xeede06fde9e74c0aU, 0x417e403f8f101e6U, 0x990c97160702fffeU, 0xc6c612adf62681bdU,
  0xf123f0defcffd8e3U, 0xe80b01fac5dd16eeU, 0xe311ff19bf101ed3U, 0x1c0cf10c06080927U,
  0xffb1af4fd1afb10U, 0xf417c51a7fba0bd6U, 0x6dcfa360cf1fbdcU, 0xd7012d4cd20f1814U,
  0xcc01d11826eece1cU, 0xfdeff5c857eaf609U, 0xfcfa0508f3f9fdfaU, 0xf007e7ccf2fc1101U,
  0x930e5500fd550555U, 0xfa3d16e6f7d3ff0aU, 0xd581d80328ed2039U, 0x1d0e11f212cb0a20U,
  0x87e67f03faf428e0U, 0x310b533a32de0b25U, 0x1be0329adc2c2c1aU, 0xfaceb4e6c50edc03U,
  0x2cf3111feffc0fc6U, 0x112281e7a9e6181bU, 0x20e5e6f4cce4d819U, 0xdbd0f5bfdcffeee9U,
  0x1ae0b1113cefcf2U, 0xe7d961e703fd2a02U, 0xd4dce756b704d9e1U, 0xfd1bba034dfefd06U,
  0xedd60beb6e0b0af0U, 0x329e0dc78270400U, 0x912ec05fab4e6e8U, 0xd5027fd6f8634314U,
  0xe7f3d5f8d7150d36U, 0x173696fe290611a9U, 0x336ffe5da1a2a08U, 0xbb9012f3fce0d8f2U,
  0xfb1128150d0a11f2U, 0xd1fddf1dbd16f0eU, 0xb024203a8117f2beU, 0x293ee4f000c9f100U,
  0x4fcee20c2f9d666U, 0xf7ed01060bfaf3ffU, 0x11f0f4f281000506U, 0xfc02090100fd114dU,
  0x5ee0126fb00feefU, 0xfcecdbbacd0cd416U, 0x1b093512f800c924U, 0x3d7b0f7f13c32dd7U,
  0xd700e0d7f05affebU, 0xaeb7afc2e746dd17U, 0xb2dee30d584fef41U, 0xf7ff9a1212f012cdU,
  0xb681de09d1eec1f5U, 0x8bc51d05f625ceddU, 0x343c3cfc0024fcd9U, 0xaee30c3f1de73efU,
  0x549ed11bed033c03U, 0xcafeece42d1c1fdfU, 0x2413dfbbc9fba8e0U, 0xe810c71a08aec5feU,
  0x2c110e16f5e4c50aU, 0x15fb7ff331dd13e9U, 0x9126fdd8fb1be5e2U, 0xff8f7b5f6fbdc11U,
  0xafa0218f7e6f0f4U, 0xf7ee3107f01be8dbU, 0xf6e5f98403ae1009U, 0x26c1dff34fc62a04U,
  0x42220808f17f76fbU, 0x3d1ce0012700f91dU, 0xcf334448d4135c29U, 0xabe84cdb6b052cf2U,
  0xe71a1a21c7f9f2e9U, 0x2eda470ab020f83fU, 0x7fe2e72927f7cae8U, 0xd8e9b1a8c90a1ab9U,
  0x30ba7530090b214cU, 0xb24e5fffd840ea0U, 0xdc06a7231716a7d8U, 0xf9eb37fad92eeaf6U,
  0x811dcc0ceeacbad4U, 0x7f79c51f1932bee4U, 0x509021a28858534U, 0x2ffeffb220ff2f5U,
  0xfae701ea7d0a07f9U, 0xd9f6110133e5f6daU, 0xfbeed9fefc0b02e6U, 0xa144f90b14250302U,
  0x1af0c235d17fa1e6U, 0xc33afa0838fd1ce6U, 0xf54901f4d8f6f7f7U, 0xebeb2a438f1505e1U,
  0x23f3040a3314cafbU, 0x29d895e8e7140413U, 0xcbaee6f5f0adca57U, 0x6a98d2de81d8c1d6U,
  0xbbaeb21ea0bc8e1U, 0xf1ea3ceb19b36936U, 0xb712ccfebcfbe2f4U, 0xf8ece241f30bf2f4U,
  0x23b2021a0de5f70fU, 0xe514dcf830ad1502U, 0x5fdcc33f0e280f7fU, 0xf9f6f41c1b2f0719U,
  0xfe00bffdfbcdcb08U, 0x1324da0381f2ad1eU, 0xe1de2a12d7faf222U, 0x2ff8ef0836cb37d9U,
  0x26ea0e9aecf52fc3U, 0xba07c830eef8f720U, 0x35c373dee8c003U, 0x2123b5e2d7c2ee1dU,
  0x2eda273cee232826U, 0xf825fb2f49d74c03U, 0x3d0e21f180ffc05U, 0x311b6103ed43162bU,
  0x1a0efe7f31f3d422U, 0xf302108f4602ca1bU, 0xe9f7ad13f7fcd221U, 0x39d9153d0cd1cbf2U,
  0xafef6b6d4f09ebfU, 0x41a3f64c46add00dU, 0x207fc30f1426082dU, 0x348df1d467e7dac4U,
  0xb227fbeb02966adfU, 0xe9f1ca0409c406f7U, 0xfc10fc2ce4f0afeaU, 0x14f04b0819d6e414U,
  0x81711dedbf30da25U, 0xf309beecdd1af221U, 0xf3e0edd209fadfU, 0x22f90be221dc0912U,
  0xf02de7e7f87f0efdU, 0x1df2d9c202264319U, 0xf6f000f6f516e531U, 0x4008c8f451ed281eU,
  0x503ed7f0ffde64aU, 0xf5f6f7090bf40af6U, 0x9ed080f2eff03f5U, 0x5fe0e02eafce11fU,
  0xfffb0b02eafcfdU, 0xfbfbeffe2efbf404U, 0x7f41106e009edf4U, 0xf41802e315d00602U,
  0x3beeb31af63f08f5U, 0x1f708ffe6befc10U, 0xe0b67ffe19d40a43U, 0x1ac4ffffec93U,
  0xffffd7f4fffff4c7U, 0x6dc00001718U, 0xfffff51000000564U, 0x180200001625U,
  0xfffffcbeffffd03fU, 0x392dffffbebbU, 0xffffee98ffffceebU, 0x81cffffff54U,
  0xfffff005000012dfU, 0x190affffe9b1U, 0x2704fffff487U, 0xffffee51ffffe200U,
  0x283bfffff55bU, 0x807ffffc002U, 0x1347fffffde0U, 0xfffffd7400000cefU,
  0xffffbafbfffffa71U, 0xfffff05300004172U, 0x19aaffffefe3U, 0x20effffffd81U,
  0xffffd9cd00000d88U, 0xfffff2dffffff63cU, 0xfffff3ceffffde6cU, 0xef1fe6f6e419e3c7U,
  0x18d22c0f26e304e9U, 0x2324f61308f931f2U, 0xec30d3e02319da27U, 0x1ccdd8f6de0beedbU,
  0x2acb09dee90e36f0U, 0xc22ccde1b03bbdaaU, 0x45b83b303ec42cbbU, 0x5038c94448d04addU,
  0xc34abec93c41d03cU, 0x36c4adc3c31dd59bU, 0x38b541bfce2a44b6U, 0xd73addadd923cdc8U,
  0x41ba2b3335b91ec6U, 0x542cd0394cd726ebU, 0xb539e4d4292bcd4aU, 0x31cbdbd1c121dbb7U,
  0x23d127cff2c81dc2U, 0xc13bb1c2c339c1b4U, 0x35c13c2844e533b8U, 0x2a42af3f2dd93bc8U,
  0xd74dccb74137b456U, 0x37b5b9d7c838bab4U, 0x409f36bdcc0c31c8U, 0x8173888b817f8181U,
  0x7f817f7f7f817f81U, 0x7f7f817f7f817f81U, 0x817f81817d7f817fU, 0x73818184817f8181U,
  0x7f817f8181647f81U, 0xa57fa892a059a7a3U, 0x69997676618e4a8fU, 0x7b5bab5a609554aeU,
  0x9071b4af7f5e9877U, 0x6eaaaa99aa67a382U, 0x6990659ca9815d8bU, 0xd62dcecbbd24cfe7U,
  0x24e3262911c52adbU, 0x826cc411bda19d7U, 0xe435e7d44725c847U, 0x2ce5cdc3d83acad4U,
  0x2cc724dfcd1130ccU, 0x996781819048b6a5U, 0x47b4676847944ba2U, 0x68599c5b509b52a0U,
  0xb959b39c7e4b9b6cU, 0x7fb1b0819d6aa1a1U, 0x619260b0b15352a3U, 0xb25bb48aaf43c7b0U,
  0x47bb525c4aad2ebbU, 0x5d51a4334ac546b3U, 0xbb3ec0b6693bbf6cU, 0x60c0cca1bd4caea5U,
  0x64ae49c4c8a03bb0U, 0x183e00000792U, 0x709fffff193U, 0x56700000edfU,
  0x655ffffed57U, 0xffffdc12000015d0U, 0xfffffa640000010dU, 0xffffeb55fffff65bU,
  0xfffff7080000092eU, 0xfffffc6300000b68U, 0xfffffaf100000626U, 0x513fffff8eaU,
  0xfffff346fffff868U, 0x97afffffb37U, 0xfffff87cfffff834U, 0x871000003fbU,
  0x152cfffff6ddU, 0xb9f00000523U, 0x481ffffeb56U, 0xf2b000023a7U,
  0xfffff2dc000004b0U, 0xfffff53c00001366U, 0x40100000118U, 0xfffff8a000000a0fU,
  0xfffff5f00000065fU, 0x18fbe8170fc8f9faU, 0x810af10c5cf6e101U, 0xebf20c0f5a942b1eU,
  0xf4051ffde0e2ec02U, 0xff16ede8f50224fcU, 0xf0d18c40e06031dU, 0x6d23f18f22b06b9U,
  0x3e12930fff0e7febU, 0x914fd4c19e634c1U, 0x950e1aefc1a76eecU, 0x11af2432bb5250cU,
  0xad14071458e11a35U, 0x2110f20cf7f9fdf1U, 0xec4bcedcf1040fcfU, 0x33b8bb1744e0f014U,
  0xe5180fa17f34e81fU, 0xb11d0c000a5bdd03U, 0x22fc2adb19d2bafdU, 0xf27fd00317ebf0d5U,
  0x9f8ef15da1726fdU, 0x2fec05e60ef20d0bU, 0x56eb14f313fb162bU, 0xc020a0701eafff7U,
  0x13000a080203e55dU, 0x57f70bd8defc000eU, 0xc50d3762c9e63011U, 0xd9c42df60898edbeU,
  0x30fde734e8d83cbaU, 0xffe6f80c81bc2724U, 0xdffd39d55a0e1407U, 0xb41bed2209043ae6U,
  0xdf81880e0dfc2773U, 0xe800021bff3bf5efU, 0xc04ce42ba7d5e70eU, 0x1bcd2e26fafbb8feU,
  0x1ef9b0c1e400fae4U, 0x1805fefe13fd03fdU, 0x507f4030df4f902U, 0xede40afaf604ebfdU,
  0x7fc0bfd0a13fdf5U, 0x3fbf412ff0306f8U, 0x90911f50e7f03ffU, 0x7f3b22ea1cb50b08U,
  0xf3760523251af20cU, 0xbe9f30e610f06f11U, 0xebc7b5f24a12f0f1U, 0xc949ffc6252038c5U,
  0xfd3039ca261fcfbbU, 0xd2c6f857e3f8120cU, 0xcd594e4c7eae6U, 0xa80981e6f6eae233U,
  0x32eff61beb2a06bfU, 0xccf10ff1241218f5U, 0x61221fd2b222bU, 0xd618f1311efe35e3U,
  0xef052115f70b5204U, 0x2ae8ff1be6f1f609U, 0x7fff1e2218073a16U, 0x14fa02fae71dfbe0U,
  0xab10f9051c0cdde5U, 0xf7ec3de7de101a09U, 0x2ff10d912111610U, 0x7e30ae706f30220U,
  0xfaa1f9102008fad4U, 0x2eb0e00f9fe0906U, 0x47f00ed1006080dU, 0x15fadc11fdff13faU,
  0x20021601350407eaU, 0x2601f41b0ff881f0U, 0xf40714fa10100003U, 0xf30ef408fade0b09U,
  0x15ffe408f5f8fc12U, 0x1f06f308fe181a01U, 0xb444e5112a345cU, 0xe8e0f6d1020ef4e4U,
  0xce003411201b1cd8U, 0x310104a4207faa3bU, 0x20408d2fcfdbb20U, 0xe213ebd6bfc6a92fU,
  0x5fe6b81291f9dda7U, 0xfd214f9181008c6U, 0xec7fffae02e80258U, 0xf81a267044ce2ecdU,
  0xe805f991d7f5cd03U, 0xf5fae7110a16f816U, 0x40811d9f1ee21f2U, 0xef0719e7fef9fb10U,
  0x18ef0514fc0910f3U, 0xec0cfe030df1eeffU, 0xf1810d080f0ef310U, 0xa901130d17871947U,
  0xff440fbf6dd5213U, 0x899f9ee40ed0d1cU, 0x7fe1e3ff121e1113U, 0xe30adf46f4cfe51cU,
  0x7fee8f9bd040cf7U, 0xf8f10607f54cf7fdU, 0xf40ff80e2e1c07e1U, 0x3f80bfcf9200a0aU,
  0xf2f6f101fa67fceeU, 0xe875f438b0f4b8f7U, 0xe0ef37ff7fe0f08U, 0xb2b8e33701c4ddeeU,
  0xe5e8140505f9ddb1U, 0xde45f810fdd5d51aU, 0xfdd07f15f402ffabU, 0x1c50a2bd904f4feU,
  0x150322faaadce22fU, 0x361b506434ec4919U, 0xda890eb9d2cde1ccU, 0x3a0ac9ecdbcda8dfU,
  0x4ee5e32546c1fb21U, 0x31ffa0adbffa7fdeU, 0xec22f9e11f031bdbU, 0xf5e4051b0ef6f99dU,
  0x1f5050d2014080aU, 0xfc020b81fff2c6feU, 0xc02f6f1e6fcb80bU, 0x2070105171a15f0U,
  0x860cfc07092207e1U, 0x927cdcb625c222f3U, 0xd276508b3d85a1cU, 0xbad11b2165dadd6aU,
  0x112c0defe567f119U, 0x25eef944c781ddf6U, 0x100efa0c2306baa8U, 0xfb0fd247d205f13dU,
  0xdc0490d0d802f2efU, 0x70fc10cbd7353de6U, 0xc9f1e9eeeac71bdfU, 0x213f8fdfa6cfbecU,
  0xedfbf5ef8129efdaU, 0xe4d6d5c21adee5e8U, 0xe0baf94d011d150fU, 0xf19250c1a1808ecU,
  0x109918f613f9f416U, 0xd8240feae7f2fbf5U, 0x6813fdfd8f7fe1cU, 0x7fe405cc44fdd4c0U,
  0x132710160110b9eaU, 0xec7b262fe01bc8e0U, 0xbf042914d4f90c1dU, 0x17f902d70a1d150aU,
  0xf1dd6adfe80ff91dU, 0xd6041443d5e08125U, 0x4084b92b98f943a7U, 0xd41d9fe0c5e70676U,
  0x33ee5d909521588dU, 0x15ed0491acfed1efU, 0xb201e9dd0d0c9d04U, 0x99cbfe638e8fd24U,
  0x20fd14f7f2233401U, 0x110a1d1111060c31U, 0x57f809e50eff121cU, 0xef8fef309f30ff6U,
  0xea0de7fceb09d981U, 0x2f908d6090616ffU, 0xe606cc0a0ffd0ceaU, 0xd02b705d61c1313U,
  0x31fef502137ff2fdU, 0x37dc07fef912f62dU, 0xf3f63d3c1ff3c30fU, 0xd8fad8bf9a240f3bU,
  0x171b91bb05f3b80dU, 0xf321e8d2f2e9e507U, 0x81f0b70efbe307ceU, 0xf417fd1bcb2608fcU,
  0xea19c6ea1d01e101U, 0x519f6ef05410a04U, 0x14eb12f3f5f1b63cU, 0xee06e5f4fcdcff37U,
  0xadfa1f06f617fffaU, 0xfdfdf10d0b81133bU, 0xfef440e7f40012d9U, 0x37021bc1d9130ebdU,
  0xf53f2917f9c6dc05U, 0x2516002c26230613U, 0x4f702f9141dcc1bU, 0x1e5fe1406fff81cU,
  0xfff9dbf8107ff235U, 0xffde7fb3d2f0fd13U, 0xd4bf1715fceee1ecU, 0xfde7dbce12e7f7f9U,
  0xfc7e192c42f913cdU, 0x11f5e21da8f0f9dfU, 0xe92a3e0312eb250dU, 0xee800fbc803e483U,
  0xe16f5dae9baeeefU, 0xf4fdcbcd1b142a11U, 0xf50c0620101981e5U, 0x17090d15ded7f61dU,
  0xb8f1fdfff28dded9U, 0xd8031da901b9e812U, 0x3700e60ceff0812dU, 0xb04407e0e7f8f6bfU,
  0xdd0dfbf4e717eb0bU, 0x71efda7050f080dU, 0xe6ec5d202ef7c504U, 0xf5180fd5f5197ff9U,
  0xfe03e117de2309fcU, 0x3af7ef0f23e60cf8U, 0xdb050f03ffff0f1cU, 0x19f124e50804022eU,
  0xe2e8130e29fccfeeU, 0x1225353e2c11f3f1U, 0xfee49ecff620b33fU, 0xa79ae8ee3a11af7fU,
  0xcaeddd3632e90d01U, 0x15f29aed029fe81aU, 0xfdf4430d03043bb7U, 0x2a7f9e0f615e91aU,
  0xff10bfd8e101c823U, 0x3cf40a85faf9f1f3U, 0x2f623fb13ecbbf6U, 0xce80bcbfa092f18U,
  0x81f41e1bbffb3bc4U, 0xf0ce40fed4a2812U, 0xc5fbe5c6f5d781adU, 0x26d029ddbf2b0bc0U,
  0xb8dfc525d8e20ee4U, 0xfcef0cf1c6ea5ee9U, 0xedf9122295c2d2f3U, 0x5f3e8fb2e14ed0dU,
  0xd6d2041c08ef0009U, 0x9e903fbed0cfffeU, 0x125f01bfe1cfcfcU, 0xba7f08d7edf6e5edU,
  0x8110e3af600e0ffU, 0xb2f28d3abcb50f6U, 0xf132fd10ebeff330U, 0x2703f01118fdf6ecU,
  0x2502c91afa26051fU, 0x5a08fa9dfe432a2bU, 0xf5020221f80881e5U, 0xb26fa15f9017f04U,
  0x8ee00e7f6040404U, 0x19fa08f605f800U, 0x3cf5f80804ff0cf0U, 0x50c14eef5e5fed4U,
  0xf8170f0b0d0929e1U, 0xfd17120411f8edf9U, 0xffafd0f14dc01fdU, 0xeb05fc020af2e4e5U,
  0xb8100ee090e011fU, 0x10edd21d19f0fdfcU, 0xfe490c08ff081af7U, 0xfd4111ea0e26dd7fU,
  0xfaf1dbf5f9f5d80bU, 0x2a19fc170417fb0cU, 0x50f0df900f57c08U, 0x2609fceff8182328U,
  0x430b070ccffcf406U, 0xfdff2a050efcf005U, 0xf3f91e0803f8f6efU, 0xf705f3f6fa1103edU,
  0xf3ed06f30dfd0a09U, 0xfb017f161b00eff4U, 0xfb13fdfd0a010a06U, 0x2c5f6910fd8c129U,
  0xd3e1b64ff01bbde0U, 0xdf8381af51cf6f7U, 0x61f9062fec1234cbU, 0x100ee5d4812ae119U,
  0xd6fc39f0161dea0dU, 0x8ed9f22ffd3409b0U, 0xaea9d13fbccee554U, 0xcf74205919adf8ecU,
  0x231a372a9a06dfebU, 0xb4c18177116deb01U, 0x19061dbbcad13d21U, 0xd422f00a08eb29d3U,
  0xf9c1da2de339efa7U, 0x32bdf1e207d63510U, 0xb030160b39f292ecU, 0x3a2a0c46b9ab061dU,
  0x56f1571ba97fa49fU, 0xefd714215910370cU, 0x41af050858a3edd0U, 0xbdc466f8c00a0f54U,
  0x1ceb488d438bf3c5U, 0x7ff7fdddeb020045U, 0x17f1164ef9e7c53aU, 0x4631f3413501f427U,
  0x19287f08dd0a4308U, 0x1bec07e4d92b2b03U, 0xfffe02391cdf2902U, 0xf3e4f8edfefe47f0U,
  0xdb1deffd3506f5e2U, 0xffffff2e00001398U, 0x1ac00001019U, 0xffffff93000018dfU,
  0xfffffc40fffffeafU, 0xfffffa1200001d49U, 0x7ad000006eeU, 0xfffffce200001901U,
  0xfffff5a20000053fU, 0xffffff3e000019e8U, 0x15c100000388U, 0xd97000010f6U,
  0xeb100000cd4U, 0x25700001e11U, 0x7da00000727U, 0x138d00002507U,
  0x173c0000166aU, 0x3100002cb7U, 0x7fe00000864U, 0xfffffee200001204U,
  0xfffffd4a0000148eU, 0x29e000006fdU, 0x444ffffffe9U, 0x239f00003095U,
  0x194000020ecU, 0x300000001U, 0x700000005U, 0xb00000009U,
  0xf0000000dU, 0x1300000011U, 0x1700000015U, 0x1b00000019U,
  0x1f0000001dU, 0x2300000021U, 0x2700000025U, 0x2b00000029U,
  0x2f0000002dU, 0x3300000031U, 0x3700000035U, 0x3b00000039U,
  0x3f0000003dU, 0x4300000041U, 0x4700000045U, 0x4b00000049U,
  0x4f0000004dU, 0x5300000051U, 0x5700000055U, 0x5b00000059U,
  0x5f0000005dU, 0x9beef524150b27dbU, 0xebed65bed267ac0cU, 0x8a85dd4507cee91dU,
  0xd1ef290dda161c22U, 0x1c441ada0a04011cU, 0xd77f18daf5c1d901U, 0x7f11fffee31216f7U,
  0x3f8f2130513ef28U, 0xfca3db3219b909b3U, 0x6d9e7e101e5140bU, 0xeb4cf6050df610ecU,
  0x2dc7fefbea0615d5U, 0xbd33206091846faU, 0xfbd6c3e20156e706U, 0x14f902230ae37ff5U,
  0x17f3eb10f40efbf4U, 0xfc01f903f8fbf0f7U, 0x16ef200cfc08edebU, 0xecf40b07280b167fU,
  0x70d040dfefa2fb1U, 0x1612f937032f100dU, 0xf909041bf2fdeb24U, 0xed0745e25b142601U,
  0x1ae5142deafb1d2aU, 0xf3e8b7cb30e5bdabU, 0xe8f419d6dff4b112U, 0x3903db68d51d2820U,
  0x620128f109f68101U, 0xdae154dec2d225U, 0xbf230ca3100bb02U, 0x2609f8e537da05fcU,
  0xf4e722f534fbfc22U, 0x9fa030dc1f31c19U, 0x2104070edbf6d233U, 0x89f40724e41a8129U,
  0xfbc5171cf8e3c2d5U, 0x160d2217b8fb5f0dU, 0xcc1b9d427702c78cU, 0x81271dd624f6cac6U,
  0xe0c5e70be9f0b812U, 0x57000becf00255f7U, 0x9f30febf6fd17c9U, 0xa6af341ec39fdaefU,
  0xee819a9e31551ec7U, 0x49671502d635ce97U, 0xcad951c0b4d4f0d9U, 0x420e00d6b8c9ca0fU,
  0xc5adacded0bff1d5U, 0x2be951edf81007ffU, 0xebd37f0a0d2d0fe4U, 0xe0321ce4081ed1f9U,
  0x1deb0b00fbf92d0bU, 0x19e805f6d1f301e3U, 0x1f2b5e212fdacfdU, 0xf515f60afd0be0faU,
  0x8e10c0311064bf4U, 0xf710811af306e9c0U, 0xf8f4ccf70eea1300U, 0x1907050cff24eee9U,
  0xeffedf5fc13ec04U, 0x810116ed16f52314U, 0xfd1921fa03f520f7U, 0xfa00fff4e6ff0b0aU,
  0x120707f4081f0303U, 0xf81309f7f702ec15U, 0xfffb1f0d0400fa0cU, 0xf321f8f615053af9U,
  0x4c1af420f5db06bdU, 0xd6fb150a21151adfU, 0x12082c7fd1163d2cU, 0xeff80738e02a2116U,
  0x2ba92dfb35390deeU, 0xfd309dac46239baU, 0xd4a305d2435716a9U, 0x34b0fc97a40ccf19U,
  0x8bdc0b08d52be610U, 0x21d871eced46ea81U, 0xa81bf9bf7accc902U, 0x3c01abfca0d54ef7U,
  0xec7d6c67fef0312U, 0xd17f1a94713ed3d7U, 0x12e0ba5a05215d2dU, 0x4d37f00a07c07ddcU,
  0xeee0d2b3fad7e2deU, 0xb723e40ee031d0efU, 0x12daa7e57a2df139U, 0xd160da44d0f1928U,
  0xf8e4fb0a07167ffbU, 0x10fde6b1eac6ef2cU, 0xf3f6dbe40eebb202U, 0xf70e0be91923f09fU,
  0x15f10dcf01fadb5eU, 0xf505f40d1cfd07feU, 0xbefefc2a2303192bU, 0x142ad722d581e5b6U,
  0x561913b9d910b3f0U, 0x34ed81a10135f313U, 0xf426332e23e42c31U, 0xdfe811f40d2110fcU,
  0xbedd6411b0f09eeU, 0xf0fbe0180df021e4U, 0x12060a24202342faU, 0xd319df077f0ee4fbU,
  0x7fd25e0c725e223U, 0x3f07112dc4f82306U, 0x26f8fa17ee26a213U, 0x26120c69fdf41bfcU,
  0x505de01190800f7U, 0xe006b62dbbedddb6U, 0xffdd2ae434fe18dfU, 0xacace2e47f3209f4U,
  0x54181ba6d1dd7c2dU, 0x37203fb0eba4fe0cU, 0xda44bc291ee9f0edU, 0x1132a12ef07f0d0U,
  0xebf904f640fe15ecU, 0x37fc6fedfa05d911U, 0xe92a2ed24ac5ecf1U, 0x8fb9e5ebf8043c81U,
  0x1ec915c63115de8eU, 0x5503faad74d438adU, 0xfb0957db02fffdc8U, 0x7a560f0e9e2a13caU,
  0xd0061a23cd10df5bU, 0xa1094615c4cf81c6U, 0xb8afdbafdbfed3e3U, 0xe070c2fc90cf405U,
  0xd0306f46520db1eU, 0xcc0211df1839adf3U, 0xe006ec0c2116d4e9U, 0x8fe70807cad081f9U,
  0xf210c44e02dfdfcaU, 0xfbf1faf249ec0601U, 0xfc081ff9f0ef07ddU, 0xdf70130ab08ffe9U,
  0x5bfcf02c0106b7deU, 0x3cfe291ee8ff5fecU, 0xe5fa3fd2eb017fb5U, 0xb94b121ef2050dfdU,
  0x5fff13ba00db2a2bU, 0xe4e83105f3006733U, 0xe5639a79b3efc1cU, 0xf3587f0fbcfe0cbcU,
  0x41ead42af37e27c7U, 0xf7b211811fb30005U, 0x8bcdd9d703112795U, 0xfcf9f50d2a1a180aU,
  0xfc9011c991e5d3caU, 0xede2b2c24699031dU, 0x8b17eed7ce8a0985U, 0x3030dbfe21f028daU,
  0xe9fddafcd1dde8caU, 0x5b092b23c8f581c9U, 0xf8c9ea1901f8020aU, 0xef150f041bf8c7f8U,
  0xe0cc70d16ed0dcdU, 0xe33f027f2d143fcU, 0xd7ebec00f8f7c7e4U, 0x1427ba20fcf518d0U,
  0xe11481e54936f422U, 0x7da0be1fbfaefdeU, 0xd7e0fdfef52619d2U, 0xc016963c0427d6fbU,
  0x7e7e2f4f87ff001U, 0x2e07010522cd02dcU, 0xf5f725e316eaec07U, 0x10d31a2023d5f70aU,
  0xf737f9fce3fb021eU, 0xb06f403f9f20810U, 0xfcf90ef50dfe051cU, 0x5e506b608e80b02U,
  0x19fddb0c18fb1217U, 0x28f7f9e3f8067f1aU, 0xe7eb0ddfe8fe14f9U, 0x1d399a0dd85ed92aU,
  0xf423130e2f1421f1U, 0xf8d67ff3cccf42f4U, 0xfaf0faf72b2dfbf9U, 0xebcc2efa26071fd8U,
  0x4dea7fa28f2fe0cU, 0x123edd30013b5b27U, 0xfd043035dd273382U, 0xdfc00c3429f81cd6U,
  0xbf9261a022930f3U, 0xe9f70a31f77f1016U, 0x1de7e820dc1a04d1U, 0xfd02201adce52baaU,
  0xc9c165d72124c0c5U, 0x1f00ac99e0d519dcU, 0x52eb9cf2cbebcbb7U, 0xc9c12c0281f714f7U,
  0x2353df18ba24f7b8U, 0xfd1853af03e1310dU, 0xc0e1c8d85ba6c6d9U, 0x2e93f5231bab15edU,
  0xecb0db9c0fa2e181U, 0x162efbd93145e4feU, 0x44f128e10ad1e29fU, 0x10fb7fed1f0ae3abU,
  0xf01655e431e01b22U, 0x123a00fbc103e72cU, 0xbdada08ea1ad5eeU, 0x130a0266c7cf322dU,
  0xf615fdcb19fed718U, 0x240535f220eae908U, 0x2ceefbc8ccec023dU, 0x5b330424ad34d8e4U,
  0xfd27fccaef211cdbU, 0x3be7e3fcb9e87fe5U, 0x846fac103036bf0U, 0xf4f5e02bd6e50316U,
  0x2bd7f0e21bfb1100U, 0xfdfa07be3cf9eb06U, 0x64dc0a36edff22dfU, 0xb1c33281effed81eU,
  0xe3ee327ee4e6dae2U, 0x41142d2d631bd842U, 0xe2fdc41fe4cf09bcU, 0xffe506b17f09e620U,
  0x46351be1e9fb0c13U, 0xa1f09cb1f161fd5U, 0x14f5c020fd0efaeaU, 0x3cd3491800ed81ecU,
  0xe9d2e1fa0bff0147U, 0x1a23f914111f1404U, 0x14fe09fd04f6feefU, 0x1171a0adbe10c12U,
  0xc2df0d0802f3e6f2U, 0xed1f2c01c7072d27U, 0x1dfaeafb27f7de18U, 0xa5f2fae1551ad104U,
  0x210912faf31a7f12U, 0xd32514ce15e3eef9U, 0xdf25e8432d0a03e6U, 0x2209330be14f9516U,
  0x1c361f21f8262c0bU, 0xcd5d103e1cb61de3U, 0xc2f8f2f81e19f4e7U, 0x1ad17ffe6f8ef112U,
  0x132800f9fb322e1aU, 0xf80b5701072b8133U, 0x1cefd3cd25f1f725U, 0x1411f42f130a1622U,
  0xe50feddb1e19eef5U, 0xf21842f27ad00915U, 0xe605db06db09100bU, 0x12f603f6c0e408e6U,
  0xf008ea01f7071fceU, 0x1403dbb613f40bU, 0x40103dafee6e0e9U, 0xc97f0dff121107e7U,
  0xe32c23e4e2e8e3d8U, 0x141a4f49e131160dU, 0x153f22775ec22142U, 0x7f02ee0fc5c5d60dU,
  0x304b2eff263c1be2U, 0xec18d106cbebf40dU, 0x39dcca1063ec5a6dU, 0x1a17311209301202U,
  0xfe20e40bec1bf911U, 0xfb8a0608ee7ffee9U, 0xee0906f01affe7e8U, 0x42f61f0e0ec6e7f5U,
  0xfaedf404f9fffa14U, 0xe27fe80f0bd5efdcU, 0xd5033200400180cU, 0x12d0410090bece6U,
  0x1e1af2deef11e820U, 0x1611260009ef1806U, 0x19ccd31d23fbf4f6U, 0xcff8cd0d05c35e03U,
  0xe103e3fde5d4ffdeU, 0xe02f103604061ad5U, 0xcdfb1725faecebfdU, 0xbf9f7dfc87fef0aU,
  0x604faf329fdf9e7U, 0x14f526d6c3d921e2U, 0xefeef0cee0ef06d5U, 0xda1ded0fbe92b921U,
  0xec0126b9c8dbeeefU, 0x7fd92bf8fcddbef1U, 0xea922ae7e3ebf6edU, 0xe13208220210ee1fU,
  0x281d17d035d4edf1U, 0x3ae181b6f41ad913U, 0xc430cff9ca8a1ffcU, 0x3fea2fc461afffbU,
  0x2fee061fc22f1fecU, 0x384d00003112U, 0xffffd7f4000012d7U, 0x34eb00002ac7U,
  0xcf5e00002dc6U, 0x2899fffff465U, 0xeae00002223U, 0xffffeae40000280aU,
  0x2f89000065b1U, 0x9600002adaU, 0x4405fffff612U, 0x7ca500003a0dU,
  0xffffff23ffffc653U, 0x41f1000064a6U, 0x39f500002c1aU, 0x1ecaffffde4eU,
  0x42eeffffba0fU, 0xfffff2d600002873U, 0x3981ffffd6bbU, 0x1f8dffffe371U,
  0x30c000017b4U, 0x2e6000001f3bU, 0x115dffffbd4aU, 0x1508ffffd79cU,
  0x539800008c57U, 0xf8f1dae5f5f00b05U, 0x107071701fa01f2U, 0xf80df109f8570df5U,
  0x1000fc15f9f1e920U, 0xc24f3f41e0f1703U, 0x1ffbfec403180004U, 0xe9fbde70fb0f0a27U,
  0x6626b0caf0fbf8f4U, 0xfde8fcb7a832f5f4U, 0x967feb2905c70d69U, 0xfe2481371cdbd404U,
  0x66013a810c1cfeedU, 0xfefeda5ae90e07faU, 0x1004f9f4020410e9U, 0xfed9f3ecf208d214U,
  0xf3eaf50be7f90f23U, 0x15def00207c8020cU, 0xe9fa0fe5fef9fd0fU, 0xdcb3f7b9ef810e1eU,
  0x43c4f5f1f481ffe3U, 0xfede81fac307e59aU, 0xa1f9e82745818176U, 0x973d14412c3c9c17U,
  0x8f0fba027e8e764U, 0x7fd881187f018181U, 0x7fa3bc817fff817fU, 0x7f81f0d3814f7f03U,
  0x81e77f7f05941d77U, 0x7f81127f7f28fa7fU, 0x7f7f26d9817f7f19U, 0xf57fc4fd077b090dU,
  0x737f06c9097c3be1U, 0xccd66d2a5a1e97fU, 0x8107e718fc986959U, 0xc30f151228817f2cU,
  0x5a010ccd431cf581U, 0xf2f1f281eef80a02U, 0xfcfbfcf7edf615e9U, 0xeae8dd06ce05d900U,
  0xd807f00415dfd329U, 0xf2f70de9f404e11eU, 0x6f7051b06180007U, 0xebfaad9e0100171dU,
  0x62f77ff1ef032917U, 0x2dd9267fbc01e7fbU, 0x9a3ae14181a0077fU, 0xd00473123351a0fU,
  0x500881d1e1220cf9U, 0xf929f514e4070b05U, 0x71e2213f40803e8U, 0xf2143cf9df810a02U,
  0xd5f4f31834d51571U, 0x72e103930f20014U, 0x32fdf8ca081cfc02U, 0x82f00000425U,
  0xfffff85ffffffe8cU, 0x91b0000016cU, 0xfffffb72fffffff4U, 0x1cffffffccfU,
  0xfffff4850000017eU, 0xbe000008d1U, 0xffffd236fffffebbU, 0xfffffeb4fffffd1aU,
  0x3129ffffff9cU, 0x13a00000377U, 0xfffff30200000a0bU, 0xffffff55ffffd6f2U,
  0x1e600001d68U, 0xffffff28fffff7a3U, 0x1ea4fffffc11U, 0x5bfffff76aU,
  0xfffff40f00000347U, 0xffffff0dfffff6dcU, 0xfffffe1f0000010bU, 0xfffff4d1ffffffddU,
  0x652fffff32eU, 0x900000040eU, 0xffffd117fffff0efU, 0x218e1306070f35ffU,
  0xd2d7e7bb251ff7ebU, 0x140b81dacd2fd514U, 0x2da27e3d1fc49ecU, 0xe43e4af4eba0e81eU,
  0x2ef8dbdeded1f8f4U, 0x50f0104f9f908f3U, 0xfcfc160204bef107U, 0xe7fc1409eefaf2a0U,
  0x9e603e5f40c26f6U, 0xf106fa0ce7011305U, 0xafc020afc00ec81U, 0x1308fa4e10e5ef03U,
  0x14f77fef02f0f7fbU, 0xf312099d05dc09fcU, 0x7f8e9fe1300e1eaU, 0x4ff15e2e7e5fa02U,
  0xf3f713f5f90605eaU, 0xc1cdcea14d0111fbU, 0x24433fe76921f975U, 0xce24022030b1090fU,
  0x420e42837420fd0U, 0x99f233fcbc0ad2f8U, 0x15157f251d093b1eU, 0x13470724fce6e75eU,
  0xfb81b23163f004bdU, 0xed02d1bb05592317U, 0x11f5f10a8120f8fcU, 0x20aff14e7df6c00U,
  0x130052cacfe65603U, 0xf9efb7d41b0a09faU, 0xc8c8f209ef06f2c3U, 0xfe60e40ef019f211U,
  0x15fd1581f6f0100dU, 0x414051a25040e15U, 0x150ae50d071c05caU, 0x11eb0514bef3edc4U,
  0xe8aa093be609fd3cU, 0xf4fc0628060981fbU, 0x4649f8f9230d0d16U, 0xe4c2f413e6f20806U,
  0x10080c010de54de0U, 0x3e302fae11afa14U, 0xf360ef1a08e80604U, 0xfff3d7e7f9effd0dU,
  0xfc0710dbe3fca10eU, 0x16fc110f03e07f1eU, 0xeff50503fad8d02dU, 0xf818fef8edfc0601U,
  0x80a030a08008108U, 0xe206f90236f8f7f9U, 0xe50ddc0605c6f5ebU, 0x201fefdf1e9fdfaU,
  0x47f1fcf9f8e5e6f3U, 0xc0105010ba404feU, 0x804f403027ff9fcU, 0xf901020afffe00eeU,
  0xef8feff0c03fffdU, 0x70807f804fd1507U, 0x11fbfe0502fd0800U, 0x20f902fe230b0f20U,
  0xf4d9f0f7d501f90cU, 0xd5e410e9f7250510U, 0xc40e2f2eceffcfcU, 0x6227ffc1402140aU,
  0xfdde52161ff71709U, 0xe27f1a0505cd000eU, 0x13ace3f600e80ef6U, 0x9f9f1dffef3f23aU,
  0xf10fd0e12040d0cU, 0x825161a12da8918U, 0xfe0913fdf807f6d3U, 0xc9fff8ed0d0381c4U,
  0xdb4809ae43e2fa1cU, 0x3a02b711eb1bf2f4U, 0x13a1ee70aeff6e7U, 0x1d125422c8eef323U,
  0xfbc9dab699f1de19U, 0xf6dd04fb10780af2U, 0x7dc03faf700e605U, 0xf309f9fd0b0a0649U,
  0x11ebf3ff1a1281fbU, 0xfa270eec021dc607U, 0xf03f10c16dffd13U, 0xf7c6f11310b5fdeaU,
  0xe90d0d1ff3e6f813U, 0xf3fd28db03d2fb70U, 0xf7eafbed00f3daf2U, 0x26060df7fdef13f5U,
  0xf506ff007ffd0ea2U, 0xc0ad128200efdd2U, 0x42d0ec0d6c0dfdf4U, 0xd32cabfa053c1307U,
  0xc3d81a35f0420ef3U, 0xa609b9dee5f628eeU, 0xfbf981141316f7cbU, 0xd9f9f90707fdc8ddU,
  0xdc070707eb0df4ddU, 0x3426f1102509080cU, 0x17ec021002010cddU, 0x240215eee902011cU,
  0xfae601a6691e7f00U, 0x7f2e1a37aeeb36afU, 0x3af7c2081dff0c35U, 0xf8e615d6170d2dfaU,
  0x3823d4eaf8fed0cbU, 0xafe030a1513f0daU, 0xec04c72f05fb2009U, 0x24e92205d2ff13f5U,
  0x2017f2dad6f1f907U, 0xfc7f051cf7ed081dU, 0xe5ea05e2eb01fb0dU, 0x6ece9bb8e000ff1U,
  0xec1101f9f9d748f5U, 0x110b2008c706113bU, 0x131cf20ffc0bebffU, 0xf2f5ddc603fb481cU,
  0xc911e4e6d52f0f12U, 0xed0e0d02d67f0fe2U, 0x2b8f31dc914190eU, 0xe5eae225e2f3a109U,
  0xf19232ec202ffe8U, 0x810cde1cc1f905faU, 0xf9174807f6ef1725U, 0x5ece1d13eaf0e617U,
  0x154746c637d90ffdU, 0xf2ee16ea1d06e7e7U, 0x4dd15064e0612d7U, 0x17f508fd2ad6e5f9U,
  0x3e1c05f71327f181U, 0x17fae2091009efe5U, 0xb4c7d819df68def9U, 0x318f8ca00fef2eaU,
  0xf5f283002602fae9U, 0x50e027ff941d8e6U, 0x13f503f20d0107c6U, 0x1c400bf7f6110ee6U,
  0x4fe08f210f50cf7U, 0x101b0402fbf0fb02U, 0xfc13f50ff48401feU, 0xed073d0cf503fd32U,
  0x4f8fd0222097f0bU, 0xee0df9faf4f111e6U, 0x4f6020b13fa0462U, 0x23fa421dfafd03f6U,
  0x1a18d51a09ec0229U, 0xf53cb9ee021a81d7U, 0x3dfcf52c14040619U, 0x4b7200f2c2402ffU,
  0x46e613efafea0523U, 0x44e9cff6db1eb551U, 0x81fdf7dc15fd0b31U, 0x5150f0eeae30000U,
  0x21aa1923e80df51aU, 0xd712f0ccef2507cdU, 0x39100c3edbb620f7U, 0x280226cf5f19f9e9U,
  0xa20ae105540703e8U, 0xc6e80915f7dfc8c5U, 0xd5aedef255c70702U, 0x812e03c1220ffce8U,
  0xba18f3fa00e12313U, 0xef027f38100e09f7U, 0xb5ea2afdf00509d1U, 0xfad7f60103f904f9U,
  0x10f8fe4cd5040407U, 0xee0bfc19a1e42729U, 0xff70306ee10f130U, 0x22f3e6f22ffbf8b2U,
  0xa0df932d70730dcU, 0xcdda0f0a471013fbU, 0xce13d00900010b7fU, 0xf9f4f6f11e1b115eU,
  0xf6cf18d1c39f41f8U, 0x35b913fe91082d40U, 0x4e2ad3914f01224U, 0xe73d76102105cde7U,
  0xe4fe1703e534ed1cU, 0x30814cee21c4e0edU, 0xcb471406710caabfU, 0x4e822f22dfcf0f9U,
  0xde06ee1608fdfcddU, 0x185b11f5ea03f417U, 0x7fee1ecdfde6081fU, 0xb1903059c0cf10dU,
  0x3b181adaf4020502U, 0xe5d10ee205811bf4U, 0xeb100302fef806edU, 0x801f5f40a0fef53U,
  0xf8040e13ec0318feU, 0xf80be70011170b12U, 0xdf11030600f80523U, 0xf900e20102013300U,
  0x2f5f7e318000042U, 0xfff81108f9f214f8U, 0xe600221600fcfa01U, 0xbf9f00df90f18ceU,
  0xf98105f700fffa06U, 0xfc050908f17f0ffcU, 0xf60d0d02010d10f6U, 0xee0105020df7f9afU,
  0x616f1060aff0207U, 0xfb04de05f208f9U, 0xf30702fdfe0bfdebU, 0x414810a20f304f7U,
  0xb15f6fc03fefdf5U, 0xfc49e90a2703f1fdU, 0x4eebfa700ef0faf0U, 0xe705f748ac0e19d7U,
  0xe2f70bf71ae3e4fdU, 0x6b1c170632eb06e4U, 0xdcb3eddc81f1fc89U, 0xe8009e0c00f70419U,
  0x1ef85ffefefcdbe5U, 0x5b18d9dc16c652d0U, 0x11e0d61bf2ebef21U, 0x4f22dc1921ef7fe2U,
  0xe50810d2d00bdc4dU, 0x4610bf0076ed1715U, 0xf701ef2cdd0f093eU, 0x3cd8fde9fbd71016U,
  0xe65cf22b18e0020cU, 0x70402fc08fe0f07U, 0x3312f90af7f10e13U, 0xe611030381180800U,
  0x302918e9ea13ffa8U, 0x4f1f101eb0ce9fcU, 0xf8e7f93e06ecebf8U, 0x11010911ea0ffed5U,
  0x62d0d0ef20b061bU, 0xd6ffee0712104ff7U, 0x3729ebdf0c0aff1fU, 0xfb7f1b08f000f8f9U,
  0x182d0d01f7ed1100U, 0xf72dd40ff101eaf3U, 0xdb2b37f3d93c0805U, 0x352ffd81af5b00cU,
  0x1205ebb920ff070eU, 0xaa4ff0d2727d610U, 0x4df2110cd181e7fU, 0xfd7f0eac0cdceeaeU,
  0xd35747be1dc6102eU, 0x13030641d3cfd3f2U, 0xe50102f55e04a80aU, 0x21e497110ef3eefeU,
  0xd303c1ebe3e3f30fU, 0x15f8f5f4f1fbdd11U, 0x1ffc0c1c1406dc03U, 0xe21df0021f03f4f1U,
  0xec0127f60d8118b5U, 0x240c16e6dcff0316U, 0x16e6eaeff711050fU, 0x43ff8cde2262f13U,
  0x1ae801e6f11ff506U, 0xea3eeb1c0d29effbU, 0xefe405e4043b08U, 0xe909eff5cf14daf3U,
  0xe6060ff9e70dfe7fU, 0x79ecfee20514b208U, 0x13d2ec6e13c8e6f5U, 0xf2f109e5cad929dfU,
  0x81cef308f94e04cbU, 0x53fcdadf1f051560U, 0x53e12f1ccee0de04U, 0xdb040afb03fdf60fU,
  0xfefcf316f20e8107U, 0xfe09080ae7f1f40bU, 0xe204ecf511f8U, 0xfe0004fa06ef0316U,
  0xdf05f20cfef601fcU, 0xf32913d1810c0be5U, 0xedeb1b28dfe5ff4cU, 0x40dc548f8e3590bU,
  0xec0e13e5e11af310U, 0xf3fc020b02b824f8U, 0xe904f6e7141106feU, 0x24f818ec070cdeceU,
  0xf813071692130df4U, 0xe9e8fe162805fcfeU, 0xf90b0df72a211701U, 0x15f29a162909f402U,
  0xe5f3810021f6f110U, 0xee1125ea37eeec43U, 0xc844c2ecbdbe03eeU, 0xdfd0491319c63102U,
  0x1b0b0b351c25cff5U, 0x7f220d18b023c9fcU, 0x1833243b1501f58aU, 0xfffffdcbfffffd69U,
  0xfffff815ffffffb2U, 0x23600002d3fU, 0xfffffc7efffffabdU, 0xfffffea6000010fcU,
  0xfffffad5000015bcU, 0xfffffc7f00001be0U, 0xfffffa5ffffffaa6U, 0x28200002275U,
  0xfffff729000028c2U, 0xfffffe3000002373U, 0xfffffd16fffffdb8U, 0x93600001133U,
  0xea00000452U, 0xfffff1d70000180dU, 0x256000004ecU, 0x8c00002215U,
  0xfffffcc4fffffffcU, 0xffffffed0000192dU, 0x33dfffffcb1U, 0xffffff1f00003400U,
  0x241b00001cb2U, 0xfffffa43fffffa52U, 0x6b0000001cfU, 0x200000000U,
  0x600000004U, 0xa00000008U, 0xe0000000cU, 0x1200000010U,
  0x1600000014U, 0x1a00000018U, 0x1e0000001cU, 0x2200000020U,
  0x2600000024U, 0x2a00000028U, 0x2e0000002cU, 0x3200000030U,
  0x3600000034U, 0x3a00000038U, 0x3e0000003cU, 0x4200000040U,
  0x4600000044U, 0x4a00000048U, 0x4e0000004cU, 0x5200000050U,
  0x5600000054U, 0x5a00000058U, 0x5e0000005cU, 0xe1eae5edcf001214U,
  0x7f0e3e251cd349e0U, 0xfef710f6f4326732U, 0xc405fcf1fd6f0917U, 0xf9255d9e1214eedfU,
  0xf1e3e5300d1ed208U, 0xe5a71081f6e7d5e2U, 0x4fb0071ddefe011bU, 0xf89510070be2e812U,
  0xfe0f0808f70814fbU, 0x2040bf604d104fcU, 0x9f2f2e209080d04U, 0xe5039ceee4e6e661U,
  0x3f020d1f1adb812bU, 0xd5115b0d1afb0bU, 0x1e00f8fcf6ee2b20U, 0xaf7ea1afd240ef4U,
  0x18f827e807e01213U, 0x32c16906ed1003deU, 0x50803ef812603ebU, 0x7f80315e0edfef3U,
  0x7fcfa08fb0102f7U, 0x3ff07f1f4e7f4f8U, 0x110f60502e6f803U, 0x4e1371407fc1025U,
  0x805f7fe1c36afe0U, 0xc08f32a14e4b815U, 0x3e13c6bc67aff726U, 0xc9de75e9b4eb7f00U,
  0xfca4af2412ee1648U, 0x7f4601dd1a3f2216U, 0xa06e5f405f20427U, 0xe4e7b210d6252200U,
  0x305fefafff0f61aU, 0xf6f9f6ecf735edebU, 0x60a02051005f5eeU, 0xf2ed0100f50e0f07U,
  0xfd25050505eeebf4U, 0x3414074704f6f4edU, 0xc2f2e5f3e6383405U, 0xd16d2bf3100a6012U,
  0x88cd010581006eeaU, 0x8193a6242d12061eU, 0xdfd707f654f92650U, 0x2fd0dff0e04db0fU,
  0xfb0ff011fb0404efU, 0xb08f503f2fd050eU, 0xf50e03f50107fd03U, 0x287f30e804f227e1U,
  0x2208faefc932e1baU, 0xfb07f507042a24d2U, 0xfde9f6f5f300fae8U, 0x902f401f7fa07e6U,
  0x2fefd21f506f311U, 0x60fed38105d9fa0cU, 0xa080407240c293aU, 0xffeefb0e0102fef9U,
  0xfe0e010c0509f9f7U, 0xf5fcff08f1f3fcf6U, 0xfd02090907fcf1ffU, 0xd6ef330ef86b2a16U,
  0xab0aeab52cf581e1U, 0xfe3264d201422df0U, 0x12f938f84ff82b21U, 0x4ff5eee5e76dfe3aU,
  0x250db6ec18a50d4fU, 0xf2efc30b81eec670U, 0xf80206e2ec51ff5eU, 0xfed022140006ff4bU,
  0xf9e7fe04150e0cf1U, 0x6090a16ecfbfff6U, 0x4f815e90c000decU, 0xe1d01efda05b4baU,
  0xea812eebec08ee02U, 0x1ab9dd0d1dec05e2U, 0x160301060f120dffU, 0xfe110ee2f9f00e1cU,
  0xf9f531ebef0b0602U, 0xe018351f452bf814U, 0xf42aed46e2811a28U, 0xec0d1a0ced98d85cU,
  0x3fd00fffd301806U, 0x31a1ed40f340d17U, 0x2f0fada080cef15U, 0x27f4811f481c13e6U,
  0xff05f8d954f52e79U, 0x20e422f70bf1ccd9U, 0xf805fff8030001f9U, 0x22f2fb11fdf2f707U,
  0xf7fc192df219f726U, 0xae0397f260517e1U, 0x26e803248b0b092bU, 0xf221f608ffe708U,
  0xf6f0f7fef6f8e410U, 0x11fde70d05e00801U, 0xf01100f3ec05f6fcU, 0xecf2f4f6f7215552U,
  0x810218c206c4cef6U, 0x1149e39fcd990df9U, 0xedf4e917ec0610e9U, 0x11f301fefee3d134U,
  0x8066a11edd91c0dU, 0xe337b3f68dff6b81U, 0x7cef01e8d4bfe9e5U, 0xf9d03e1dfe141712U,
  0xfce0e9fff5e2f309U, 0x200ff20fd3fd030bU, 0x8f4262f08dafa33U, 0xf3173ee72f81040bU,
  0xaf451e8fe0f0908U, 0x306852d571d1324U, 0xf5f3f3f807e2f2f9U, 0x1bf2f74debe00602U,
  0xf5fe4cc5fb050efcU, 0x2dc4398142e508bbU, 0x12dc1914cbdde0d7U, 0xf8141a33b2d4e423U,
  0x505eefcf30c0102U, 0x25f7192b00e0f1f5U, 0xcf707ee022616f8U, 0x1d4dbe6401122e27U,
  0xd47f1bf7400a3a00U, 0xed75effdf906f11bU, 0x704fcf1f70c0bU, 0x601f1170ffdfe1aU,
  0x110ef20e10001d0eU, 0x2eedf61134e00dfaU, 0x28f1130b02fd2528U, 0xcb128513fdd5c8d5U,
  0xeef304fdfdf1121eU, 0xe7f4037f26b6e506U, 0x1716bdbd01c011edU, 0xfed0280e11fe14e1U,
  0xec2706f8d50402fbU, 0x300e30a81e6000bU, 0x1f4170d08d915ecU, 0x120af0fb04dbf324U,
  0x2b24f6020d350525U, 0xeb0df4fe00def8ffU, 0xa1c12ecfbf81510U, 0x2b05dcdbe015c3f1U,
  0x7301d202e83c0824U, 0x62f550809ed3204U, 0x7b3136dc7fd635f1U, 0xd740fefa00cf05ecU,
  0x3218ebfc037f03f1U, 0x1204f01b05feb90fU, 0xf3f9010400f20f07U, 0xf70aef0001e40215U,
  0x2ec2205f90903e9U, 0xebe51d7f0dfee506U, 0x2806f81398fbf635U, 0xf7f403fdfcff21e4U,
  0xfefffefc03040b0cU, 0x107f7f30911fbU, 0xfc06f3f8fee00afdU, 0x13922bdc0ff80c0eU,
  0x8dd000abd03530eU, 0xff21130cf1f501f7U, 0x9cf150209ebf314U, 0x7fec05eb26051c13U,
  0xf0d10d2b0214f5c6U, 0x17121b30e3cb7f61U, 0xe2260decc3da0f1cU, 0x13c240ef8c5f214U,
  0xf613fd12f8ecff0cU, 0xe8edf80d0b0213ebU, 0xf90c5341035a0806U, 0xf81d10e0153edee3U,
  0xf4e804fef643fe20U, 0x10fb0d81cf4be90fU, 0xc63d04020a9a6828U, 0xf279a1720cb05933U,
  0xf8b1f906f80555d9U, 0x81fbc35b05c6180dU, 0xd8ffecdf3ec0adfeU, 0x1d1210faf30efd1cU,
  0x1011fefa0ff8ea0eU, 0x4f5edfb01ebfbf9U, 0x1506dbf6ff0df501U, 0x842d1fc25101221U,
  0x821534f0051c1dcaU, 0x179d18105d118135U, 0x17e705e81d0a28f5U, 0x3f040efafb19ed63U,
  0x1219f45a112cfd40U, 0xe310db1c0cf50f09U, 0x2000000c2d1581ecU, 0x20f07141e07ef17U,
  0x3e00103f414fe0bU, 0x140f1af60809fdeeU, 0x4efd00f021df6e4U, 0xb181d3e82108fb17U,
  0x6dc16003b13414fU, 0x1f8fbfe05f4eaefU, 0xbfc0500f60002f5U, 0xdfb02f7f7f9fc0eU,
  0xfcfe0dfff7e00001U, 0xd33202de1e1efff5U, 0x129e7feeca37feeU, 0xde030cef6d0e3ec4U,
  0xe4bae1d7cedb160eU, 0x1821ef1ddfd202f0U, 0x1a0400e9231cdd00U, 0xdb0100f5e11ff9feU,
  0xbf1fed3f8fe12d2U, 0x110123dce5ffd8U, 0xd91e7f1f73cddd14U, 0x1fe1d9eb02d81458U,
  0xf11d161afce1fd25U, 0xa081184861283002U, 0xc4cb1ced074f24fbU, 0x81ee4e34b22b8fbU,
  0x104f61afeebfeffU, 0x1212f31514f90df5U, 0x20103150a281608U, 0xd5f8f0e4f2af0b08U,
  0x1de8ca1804170feaU, 0xfe1bff4bc429b9c8U, 0xf7abbda0b9e0f19fU, 0xa0c600e09e00def7U,
  0x5f608fef628f281U, 0xf06f4040c130effU, 0xece8497ff608f2ecU, 0x740ee2f9ef1cfcfaU,
  0x2f8ef0cf3021df6U, 0xf80c071105cc1241U, 0x5061ef60af2fbf4U, 0x3102cdf6d752ddd4U,
  0xfbe8fe11f0f632deU, 0xb6d3608109da05edU, 0x45433e775518fa4eU, 0x11213b38470ef927U,
  0x21fe5bb811093bf9U, 0x20bfc0022f8f0eeU, 0x71b192bfb02ea17U, 0xe4f711d7da0c0c11U,
  0x6d00fa110ee39c09U, 0xf886da1d07ee8144U, 0x217cd6032100d303U, 0xfc2a0c1beae5fe04U,
  0x806fa1516eee302U, 0x4ff36f30fe60d15U, 0x16622f7f26140f66U, 0x2c0810055ff802faU,
  0x5010bf80ef9004bU, 0x7f0fc1a20fee190cU, 0x1b1df8f5480be94cU, 0x23f01d01ebfa00fcU,
  0xff08f205feeff90dU, 0xe8ed011309e4fb0cU, 0xf90cfef90d0cf200U, 0xddd4e2906f2fcfeU,
  0xfeee09ff810417f3U, 0xf7fcfa00fc05fefcU, 0xf316f6160708f8f2U, 0xf10af006e9f4f4f8U,
  0xfb12f50d0506f608U, 0xedba0adc2104f609U, 0x13f8da0bdaf23939U, 0x1200fffff7e9f3f0U,
  0x1fd20cedfffda23U, 0x98fa1afe30eee4ffU, 0x1fef2118d8030e7fU, 0x9fefef6f2fbf8faU,
  0xe8f90853ffdb00f1U, 0x81ea1701f72ad9d4U, 0xecf6f9ffe9fcfaddU, 0xfc09f823e9c70002U,
  0x7ed2218f4e0101dU, 0xe311f40b41d012eaU, 0x800bfc9020afaddU, 0xfe25f4f0cdeae1e4U,
  0xbadae70bef7a67f3U, 0x156b7938edf47f2cU, 0xbab31c04b2fc5c19U, 0xf71cfc0601e30507U,
  0xf602f2fdfef07fffU, 0x1090cfdeffa0a0bU, 0xcf30c00fff8f104U, 0xbf8f30cfaeb0de3U,
  0x1020315050dfcfbU, 0xfff503031115fc05U, 0x11907120204f101U, 0x18f9ef20f407fc09U,
  0x1a0cd802d59ecff7U, 0xdd2aed9fd13dc0aU, 0x7f2efeeb7420b9f2U, 0x84fb000017c8U,
  0x4e5900000c87U, 0xffffd7c700003873U, 0x615efffff3a2U, 0x2556ffffdb14U,
  0xffffe7ff00001cd5U, 0x37e300001e47U, 0xffffe7f5ffffdb1bU, 0x1a000045c7U,
  0x4c4500001dedU, 0x2828ffff89abU, 0xffffdf1100004f6bU, 0xffffe756fffffb6dU,
  0xffffb6a800003341U, 0x5b2500000830U, 0x3226ffffda37U, 0x808000053bcU,
  0x27fa0000119eU, 0xffffc49f000050b8U, 0xfffff59bffffff52U, 0x13cbffffdd88U,
  0x49f700003a74U, 0x446f00004a90U, 0xffffeee0fffff820U, 0xd02fe38f8141601U,
  0xf61902fd130407faU, 0x1711f31400f61d02U, 0x3ede2120bdef912U, 0xfe18ff03f6d34bfcU,
  0xe7edf402fb0903f9U, 0x3ebf41987f42cf4U, 0x84010610f1f40102U, 0x424f1405dfe417f5U,
  0xe2e381050ceff579U, 0x60beede0faa07f94U, 0xfd881900f0fa77e8U, 0xf6f90900fc14110dU,
  0xf01305070504f102U, 0xf50e03fcfbf60714U, 0xf0dcee200515f816U, 0xf44306ecf70e44f5U,
  0xe0ddfdea0dfd09f8U, 0x7fc3057f07f52808U, 0x4f81424c7f768fbU, 0x290e5515f1f504c8U,
  0xf5ddfd35dc81f617U, 0x5350037ff28be5f8U, 0xa912f5e6c37e0afbU, 0xfb8181dd007f8181U,
  0x881817f8181177fU, 0x7f817f7f817f7f96U, 0x7f81de7f811d7f0aU, 0x7f817f707f8197f0U,
  0x81f38181eb0a1181U, 0x83d511900b051affU, 0xea081037be0a8101U, 0x3b105d43e4016781U,
  0xcdcb0b4ddc4ef41cU, 0x17540f57e4b3f8f3U, 0xb00b01e07f81fbfdU, 0x8f10053020c18ffU,
  0x1711021bfc0709ffU, 0x251af20efcf60ae9U, 0xfade231412e4f6dfU, 0x2413fa05f7ce4c0eU,
  0xb041000f006f40aU, 0xfded020d7f0115f5U, 0x7f032837e6e6f9faU, 0x3e157a1ef8f35598U,
  0xeacd7e65e4f6ed81U, 0x37e51b1be7cfef7fU, 0x1a7fe8f003f481f6U, 0xf2fd10b0fd131401U,
  0x24130418f904f3edU, 0x321a0e1201f2feeaU, 0xeee91c15ff07f3e5U, 0x43150b15fcd11709U,
  0x22005fd06f2fbffU, 0xfffff9260000120eU, 0xfffffea4fffff397U, 0x34bfffff9a0U,
  0x1580000072fU, 0x10ffffff6e4U, 0xa5f0000113bU, 0xb42ffffe81dU,
  0xffffff0c00000413U, 0xffffefae00001fd6U, 0x7f7fffff64fU, 0xffffede4fffff5f3U,
  0xffffe057fffff97eU, 0xfffffd9ffffffb0bU, 0x4100000054fU, 0x3bbffffe265U,
  0xffffff35000027b3U, 0xffffee4d00000175U, 0xfffffb2800001811U, 0xfffff755fffff1adU,
  0xfffff90cfffffd3aU, 0xfffffda200001a6aU, 0xfffffdb2000000e8U, 0x13fa00002045U,
  0x7e9fffffe51U, 0xbe9e89cf803f513U, 0x1dee1a21feb90c03U, 0x391611fadf0be493U,
  0x381a2e04fe13fd36U, 0x41df819dce50f00U, 0x25f3ee7ffa19f400U, 0x8106fef8fdfd07fdU,
  0xf7090c05feff2308U, 0xeef60c0a0103fdffU, 0xf905fdfcfd4401fcU, 0xf307030b0af0ffffU,
  0xfc02f50c46ac01ccU, 0xec040b11f8270ef5U, 0xf2ee60e80a22f808U, 0xf81b25cf1f7f27ffU,
  0xd8061927f41efefeU, 0xf11b0eef320ca1daU, 0xfce7152bb4f51713U, 0xfb030b0955fcf20bU,
  0x47fc05fa0500fdffU, 0x1f30405050c03f7U, 0xfd0321fd03fe10f4U, 0xfc0afb0600fe137fU,
  0xf40af70809fcfbf8U, 0x381ef0f2ef60fbbU, 0x502f030f4bcfd0cU, 0xa311cf04fceeebf9U,
  0x407177409240004U, 0xbdf0d9dbd2e612f5U, 0x76ff9ce2e708dcf4U, 0xb0a020ad800fa15U,
  0xfffbfcf5f7fbf503U, 0xfb020d04f50b16U, 0x4017ff10104028dU, 0xf70903f805fdc1U,
  0xff1aee0101fb23f9U, 0xd5ee2c1a18852247U, 0xf81069ce21af1230U, 0xfe53da706603fbc7U,
  0x4281e6db0b04a5f4U, 0xe6fa04f4eed6d307U, 0x11ca15d7fce0dae7U, 0x7ffe01f7f706000dU,
  0xf9ff0912fffe1afbU, 0xf7f1fceb1bfef0fcU, 0xf9050a04f7150004U, 0xf2fff70a0202fc04U,
  0xff02fd02f99304e9U, 0xff19171bfae905fcU, 0xf60d091efa36fbf6U, 0xf1fe32ed0a7ffdd6U,
  0xce28f9c42b1a02f4U, 0xe2fbd202f0060f0cU, 0xe1501b5ddfafe04U, 0x1f502050a04faf9U,
  0x40303f804ff7f05U, 0xf5f201061407f904U, 0x309040104b103ffU, 0x3f5060a0afffafeU,
  0xf8faf803be3003d6U, 0xe90236f51d2be217U, 0xec25234527f50b8bU, 0xef0e45b8fac9e307U,
  0x1518f6e331fdc013U, 0x620000b7fefe3f5U, 0xf512e9e809fb0001U, 0xf4fcae00e70526fbU,
  0x8cce5810ad2fbe5U, 0xc6f59b22bd240f27U, 0x1d2bf686ebf40514U, 0xa8a4ed5d0d17e9ecU,
  0x2aff0672ede8053dU, 0xeed481eb31262b61U, 0xd1f0db85d644030bU, 0x3ded4f46c20d08edU,
  0xf43f232e324a76e4U, 0xd3e5aee4235b03d4U, 0x7efbc99920f31feU, 0xed03fe0609fcef18U,
  0xc3f60805f5f823faU, 0xf30c040f0707f300U, 0xf310abfbf3fffff5U, 0xfbfe0907f20a0bceU,
  0x619f70905fb8100U, 0xfe04030900ff8111U, 0x11b070207fd0213U, 0xfe0afa431903f2f8U,
  0xfc16fc0307030a04U, 0x3ff08060002fbf5U, 0x40703080002fdfeU, 0x3f6fafe7f04fd0eU,
  0x1e0a071107070bf1U, 0x1f704f11dfdf302U, 0xfe02e401060a010fU, 0xf9fa02000104f6b3U,
  0x111505ff02fc4202U, 0xe6ee32d80073f00fU, 0xf713f803812a023fU, 0xf70d0907de2596f0U,
  0x25f615030d0706ecU, 0x310f6ef360232fdU, 0xf2fe031dcafbd7f8U, 0x71a302811c2e00cU,
  0xeffac3eb036608bcU, 0x81b640320ef6f0e3U, 0x2bf738cf19cd3222U, 0x151afe4dfb4348eeU,
  0x442817d54c04044dU, 0xf7eef2e6f9fbf523U, 0xf5ee34d51edbf137U, 0x3e5101402173b45U,
  0x7fe810150ca61a24U, 0x211efddc0a1c3ff9U, 0xea20f4dd1fe4fc05U, 0xf007b9e0d022041fU,
  0x5f62df5e66a0d02U, 0x7fc0125b57df8e1U, 0x3374cecfcf25f601U, 0xf87f312a420cd8f9U,
  0x3847eff4fc091717U, 0xfe1d2bc5d8d2c469U, 0x3b70e1272e15f951U, 0xfe7fbcbd227fe1aU,
  0xfe7f110203141c09U, 0xf0f34f9eac65a0eU, 0x529b6ec0e1dd0fdU, 0x3cf7000309fff806U,
  0xf010ffd080881fdU, 0xf2f3fc08f70c03ffU, 0x17020501fc110602U, 0xfa02fcf508fefcffU,
  0xfe02f4010d3d09d6U, 0xe9e53802e183f45bU, 0xd56cadf583c1f370U, 0xa2fc98c9f125ef91U,
  0x348fda181cfdea7U, 0xd1f40108dd356a22U, 0xfb511e030e13d0a5U, 0xfb81eee1143bffffU,
  0xc1e6fb1dbff1f8f0U, 0xaf15e3d505fcd6fdU, 0x142110552203bce4U, 0x3fec3d1de6d61d1aU,
  0x44d4a0f2e91412f3U, 0x6cbf71501b3211eU, 0xeaf96419fa33fdfaU, 0xff0424070d47fee4U,
  0xe917ea011e2101faU, 0x3240cb814f6f906U, 0xe3ecff7fea10fc04U, 0xeb0015f6eb31d551U,
  0xf8c5c2190735f8b3U, 0x5f407f928ead42bU, 0x1c0b07340ef78102U, 0xe1090a081a00e901U,
  0x9f003ebd9dffa25U, 0x1540100007fb251aU, 0x2e060f4617f3e2a2U, 0x30dce30213d9d345U,
  0x1ee8b6cd2106ff7bU, 0xde0819dc0b2fa73aU, 0xa44c7feffb1f1cd3U, 0xf019dc27f6030ecaU,
  0xef0e83d2bdfe927U, 0x7f0df7d2080005e0U, 0x35f106d622dcd113U, 0xbb1e200d140f05feU,
  0x6803d12f1bf50c0eU, 0x5d6fcc71d2105efU, 0xf4ecaf04f94311f3U, 0x97f71040ed0cdf35U,
  0xecd38b2eaf51b0fU, 0xaa2a40f72ecafdf3U, 0x1799cd087f280be8U, 0xfe161139f9d1efeeU,
  0xe82fc0132a25f2c7U, 0x3ba46e100411e70cU, 0xbc42e51a2a170cdfU, 0x2d8113cdfe1406d9U,
  0x2ffb11fff1ef02c1U, 0xeda01652c13f229U, 0xebdc463fe48be746U, 0xe9cfc70aba2d1ed5U,
  0xbede552bc6e8152dU, 0xd0eff3153bd506f3U, 0xc7f1bbb15080d03U, 0xf5f435e8130012eeU,
  0xc5a2c551434000eU, 0xf81dee94ceee90eU, 0xc01d07012a3207e6U, 0xc1082c4a0cfff3f1U,
  0x19c9e21cd612f871U, 0xf919f4f9c4fc07efU, 0xf6dcd9081b0d05f4U, 0x515e8fbf6fd0308U,
  0xeccfb2ddfbefdaa6U, 0xfaefe706ded6c928U, 0x97fed1010fe1b1cU, 0x150f37f3f3cad8ddU,
  0x10233b20274209eeU, 0xf56103ea2d3cdaffU, 0xdec5e3c42012dc0cU, 0x2081f9e72dfcd819U,
  0x230de6b33f0511f4U, 0x4de13f0fce3087fU, 0x1c5dcea42060e6ccU, 0xf4fa1bfb4b0adfb1U,
  0x19bff511ddfb0643U, 0x193deb1f00e9ff2eU, 0xe54bab09d6f71ceaU, 0xb011ec1d802130cU,
  0x22e2ea2fec030bd3U, 0xd3e1bcf52bf7e703U, 0x5f2e1db133bd3e2U, 0x5f044b04fa00c414U,
  0x8f257fcee92e013dU, 0xee10bfb103233f3U, 0x29d998ddf3350029U, 0xdc1562eb081139f5U,
  0x34e0813207df24cdU, 0x51cfcb9e8570311U, 0x1239060766fd2f11U, 0xfc060309d8f9fb07U,
  0xd01fbeafb05fffdU, 0xf9f802f40411fbfcU, 0xfbfd1cfc08f60950U, 0x2fcfdfcfdfc17dfU,
  0xfa81f2fafff60c07U, 0xd50bd014f4280e24U, 0x23d51005f816600dU, 0x1e050c9f1421ea36U,
  0x5d604fcef39a008U, 0xb0229fa8106efbdU, 0xf60ef1f224ec00eaU, 0x4b19e6fb00201a0dU,
  0xb9fd071313039cf3U, 0xff16e809faf40100U, 0xfd02a502012afe0dU, 0xfbe7f901ff14fcd4U,
  0xfe12e210fd3d81f1U, 0x3f9092cfcf006d6U, 0xe0efe0e111b0507U, 0xf2100208ff18e02bU,
  0x6eaff1f10170b14U, 0x6ff7fea033ef602U, 0x110f20ed000d07d4U, 0x4fdf815da0e0f14U,
  0xef0af2ed0c17fd05U, 0xef15f40304fe0a03U, 0xfcfbe3030ef50850U, 0xf9f6fbeffe11fb01U,
  0x67ff8f9f4eb3503U, 0xf41056f1dcbf0754U, 0x197de85e3703f3e9U, 0xd00f00c1192fce2bU,
  0xab42cf719fd81eeU, 0x7dfeea92c071d06U, 0x11fc0df326140f24U, 0x8301fe12f608fc15U,
  0xf030c1806f7cf00U, 0x6fff3e229ffeafeU, 0xf30809f2ffd8f707U, 0xee130005e61502f0U,
  0xb0b09f5007ff7eeU, 0x9466082528f728U, 0x142b1fea244b11e6U, 0x4d54afbff27f4547U,
  0xd0bc01351203a102U, 0xb1f33efa3c781009U, 0x3804ae27dc220de5U, 0xd2003ee20040d37U,
  0xec332dc67fe1f3beU, 0x2ca8bbeaf828d7d2U, 0x1526dd06331acfc9U, 0x6233db8bc0e2a04U,
  0xe5e6d2ecef064ad3U, 0xf9f801fa0eeb081eU, 0x2de22a06e6150103U, 0xfa10daec12eb001dU,
  0x116fde6f11dcdcfU, 0xdbf10ff3bdfb2670U, 0x50af70504037ffaU, 0x40614fd9403fe09U,
  0xd1fb13170ff30909U, 0x802faea41e90904U, 0x10e2e07f917fb22U, 0xf9f4f8fef81ce77fU,
  0x4020800f9fcbe0dU, 0x38000026a1U, 0xffffff0700001e65U, 0xffffff86000042cfU,
  0xffffffbc00002493U, 0xffffffde00001c8dU, 0x859fffff7b1U, 0xfffffed0000022a8U,
  0xfffffed5fffff8a6U, 0xfffffd1100001450U, 0x1e9e00001bd0U, 0xab0000092cU,
  0xfffff827ffffe8e4U, 0xbbd00001d20U, 0xff200002460U, 0x170c000021e5U,
  0x20c4000022a4U, 0xca4000021daU, 0xfffff3cc00002471U, 0x7900001126U,
  0xfffffa59000007bbU, 0xfffffbfd00000e25U, 0xfffffd720000088eU, 0xfffffc7400003403U,
  0xffffff1c0000074fU, 0x7fd5dce40012f7f9U, 0x603111010de18e8U, 0x120d0cf9fa11ff12U,
  0x10bfafd0c0e0703U, 0x9e6f414f4050a08U, 0x8fcfd040615f406U, 0xb041c14f2f40d00U,
  0x4fefef111021702U, 0xf1030df8e602f4f6U, 0xadb7ec090fa5871cU, 0xbee03f7f11bec03U,
  0xbff200b8db81fa11U, 0x1cf2f218264af5f7U, 0x2211dd348df305e7U, 0xe3e31bdfc9213800U,
  0x19e7c1f22bea53edU, 0xf5c623075dedfa81U, 0x374d3336071df191U, 0x90fff12f808fe02U,
  0xdfc0d08030df604U, 0x5101600180a02U, 0x171bf181a1080283U, 0x26c802fff7abff0bU,
  0xbfbbf14ed0e0308U, 0xf3ef062021cd1406U, 0x7100413e1157f29U, 0x3c0010cfcaf234f8U,
  0xfc27d0f6fd210bdfU, 0xfc34f412e5f9f9f5U, 0x8100e1ff81c01eeU, 0xe67f0301103ac7feU,
  0x3dddf33d41ee5188U, 0xedfdd4d502133afcU, 0x27ef1bf7f6171900U, 0xc50b9fe2c6fb3e2cU,
  0x260f081d12f7393bU, 0xe3b30781e4c5ebe3U, 0x2decc703071f1a18U, 0x4ab5fd0d4b3c22a4U,
  0xcae0481809eee606U, 0xe03eb9e904e216U, 0x21ec08e8f8cdd9ebU, 0x8001c1703060a0bU,
  0x251efe05fe0c24fcU, 0x1918f5feda0d1110U, 0x20ff6e7440104ebU, 0x3dfbf21804f10cf7U,
  0xed1881ff03eff621U, 0xeff8dcfa1ed1f7f3U, 0xef17e415cd4e4234U, 0x19d6ed291cf71bffU,
  0xb0d7fd5fd170df5U, 0x28cde2f8fbee1211U, 0x2005fc0c0219f515U, 0xc318d081e4e8ea15U,
  0xce12e905e8fd1c0aU, 0xf7e5fee0f8f60dedU, 0xfacb25e9dbdae7e3U, 0xdfeb17fdecdef605U,
  0xe1e4d5eafde6ecf2U, 0xf52128b617137fc3U, 0xb8e71627c9f753U, 0xf71c5dcbc7ea0719U,
  0x2ced60b08f615f8U, 0xf337eafd2ad8202dU, 0x3d1c16033c080afeU, 0x3f702070a0c141fU,
  0xf509170e09defceeU, 0xf7fe06edff012008U, 0x81e0f010fbe0de0eU, 0x21201625f50cec14U,
  0x3e03f108eeef0817U, 0xd80d024cfae95146U, 0x612d06237f0aa330U, 0xdc0a26253d560ffdU,
  0xd827c7cbb501f9d4U, 0x6122a9fe3fce0c49U, 0x6019f2feccffe210U, 0x600e6eefc080603U,
  0xf006fd23fbe010f5U, 0x121308e912031509U, 0x38d7f21df5e6c617U, 0x4a10101bfa07e501U,
  0x81f1f60411d309f0U, 0xe624b53532f4dbbfU, 0xd225290cb827d304U, 0x442b36c7dbf2177fU,
  0x17eab21f0c17ef1bU, 0xe2dfe20708fddbe5U, 0x1060c0c1ff3fe1cU, 0xf40c23814304e8eaU,
  0x27fff8ef40e0bbddU, 0x1d0afe050232fdddU, 0x2011dc2a1c33fc1fU, 0xff0018f1d809cfd6U,
  0x2cca092b1b0ff81fU, 0x12f626edff050302U, 0x37def4330e29ecf6U, 0xd681fd201b0ad122U,
  0xf5feed0513fbfa04U, 0xff717e827f410feU, 0xf5f40ffbfaf416f6U, 0x111ff2f121ad0b0bU,
  0xded7c7e8f3f40b22U, 0xedc8d93bfab60781U, 0x3e419100cec1dU, 0x1b1bf9031e154614U,
  0xd0229261d311aU, 0xece7fcfc02078d7fU, 0xf4fd3bfaf8e60208U, 0x10f9d500d40ae1e7U,
  0xf533e10a04f8070cU, 0xfb0ffdf9e828d2f6U, 0xfdf10015b11416f2U, 0xe1e910ac0d6f2f0eU,
  0x3f0d481fe1eeb86U, 0x2096f6322c396101U, 0xddd4c42b20e2ef1aU, 0xc20f33301250d1fU,
  0xd5fa08e1f9f4ced9U, 0xe0d7210edcf6e5f6U, 0xebfe0cfa16e5ef09U, 0xfaee10edf5ff0cf2U,
  0x7fed9fdfaf7f3f3U, 0xc7de0d7f1dfa0502U, 0xe2dce9faf0ee2325U, 0x9777fc3f43e22eeU,
  0x31ff46eaa3911c3bU, 0xd01213148c3fed0dU, 0xf707def7d6f30601U, 0xf4fde41f0ef5fb21U,
  0xd624f5fc05f7ed14U, 0x162cbe11fddaebd3U, 0xf52501e701f7ec7fU, 0xdef8fe609ee9f6e0U,
  0xe7f5071305e01610U, 0x27ee4a268eef30e4U, 0xa3ffc0d0a0fa600U, 0xe2fc41cfefed0bf9U,
  0xf2e2f96f070ef3bfU, 0xb0edfe922007ffaU, 0xf0f511eef5e405f4U, 0x1aefd0fa11f1ee0eU,
  0x405e81feabde7d3U, 0x6d52b36f440e9eaU, 0x13a506f6cb07cdc9U, 0x120912dbf50211fbU,
  0x5dc02ef03f8edeeU, 0x81332f7eaeb7fd8U, 0xf42a0316fef90f4aU, 0x1c1296cd9df31e71U,
  0x207d090643f21f7fU, 0x34e2ef19ddeb25c5U, 0x3714af5616171732U, 0xa3ddf26e64cd5edU,
  0x19180803f8e1046eU, 0x1c1de837d0200e0eU, 0x7e4fce324d9811cU, 0xe20003140e0be0f2U,
  0xfbf217110207fc0eU, 0x2fef504010403f2U, 0xd23f4ec08f3feefU, 0xdb1c1213960d1716U,
  0xb4a9edd22ab85ac3U, 0xdfee14e93cd2da14U, 0xce03d8170cc230fdU, 0x363e1c0658ee4a2fU,
  0xf81709ff00c37fc4U, 0xd2bcf329d534f0f3U, 0xc902bb3430147f15U, 0x60ecd40925f0120fU,
  0x4bfd0ae3d41130ceU, 0x2ce5d4034dcbe9dfU, 0x2011c46bc158e9d8U, 0xc18101fade18c1d3U,
  0xf6ff08fc36faf7efU, 0xe80b01eae8fcf76aU, 0x1015d223fc181023U, 0x10f1e6ea0a274708U,
  0xe15e7f511130aefU, 0xea4addf100fce80aU, 0x287f13fb15f8f1b7U, 0x208fe300f3dd3d6U,
  0x708bc1c1406eb1eU, 0xd748090a111fc5f2U, 0x19e9382301280d34U, 0x29ef6404043b7f3fU,
  0x6caeeaf63ab1c5e2U, 0x361510e43578ddfeU, 0x1ef8defa2a262a3fU, 0xc180d0d3406bf31U,
  0xf5021c120527bd20U, 0xc85e4e41e7ecfcebU, 0xbecdf2dc81ffd6c4U, 0x9ff900b5f5c2ef40U,
  0x34f9040b0ef70b12U, 0xdfa4c91300154cf1U, 0x10d906f00c14ead2U, 0xf6061bff0b0a9b7fU,
  0x268367061fbeea4eU, 0x1905a3eea530202dU, 0x1a1eefe2180e3117U, 0xe043f0f3212818faU,
  0x2dfa1607b1e9e6e3U, 0xe932faeedc18cac7U, 0x17f92af97f2119f4U, 0xd0525def3240728U,
  0xebe90ff9ebf8f6e4U, 0x2af8fd0bfde2df0eU, 0xea1cedfff2f62e09U, 0xeceadce720edf301U,
  0xed0ffb09ca0b7f5dU, 0xfedceef1de702e0U, 0x11075bff07fa1c01U, 0xf4d5e63417f8d3cbU,
  0x122101161c211fe8U, 0x900e22fcd02201fU, 0x10db0ef5edfe81e8U, 0xdd010afaf9220421U,
  0xfefb0700f5e9f6f1U, 0xe10b04fb050d0b14U, 0xf51500f9eaee0b0fU, 0xe4e95faf362416ffU,
  0x8a35d90fbcc17f05U, 0x4fd1cbff08fa101cU, 0x180a0b1bf30c1406U, 0x1de104f90b02f82bU,
  0xe5f1d80c28fcfe2fU, 0x2425c920faf01f13U, 0xf9bc2bece3e1ec24U, 0xca04111781f2053cU,
  0x180b1c1f2709fb1dU, 0xffde851e10383bedU, 0xad4041708132ffbU, 0xe8e51fe013091a16U,
  0x2f811703f3f6e0faU, 0x1827e4fbe611f6d7U, 0xf00c020903c3d1feU, 0xdddcebb717fbf5e3U,
  0xce5107d706f81e0eU, 0x510224fb55e7fbe5U, 0xe00560e7d7f8d8d1U, 0xee2060ae0ae5dc7fU,
  0xfb0cf106eced26fcU, 0x2303f92237140e54U, 0xf9f0e4fbfa324acdU, 0x11e9810925663237U,
  0xf10f0a00c26d19c0U, 0x1bf9fe2c12f5f93bU, 0x1707d112fb0806fdU, 0xf8e1f81cff032f17U,
  0xe170afd11162a35U, 0x19f51c2808f9fd13U, 0x251d15fdfd1a3e19U, 0x2112f40ede25ff25U,
  0xec0205e7810f04d3U, 0x6a1ddb12180920fcU, 0xf00b6810f1eaf239U, 0xdfdcea1221f57f9fU,
  0x26f8cffa04d40eeeU, 0xe7f65e0eeb09fcdcU, 0x19c3ec09f2fb000eU, 0xf20cef03f8d2df06U,
  0xf90307165a0f0df0U, 0xae917e2ebf709f3U, 0x8e5fdc9f233e8faU, 0xec7f091a282809cbU,
  0xced0eff0bfbe4faU, 0xd1105ec29f0ebfbU, 0xdf014ee12e01810U, 0xf8ee189c0b43425cU,
  0xead10253fd29b3bbU, 0xee0507ec224281d2U, 0xe5dba630f3e60219U, 0x212adf371a030913U,
  0xfafdfe040b160d0aU, 0x41e27fdd042ee72eU, 0x2f4fef2509f7bfcdU, 0xc3102821ff4b09f1U,
  0x8dfd7140513e816U, 0xb164ee0ef911191bU, 0xecfb0b150c07ffeeU, 0xdf03344499c1c5bU,
  0x4b75c9922b3bccc5U, 0x1ce5c6813651c0a3U, 0x1213f622fe24f3f9U, 0xedcc1be1c8052f09U,
  0x3fdeeff1f49df3cU, 0x145a000005edU, 0xa1300004d1eU, 0xc08ffffd7ddU,
  0xffffd1ed0000bf07U, 0xbc8600001d0dU, 0xffffef8bfffffb59U, 0xfffffe08ffffb163U,
  0x739f000046deU, 0x229100002f91U, 0x306300002badU, 0x28e0000043a9U,
  0xa84fffff7a0U, 0x7b000000f2cU, 0xffffe99f000040a2U, 0x122000001730U,
  0xffffdffd000023c4U, 0x24ef00003819U, 0xfffff4ce00000ad2U, 0xffffd6da00005526U,
  0x3dee000021e3U, 0xffffc405ffffb32eU, 0x296fffffa469U, 0xe3c000025aaU,
  0xffffe38600000176U, 0xff090e1505fafc08U, 0x2ff08dc1920fcdfU, 0xd703f605090cfdf8U,
  0xe4f003e7f2e5ffecU, 0xc8d902fcfef602fbU, 0xf918fcfef8241decU, 0x87fb881f7cc0a01U,
  0x181e819a7f4ddf01U, 0xb530fc233d04e815U, 0xb06f0dc58cb3ebdbU, 0xe6dfe8f706d36518U,
  0x2a7fdbe30307d3d4U, 0x150e030902c60106U, 0xfd0afa0c3113fb0aU, 0xb40eeb0b10f6e70bU,
  0xd61610d6dfc208eaU, 0xe5d2f6f8eef22118U, 0xfc17ff07161409e9U, 0x81151fe5fac60f04U,
  0x190efadbf90fe1a2U, 0xdf1ef718f8ffc881U, 0xefdd3b9fc949e1deU, 0xd498f2e1cfe9d902U,
  0x25b8e2d50879d0d2U, 0xf2b581b881f57f81U, 0x8181c39012477febU, 0x817f7f817f8181fcU,
  0xa47ff59a7f7f81U, 0x8193817f7f7f0f7fU, 0x7f1e81f381eb8181U, 0x600defe7f6b20aeeU,
  0xaf304bce4d6e17fU, 0xbb1cfb0020f9b53bU, 0xd59c528fa559e4cdU, 0xb981e5f2d3f54c1cU,
  0x21a4197ff181c1d5U, 0xf6f2c7f6fda5ffffU, 0xfe0614c6d2b5eceaU, 0xdbe3eef80812f2e7U,
  0x80d03e9f514f4fbU, 0xf817f6f400f0e8f7U, 0xfaf9000a0516f0f7U, 0xf6c8a7d0ff81f4e2U,
  0x80f4e819581e9feU, 0xb453fe0644fbcc1fU, 0x7f7f4f7f81b6be09U, 0x96a0e20beef59b24U,
  0x45aec2ecf41fb1e7U, 0xfe1cee000b402feU, 0xff0d26fbe6efec16U, 0x24fef8fbfa10d60bU,
  0xd1020c2f706fa0dU, 0x103efaf4e9f78103U, 0x17f105040bdbd8d5U, 0xfffff58e00001ecbU,
  0xccd00004b8bU, 0x35f8000020a0U, 0x2a3ffffffd6U, 0x20b000002f0U,
  0xffffffb700000218U, 0x42d00001ef3U, 0x11ee000012a8U, 0xdb2000005b9U,
  0xffffecc300000788U, 0xfffff3af00000841U, 0x62efffff4b0U, 0x4c00000a83U,
  0x1e74ffffef5cU, 0xffffe775000025c9U, 0x6d2fffffc92U, 0x34cfffff016U,
  0xffffff38fffffc07U, 0x1016fffff1f6U, 0x85200004580U, 0x19660000110dU,
  0x923fffffc7fU, 0x924fffff9b6U, 0xffffe5f300000744U, 0xf7bce9fff606e822U,
  0xea7fc7fdf500eff3U, 0x1058801460ddff8U, 0xedbfbc2019f019eaU, 0x1174e3e5fd0f12f4U,
  0x43ead90cffec9143U, 0xb487f4d0388e0e0U, 0x30cd003b1133e215U, 0xfaa2f5fad323c213U,
  0x38dc3f08c932e9feU, 0xfb4d3fa310a1ae3U, 0x744ee1b1c0fe0d0U, 0x20c2c10b081cd721U,
  0xe052f7fe07fcd5feU, 0x4f536e10323227aU, 0x1781e3e9871ebbefU, 0x5e1fe5228d321df8U,
  0xbf3617ac34dadac7U, 0xc29bdfcdc03ecU, 0x3df72141eb276602U, 0x2f2ec0edefbd6ecU,
  0x1c2b5008fe81e0U, 0xf1213e7ffb52707U, 0x19040616eff2e6e6U, 0x1510a8e30b031505U,
  0x18d8072214093709U, 0xdf131cfaef123628U, 0xf8f80fe5fa0f082bU, 0xf4027fae9a7f1411U,
  0x120a13cb24132317U, 0xf3a716f1ff812227U, 0xcaffc644f9f55e09U, 0xc2d02aeae619013bU,
  0xacf23ee31efbfde4U, 0xbfdf2053cfeb0f17U, 0xb7fa04e901021523U, 0x461a07080cf52618U,
  0xd6d6ef310048f212U, 0xdadae6ef813be7caU, 0xf0fd07ed0e23d911U, 0xfa13180db01ca007U,
  0xccecb1afe4afff0dU, 0xff02fde209fd00faU, 0xe13fa2af440fc7fU, 0x70e0b07eefe00cdU,
  0x705f9fbf81df4fbU, 0xfe06edec0afee21eU, 0xf104d304ff10f50fU, 0xf41b220e050a1e11U,
  0x811af3e11509010aU, 0xe1724f00def260aU, 0xbcf7fb180afdc3ebU, 0xffe16a64c918feffU,
  0x47d6cceef8e25508U, 0xa7f5f8de133ef706U, 0x660b8fd4c7278138U, 0x341434581d193605U,
  0x53dde2ff122a0b2aU, 0xf68f822eb3214e1U, 0x45f7f8f108e725f0U, 0xe1f9ebdb02e90518U,
  0xc1af741e2fb2cf4U, 0xcefe0306d703df17U, 0x13c61bf208812b0cU, 0xb36eee212010700U,
  0xe20eeef2f501cd2eU, 0x107f54110700d724U, 0xcd1a072669842310U, 0x25cec8ee1ad82a19U,
  0xd618151645fbe993U, 0x601b7f605e48828U, 0xfff5f52ce91424f7U, 0xfb09d92402000502U,
  0x976d1915ee0e21f4U, 0x1e7520311f1062cU, 0xf71419feeadbc2ecU, 0xfd29c081fff42715U,
  0xbe2f0d400f42be3U, 0xeb7fb3e4e6ed0bc1U, 0xe020d6d2e4136612U, 0x12030acff317c7U,
  0xf616095a681d070cU, 0xcfeb04fef9322afcU, 0x3b974514f7fba820U, 0x60210e9071801eaU,
  0x1925f803e108e906U, 0x11fe2a1f22f522fcU, 0x2403d5e8132f0bc8U, 0xd2f8030fdafd190aU,
  0xe681e1f9caf70200U, 0x16a1e3f0dd150cf4U, 0x1c09e6c60f7ff3feU, 0xecf1ff3905e80feeU,
  0x20d50d4317e0f8fdU, 0xee0ffd2813f359edU, 0xecaa030bf1f416f2U, 0x711202fdfe13f708U,
  0xf6186a025b090e15U, 0x30309810b0501f5U, 0xfffdce0810f40103U, 0xcfef1f906f3f30eU,
  0xcecea05f868e906U, 0x1c7fea41f8f8f131U, 0xc2b4000ae1fad9e3U, 0x413d220f6eff9e7U,
  0x2df7f34949fd9a06U, 0xe62226ebfc4b0de4U, 0x1af20ff5e1e002f6U, 0xee0b153eeef9f2eaU,
  0x689c0e00ebf91802U, 0xf10ae4e32119f113U, 0xa23f0b3716f15109U, 0xedfa07bef3f3f3f9U,
  0xd7f0d1026e7300cU, 0x18f7f7000d12f2f6U, 0x1200f12a0101ef81U, 0xea08d8f4df09fd60U,
  0xe5fae30217eb0cedU, 0xe090afa09fcf4e8U, 0x8e40d69f50c0feaU, 0xfcb502c2f3d40fd5U,
  0xdbc5e0d00b1313f7U, 0xc3be142e200e37e9U, 0xf2d6f71b4ab41ffeU, 0xc0ccf0d4b2230f81U,
  0xeae3b809faf4f1e4U, 0x1cbf4edd1c7d7ebU, 0xf304e4de15f0f3f0U, 0xd120412d3081a0cU,
  0x11d0f1d4c2813af5U, 0x3009ecc3231ad2e8U, 0x332c40f61520d00bU, 0xdff90506140be10bU,
  0xf0db16e3040343e3U, 0xff0e91c20edd148U, 0xd0edf1c2ecf70500U, 0xf1bffef5e9ed0a25U,
  0xdee9ffc11203811eU, 0x217fee202026092bU, 0xc4af1459d8aa2e11U, 0x1993f7020609dcd7U,
  0xf809eca3bdfae090U, 0xa33109cd16febddaU, 0xffb318fde4fcf3cfU, 0x3f13481f6fa5a33U,
  0x5a0a00f61bee23e7U, 0x1e4425d30bb7f1dfU, 0x31fbd9e904180ff7U, 0x4e5f8bf0bf7e5d8U,
  0xcdef0b18cefa3c4aU, 0xfae2dffa5aedc5U, 0xf9fcfd2438b4e610U, 0xe3fef9aafe1940e6U,
  0xe2a80e2414f61081U, 0xf19295027b2a738U, 0xd11aeef5f0f30ed0U, 0x6e52adeddf103e7U,
  0xe311fe321e0fc9feU, 0x29e2c50909ff371aU, 0xc103dfb30e1d6efU, 0x10dae1ef1111080bU,
  0x7f05ddf3fc06edddU, 0xeee67f156ca4eabfU, 0xeb01ebf41fcbda12U, 0x2c5ce0ee4edc37e4U,
  0xf0edf60003f71efeU, 0x93725fbe810090fU, 0x1516f5d70b140218U, 0xfb0cd6ec280deb81U,
  0x2202fe16f5efe103U, 0xf3f2ec0cffe2ffcdU, 0xda0dd5f3dc06eef2U, 0x9ecfde707fd0df7U,
  0xf4cd2d19de000afaU, 0x10d80710f74b16dcU, 0xfdfb1c1c3bfd300cU, 0xe637d6fb01f4160aU,
  0xa440b5ea7ff70859U, 0x4b1ed4ffd9cbff10U, 0x28092cfde216d719U, 0x9606220b05f20cfcU,
  0xe0b8ec0931b4f4fdU, 0xc4c82d0177aad83fU, 0x4cd818cb5b05d6cdU, 0x60c2929cf3564fcU,
  0x113747f0f7e0ad8U, 0x6e500d60df10300U, 0x1d001527eedd0c81U, 0xbf60ef723f60efdU,
  0x17e3f5e90137e40bU, 0xeff7fdcfe9e0530cU, 0xf5f81911f8e6070fU, 0xe0910f80f0806eeU,
  0x926faf5091bf4fcU, 0xe0dc8c7100c24dbU, 0xdefd7ffed4f4d0ecU, 0xda2b2cd8e96416a7U,
  0xe9ddf82f0c08fe1bU, 0xeee33fc8e5271814U, 0xf838052b06fc1205U, 0x427f1e102bf6bb1aU,
  0x1226f6f52d2707e6U, 0xe00b03f0161608c3U, 0x2cebd212f509f063U, 0x11210c48d3f62132U,
  0xe1cdfb0e11e17fedU, 0xe3fdb814022be6a8U, 0x552aeeb9c6c4d5f6U, 0xeb1d04a031f8db28U,
  0x33dbe65d4ae22085U, 0xde10e70011b1d021U, 0xfe0af626f411d6feU, 0x2eca02fafed6bcf4U,
  0xf511be44f9071de5U, 0xfdcffdfa140a177fU, 0x1bf51c02e31511e8U, 0x305f9e78106fc06U,
  0x1b10fceafdf52801U, 0xec09edf7de0afcf9U, 0x210f2dfecffd0f7U, 0x6ffda0ae53112fdU,
  0xb050e0004fe0ceeU, 0x3fe156ffd077f19U, 0x222c240bf7fb4013U, 0xe01ce32213f3f606U,
  0xf7b60c1ff409f6f2U, 0x35a93a4c0019f514U, 0xe7d8e6f1f7dff81dU, 0xffe92b0b161ad6feU,
  0xc17f2f61f3324U, 0x2f40ce3de810b19U, 0x1c1806f0f1b220e6U, 0x2ef70b1406e0d6f8U,
  0x2505e1f161e603dfU, 0xeafdfeebba0c1003U, 0x132801f7db050fedU, 0xef61806181c0208U,
  0xddfdfa2dc3030bf7U, 0xfc7fff12fc001606U, 0x44eb11ee16eb0b18U, 0x112707d80c04810aU,
  0xd6ee0be9f902e1fcU, 0xe71609f9d2e6f302U, 0x1a1805fb0209f305U, 0xfa0c0ce711e5fbfeU,
  0x1a0907f2e5f71f16U, 0xebe3fcc724f1dc56U, 0x31deec9c91cfd29U, 0xb1afe30702e38b07U,
  0xf6fa7fc6ee1501eeU, 0xcb6ae901f90105e6U, 0xf51d26f803f03bd6U, 0xee59027f2ef34ff6U,
  0x1d0af4cee6f306fdU, 0xdceddbfe3e03d822U, 0xf404233b2804def8U, 0x1d5093911ce221aU,
  0x9f2aaee0c010e16U, 0x6816e0052364ef17U, 0x50a63177f25d80cU, 0xd0da0ab42f1acef4U,
  0xcd13e0715fcde5dU, 0x10b5bf10e90b03e2U, 0x3be40012086b08f2U, 0xe9f40c29d4fb0081U,
  0xe54efdf500e9200fU, 0xb11f8fb230bea42U, 0x170bf8ea1b2c2a2aU, 0x4001210fb26eedeU,
  0xfa3206c3eb021805U, 0x14fb0c18b67f22ccU, 0x162ced441ef44004U, 0x717f512f6fcf805U,
  0x271014d4cceff22fU, 0x46e0d1f90117fa3cU, 0xb7082bff05082937U, 0xe6e51f141e18ee07U,
  0xf2ea02f000fb2105U, 0xaf600f40d51fc23U, 0x111301fdedd523f3U, 0x14f0f80900f7fa02U,
  0x1e03f804811000f0U, 0xf406e6f42d46ff1aU, 0xbcc9dda408ed172cU, 0x271ca63ef2e7a999U,
  0x81030bb9abf2d714U, 0xe5b13415c13116bcU, 0x441319320fdd0c71U, 0xfffffcfa00002d32U,
  0x26f4fffffd16U, 0x12270000188aU, 0x2ffffffc3eU, 0xfffff84d00002d3fU,
  0x4d3fffffc47U, 0x10f1000028e5U, 0xfffffb02000004c5U, 0xfffffc4a000021d2U,
  0xfffff93dfffffa69U, 0x66a00001fe4U, 0xfffffa7a00001a3aU, 0xffffed3f00002590U,
  0x102700001238U, 0x67600001898U, 0xfffffd8bfffffab5U, 0xfffffffe00001063U,
  0xfffffbca00002b2bU, 0x27e00001262U, 0x44d00000b60U, 0xfffff67300001a1cU,
  0xfffff9a8fffffefbU, 0xfffffc400000269bU, 0x1a6200000af3U, 0xdd0b01ddfade4af4U,
  0x2c21921a02fbffe3U, 0x11b1088113fafed6U, 0xfaff10fbeff22408U, 0xfafbf0da01f8ecffU,
  0xfb0d4efd15250400U, 0xe0fa1f2d7f2f22e9U, 0x40afac4184cff11U, 0xfb05dbfeed0fe148U,
  0x4fdd12decfb35efU, 0xe5eff9e4f5e70d05U, 0x23e32bf8eaf3e31dU, 0x1736fcef0048011bU,
  0xa0b309b404e81ac9U, 0x302141428f653ffU, 0x424500ef3828f802U, 0x4c4ab6ea0af11c37U,
  0xf90b98c781636ddaU, 0xea09e6cd067f14abU, 0x132f0e1614ead921U, 0x30e00f91b091115U,
  0xf1080218fb0c32eeU, 0xf90ffb1008ec06faU, 0xdf060aef01f605c4U, 0xf3e673f125188114U,
  0xc7e345e5e8d7e404U, 0xfcfef22af9043f06U, 0xe6ddf2ebee0b25ffU, 0xf8fbf019fbff01e1U,
  0x1132cfbfd0008f1U, 0x499c0df7fad5eae6U, 0xeb03edea1cf61f5cU, 0xe1021afdf0010834U,
  0x3e410e3d00d42212U, 0x16f6f7c2dc2207ffU, 0xebda22ebde81d8c9U, 0xeca91405e3100dd6U,
  0x2705dc36064e1c07U, 0x73af813d7be5b16U, 0x1b1ddfe61686cb3cU, 0x147ff5643f7b0c38U,
  0xe524d9743c042c2fU, 0xea0c12090ef9c503U, 0x81dc2a13e7f40816U, 0xf71dee1c06f4fe05U,
  0xf900e7f8010812faU, 0xf6eb0202fa02f50aU, 0xfef8f5010afefd0dU, 0xd9c6f2314c63f8b4U,
  0x152ee651e8435d1fU, 0x3cc100a1604d3baU, 0xe027dbe41926595dU, 0xffac7fcf2606f3feU,
  0xf00f12f913d13318U, 0xf0e7350d070119fcU, 0xe9e210b7c52f00c4U, 0xeef50b0def38c0d4U,
  0xa0e1317fc55efcbU, 0xedf37f0c29414322U, 0xbae219ebb8e0c9f3U, 0x1f9f7b711e49c4eU,
  0xabed0a2b0bdfaab3U, 0x17baff18f91514f6U, 0xe67fecfefbe136e6U, 0x182510fd06d20fcbU,
  0xfbe61127a2032913U, 0x132dfd816aef313cU, 0x11aef36e2e4bf19U, 0xbf10508072adf1eU,
  0xe70817fb001a58f6U, 0x4c1f7f803ebfdf6U, 0xfa2610d7f2e9dee0U, 0xd6ea1a7fdbee04a1U,
  0xf9e217fb112516c1U, 0x120004d5151f2201U, 0xfa39ff16fbf81009U, 0xf9f9f90617e1fc12U,
  0x20eb2cfc12f7e902U, 0x34e9f641fcf6fdU, 0x2bf9087852a7467bU, 0x280f1e121ffec50cU,
  0xfcf8122214a11181U, 0x3a3107014fcc271cU, 0x20eaead9dcf4d3ffU, 0xd2bccaeb3171f9edU,
  0xb5648c028fb3025U, 0x21edea35e5f6f0d0U, 0xe5e065cddc23e1d6U, 0xf70b4a7f070cf615U,
  0xf2dd2ce444f0e517U, 0xede8fcfc0c39fb1eU, 0xb06e314021f0203U, 0xf817131ddeffd416U,
  0xef5e318ba14bbf9U, 0x7fc43af7d3d8edffU, 0xe2b10df4ccf8c9efU, 0xb721f26e26fd0dfaU,
  0x1f0ec022cbb161aU, 0xdb8fd5ee9cd0310U, 0x50220e09e197ff4U, 0xc2ed3466f6caf8edU,
  0xd9e0fedb1b1914d8U, 0xfd09eef8d4060e03U, 0xffe536f3372422f0U, 0xe24b1cb781a5f200U,
  0xd704e0eb09d2f7e7U, 0xccb203426eff7caU, 0xecf9f4d4e0e4f9d0U, 0x12e2a0df7110a14U,
  0xce9fc3c05fff317U, 0xdc22fbdf18e9cc0bU, 0x1d18f012250c0438U, 0xe6477ade89c77fd7U,
  0x470aef1049110cd8U, 0x1db7d9d0f1e2f113U, 0x17f31928ee5a3f39U, 0x736f8cae97faaf0U,
  0x1e09ec29e2ccf825U, 0xe5c2bd4f12df137dU, 0xbb08021400d202ecU, 0x1dfaf411d36ce87fU,
  0x18faef3331df0212U, 0xdaf2f9e1b7fac588U, 0x8c7ef0f03191b15U, 0x70af8eff106cb11U,
  0xe9e8e4fc05f1fd1dU, 0x2bb7fef90335c8f1U, 0x3eefb18db01ef02U, 0x812f0f0be113e8f2U,
  0x37e2cc0a011af1cfU, 0x7f1eed607c6ece5U, 0xe9ed3deffe0911bdU, 0x3dd24aee1f42d0feU,
  0xf91d29fe3a05dc22U, 0x6307d0598d1b7fffU, 0x4ad7d0e533ba5adeU, 0x400371ab591f4e4U,
  0x84da05affc152330U, 0xd07f14f8e70dfbf0U, 0x111c133afc22f2ebU, 0xfcf6f6ff23fdfb12U,
  0x1ff120ffce7f939U, 0xf4e81b0bde04f3fdU, 0x1113e702faecd909U, 0x1325ebef280c1c10U,
  0xb2b2b10f02a03f5U, 0xf50c222dc176cc10U, 0x66fcab20fd113b06U, 0x2cffe57fc451ab10U,
  0x2bb007ea98c0e200U, 0x18f8f71b11f30901U, 0x705e2fdfcf60ffcU, 0xd71a810d122afcebU,
  0xf3f71a25e1120f04U, 0x11f2ed07fd0f16ebU, 0x4101304e80702f8U, 0x1344cf1befdcc4f5U,
  0x34f6e6f1e7312413U, 0xf0f403d6ce0ceff9U, 0xc13b06442edf2aa6U, 0x6f27b132df754d9U,
  0xff903de7fe80446U, 0x1e2ef8572b5e0951U, 0x10eff3c4154af4ecU, 0xd7e7101ec827c01dU,
  0x2442b1ceedd4a10U, 0xef81dce241ea0e29U, 0xd9c500ea354e07f7U, 0x13f9b42060a4d90eU,
  0xe07230e9000ac3e5U, 0x2415e1d108e7067fU, 0xed322ad330f73c0fU, 0x25300bede4cb1fd4U,
  0x493e06da252ec210U, 0xd0f70afbcdece90aU, 0xa031fec0411067fU, 0xc0de6cf2e2df0e2U,
  0x102522fb2901d0c0U, 0xc320370717fae9dfU, 0x4dc0713f702e4c5U, 0xfffb2c041001e81eU,
  0xfa014d0ffbe1eff8U, 0x81e614ddf3e707f6U, 0xd8170406e7fe1009U, 0xdff7f115f9daf70fU,
  0x32a1e06fb251f0fU, 0xfa901521e5e70f05U, 0x7dcfb3700d6f103U, 0xede3e5f347fc0011U,
  0xef2daf6fa43c00cU, 0x9470719078114ceU, 0x2d3f03202365080aU, 0x155c14e9bca9e0e1U,
  0xf42cef6dd6d2cb0eU, 0xf9b2d61d18d90f8cU, 0xece9d3fa071e19bfU, 0x994c125eaa60dd6U,
  0x3e4c097f246ef8ebU, 0x352ad2f709f40578U, 0x1f2ac1707caba3bU, 0xf8290bf7e2f439ffU,
  0xf4dc0125eb107fe6U, 0xd5fe070510e411f3U, 0xed16e50604fa19e0U, 0xb7b1f9e12ad50903U,
  0x9d6f1d1f9c656feU, 0x41d022da01101e38U, 0x8190b1f4f22b3b0cU, 0xda3d1dbe3f2021ffU,
  0x161062604214855U, 0x86d1c043d1102622U, 0x2847427fda3d59f3U, 0xc55afc143bedda0aU,
  0xf415e203e3f91bc8U, 0xe803f71af1edd3d5U, 0xbedf03c21c0aeae7U, 0x27374a0381e9dee5U,
  0xfcdc1ae9fa68ddd3U, 0xf9f5ec2639320fddU, 0x26e6ef1d0ae00206U, 0x13e310d82ced01feU,
  0xdef80528d0f439d3U, 0xb1d7f2013dc2455U, 0xebc7e4e91b18db1aU, 0x3422301e322809eaU,
  0xf50bfc0ce02fea1bU, 0xeb02eb1a0308ddf4U, 0xb7f63a03f4f814c2U, 0xea390400dc811e89U,
  0xf1f131ea1c08150eU, 0x1cd01ee230100037U, 0xf80f0b060f0d0ee6U, 0xfe0ffc1413f613b6U,
  0x10faf732120b261dU, 0xc42f1adff1561632U, 0x8fb1411f9f93634U, 0x1902f2eb0c372ecaU,
  0xa1f24e5f7bbfafdU, 0xbefb0bfe2b230e14U, 0x7fe7cb0bf2c7c0cfU, 0xd5cce51e114f06f2U,
  0xf04307679cce9530U, 0x3a01f72ecc43f4f8U, 0x3f34c07107f3d35U, 0x4715080b93e009fdU,
  0x17b5e7f588fbdbafU, 0x196fdbd938f11aefU, 0xee06fff40c112a14U, 0xfd3b234532f520fcU,
  0x302d001506da81e9U, 0x3110b4cd0e11e3cfU, 0xdcdc16ed45ff0eb1U, 0x780afcf1f00bf2e4U,
  0x10fe05073ac77fe3U, 0x7fc38f243110215U, 0xeeea232086ebf3f9U, 0x550b2edc0bd573c8U,
  0x22c9c8f2a514d1a3U, 0x311e07ed7f3fc5b6U, 0xfe8b71f5cc774a0U, 0x4153cf3d205f8ebU,
  0xf5f1e434ddc3e833U, 0x28c10a08eef811ebU, 0xde1616f9ffedf3f0U, 0xf57f0d3003fac4feU,
  0xf2dc220ecde2eb1eU, 0xf5f0069fe3f320f6U, 0x6ade07ba084024f3U, 0x1e52e3dbf93923ddU,
  0xca0c06fa38bfeddfU, 0xab072b82a34ff081U, 0xe72a368e6d4f2fddU, 0xf434de5a3db5f9a4U,
  0x3eb54c00e7e51011U, 0xdeef03c5e9acaecaU, 0xb18dcf4ecf81233U, 0x1513131cd9e4f67dU,
  0x28d3cbe3ef2b3dfeU, 0xfb1c0310cc260727U, 0x3820ec4c11ad2a11U, 0x180e052fde47e7ecU,
  0x11ea151b7f3fc66aU, 0xece8f4f71a21e606U, 0x1301ebf9fa100a09U, 0x5fe0a0fe105e400U,
  0xf1faef317f22dc05U, 0xc6e2fefed4e5020aU, 0xf7d215fbd9e5e0e9U, 0xffffc222000032aaU,
  0x6c5ffffefefU, 0x39fb000030c9U, 0xffffeefdfffff8dfU, 0xdf7ffffacf8U,
  0xffffb18c00002431U, 0xffff9f2000000966U, 0x38e900000bc9U, 0x514fffffd034U,
  0x6e6ffffbc20U, 0x3275000009f4U, 0xffffda3cffffe4bbU, 0x462ffffd3c2U,
  0xffffa7aaffffd8f0U, 0xfffff511ffffd2c2U, 0x5d3a00001680U, 0x6e00001aebU,
  0xffffdcbe000036b9U, 0xffffc2a200003e49U, 0xfffff6b40000424aU, 0x51effffc3d0U,
  0x2766fffff0a3U, 0x889300000b02U, 0x2a0effffc27fU, 0x1b160203f21503fbU,
  0xf8de0c09f1063f48U, 0xc1bed60103b9fd18U, 0xf9f1e3f9f2e107fdU, 0xf4fdeff812e2fef8U,
  0x102e01fdfefd115eU, 0x2655461cf34eece6U, 0xfe8138d608f33840U, 0x818181fbab817f04U,
  0xf67fe8ed1921187fU, 0xb8301ecefee8ebacU, 0xfb03061bfc0cda1cU, 0xf060308ef25fef2U,
  0xedd61a06e9fc112bU, 0xc4efd6000ca1f205U, 0xf50602edfde90c11U, 0x40c01f8f9ee01f3U,
  0x1401010c000f0c56U, 0x2d7ffb23ef2df8fcU, 0xe81020fd1d1d3863U, 0x15f80df401d5fbf1U,
  0x21f8d9b1f4145601U, 0xf3240edc35d3ea97U, 0x814c17e9e1811877U, 0x7f657f817f7f7f7fU,
  0x214c7f7f7f7f7fd0U, 0x7be3c87f81ce4481U, 0x45f5d781037f8103U, 0x7f81817f7fc87f90U,
  0xb3817ff77f528174U, 0x3850f90df1370601U, 0x7f08220c451a627fU, 0xe00106b7fedcU,
  0x2a0f7fd5ed2bc700U, 0xef17e9ea48fceabeU, 0x126317e6f30d1b71U, 0x2c12f00ffd15fdf1U,
  0xaf6f7f6f807184dU, 0x31213000bceee06U, 0xf9f0ed06e9201de4U, 0xfd0af5e610f304f8U,
  0xe01e07f8fce93421U, 0x5d17c210f66e0215U, 0xb3b5f284d0a3a69U, 0x684210113011949cU,
  0x7fbdd990812fedefU, 0xf505e7ff4181d581U, 0xed4f1e81171f517fU, 0x110ff20b0028f9faU,
  0x8f91f06100e3350U, 0xfdec160415e0f518U, 0xaf039e3e002f9e9U, 0xfc04f8f007d6f51fU,
  0xb3b13ebfd0b2e1aU, 0xfffff327fffffaf7U, 0xfffff5ecffffcbc6U, 0xffffeced00000537U,
  0xffffeeddffffedfaU, 0xffffdff2ffffd31eU, 0xfffff6cefffff47bU, 0xffffe9aafffff579U,
  0xffffebbd00000379U, 0xfffffe1d000010b1U, 0x538000026d4U, 0xa5efffff360U,
  0xfffffca0000008b4U, 0x8dcfffff714U, 0xfa0fffff089U, 0xae00001fb8U,
  0xffffd09dfffffef8U, 0xfffff9db00000790U, 0xffffee270000327bU, 0xa3e000000e8U,
  0xfffffae80000047fU, 0xfffffad5ffffead6U, 0xfffff576fffffd29U, 0xffffe41d000014b2U,
  0x1979ffffea36U, 0x101fff100a2d1b0fU, 0xf8192d17c0e5ee4cU, 0xcef8187f080df7dbU,
  0xb1eee3d01023a21U, 0x3a2fe9ebe7060d0dU, 0x1fcfd0a470b20f7U, 0xdbdf0f031a1eeae0U,
  0x8101fa27fa1d35ebU, 0x903110f9e31ee613U, 0x6d9d0b29481d2e7cU, 0xe235e8200bd62f05U,
  0xbe03efffc8ec2806U, 0x15e3dbe7cbfde19dU, 0x16b75a0e3881f8a2U, 0x1bcb42360b0fea1fU,
  0x32b4192b0712c31bU, 0xfa1df21d40f56225U, 0xf446e808f3d3bfceU, 0x163679fb1e20f4e1U,
  0xdefc28dfc13cedd3U, 0xf30a40b72b89f2f5U, 0x43f5d6017fa8defeU, 0xaa41b21d5cb08e4U,
  0x2ffe3a20d5162f36U, 0x6e1426ef24b00505U, 0x68d75e2a60bbd8bU, 0xf730815d1aa31338U,
  0x6706083236fa66a7U, 0xb12c39f5ead71bddU, 0xffbc291816470d19U, 0x30dfc05fef0210aU,
  0xe51fe41206110011U, 0x8fc050b12ef02eeU, 0xfb1ce0f4f71a12feU, 0xafef7feed0516ebU,
  0x92f1f4fbba8102faU, 0x1198310ae2c50a14U, 0x33e11b00f609f5ecU, 0x320ffe36de06dde6U,
  0x12f3131f080ce40cU, 0xa4d5c21fe5cc2d0bU, 0xb6de34257fd2dad1U, 0xff380eef0e21cf02U,
  0xe0043bbe1226e882U, 0xfab92ae67f3bd9ddU, 0xe24ef4c1e7341dd6U, 0xd2d8e3edcc082b0eU,
  0x18f1391c020308c4U, 0x15fd07fb03fc4cfcU, 0xf90324cb15f9d3feU, 0xff2ffbf05e43edfU,
  0x3514f4ebd4e51d0eU, 0xde4c3befee22438U, 0xf41e81080f03e80bU, 0x33dfdd15d23f3be9U,
  0x2d4581083b61cae9U, 0x5dfc7ff200bc4c9U, 0x2eee288b0907f42bU, 0x30f11d05237e3c40U,
  0xe59fbc64fe2f0d22U, 0x2818010781e7eaf2U, 0xdf70d0a36df2901U, 0xf620f00dcfeb041dU,
  0x1ee230d010e0801U, 0xcf04250404f13df9U, 0xc2cfc5fae2d507daU, 0xfd28ead6bc250fe7U,
  0xe1ea4717facabd81U, 0x3dfaef111ee4f233U, 0x1cddf92064cdeff9U, 0x94504fb641a0b20U,
  0x2dd6f591dfe1a9c7U, 0xbe924071d2bdaeeU, 0xe3d11326d9f8e930U, 0x7f10f5f305d2eefaU,
  0x18c0ee09411ae1d6U, 0x3e130d010f00fe29U, 0x2107c82afa02b145U, 0x60cfa7ff8231b16U,
  0xe0803fe1ceb07c6U, 0xfdde142e0b12f912U, 0xe7cb04253411d8fbU, 0xeae905d30711f41fU,
  0xf1fbed00ffeb0913U, 0x11e7a9a407ce3d47U, 0xccc4db1bf12f2ba0U, 0x2c283bc9218194daU,
  0x21020857414df6e3U, 0x4805a3c207f133d3U, 0x3bb6fbc6e2e55bfbU, 0x220c0dfafe060311U,
  0x7ffaf42bf42b1911U, 0xc9fbed0131f5f9e8U, 0xee0d4f03fe21feffU, 0xecfa1aeed0e614e1U,
  0x6cccbef91764f9f2U, 0x95f4db7f25d7fc5fU, 0xffeb10091ffcf616U, 0x5ef1400e5fadffaU,
  0xfc3eee5fbe6ba21U, 0x1f62ef1fd08fffcU, 0xfefae0f80fff14ffU, 0xaff1edda6cff97d9U,
  0x24d111fc1fd4e4a9U, 0x4d37ff188392cd3U, 0xb3a456ea9b5d433U, 0xdb1521a64560ceedU,
  0xeaf11f48e5b50fefU, 0xdedfd8fd100c27fcU, 0xb1f6e81d0d147218U, 0x81eb0dfb26df1512U,
  0xda01f9f0da0bfedcU, 0xad4140a321341dcU, 0x3c2dc714c7021bf1U, 0xf2a2d0070c1833e4U,
  0xd7d83ae4012c7f31U, 0xe450f7d214531ee0U, 0xf7cdd239ff23fcfbU, 0x69f63c17b90ad818U,
  0x19f31ee3190aff1cU, 0x4d2e2a56c2daea30U, 0xdf54e918d6122bedU, 0xd442ea54d8f62251U,
  0xdaf8e0f42897ea5aU, 0xd0c3b7217b179b19U, 0x2924ea064df581fdU, 0xdae3eef10c091f10U,
  0x813d0dde01af2dfU, 0xec06cdf718e30cf9U, 0xed3dfbbdc3ec1dU, 0xf0161be00d7f0603U,
  0xeeec19181ecc38ccU, 0x11eff539b65ecc02U, 0xcbebf87f1fe3c202U, 0x2313c51de026e401U,
  0xcaf42af420a52627U, 0x2c07c6681f7ff013U, 0x36f5f5d1d51855feU, 0xe31275e317fcf91eU,
  0x60fbd54dd2e81a05U, 0xe30e1ef0d26b0825U, 0x7f02fb2aec70f40dU, 0xb52125f1b3c1f8f5U,
  0xe3eadb3cf6fd2e13U, 0xf10111fcd3217f3aU, 0xe3fce25d90fc1326U, 0xbf410bc0b26fef5U,
  0xc3705fcf6070f1fU, 0xf8b0eef51a038a08U, 0xdde060d14eae1ebU, 0x3343fc03d319c5caU,
  0x1a063fede1199681U, 0x8c1d85fd52c3e4dU, 0x3b11e1ff22f461d6U, 0x5d83f1c03d514b17U,
  0xe35319e81029099fU, 0xecffc52a0c092e06U, 0x9024f8e015d407fdU, 0xfddbee27fdf1f928U,
  0xe019eb080b3d01f2U, 0x2dc9bf2819f5f8f2U, 0x81061a06a61ae234U, 0xda2d212733c80eU,
  0x3f65dde1e616c137U, 0xe421f038214a239cU, 0xc3ee5334fd812d4aU, 0xa6b42007f8c80206U,
  0xb18dccfa30f1fb2aU, 0x42b0c57d204ef27U, 0xddeb10ea062fd3b8U, 0x20200211ec1445d6U,
  0xfe20d4fed72b2612U, 0xfbca1477c3ea17f6U, 0x10420e81ed29e4f4U, 0xaf040bf9f8a2e0ccU,
  0x24e21d9ede0fdeaU, 0x17931ea9103e0b9fU, 0xfeefffcc0edad82dU, 0xe6f0fd1e401a1cf2U,
  0xf7f50c20fef4187fU, 0xda2d39fa31bd3c23U, 0xf60e28c5e9173a23U, 0xddf3fd0c09ebe891U,
  0xc2ea16f716a52eadU, 0x1319eef316e5731cU, 0xd9cf1f3181ecc8dcU, 0xcdbc481ceed3ece7U,
  0x28c10ff3eae9d5c3U, 0xe3b31abbf4ed2bcaU, 0xd4fbe93dccee08d3U, 0x1681e72f2825242aU,
  0xf11fcafdd2321df7U, 0xf610091b7f2534c9U, 0xdfa07d318ea0903U, 0xf804e8c5dcde1f2cU,
  0xd0f1f40c151001e5U, 0xf0121061cf2dc0cU, 0xe7182e1328080b25U, 0x29a46019c4e1ffd1U,
  0xea0fb2cb10e90211U, 0x1ff76614eaf6fffdU, 0xf1e134d0cf5f1c2U, 0x457ff00df3f9ecefU,
  0x2d49e451e6140bfdU, 0xee230fecf64df611U, 0xf2eee1fb084ffafbU, 0xd43717412ceee302U,
  0x3cf7e8e4dec3e520U, 0x9f2db09bee74e81U, 0x16a5e5f8f10cfc1bU, 0xe1981015ded23c0dU,
  0x581fe0a210810ecU, 0xf22a090f052ee3f8U, 0xd4f70d0ef3ba0001U, 0xace4de1af00117e8U,
  0xf40eeb17f5f01305U, 0xeddc2107d4f82b09U, 0xfff33d3010d330aU, 0x7d03ceb00cec733U,
  0xa0f1f534e37f2818U, 0x6ebc14ffff13d62dU, 0xeefd141f400e04b0U, 0x4cd1fece8f220f0U,
  0xf2d4cef5df09f716U, 0x11efb21ef2d314e3U, 0x39f3f3cd5be1357fU, 0xdb9d13ecd6d22dfcU,
  0x251e22adf0f6f524U, 0x147c20135ac50fdU, 0x5938c5df01eaa1cfU, 0x2fd1ebff81bd21deU,
  0xdcf25841efdb39f6U, 0xbd11c227e6210cccU, 0x38f633ffa7c0f1e9U, 0x3dfbe0df0a1f0e0eU,
  0xc0f6de29f5f103eeU, 0xf2e5ef0b7fc10118U, 0x11f8142bf7ebcf18U, 0x11ae40ead6ecfbb2U,
  0x424cea3de3eac6fbU, 0xf50728eb3106cf7fU, 0x2fdae401553a00ccU, 0x60de7f206edf10bU,
  0xa340b2d0c1f600dU, 0xf6e5ac43e1e0e609U, 0xfd032c290bf112e2U, 0x2af29c2007ec040aU,
  0x1701995100031246U, 0x1bf41525f4c204d4U, 0x8146f5140d2026d1U, 0xcbddd4d9b1f829c2U,
  0x1ad512940afdbb16U, 0xf9dbde12f3952fd0U, 0xfc27e7b1fbb0103cU, 0x24c2de2929140906U,
  0x3e060833021de4f9U, 0xf7fadd3fa383bdaU, 0x160ee7f7ea22dbfbU, 0x7fdf3c0c07c62d17U,
  0x3f02f71dfaeff9d5U, 0xe20d70dafa053218U, 0xd012200dbb7ad331U, 0x3cd0510a4e427cfU,
  0xc306c68cedd6b294U, 0xaaf493e26ee298acU, 0xd1e821d721b6e201U, 0x18ae271ab8563cf7U,
  0xa02eea38f62b200dU, 0x9352cb05a1c19edU, 0xf7f10441b29e520U, 0x3bdb0bb5060c38f9U,
  0xe6fe150ef85747a3U, 0xb013ca120e27402bU, 0xe3811b4421b0bcadU, 0xdd08f1f8184e2d0cU,
  0x9b81af0efe22847U, 0xec240408ebfb0403U, 0x7f0018fc06f31107U, 0xf5f4f50c0307d2f2U,
  0xdf0df306fc20ebe8U, 0xfddee30806d434f2U, 0x4d01ffeab715e909U, 0xc0231f421d3100bU,
  0xf7f12c08f30ed636U, 0x3e0fd41101031736U, 0xcfd31b267f0c1df7U, 0x2afe21110cee7013U,
  0xf03315f52bc3b8fbU, 0xfffffe6200001e3aU, 0xfffffa9affffeaecU, 0x2a40000118eU,
  0xffffff37fffffcb9U, 0xfffff6fc000021a9U, 0xffffee7900002683U, 0xfffff8b200001a5cU,
  0xffffff7500003066U, 0xffffe192000027eaU, 0xfffffa5e00000524U, 0xfffffa9700001ae2U,
  0xfffff91800001ea6U, 0xfffff8eb00004890U, 0xffffef390000133bU, 0xffffe55a00002fe1U,
  0x262700002a14U, 0x9300001d6dU, 0xfffff2fbfffffefdU, 0x100001428U,
  0x2220fffff981U, 0xfffffec7000020b1U, 0xfffff9df000008e1U, 0xffffec9ffffff611U,
  0xffffff5d0000040cU, 0x4a3be8e50dfb711dU, 0x3dd7d7be62f94305U, 0xeab7eb14e2fa7f17U,
  0x4f2accd2b650b765U, 0x70cb46b92ee408f8U, 0x9dd6e030516c2b6U, 0x14b5411dd8234407U,
  0x12070fc81f2b4110U, 0xf1e7b724fb20fb24U, 0x20155000205af0dU, 0x7f5210edf5f9d6cfU,
  0xfd391bd1c612ee12U, 0x1023233414fd1206U, 0xbfee7f2c12feff0eU, 0xe7f1efe3dced201aU,
  0xff2e608fbc6df08U, 0x1bf9f51003ce0d1aU, 0x14f9dbe72413e616U, 0x8b4bce803b4f097U,
  0xdafbf7d1d91f2104U, 0xee060c5dcadfe751U, 0x490124f12429bc30U, 0x7f3413180accbf2aU,
  0x16e91d02e0280b14U, 0x5d163c08e67f0bf9U, 0x9f5dfeffec023efaU, 0xf711ee59060b92d5U,
  0x3e12f533f8e48dd2U, 0x7134dd3c54ba5dbU, 0x32525671ecb1f204U, 0x3b50714fcfb81f7U,
  0x1f040dec48e4113cU, 0xdfe18d10d25f91eU, 0xf50618ed1d031defU, 0x12321ef5071113fbU,
  0x1d03000609e8fa09U, 0xebe5f8c6011210f0U, 0x19fa3a05dbf1f415U, 0x7ff6eae9cefb2607U,
  0xd6050cd4d9e8e22dU, 0xf8e90c1c18ff06e4U, 0xfd0a01f40cfc0a36U, 0xcd1c2ef4e881db46U,
  0xbec93f16101a0413U, 0x423c39e70419b8b8U, 0xd3f6db1464cbf1cbU, 0x1bd1eacccd16114eU,
  0x207f06a41ef29deU, 0x24017fccf6e9f902U, 0x28e8eff808f7240aU, 0xf1c5fcedeb144837U,
  0xe400f725effaf5ecU, 0x2eddf4d10a130ceeU, 0x122cc4e8f20737c6U, 0xc241f7f3e424d008U,
  0xd6ba5a1624cfdbf5U, 0xae6fb0a5481660aU, 0x33850e122f33129U, 0x48cfcd1edaae1412U,
  0xd7cca2ebf42bb02eU, 0x1d36cfffeec604e7U, 0xe31cac81aa033b24U, 0x219112149641e046U,
  0xe3d0e7cb5dde1fdbU, 0x35c29f0f1ea12901U, 0xd724e11e043917e9U, 0x8ccc2b0d06c4dde1U,
  0x3338e91d76d538a9U, 0x150d30b3a2c00100U, 0xef1c3c81a40bc7feU, 0x560c18a29c16fabbU,
  0x2e0315e9b946fc1cU, 0xf7edddfe07be7fe3U, 0x1bfdf5020912e501U, 0x150c201c091cfa1eU,
  0xe9e71df105cd170bU, 0xfde82ad8da02ff28U, 0x1efff5fd02f5f0feU, 0x900fb0004fd0681U,
  0xfbfa0408f7050b0cU, 0x20406f9010401ffU, 0x3f901f7ff01ff01U, 0xfd0205030701fe07U,
  0x7fafd0109060105U, 0x8d81bdf06d1ec0aU, 0x581835dffe06fdfbU, 0x7fbec646b8e6ed0eU,
  0xc3f9d806f948f360U, 0xec3725fd2ef1e646U, 0x263d1be1eb31462cU, 0xfefb05fbfafff57fU,
  0x206f6f4090001f1U, 0xf9ff0300f6fdfcU, 0xfc02ff0501fc0108U, 0x8fc03fbf704fffbU,
  0x4ff0400fefcfd06U, 0x5cfdc50dd8ddc9fdU, 0xd6c80a2c3e0881e5U, 0x6eeee1c2410dc73U,
  0xcd1442d4c8f3dfffU, 0x2ff9fd819052ff7U, 0x8d7fc17bb07424cU, 0x11e8e905f67f09faU,
  0xea35020134bbe6eeU, 0x17df293c01cdf627U, 0xf508fad5eafb1510U, 0x7e1f7f413cbf8dfU,
  0x18f6dcef1125e8feU, 0xc42d81fae66105faU, 0xfffdc9f7e0fe3df2U, 0xce82ad2d14442daU,
  0x801fb0218feed13U, 0xc1a1c1308ff2500U, 0x140ef9fccdc71211U, 0xeb07dcf10281c31dU,
  0x12da1d32e12b220cU, 0xe951f30c192037d5U, 0xf0212f0804f8bdd2U, 0xf5230247271e24f3U,
  0x64da023900eccfdeU, 0xf7f8c70f04f60ee2U, 0x22ed02152f25041cU, 0xdd44e3d9152cb0f4U,
  0xf33b3bfdb704dcc2U, 0x19f841f4f3f7d816U, 0xf0916f381641af3U, 0x9e3f70ce8e90203U,
  0x492c1ed527151306U, 0x1fa9f804d40dda14U, 0x7f021a08dc9dd9f9U, 0xe8242dca0d1ad516U,
  0xed2f1c11f2221fe1U, 0x2b1a7fee090cef0bU, 0x2bf8cc40e5b0c4e1U, 0x1eca20cbd932df1dU,
  0xf50cecaffbf81e11U, 0x14faeb4ad21e1342U, 0xfc9cbf6d94bee22U, 0xec1343e9f83bec0bU,
