/**
  ******************************************************************************
  * @file    network_2_data_params.c
  * @author  AST Embedded Analytics Research Platform
  * @date    Mon Jul  1 14:49:27 2024
  * @brief   AI Tool Automatic Code Generator for Embedded NN computing
  ******************************************************************************
  * Copyright (c) 2024 STMicroelectronics.
  * All rights reserved.
  *
  * This software is licensed under terms that can be found in the LICENSE file
  * in the root directory of this software component.
  * If no LICENSE file comes with this software, it is provided AS-IS.
  ******************************************************************************
  */

#include "network_2_data_params.h"


/**  Activations Section  ****************************************************/
ai_handle g_network_2_activations_table[1 + 2] = {
  AI_HANDLE_PTR(AI_MAGIC_MARKER),
  AI_HANDLE_PTR(NULL),
  AI_HANDLE_PTR(AI_MAGIC_MARKER),
};




/**  Weights Section  ********************************************************/
AI_ALIGNED(32)
const ai_u64 s_network_2_weights_array_u64[24578] = {
  0xf9fef1e804e513f1U, 0xe7f21629f6f3f405U, 0x2000aafaeeea2afcU, 0xd7c9e91725fb32cdU,
  0x19eaf54af4d6fc23U, 0x30eeb2fdde22cacaU, 0xc6f703f116f10e19U, 0xf4d2d5fd97f770f5U,
  0x3f0704f0efec6de4U, 0xead6fbeef304f22cU, 0xf7fea1cceef1f10U, 0xfd01dbfaf4e9d208U,
  0xe819e4ede7f2f1ffU, 0xf60b011038d2c102U, 0x143b381b24f30bf0U, 0xfb0111ee2424a8efU,
  0x822d0ebd9eb1a18U, 0xd9e60d2b1ffed6f1U, 0x10c1251114f7e1edU, 0xf9e7031d8110fe2aU,
  0xb9081a2bf715d7fcU, 0x3e32bcc0900f311U, 0x23e5c32108e3f608U, 0xd8df280ade1826fbU,
  0xca3c08dbe63501caU, 0xd81240ebe406b034U, 0xfecd31af3d5fd27U, 0x341fa1e0b03005ecU,
  0xf31666db27ef530aU, 0x29230a1db4c9e6f6U, 0x12e10f4fee31ccfU, 0xa9eb08c7eae838f0U,
  0xccf39341bee0dc98U, 0xaab5d1ceed11e0d4U, 0xec68453fcbf3293bU, 0x205f27ffdf52df3U,
  0x3f0f1600d5210837U, 0x6da122c3affde2eU, 0xe5df09c534e2ef14U, 0x41f3eee101ddeae9U,
  0x2e26faffff1bdbf3U, 0x1438d91321e8f6f3U, 0xba3b2e11ffdbee33U, 0xc8f22be40cfed6f0U,
  0xf2e6f3f2da18222bU, 0xc30ad93fa711ef64U, 0xfee9bedbda224619U, 0x7f03d0e5e5e3f6e2U,
  0x1c20f708f807ebf5U, 0xfefa09f90fe9f70eU, 0x1010efdfcfafffbU, 0x236091ffe1a111dU,
  0xf6ffe8ff16080106U, 0xf1fc05e4291a0705U, 0x1717021fe0c8dc0eU, 0x32ef293ff61abdadU,
  0x3fde2400e51e03d8U, 0xe0d5f6f9244638eeU, 0x22f4fd04ce811905U, 0xc38fd1dca0821dbU,
  0xd02a0cd13f09efc7U, 0xd4f15f1402e9e4e4U, 0x8d2030bf9418c5e7U, 0x210507f71d11d9d4U,
  0xf2ebd151bcde2b0eU, 0x4e3c11c6171808d3U, 0xe0fd33fde7ef1bfaU, 0xbb02512a1430d0eeU,
  0xe0d8c5d106120eccU, 0xf39fdaf8e0fa350aU, 0x33a2dd81fa23dcd4U, 0xa0dee2f2303270fU,
  0x122ccfe2c100feeU, 0xea87d9e3ff52fb3aU, 0xead5ddc6f449020aU, 0xa312fbddb6f304e2U,
  0xd549f841fece250dU, 0xfe08f9174dec46ffU, 0x27e602f3f1fd1ee6U, 0xef28ef442f4dcf25U,
  0xd200f705f416c720U, 0xd8ffeafe32d226f2U, 0xeadbb881fecf9deeU, 0x3ff4502fd6d51255U,
  0x714e2f1d802f111U, 0xfd2ce920edffc932U, 0x3929dee440fdff18U, 0xd71bd9f80c44d518U,
  0x1e07f835e13822ebU, 0xc9b6f5bd27f908faU, 0xdcfd1924167fe8f3U, 0xfe45fed913145249U,
  0xd5efd82c2723eb17U, 0xa122f9d715c42005U, 0xa0ccbf536c8e624U, 0xffe20255c4131228U,
  0xdc14fefc4a3d17f9U, 0x3e4f9f0e2fa1523U, 0xcf0cfbe6fff9fa1eU, 0xeaf1deeb31212247U,
  0xffe62fee07cd33d7U, 0x102f0d28d14c1036U, 0x2e270d81db24dd4cU, 0x3532504a61d97f1eU,
  0x3d0b5637f99ad617U, 0xc1a16e041181b03U, 0x250145df13372921U, 0x2ef913c0fa303ac1U,
  0x541be3d1f13102efU, 0xe66681b1a2e819eaU, 0xcc5250bd6cc65d7U, 0x4df1cf31bf6f4ddU,
  0x270eefe2fe2828feU, 0xf825c206d7d20fe7U, 0x20fd4407eb3bf3e7U, 0x1dd7d6fd04d0f11fU,
  0xfb0ff50ee012eacaU, 0x4cdd210dfde2bf0aU, 0xb4a824d603f807d9U, 0x391e1c63ef01bc39U,
  0x1ce90704fdc5ddf0U, 0xd480bd9e716e5f7U, 0x10edf110f9f3f20eU, 0x112f08f626f545fcU,
  0xf101dfe4edfebe07U, 0x18e5eb1338261eb4U, 0xfd45336f0d58126U, 0xe0132284aeb0117U,
  0x3dbbf0e8f7571d64U, 0x401908052c062bf3U, 0x342dc4c3dfee32f6U, 0xde00f4b4002cf1c8U,
  0xd9e810212bc706bcU, 0xf2739f9ef22d829U, 0x23e9110ff21b0ec5U, 0x3301f8dc3705010dU,
  0x1e4325bd5fc17e7U, 0x2f0b0cd84e1dc8beU, 0x718c0d6370a21d8U, 0xe41dc04eb1e72c15U,
  0xf80f1df1b0c77f86U, 0x33c1523060ef2c62U, 0x1de109d39f10e1d5U, 0x716fdcfd006b204U,
  0xcfc8f600fd2bbbfcU, 0xe9f8e725fcc3f83dU, 0xe9d81c1c2fcdf7d0U, 0xf32f3442dfb31111U,
  0xb25e308340be62dU, 0xd511edef30242405U, 0x161ef609f551d30aU, 0xeeb16fd0e4d2103U,
  0x2702ed22e20227e1U, 0xefd827287f06362aU, 0x2e1ab0114c10c8fdU, 0xffbc0510bc47f6a7U,
  0xed00ef081336fddfU, 0xe1f6e7261b08fed8U, 0xc9f4dade60b5fee7U, 0xdc55d9021bdcc660U,
  0xe6760519f0d7ecf9U, 0x153ac488a2ec2d04U, 0x592c26e1dad321e9U, 0xde342b0a81d5bdb7U,
  0xeb0af8b1dcc24023U, 0xdc1040d2810d0d0U, 0xdbf4fd2e0bd781c4U, 0xa640fcdafc0ad115U,
  0xf2f7ef9ed0c2dfe8U, 0x190049dcd6f303f5U, 0xe21448ac13dadc10U, 0xdb67f21346041020U,
  0xfe220dfaf0b73f1eU, 0xfedeeece0111eddU, 0x12c9dbf3eee5e9f9U, 0xdf03face060709dbU,
  0xbda72ad3e4e705f6U, 0xf0f62b2f1143c5c8U, 0x5303e8fdd9d0ad7fU, 0x1802bfd8f6f4f3d9U,
  0xe4dab41ad7262e94U, 0x1e622d107f1df0eU, 0xe2a532f00b1eed29U, 0xe1d12aee3bfa5c3fU,
  0xfbef20d90d0704e6U, 0x3f092106f7d809f7U, 0xc11ff119e3d2e419U, 0xf293dcf3d2edf2faU,
  0xeb7f06d4d30d18b9U, 0xef4c29f7a8f748f1U, 0xe8c3ebd3e114bebdU, 0xcde4905fdbb6f9dbU,
  0x3cae0b2fdf09b5d9U, 0xd9c9f53bb54ffa06U, 0x1140f0e31b136bf1U, 0xd9bf07ce141df2e4U,
  0x380e161ccb0d29f1U, 0xd2d9b81135d123e6U, 0xe110360eb10ed9f2U, 0xe42cdaed2fb34221U,
  0x3cffed0af41830a5U, 0xc2c886325015ea2bU, 0x42cad2c9ff4614e3U, 0xfecd57f1c182e1cU,
  0xf9fea1ef03ec36ecU, 0x1bc7e3f8ebf70c1bU, 0x3600200eecfc281bU, 0xe60012034bdff80bU,
  0x1ef2b6f7dc03561eU, 0xd9da25d7e2df20b9U, 0x26dc41fdff961f10U, 0xd4ec40caebbb0821U,
  0x183ff6d5eee94181U, 0x989bfee20be7b3fcU, 0xef281824e41c08feU, 0x2201f615c7070beaU,
  0x904fdebd709d10eU, 0x1911f00cfa14050cU, 0xfb0100fcff09faeeU, 0xdef30f09fd171c26U,
  0xec2be70d070df40eU, 0x18f0010cfdf2e90fU, 0x121719471cec01e1U, 0x3dde252a3329fa23U,
  0x33fd0f02cf3036e8U, 0xed115e600281561U, 0x181d81f202ed1beaU, 0xe8dee223da1824daU,
  0xd705a91b181ff61aU, 0xdc17f30c211126ebU, 0x1921f3d5f602f0f7U, 0x9cc15ebcaec14f3U,
  0xd8da0e500a03f4e4U, 0xa130199b0ef73b0eU, 0x4c32009bcebf13eU, 0xee01ef891f5f022U,
  0x3205a917d1efe1b1U, 0xe581290fef217406U, 0xf1030cf9ee183501U, 0x1100113acbe1ffeeU,
  0xd04e6fe10f0f903U, 0xaf50507f4fe06faU, 0x107060303010005U, 0xf5f706e8f2df0801U,
  0x904131103f9fe1fU, 0xeffa01f6020cf606U, 0x80a0b2ec014d533U, 0xc0025081e00f50bU,
  0xfaf2f115de8102fcU, 0xfcf8fc080310170aU, 0x1505d7f528070f04U, 0xef020a11080a14faU,
  0x7f370214fdcd21fbU, 0xfa21d31e48fafec5U, 0xef60ce6eeea02e8U, 0xf0f9340f11ffec4aU,
  0xf7fbf32810053313U, 0x2b13191418d424edU, 0xf20606e5d8decfc6U, 0x3f91d6e7d6dade11U,
  0x40c9000dd0e6d985U, 0xd13133e12fd1dc6U, 0xe033e0b6ecfdf52fU, 0xfa7e2f1ef575c02U,
  0xebecd6ef13ca05fdU, 0xd32a944af30e4503U, 0xc49fa325cf20505U, 0xc5eff2e7b3b1ce03U,
  0xce36058112ec77b0U, 0xe61a41e262c0f1efU, 0xfa342b03b40a22d7U, 0xdfce17ff24274342U,
  0xf80b31e5c71700deU, 0xa501250eec31b3f5U, 0x32e2db1b6fbb8d2U, 0x20e5d204c3d9cbf4U,
  0xf06fafc0003f50dU, 0xfb02ea070403e11aU, 0x50209fc0800ff0fU, 0x1cf8f5f9e1b2fbe5U,
  0xe608f7f9de12faf9U, 0x35f6200900f710e4U, 0xe64671ebdbf71418U, 0x5e22332bfde2102U,
  0x71d812813f506abU, 0xddb432531149607U, 0xf70b04fb161107d9U, 0x5101cdd9000749f4U,
  0xeb040f15f54be4fcU, 0xf5d719f9aeffab0bU, 0xe823f5f4f6e8000cU, 0xf41e0351dcfe1212U,
  0x1a19f5e31e4dec32U, 0x29e724b443f4f806U, 0xe1ee3e22ee3ed60aU, 0xf5fe1fce2c2f7f15U,
  0xadae80b00361ed4U, 0xdb0cdd20f7282e0bU, 0x634f1fc108d1b16U, 0x191fdf4d83e0f22U,
  0xf913262dfed0ccf2U, 0xe9f0210a1219dd17U, 0x90114fc26efd838U, 0xfdd4e52323911df3U,
  0xfcb4fcd81002f419U, 0xaed2d0014fac91dU, 0x17f3f406d6d31d15U, 0x848c706d1d8d403U,
  0xdbcb11f8f6021620U, 0xf90ed204220af8eeU, 0x56caed8114f216d8U, 0x6fdc81af701290cU,
  0x9c2ee9ddef0035c7U, 0xefe3e3edf298f8baU, 0xf4cbf5cb00250a00U, 0xcad91008eb24011dU,
  0xcc2ed44d0264e6caU, 0xccd0a3d3d0128ea8U, 0x4f7a81a0f72f3622U, 0x97c512866f520d0aU,
  0x54e9af2f03f41e47U, 0xc81ce5e5c60ef003U, 0x10fec1cbb4cfd307U, 0x12fe16020e172b0dU,
  0x6e1f7e7f8ec17e1U, 0x21e5ea0eeaeb10e6U, 0xf504f006f40704fbU, 0xfd1e2007000f0f14U,
  0x23f90e22f425faffU, 0xea04ebdc27010711U, 0x7182221f07fef0eU, 0xf2e319e01319111cU,
  0xd9e51824e4311fd7U, 0xebe20c20f1e60a0dU, 0x2a26e2d85d39faf2U, 0x12b40031e82b2d01U,
  0x1b05fad9e42b03eaU, 0xfe071402e70f04U, 0x1318fb07ee05efefU, 0x81163af203de1745U,
  0x111bd281cfe281dU, 0xbe4d60af2162de8U, 0xcf03331de03abeeeU, 0x27a4f91ad55054eeU,
  0x54d2e08b0206769bU, 0xf2091501255844f3U, 0xf77de3cc11b732c9U, 0x12f3d510bb0f31c7U,
  0xdbd8ffd51a18f7f1U, 0x4b27fadea1b525e6U, 0x18d82deaf5021313U, 0xde08f3f0de0b2ae8U,
  0xf4bfee251ae531dcU, 0xd4341bdbf0f4d1d5U, 0xf57fcf1bf000ea0aU, 0xddd4cf23f423fe0dU,
  0xfed8d1e8d41ce6deU, 0xf6d4ca1bd609b712U, 0xebf92b0fe3e3d10dU, 0xdff7fc18f8e20428U,
  0xe0e2f11a3b0be8ebU, 0x702eebd91899ce03U, 0x1ce0028efb11b220U, 0xc40e62249b063edbU,
  0xf51205000018f105U, 0xca43f734d4e401b7U, 0xe3110bdcf21d3dd4U, 0xee781e0ce0c24f2U,
  0xc9f7148ea502ddc1U, 0xabddc603add0302U, 0x2d3ada930efcc92dU, 0xf20c43f1015906c1U,
  0x7d21f2cf0beadeeaU, 0x171bc23e0f5304c1U, 0x119c7f0e58daf6a4U, 0x41f05ff124419dbU,
  0xae1080a1d27ffdbU, 0xc422f654070afc01U, 0xe19f1ff03f31fe8U, 0x4fb07034a2f5900U,
  0xfeaef1221f4fc0cU, 0x340dd3121adbec0aU, 0xee311b1b251a04e8U, 0xf306eb0cf2c4aa09U,
  0x14011eef2afa06e7U, 0xd714d335e1e34af1U, 0xd7d2f007102af221U, 0xee6cbede12807f4U,
  0xbe001805dfde1a06U, 0xff1c5dea05f760daU, 0xf0ef1622430af811U, 0xe30921c8ee0a0517U,
  0x24eb097f092a210cU, 0xd21abb091b012b0fU, 0x2fe74ff0f3165a0cU, 0xf5f1f5111a07fb36U,
  0xe51b233dfde0da28U, 0x6dc01eab718f641U, 0xdb0ac2d910eb0715U, 0xed10ef60c619eee7U,
  0x2ff8f51137de3a4bU, 0xebe2f1cf122ffaf1U, 0x9f5211d0b23dbccU, 0xe9e125e38cf1ccf4U,
  0xff60b7fd913eeaeU, 0xa950da1aeff51a26U, 0xe6f7dba3eefde1f8U, 0xf43109f1e7ecfee9U,
  0x4de080df6ec04U, 0x6fffe0ef30a0af9U, 0x9ff0eff070b0705U, 0xf1ef0823f2f90709U,
  0xff030504fdf80dccU, 0xeef200f1090602faU, 0x7121381ba19cf37U, 0x9f4260e1e06fa05U,
  0xfdede419da360300U, 0xf1f9fe13fc152402U, 0x1000e0fd25101703U, 0xe3060d12fb0d1dfeU,
  0xfb0deb17f8f71323U, 0xfedaf812fd0bddf4U, 0x50c17ff19f5fefeU, 0x100f153eeceafd22U,
  0x102c1bf42b2c0d39U, 0x5f300ebedde0b14U, 0x292ce10681c0ba56U, 0x59bf3102dc09fce7U,
  0xe3bad1eabc0040d7U, 0xc2d90e011c0b331eU, 0xeb17dfe7fccb351aU, 0xd909f7f3c3222be2U,
  0x21be35050ae1fc0dU, 0x3bece80443e911ffU, 0x20f3f9eb2605c936U, 0xdbff7fd9eb1024cfU,
  0xd2220ce1d2d56b16U, 0x3fb8ef9eebc76b1fU, 0x29f0f20dea1e21c6U, 0xd605990915c9ccfeU,
  0xd8c4e399f617e1a9U, 0x184615e43c08fd35U, 0x18d8d0bf27efecc1U, 0xebdf380204fb8b02U,
  0x8f2c502f2d60d13U, 0x11f429f32e14d7f9U, 0x44fdf7fbd40533ddU, 0xe8ddfff7df06eee1U,
  0xf3c000de1128c8fdU, 0xed3bda01f603d914U, 0x7f39190d0211101dU, 0xc6af0a4317fab609U,
  0xb2014f80f0100b5U, 0x191eaee1e90cbaf4U, 0x1f11eb90df5e1faU, 0x10cdca1bde0eb6f5U,
  0x303e4ed0612cc13U, 0xf7e01bf2f41ae411U, 0xf0f0e7fd131413c9U, 0x37d822da14d4dcefU,
  0x280126fde61b0ae9U, 0xc17e504efecc4e5U, 0xeb1fc1bf81280f0dU, 0x60aff27f10800e8U,
  0xda3609e403e0d03fU, 0xc0d1026cbabdafaU, 0xbf6f3f114523aefU, 0x2afdef9d43e4033cU,
  0x52af9ffecbeedb7U, 0xf7aa9de314f6f7f2U, 0xd20d16970181fee3U, 0xd0e6cdcf0ff1e80cU,
  0x172cf2f7b0c5b9f2U, 0xf3e707f81619f2f3U, 0xf2ec08f9123cf92cU, 0xd8004105bcc4e0f8U,
  0x9be902b3c910c603U, 0xfa4726f62eef1af0U, 0xddda07fb2629bf26U, 0xf10cf65ff40297d8U,
  0xebcdfdf611482222U, 0x24bd180bbb530bcbU, 0x16f4fe24e9f9040eU, 0x4cec1ab105fd4d39U,
  0xdfb02adb0602e8d5U, 0xf752f50109fed9c7U, 0x371945ac19b20691U, 0x2625c604133d49U,
  0xda353dd1c6d83fe7U, 0xcdc3b5211ae3c1f5U, 0x2227d7dacc5dc633U, 0xe5fc02123500ec7fU,
  0xd1ff1ac8c2fbf5b8U, 0xef05e806c1d62514U, 0x201ae6fdf10717eaU, 0x6e63d26d6cc04f2U,
  0x2bc30210d600c63fU, 0x2b81071f22dfd106U, 0x3826ddf306fd05ffU, 0x8ee23e4d0b80110U,
  0xea0620e1f207fb4aU, 0xf8e02a23ebd5422cU, 0xf5f9f0180de4e9d3U, 0xd2e6fa38d92d2146U,
  0xee010cfdfe09c0faU, 0xfc010e031442fe18U, 0x18fe111aebfdd7e5U, 0x3105f70e1ca502ecU,
  0xf407e2e312183e04U, 0x2bf10afd162126d0U, 0x1bae7f717f60108U, 0xf0baed03efd32435U,
  0xe40c40f316eb0c2cU, 0xbb082f0f7ff139dcU, 0xf80fe3231eebbcffU, 0x4214f122f6fece58U,
  0xef8151049729cc0eU, 0xe4f1cfff9d5bec13U, 0xbed13552dcc85f25U, 0x1df232d904ad095eU,
  0xf3bfdefc27e61fcfU, 0x21670bcc2be00ff3U, 0xabfca24191cf3fdU, 0x35c0c0d5e509d0U,
  0xaf28d3033a28e056U, 0x33b7f448eef3cb04U, 0xa2b6a9cdfb331f16U, 0x40e2291b12d424e3U,
  0x1e13f0309fd2d21U, 0x14f103111a290407U, 0x17eee40303041415U, 0xf511ecfaeef20403U,
  0xc0d7e41d0d40d4f0U, 0xfefdfffa283610fcU, 0x3618272bf20dc911U, 0x16e80212072a02b4U,
  0x2bc2ce29302a14eaU, 0x15e0261de33c2d14U, 0xf832f5f919951adfU, 0xfadafdff81300cecU,
  0xf102f2160effd30bU, 0xfcee02fb18ee2508U, 0x3f10208f4fcedU, 0x160e021addc7d00cU,
  0x381232f3fb17221dU, 0x10ff3422c10efc0cU, 0x3005b71bc7fee97fU, 0x32ee3e270a080f0bU,
  0xf3e1ee1fdc2332f9U, 0xd3fc232820061024U, 0xfae7d6e411fa210cU, 0xdc0505f4ef1822d5U,
  0x8de3200051111f6U, 0xf90624f501fac3ddU, 0xfa16e8071416e0fbU, 0xe3e318db2c0b000dU,
  0xa8cec7ead7c43be5U, 0x6d921f4a90de2eeU, 0xfeedd5de71eb45b2U, 0xbf3c21c744111ffdU,
  0x1b1220bd28e5e003U, 0x38f70015dfc2f481U, 0xfe2839c0edd6d0ecU, 0x54fed9d041041128U,
  0x2f08eff4f704baffU, 0xfcfcdedc0a210cffU, 0x1b11b0bbfdf422c8U, 0xcf1ecf1d4a1d3003U,
  0xe01017251924ed1aU, 0xfcf23a1b5cedf7dfU, 0x91cda7f501aebc5U, 0xc4daff9f14a1fe24U,
  0xbcf153b055befeeU, 0xe02e3e20e4fce2eaU, 0xb4fa0201fa1ec617U, 0x57fb1a2653cce9d3U,
  0xec1dd8001917d9ecU, 0x1400f5fb2df37f1dU, 0x1bff100516fffa10U, 0x6fb12f0d292df1aU,
  0x4afe340c25e04d09U, 0xcf6f963b70ef31dU, 0x917e24eab2fdb69U, 0x4aab3610e74bec0dU,
  0x2eeeeb1a965532d3U, 0xde0f0a362d15093cU, 0x1cfcb3ef301c15efU, 0xdc0c0a18f1372daeU,
  0x1604fcec1405fe07U, 0xea02f10d2704bce0U, 0x1dfa13f100ff0f11U, 0x3807ff14c681e6ffU,
  0x2c91c11f3260215U, 0xf7e910ff3e311cf4U, 0x19e4e2d2bbe5ba1fU, 0x7b1ee92721e903f0U,
  0x2be5ecb407bc0724U, 0x29063329d71e4d26U, 0x2dfd315426c54b1aU, 0x171de424cf080103U,
  0xf1d83b17fcebeb16U, 0xc10f81efb0ac927U, 0x50fe40be5e6f101U, 0xe40e0511e2100120U,
  0x17fd0c1cdaf419U, 0x1323eb200e20120fU, 0x11090bd90be1e018U, 0x220b17edeefee976U,
  0xcefa00ebf0d224f1U, 0xd0eae40347880fecU, 0x37fff830da6eec23U, 0xffe414112f130681U,
  0x3719275501bcd6f1U, 0x9ededb7330320e4U, 0xe4004f54748f520U, 0x1830f4eaff15abffU,
  0xe1f8c27f0c310bf8U, 0x11df50808f4d7efU, 0xe435053cea18b8U, 0x29d427143327d8e3U,
  0xf3f11930ec0f02c9U, 0x20dd0ae5d0ddfb26U, 0x20da0010d11e47f0U, 0x1fe5404dafe0c42U,
  0xb2bddd6c98d602aaU, 0xacc218213bd6df10U, 0x5df411aad0e7fb6fU, 0x30e4cd03108a2f09U,
  0x217f7b2126fb05eeU, 0xf8cdd7e9df8912e6U, 0x8e2582e07ddd2e8U, 0xd72fcd1bedade1f0U,
  0x104adea72112dc76U, 0x5ffedc3a44fb03e3U, 0xd7c1d549fe0aabe3U, 0x2ccce342ed04dc13U,
  0x2af1cbec1fcd5cacU, 0xd5d5fb07c1cd61f1U, 0x535ecc917342402U, 0x2fe0a0a07776028U,
  0x1c1a5fe50e0ed3f6U, 0xf81138a77a11f400U, 0x7f3b255fb0bfa120U, 0x76c65203fae62211U,
  0xda3a158b6837b9U, 0xd5ec1512e3104332U, 0x2a149b04270941feU, 0xdcdae247924f1f94U,
  0xa231f9e9f3d34b03U, 0x16f0ffd0811e292dU, 0xc7f40fbd221a4515U, 0xd4f821fe23baf8f6U,
  0xdf0829f2e3070ef7U, 0x46200dcd08abce28U, 0x3afad9101706f1f0U, 0x39d5bd2f1616321bU,
  0x19d9a2f005f8eff8U, 0x2622ec04010c3c02U, 0xdf8e5d60a2702f5U, 0x1b01e562f222d9e1U,
  0x131a0c26d3352b18U, 0x46c2ab30ff050108U, 0x42f109beb7a38abaU, 0x26c2edf0081e18e2U,
  0xef08da34cacd3de3U, 0x110e74135e8d4c8U, 0xe981ee04e6f4c9f3U, 0xdfe2b7c807e2ac27U,
  0xf10037dd2112ed06U, 0x4e405555d41afafbU, 0xe8f5dbabec0d34edU, 0xc9afb758f7bef410U,
  0x51f6001c0a1186e4U, 0xf257dd4bd4f4e2b9U, 0x1cf5e20fdfd0e8c7U, 0xc1091ae418dfdbU,
  0x3ee3ed0f090ff326U, 0x4dc2bd0242616d0U, 0xf056d915f8a1f8f7U, 0x25fe250d44032098U,
  0xb13715bbab022cd2U, 0xc015d9dd50ef97fU, 0x7004fb032e5af31aU, 0xa057e63be810f020U,
  0xd20999494f75010cU, 0x812ec1e3bd6d4e3U, 0xe8f804105b02eae6U, 0xf023df1238df56b4U,
  0xcc33092600f33b08U, 0xb713e1c8114906f7U, 0x3eb140df819fbd1U, 0xb6b5b009a581f11eU,
  0xd332f9040418bce0U, 0xcfa9d01e79e062f5U, 0x41a5c98edcfed5a2U, 0xdf1e170acaabd3b9U,
  0xfe042ee0d50de424U, 0x2ced1df0022100d5U, 0xfdf307fa271629edU, 0x24cafc1806084a1eU,
  0x33d0041a05cf0f21U, 0xde170f1ee217252aU, 0xfde4eef94601e2d3U, 0xcae881eafdf5fde4U,
  0xeaf60391dbea2ad0U, 0x2fbf18deef31cedU, 0x62cede6ef1d063bU, 0x118ff0ed60c40acU,
  0xb3e81de80ca9cb08U, 0xbc097d49f21710cfU, 0x4a25d7c1130ee61dU, 0xdef70945f812a2feU,
  0xe108f843e21f501cU, 0xe20c58de3ef34dc3U, 0xf5b60ad922f509deU, 0x51eaad098ffc141fU,
  0xd91481d1cfd7d389U, 0xddeefbf70e19eb15U, 0x78232618d500cdf6U, 0x3e883517d90d1a13U,
  0xfc0760010d3021e7U, 0x1bfefbcef81a0119U, 0x210a1f1cff08f7e8U, 0x9eaef17c2ce1129U,
  0xcd2c11e53e129200U, 0xfdffe02017d7ff25U, 0xe2e7f11f403ca22U, 0x142a2510fc3dec03U,
  0x16f2fc04d6003fd7U, 0xc9020e481b2a2922U, 0x924b92b0d26eefcU, 0x19e0df2cf426fce7U,
  0xfae81bd73104e6d4U, 0x4fd252056f01ed9U, 0xf8ef2836291eda08U, 0x21e25eda4146ecf6U,
  0xffd70aed18449ccbU, 0xdcb112ac0b4d4c46U, 0x4d2350d5dddf7b37U, 0xf02a6fc3a9b033f5U,
  0x4f3291f7dbdf0987U, 0x97d62081c72f2becU, 0x4d69edeef0ffbfd0U, 0x9bb384225644ab1U,
  0x1722e81506f6f9faU, 0x9ebf90c021509f1U, 0x81d19ed16fa1700U, 0xd909ff29e40612f4U,
  0xe710da0a210aef2bU, 0x2806041815cf0ce9U, 0x61319fdb481ae12U, 0x25fd33f21310b801U,
  0x3ab802f4c300d4bdU, 0x14011ff8db5514f3U, 0x2b13e40ad4e04111U, 0x248f303f33243d7U,
  0x1117f911e909ee1bU, 0xe2290de9af26f31eU, 0x3e109ef48d7ebcdU, 0xfce6bbf5c5ef2008U,
  0xed37b127af14d9c2U, 0x32a6e1c0dfde0634U, 0x583dc140e2031800U, 0x81e630109f8a19ecU,
  0x105eca66f73602a7U, 0xcbff671f000997f8U, 0xdee4b43be139a497U, 0x4af7f90d14e15114U,
  0x1015e4c1e7fbf962U, 0x110ffd2f11bfbe1U, 0x1e09ebc7ee1d5023U, 0x6e9c507c50726efU,
  0x11d43bd3cbe20b09U, 0xfc2f031518dc272aU, 0x131db009c0c9f5f3U, 0xf8510d07d8fecb1eU,
  0x172a53e69af2263dU, 0xf01a7ff5e420ef0dU, 0x32e5b714e2b81808U, 0x21edf34be03bdfd1U,
  0x7f7b10e061bfed2U, 0x29fa0916d708091aU, 0xf33ff218bdcfee54U, 0x7f6f319e839200fU,
  0xd6ce1400bd0c281cU, 0x8ff1d0510d910f2U, 0x1cd7ee1af40e0cfcU, 0x418c5121bab44cdU,
  0xceff33e20907360cU, 0x2bfb811dcaba0eddU, 0xfa4b9fd023f402b5U, 0x22c913132718cf06U,
  0x40910c00ee5213f5U, 0xe4f622c8101db7b2U, 0xda6def50fdf1b51bU, 0xe627daeaf3d4316dU,
  0xc8c7fd4d2dd073ffU, 0x1724d400430802d0U, 0xa4ab10ebddb629efU, 0xda1ac885cceb0c46U,
  0xa724701fe2fa3430U, 0x583362a5d49123c8U, 0xd89916292847fd81U, 0x9daf045e0d7fc0cU,
  0xdef816090e0b05d4U, 0xe1ddd332e72625efU, 0xe712d50d3240e4d3U, 0x4ffcfb8c706192cU,
  0x342d44cc18f1f0bdU, 0x165836c20ef1f7cfU, 0xe93edf01d7e5df16U, 0xcbe9b0c02c331e1fU,
  0xebd219c9eb00eff5U, 0x56521a2b34e608faU, 0xd0db10bd3fcf6d2U, 0xe32e2c7f08f1ea21U,
  0x7071019dfcfdc37U, 0xe70de93244d72320U, 0x1010c516e1f014e1U, 0x810ddd16e23f0a10U,
  0xcef8013a0606d0f9U, 0xfef9eed704fcd2f0U, 0x8911e411fec524f2U, 0xf9d128cb86172a0fU,
  0xed00ee93eb0c2dc1U, 0xfd11dc0e5720d122U, 0x20ec111d12f021U, 0xc0ed3eea2bdb62fbU,
  0x2717296e141bfbe8U, 0x81126c0ef8ebf73aU, 0xeee425e00f27fff2U, 0xd7df3f0bfc09edafU,
  0x20be21fd6a92ff7U, 0x272c072e3cd5090bU, 0x1901211add40f702U, 0xee20020725f63eedU,
  0x4d71fd6fa0a122bU, 0xcece3063c7061d10U, 0xffef0cc5e4ebfc0aU, 0x3a6cd2afc0bf304U,
  0xc12a2ef01b2e38f3U, 0x1ff4230aef53491bU, 0x131413e8050a3d0fU, 0x1ce716ddf6ef2e13U,
  0xe21f0226da2b03e1U, 0x2a343e1cfd2e0703U, 0x1c0e3a0af617fc0cU, 0x44044be71c2d13f3U,
  0xf8243228caf015f4U, 0xeb15080c2200ef12U, 0x3500be011924071eU, 0x1fcc407ffaed1414U,
  0x1dddcef6022e8f15U, 0xea37f8080b4bee69U, 0x7e0e134132af2U, 0xfcfcfac021ec0ad2U,
  0xf901da10cdc2afc1U, 0x653fc3707fd2edcU, 0xdd33f6e63602ee9aU, 0xaafe9c2596c9b67fU,
  0xec66e73222dfc018U, 0xe7d45d46a0e4fef9U, 0xa420b6f70902e00fU, 0xdba8d1eb0593d64aU,
  0xf9c508dddaf2240cU, 0xabe1e6278032c16U, 0x314f20f5b20c2114U, 0x13fc471b0c5af835U,
  0x17ecbfe22ceabbe3U, 0xab2d13fff8c30b55U, 0x7fa31dfcb6b14410U, 0xde0bfee6805ddd1U,
  0xf2df56b9e5fe1455U, 0x3cef0ffff6b909d0U, 0xc6f01f1a41209df1U, 0x856bfc1ed3ccc304U,
  0x4c51f92b1a97d0d9U, 0xeae8f90c1535f4f0U, 0x2cc6edfff9f60327U, 0xead01ff8f821f938U,
  0xe1052723fdfafcfbU, 0xfefe0fbaedfff3c8U, 0x3a3223400c3ce935U, 0xf41302be0c031557U,
  0xfe20f5eff8272918U, 0x5aa6f701cced1d31U, 0x6d4d030e63b53b7U, 0x15b5ef18f7207f01U,
  0x81f6fcf6eb09f2fdU, 0xea07edeaeab035cdU, 0xfcdc371202eeeff6U, 0x20fe001e1e23121bU,
  0xcd03f52af2140709U, 0xe8f10bcfeb1402f2U, 0x2a14dffafb16d4f7U, 0xd5d71ee23af52521U,
  0xf005100516f8160cU, 0xdfc20eb0c0511f4U, 0x1c270bced21415feU, 0x1c1a0304e4bf08fbU,
  0xfbf309f5ea1cc827U, 0x2a091517f94e15ceU, 0xe022da18de2904f4U, 0xdcfb18fcf201ef1eU,
  0xfdf4c93e28d602f8U, 0xf7bfcd1b24f9011bU, 0xc0b42f13e2f9e601U, 0xe8ffe940000ed2fcU,
  0x971e7fe4c112cfe5U, 0xebff8b7ba4e4e6e5U, 0xd088e8f00113e3f5U, 0xa6bbdfdbf832ecf3U,
  0x22fe3bf80920ee08U, 0x17e3f7dff6d9eae8U, 0x33cbd025e4e21a3U, 0xfdba908171e55c9U,
  0x35266218bec526fdU, 0xc42c3fca339e1834U, 0x5cc5bbecf827de04U, 0xe3d9630bafb70d13U,
  0xc4b24c8a3afcf1adU, 0xded33dd9780435e3U, 0x273004f69808d707U, 0x81f3f60dcc16bcf6U,
  0xbff26ea0e02bdefU, 0xffe504033ee2ece3U, 0x32f518f90608e7dfU, 0xff0cf7ccd9154710U,
  0x1cc0c8fa109ffabcU, 0xafa33dcd8a81bd3U, 0xbfb37feebfdbcfffU, 0x24d7de19151246c8U,
  0xadb6cdae2e21815U, 0xaf1314da3ae6c506U, 0xd59aa70401b801f3U, 0x1cf40f02d0db95d6U,
  0x2430601d91e04e8U, 0x11cf0f0732051819U, 0x723deff0df5eefeU, 0xc9deecb23151f38U,
  0x8f5ecbad7eb1bdcU, 0x53153213fe0ce0dfU, 0xfcaba8b8eb232bd7U, 0xfc03457f9d6b35d5U,
  0xe63904dbeea89598U, 0xd3cb65ab010505faU, 0x16d73029c30a41f1U, 0xdf9b3842171515a9U,
  0x172cf5aa1ce0da12U, 0x182ab81dd8d9df1dU, 0x23f82cd9f014f11dU, 0xd8f2f7ceeb042431U,
  0xf2aff0a1e7d31c05U, 0xbedfe4132bf87fc8U, 0x826dc008f0687e1U, 0xefd854c2bf1ac2ffU,
  0x95e1c829ba0147b1U, 0xaed8eb262123e3dcU, 0xeeeda88fc4b3e9b9U, 0xebfae007f55e5ba4U,
  0x1decf6e80a0bf924U, 0x9f7e30941f3f804U, 0x9ec010819f805f5U, 0xd7dcfbec143f42edU,
  0x12d951c300081124U, 0x3aef052f16f9b814U, 0xc5d2ce0233bb06e9U, 0xe5c4fcd0c4ef277fU,
  0x3e172fe6f0fa12a0U, 0xe0edc4460c1aef0cU, 0xa2c1805e62e060aU, 0xb451e6aa9b2bb0bU,
  0x9f24c6f5bc072a1fU, 0x54f2f74bf1c5d7b8U, 0x99b2f0f9c1f41af9U, 0x1e253df4ec2b30deU,
  0xe7c60ff9e9b6010aU, 0xd610dd2862c6e0f1U, 0xde369ef80016e9dfU, 0x32d9aae802ee17fbU,
  0xeae40bf8f3d8feeeU, 0x4101fa3a58e0baddU, 0xd700dfeb2803120dU, 0xa7ddc07f1201f016U,
  0xdd00f0f304fbe7f8U, 0x390cf4d214e704ccU, 0x35fef02ceb461881U, 0xdfeaf4ec141119ffU,
  0x251af1270df1e0f8U, 0x23151b1af1eee919U, 0xeecaf8e70717e7f0U, 0x10f3d6e5aedbed17U,
  0xf00405dce4f7f8d9U, 0x13151c1ef1e8dbfeU, 0xf20904c9ed06ed0fU, 0xc3ee021ac9062df5U,
  0x2616f02a09ffde3eU, 0xfa01f2edda2404efU, 0xf90beddf12080e01U, 0xe939e9c4d5c4eef5U,
  0x4662eed416093dcdU, 0xdbf1dfe7042a252aU, 0x17dae9ce2da04aU, 0xaf6dce8550f03d1U,
  0x2e16f452c9ea67e1U, 0xc4cefb3c141b44ebU, 0x2c140f12e39d1ef0U, 0xdbd3e229bf4b7f17U,
  0xec1f09f2f5de01f3U, 0xc15f4f62503f907U, 0x8fa0af506f2f807U, 0x24ed21e6e50c202eU,
  0x5ef371b00e2f5f0U, 0xe6f3f9feeff920ffU, 0xe03c8f51418092cU, 0x271e1ee114fb2154U,
  0xc6030efeaae14a12U, 0xeaf9f02020fb0dfcU, 0xff1eb3ff067fcaf8U, 0x14eb33122514f20dU,
  0x36f71cb6f4411119U, 0x2c060903e11142d9U, 0x71908f709f70619U, 0x2de2f931dafa2739U,
  0x277ffcd8c0300ce6U, 0x2ef913d545eed995U, 0xf8051023d3e60942U, 0x194900dd2fd404ceU,
  0xd036d2c40a36fc0fU, 0x399a10f01a2448eaU, 0x1cafd3b2f51fb121U, 0xafa0db16cfa3cedcU,
  0xca9fe0395fcafa53U, 0xfde6d504df1fdfc5U, 0xf6366051c232ad0aU, 0x4743da0204087e35U,
  0xe2232672164cfcfcU, 0xfef75be6f8f542b0U, 0x2420ecd006e330f9U, 0x2b08291a04012514U,
  0xc6a9cbdea3dfe681U, 0x33f85ab46c14bed4U, 0xf012110bdc23180cU, 0x50f1221d3050ae0bU,
  0xa62d1d4bc0e5ea07U, 0xd9da33fdd9dd0a81U, 0x2feef3dc0befe643U, 0xe603fbf913b81c02U,
  0xd718f002db5a21b4U, 0x9d3cead0ffd0ebefU, 0xe4fcc9ebcf280d03U, 0xf20cf6e6c52eff0dU,
  0xb39fee104ea25ecU, 0x25e30223e803ddfeU, 0x1433d7f5ed03f61aU, 0x13f8dd142be2f105U,
  0x2ee9bcff0f17270aU, 0xecf903004c8134e8U, 0xd0c59025cbfbf649U, 0x31114ccf500ecfbcU,
  0xbd28e2c7b0a7fd00U, 0x8cd057c19d9a0ba7U, 0x203f0bd0dbd9e8f4U, 0xa5e1de3956dbfcffU,
  0x5d186cdddc5f635U, 0xdda5be20202a51aU, 0x4b1ce1db1b02c517U, 0xd001ed3acf00f28dU,
  0xcd2c99b9b1ebb6d0U, 0x1e281be4d44db8e3U, 0x47c7de2316ba770dU, 0xda35be0a030feedfU,
  0x1430e345d0d69de8U, 0xdd1af408f2d1ffa1U, 0xa4ac0020eecd25fbU, 0xe40d4911400c0b44U,
  0x1bf01fd0060cbf00U, 0xb5d6ecec17ddeb23U, 0x1ed80600f0fed481U, 0xeee0df2aebd762f4U,
  0xf3ea51dd08f21625U, 0xa09f607d3c981c7U, 0x10fde3f30417e9fdU, 0xf9ffebf0020ff1d8U,
  0xebe3e0f5cefffc02U, 0xee31efffcf5e9e7U, 0xefeafdde0d21fcedU, 0x313d800ee0df6e7U,
  0x1a1d2bfae3ebcbedU, 0x260fca00f704f0a8U, 0xfae32208ee1ce8f4U, 0x3e1b18110af3eaeaU,
  0xfdaf00205f8db00U, 0x17cd00140cb3e4e9U, 0xfafe14faf6edf401U, 0x290df038f0180507U,
  0xe03ef0eeb030c24U, 0xe8e319b82b14fae3U, 0xfa000528d47fd31eU, 0x14cc1f0c1d00f2f9U,
  0xe0d27e6d04215e5U, 0xc8f1f40700c6f220U, 0x211ebcd65db40fcfU, 0x6c80703e2310be3U,
  0xf42135fb1e00eadaU, 0x4e71dfc08d9fb12U, 0xef12e012d5fc070aU, 0xdf3819fdd8d30f00U,
  0x910b9291afa2506U, 0xad0619a026e10af2U, 0xdf0f3515143ecbfbU, 0xf90c1c110723eed1U,
  0xcb2de11cf82606c5U, 0xea17137f113d05efU, 0xc6e9aaf83b9dff2dU, 0xfed53140e034ec03U,
  0xe10bfff939f12531U, 0x96a5fe8130e10901U, 0x25b3c95220acf792U, 0xf119ec0c1325e3d0U,
  0x22faec06f5e6ed11U, 0xe6ea06f215080a8bU, 0x22eff7fde9f82a01U, 0xfcdff3b34f37fdf7U,
  0x2bb2eefe35f5ddf9U, 0x12dd17b7f0d223ebU, 0xe4f72c10ecf7b205U, 0xbde4ecfaf7eeccedU,
  0x17b3f22e81eae5e2U, 0xa358fc890720ecdbU, 0x23e2aadaf7c5bcf6U, 0x3a03befd3901e3dcU,
  0xed191b1005d305ffU, 0xa015cc371504e1e3U, 0xf7fb2423ed1ae2fbU, 0xe5d4cfcca2fdfcf6U,
  0x290323be02082542U, 0xeff93f5e2104c20bU, 0xe903f225eedad8eeU, 0x1709fbca0ae9eaf4U,
  0x3b0c903d4e723f5U, 0xfa2924ed24060816U, 0x2f3f8fa48cf0e1cU, 0xf1e011f706efbad4U,
  0xf107f7b724fde7f1U, 0xfd321ac811f64402U, 0xfe8cc17abf1f04bU, 0x9240b1f543999e5U,
  0xdfc1acdbd8f80af1U, 0xd3f986f2d6fce30dU, 0x18b01b11c3ec0fdaU, 0x7f32fa53062315f6U,
  0xfffffd8a00000653U, 0x2bcfffffee3U, 0xffffffadfffff962U, 0xfffffa97fffff481U,
  0xfffff57efffffdafU, 0xfffff80e00000178U, 0x9ee00000f63U, 0xfffffe3a000005cfU,
  0x403fffff1daU, 0x6b400000571U, 0xfffffc2200000165U, 0x2c4fffff865U,
  0x8e9000005a8U, 0xfffff672ffffff1bU, 0x15efffff18aU, 0xfffffe0f00000b9dU,
  0x8bcfffff230U, 0x49bffffff66U, 0xc9200000197U, 0x139c00000f6aU,
  0x6e2fffff38aU, 0x5f2ffffecf3U, 0x17efffffcb7U, 0x190000082eU,
  0x69effffed96U, 0xffffeee5000006c6U, 0xffffeb50fffffc94U, 0xfffff7c7fffffbdcU,
  0xffffee9c00000e24U, 0xfffffb53000003c3U, 0xcffffed2dU, 0x545000000a5U,
  0x1fd00000104U, 0xfffff8f4fffff0cfU, 0xffffeaeb000007a0U, 0x13f4ffffea02U,
  0x521fffffaf6U, 0xc98fffffac3U, 0x1765ffffeef9U, 0x13c1fffffd0cU,
  0xfffffa20fffff7d8U, 0xfffff627fffffed6U, 0xfffffc70ffffff23U, 0xffffff46ffffebb3U,
  0xfcf000010a0U, 0x40800000ab4U, 0xa84fffff69bU, 0x93200000151U,
  0xeb471a06c45ae201U, 0x29fafe0e33f1fad5U, 0x7d214f5b35cb3b31U, 0x41010120b057f14U,
  0x5c8295151eb5e76U, 0x2892def6cb8be0edU, 0xfad924e8ffff3a15U, 0xf5dee31cf7bfcbfeU,
  0xa7040fb1f80d0849U, 0x79c9fe136608bb14U, 0x9f38116e2030c5aU, 0xdb10fbf0aeffca09U,
  0x81692a1dcf68f211U, 0x4a701a300e81e9c2U, 0xb06235093172533eU, 0x12f9e527fa0aff7fU,
  0xf12f2003f137761U, 0xe8975dd3bbaccfa6U, 0xdfb1aadf5f8f211U, 0x1581f237eeb9d4f0U,
  0xd6c22d91e4e72702U, 0x6ca2f4f50fea0126U, 0x7f00a4f37f14077fU, 0xd3fdf881bd1cabfdU,
  0xd439240ac447fafcU, 0x2402001024eaf7cdU, 0x792d37e138dc471bU, 0x90b180efc086a19U,
  0xf5bc1a464f517f7fU, 0x2590cff4b09ef2dbU, 0xf4f70addfff63818U, 0xecd4d331e3c4c804U,
  0xae021bb2f7faf12aU, 0x49b0fbfb7ffcbb20U, 0x15f28d29ea010774U, 0xbc0afbf1bd01c015U,
  0xea6a21f5e454c8f0U, 0x2920b80742fd05e7U, 0xf042347f6cd6292bU, 0xfe100113980352ffU,
  0x2816e3f38aa3d27U, 0x3d819201d4d4c802U, 0x13907fc913071a79U, 0x480aa12220f0cd02U,
  0xeadd3faded030740U, 0x5508f4d430f68d42U, 0xb17c243f60411e5U, 0x81060afea7e8d62fU,
  0xa97f7f12abfbe07fU, 0x7f7f818109147f81U, 0x987f7f132b3c7f7fU, 0x81817f1baff0cee0U,
  0x7fdc1a1a1ef03072U, 0x4ab566158162813aU, 0x7fa037817f498127U, 0x7f39de607fd9817fU,
  0x7f7f7fc081817f7cU, 0x7fc6d98903817f6fU, 0x677fd057447f7f1eU, 0x87f81d6ef7f8128U,
  0xe56224ebe65fa9f9U, 0x302ea50933fa21edU, 0xf252558d66c33842U, 0xf9041814a7fc6efaU,
  0xd926a5a4a7f3267U, 0x499694fcd0c2a90fU, 0x268e78cd21141b7fU, 0x580aab422ef6bc23U,
  0xf5db4081caf92778U, 0x5ef1e3cd1beb974aU, 0x226ad48f50d1edeU, 0x9f17f8f3aae1ac36U,
  0xfe291689a05bbef2U, 0xfc19c1036abf08f4U, 0x7f061b597fc71e19U, 0x141733eee8d66608U,
  0xf7e8617f68d1fa6fU, 0x759dc807c381e11fU, 0xdff2b0a02f55809U, 0x4b0391341281f345U,
  0xce010d95e50a0671U, 0x696253eb4e0cb87fU, 0x21c774e1011bf3U, 0xb507f60958010e69U,
  0x12785581de06810eU, 0xf727d42a7db1419fU, 0xa04bd20b037f5e6cU, 0x1e5457f818108eaU,
  0x121d35eb61150538U, 0x7f927f7fb219b27fU, 0x448133c72381c71fU, 0x6e1fd07f39e5fb55U,
  0x5d365a9d1d74142U, 0x3f457f81cfe52356U, 0x22cae76d91e3bddU, 0xec17f84c3722252fU,
  0xf6411c97817fc0edU, 0xfd02b4067fc80b05U, 0x7d2f19cf7edb372aU, 0x151833ebe0a55c0eU,
  0xd47f6b7f52175fU, 0x6c98c106d8a2bd22U, 0x13d90e0003ee5a0bU, 0x400a81311199033eU,
  0xc8000899e902057fU, 0x507f53c45314c36dU, 0xfb21bd7fe50427f9U, 0xa20102067f061b7fU,
  0x11dffffff964U, 0x228bffffe894U, 0xfffffc8a00000933U, 0x1aaafffffb57U,
  0xfffffc9a00003443U, 0xffffdbd600000a98U, 0x12cf0000000cU, 0xfffffed9ffffff1cU,
  0xffffe88afffff3e9U, 0xffffdc16fffff784U, 0xfffff2b5fffffc08U, 0xfffff091fffffdb1U,
  0xffffec0cfffff6a6U, 0xc3a00000043U, 0xfffffe84fffffcfeU, 0xe5a000003f1U,
  0xfffff1f7ffffdf43U, 0xffffebb9fffffbf9U, 0xffffe254fffff522U, 0xfffff4ab00001aa4U,
  0xef1fffffbc0U, 0x106900000a99U, 0x4d5fffffb66U, 0xffffbb6a00003082U,
  0xfffff03cfffff7c4U, 0xfffff38700000923U, 0xfffffbe900000af7U, 0xfffffcf10000044fU,
  0x125ffffdb36U, 0xfffffbbd000022f3U, 0x11f3fffff68fU, 0xfffff37600000310U,
  0xfffff474ffffe2e8U, 0xf7200000807U, 0xfffff7bd000033d6U, 0x19cd000004e1U,
  0x21d4ffffd970U, 0xffffe457000002f5U, 0xffffebc50000061fU, 0xfffffa9200000141U,
  0xffffff0bfffff4b9U, 0xffffff2affffff0fU, 0x295bffffce1dU, 0xffffff99fffff36cU,
  0x1043fffffc39U, 0x508fffff60eU, 0x41600000192U, 0x1488fffffedfU,
  0xfaf333bf0af0f0e9U, 0x230204e9340a2f07U, 0xf724edddbe0f3229U, 0x2eadf28f80de1ceU,
  0xfaff16da44e22ff1U, 0xdbede7fbcc273bfbU, 0xc9fcd12a1af9de48U, 0x4ef27f10edebe403U,
  0x42cfa18fffff328U, 0x29ec06e106fff3aaU, 0xbbbf2dfa010a3822U, 0x3ffc4ceaf89d12b9U,
  0xe8e817ea1c0febe9U, 0xd5d525df280a0ffbU, 0x1d0800f5f3eb1649U, 0xade140a17000516U,
  0xe6270dec06f8e5faU, 0x11f00cfaea2b0ecbU, 0xdf3b15472eeee311U, 0xe700f7d3f01bebd6U,
  0x7f0fef180af9e005U, 0xeee80902f91d13c7U, 0xedd90220f0faee2aU, 0x58dc0e250efac6e4U,
  0x7cb77fe21ef7e6b6U, 0xbf0c0cdb09351004U, 0x6df33fd0f1af2ceU, 0xf524043c00a6ffe6U,
  0xc7cd7df90602ef2fU, 0x62a0bd1dac83034U, 0x16cbe0e8f824f125U, 0xac0e77015d191202U,
  0xfd026b27f0c1f2ffU, 0xdeb7fa314be440a0U, 0x23ccdbd505d42521U, 0x1fd710f3d003cf01U,
  0x3ddd8f6db2106d3U, 0xe7f3aff03b15eb15U, 0x100e03ff1be1ef0eU, 0xc0212d080836fff5U,
  0x3827f1faeff4faf2U, 0x2a02fa04fc28ce04U, 0xe52a2123f908e30bU, 0xe12a1317f65b11e8U,
  0xf018eb20301be991U, 0x1134e4ecc3071cc4U, 0xffba23ecdaf7eba8U, 0x3ceb00f3050681f0U,
  0x34f4e11f7d352ff1U, 0xf9e311efd8431023U, 0x1f7d81013effc37U, 0x480af005fa040c09U,
  0x2cf3dd39f60f00bbU, 0xff61a05c4e60cfcU, 0xd41af723cddcf200U, 0xe608f5eb07413c1bU,
  0x23014320f216ce47U, 0x61c07e0cc0b0f15U, 0xef81fee205e017f2U, 0x1c0302fbf4ecc2e7U,
  0x1110ef24e5160cf9U, 0xf209ea05e011fadbU, 0xe9feff2153f0c527U, 0xf911fdf4e8da1922U,
  0xe3cfe01fcf1bb8f4U, 0x9cd73b0afecc031dU, 0x1ce01bf23ffc7fe5U, 0x121ae0f9004c0207U,
  0xcbeeff090d03ef02U, 0xfa06f5192fe24bfbU, 0x61df909fbfaeff4U, 0x1bfb0b092526e814U,
  0x1bf80c74dc0106ecU, 0x12d7e37826170fe4U, 0xf5f0e104d91fe60bU, 0xbf614e5fa23c953U,
  0xe8cc0108cb0ded22U, 0x11ff2a12dc1a0f22U, 0xe70603f8e83dd94bU, 0x2d7dad416fd1bf2U,
  0x1fd20bf301ff0fe9U, 0xf5140d15fbf1f9dfU, 0xfc02e221d90b36e1U, 0x1b00f5197fd009fdU,
  0x39c5c420f3f318eeU, 0xf2ceedb328f4f116U, 0x211a03f3ccf4eed2U, 0x7f3711d0132b2802U,
  0xde811cee80a2b4fU, 0x24122a47e922e4d6U, 0xcc15bdeb9d15fcdcU, 0xed2428d2e6e328fbU,
  0x55d6ca14f349dda8U, 0xd2f61b2ddae22a11U, 0xfb1a1dfe0a17dbbfU, 0x33d41b1feabfd704U,
  0x7feef80afb0afa00U, 0xf00bf8ec03ebf2f2U, 0xf111ee8083015e7U, 0x120ff1024203fa2aU,
  0xf83d04091be904efU, 0x5faf8ff1209f200U, 0xf3ff1c00f19ce5f2U, 0xd3e90418effef4eaU,
  0xe1f8f6fbfdfde910U, 0x812f6e701fdfd17U, 0xfc0417d5fce9f200U, 0xf604020f3516fc08U,
  0x5bff02cddb012304U, 0xfff1030407f60112U, 0x80925d605271012U, 0x1403f70664fa0000U,
  0xe549f0e61fcc12e8U, 0xe80801fe0d0ccbe6U, 0x714111b1936e2ecU, 0xd0dafc15090d22f5U,
  0xfc0fdc05f833e31eU, 0x9f83102e7d50701U, 0xfdf8f28102f2fd1bU, 0xfdf91005460a1619U,
  0x41f836fc1a942ce7U, 0xb5d60d114ffe0a49U, 0xa9e1ea032f0db928U, 0xc3e60d1013230fd9U,
  0xdf0eb630c103ff5U, 0xfccbe3d1ecdf4d0fU, 0xd6131101dd17e1feU, 0x51275edf711a4c8U,
  0x231a2b01ed18dce4U, 0xd6f02fceee81ffd3U, 0x47cce3001bd1df24U, 0x17042dd5080cd5f3U,
  0x132821c113078112U, 0x21181c0deff61ad7U, 0x202f0eed746fc31U, 0xc80642e5cfec1b24U,
  0x920240e21f9d5f5U, 0x2312122be4374008U, 0xfedddbdf0d09fb42U, 0x2ff410090228c6faU,
  0xc1fccff5fc09eacaU, 0xbfcaad50bc4f1f5U, 0x3112f314d60052f2U, 0x3f61822f4353801U,
  0x150bfd00f1f0070bU, 0x3fa19ec160f09ccU, 0xff011116fbe31403U, 0x1f9f7050cfe14fbU,
  0x6f70ce02f0f01eaU, 0xb67fd0f61418f7eaU, 0x9ffe71304f3f9ebU, 0xe5100ffaf9290002U,
  0x511e3f8e4f4f411U, 0x11fe13feea0a1eeeU, 0xfa0514171bf2f4e8U, 0x305041df2060413U,
  0xe70dce02ec871481U, 0xfee716d9d306ca1aU, 0x86fa1b1bb6eaea37U, 0x2deee09e12da1203U,
  0xf611dbae0212dbe1U, 0x2f18180243c44610U, 0x3ec1106d1fd08e4U, 0xbf157414afdf3b03U,
  0xd12e065a06d0eaf0U, 0xdfeef80ff1d916dbU, 0xed1ca41dfd31c339U, 0x2b10abe109c90800U,
  0x1f3b7f2456bde029U, 0x3cd2360f3afacf0eU, 0xa9efeceef60cdfc9U, 0x1307e40514f81505U,
  0x110ef5e625efe0c3U, 0xdce00508162c020eU, 0xd1d31ec7b308f9e8U, 0xf00464d1101b4207U,
  0xfe293545facbb7d6U, 0xfefdfb3d45d9f721U, 0xed1600feee3d14e9U, 0x1409c3f5edd507f1U,
  0xcae4a3ed06ea0dd8U, 0xaafee9f50319030fU, 0xd0df0f0191602dcU, 0x1ffa3681f309d8dcU,
  0xd32034f708f12addU, 0xd02f9df0723ff15U, 0xee0f070df424e7eeU, 0xe1e03e02dc2c19f0U,
  0xe03c9a4a1bf2e4edU, 0xa001e0f471818d1U, 0xe411ee0804ded9deU, 0x6111fbd10b0a0d2fU,
  0xf14d0800c105282aU, 0xe4e30b1bbb3eda32U, 0xfef006fa471ffdd9U, 0x3a25e925f7132f04U,
  0xa0b1cbb810127f6U, 0xe7f8fbe717360700U, 0xeae5ff23e7f8d1f5U, 0xe9050ae70e200cceU,
  0x1e21b70fd52601ceU, 0x12c5f53fc6c9efdcU, 0xe90bc2fef8f1df09U, 0xccf037e7151f1a11U,
  0xbbe10decc7c41cd2U, 0xe81ca3fced24fb17U, 0xdc71f50cf11c21e8U, 0x2021fdecebe2ce21U,
  0xdee220d41f14cbb8U, 0xf744130812d4e35dU, 0x122ee46182e4c1ebU, 0xadfa7cf109270af2U,
  0xf915b6f120812b11U, 0x11a60bfc19dbb121U, 0xefc80ba5e1ece319U, 0x2cf20b12ff1e2608U,
  0xe1f8e1f2f3f0d2bbU, 0xbf3bf758a5f9c9e7U, 0x1a1e41d7f221e603U, 0x316d78d2ac7f8dfU,
  0xeb7f4bad50b43800U, 0x216f91838c8c6f2U, 0xf0fefe00eae0ede2U, 0xc1e02310e648c84aU,
  0xe00ce647040dfc13U, 0x230227d326ef4ac7U, 0xdc20aa3b2dfaeaf3U, 0xc7fe30e404e4382cU,
  0x2f17f32fcf2af8ddU, 0x81106314b0f3f44U, 0xddfd4d2dc4dd3d88U, 0x2e3c0015d11dfbcaU,
  0x2d15e53bab281717U, 0xc8eabf240518bf17U, 0x1b01ef4a11ef09d4U, 0x3d0d7f0dbce610f7U,
  0x550decce2e0d44d1U, 0x20c8fe1850ce3bc5U, 0x14f3f305c3121428U, 0xe01f133cee1d08ceU,
  0xe011f113e9fa04e7U, 0x11f713f3be1afd01U, 0xe5d90bb3cadbe8e2U, 0xef51f00adc1abeffU,
  0xe7f131d07bdcb12U, 0xb0fddd41cc7bdd4U, 0x2d8f6f6c9eadcd2U, 0x90405e5dbecf7deU,
  0x1c08c5f4adfd26d9U, 0xae8f82e0c11fb97U, 0xfae22305f1f1e328U, 0x1beaf9fbfee5efddU,
  0xf40beee3f208faf3U, 0xeff711f109ece10dU, 0x1401f312060225f2U, 0x50ff6bb07f5eef8U,
  0xd011ec0013241af9U, 0xf104e9feec16fad7U, 0xbb060211f30af2feU, 0xd8f97f020fe7f9ecU,
  0xe09021e20fc01c7U, 0x100eefe8191916d0U, 0xce05053a1104eabeU, 0xe1e60e1e1ef7f5f6U,
  0x33d4ef0e329916c9U, 0xaed22ee0cc2f03eU, 0xbf02d01456041fdfU, 0xdaeab20cedcdf7f6U,
  0xc7ffe1420610e29cU, 0xf4deec141e26980dU, 0x61172715dd3503e4U, 0xec04035032220ccdU,
  0xe112bdd20747b79fU, 0xed17541d46abf8d2U, 0xced4064bddd674fdU, 0x7fdd20eedd0616b5U,
  0x49faeb12b481f7f2U, 0xf0e9f619991fbdffU, 0x30d101eafb0de8U, 0xffecddeef21b1ff2U,
  0xf605ca272b03ddd2U, 0x152ae5ba4933f0e6U, 0xaa2608b202f1ebedU, 0xdcf1cbeaf1dc0d48U,
  0x1613fd201020e09eU, 0xf711d51fffbcfed7U, 0xfaa300a402e804d6U, 0x4a280c04d1eae268U,
  0x230ff1ebf201efb5U, 0x3ec1d92bfe473cd8U, 0xecfb0202d4ec2f36U, 0xdef207f408ff300bU,
  0x2b010dbfd507fe02U, 0x11f131cf390509d7U, 0x12e6f11722b82c23U, 0x11f20781f70220b1U,
  0xdb6f01f9f1221416U, 0xbbfdfe04c2eee61eU, 0xcbe8ebe7e32a301eU, 0x183e35f602dce9d9U,
  0x20fef512299e3924U, 0xe10f2403f90dee15U, 0xce10f11db7e9f47fU, 0x7017f0ca02ccda19U,
  0x26f2ebe60119c2dcU, 0x301b024c36e403f0U, 0xfd04faef0df3010cU, 0xd8e013e5e739fe44U,
  0x1e04d037e80a14d6U, 0xfc1b293842c8f704U, 0xf2fee1edf2addaa7U, 0xe347c7eef3fafa04U,
  0xdc09fbfd0e2100faU, 0x4fcde01fa2712edU, 0xfcf3081cfd10f004U, 0x2fc22d3f50b2e04U,
  0xfde7f527cd22d303U, 0xe9f1ebd313010812U, 0xf8fedbfd170de581U, 0xdf2eff170cfc0205U,
  0x1380f0b19f4e2faU, 0xebebff02ea0b50ecU, 0xfcf2e9e61c1f14d3U, 0x1211030117ff0afeU,
  0xebdc21f77ff133d3U, 0xe834feebcafdee35U, 0xd0724f8f0e6f815U, 0x3ff1fc04f5301305U,
  0x47f30abc0af7efe7U, 0xff0704fa452e4336U, 0x12e104261400d72cU, 0xfc11ecc2921b2014U,
  0xd50729063157f10dU, 0xe0fe1c0a08e638d3U, 0xed68e1f4e71cdf17U, 0xf2eb1ae112ea69ceU,
  0x425f309f5f911bdU, 0xffdffe17db020c03U, 0xe3cff8e9163335U, 0xe5e628a316f835f9U,
  0x33fbf1edc3f0d9f5U, 0xd8ff41fd0c372fd1U, 0xf006f90621bdeaddU, 0x172bf8a632e91ce9U,
  0x3281100515151546U, 0xa9da113b06d02af9U, 0x1ce8c420011f0be0U, 0x1e0ef4360fee1bc4U,
  0xd7fbd204e99009e1U, 0x81f22bea401a3b0cU, 0x2f2120e72de914e3U, 0xd16e508ebfbca23U,
  0xe7eeb6e1f0f0fee7U, 0x65f1f2010ddc0603U, 0xc84c112dd4141ef8U, 0xcafc19eb0c4229feU,
  0x200203582909e717U, 0xf9253c008f9bdce8U, 0xfd1a631e04e1dd29U, 0x2123100f16f8f5f4U,
  0xc53822d30a0fd216U, 0x471eeb441b10f608U, 0xfced0001dd208f3aU, 0x9e02f96aa61e10ceU,
  0x1803cd5adf080312U, 0xe6c4d6fbb9031b48U, 0x6cbf30f3ffae67fU, 0xb4fe1412c30d1f7U,
  0xc2380ee343cf474bU, 0x17d93ec32cb504ecU, 0x2d21d1c0a202125U, 0xcffcdadd03752025U,
  0x31eae8f1771b35b0U, 0x3024a9bb1c5edafeU, 0x7924d2ebf7d8741eU, 0x54cfe6dc052834c6U,
  0x9f1a4cf4faecfd34U, 0x2c1b18b816110ba5U, 0x3cf8f312ccd20ba0U, 0xe91a47d8095f39e1U,
  0x5d063abed712d4b9U, 0xb82c812b8d06a1b7U, 0x351700e403fefbb6U, 0xed08d9f809f533edU,
  0xeebaffcdde1ebfbU, 0xe65cfe0a065bb857U, 0xefec08f1c909ea30U, 0xfb010ddd03ed0725U,
  0xf9f32b1c1614fb81U, 0xf01110f148e3fce4U, 0xc1ac160ccdd6e7d7U, 0xee001ef01d1a09e7U,
  0xd51140026a94dff9U, 0x11c42b3befe3f5e2U, 0xdacf70f0dc08ed0aU, 0xa5211de8c0ebfe0eU,
  0x1213ccf2d6eef2b3U, 0x1edaecf8f1c8010fU, 0xead00914db05b6f2U, 0xd43503e60de334eeU,
  0xa9e420e2d915c80cU, 0xeafd0101c21a2105U, 0x23f0370cce3e1ac8U, 0xfa051facfbe92f81U,
  0xf23728fee9020152U, 0xb1effd4adebbdce5U, 0xea2f022be9ed1ae8U, 0x9fe312f4ce3208U,
  0x18c5f1171fd6d801U, 0xa219dae8b2f16d3fU, 0xebe50803db03cba9U, 0xf1dd5be296b2e16U,
  0xc63260cae60af414U, 0x9100f2e0a87fbaf2U, 0xe5f20412cff628f0U, 0xc0074d03f218f63aU,
  0xe4064a38a0332ae8U, 0xeed6ad028ecfb5d5U, 0xe1a5d02b07e4d9f0U, 0x3eab0d21f337f805U,
  0xf8d55523e7d342c3U, 0xf4b9e63504e71726U, 0xea0fdb2103ec1ed0U, 0xd7d0192712e41725U,
  0xa16c6e1b31798dcU, 0xdb07d84612ec07f3U, 0x2fd6f3070308eb31U, 0x13e2ef1b2851182bU,
  0xb034a17093301d4U, 0xef32d1343b91947U, 0x3fb0126e4f924d9U, 0xd2eb7f10130cf8f7U,
  0xfae9c9f323d19bfcU, 0xc2912e10f813ec1eU, 0xd42ec708f70337d8U, 0xc7fe7efeb4929faU,
  0x92f8d3f1e404d7f8U, 0xe5f322fa0d3b0d23U, 0xe0faff21f30804f7U, 0x980b09d8d8f2d30dU,
  0xddebf26b5eadd45U, 0xf2e3bfcc41fbf4e1U, 0x7f13ee22c77d0f1U, 0x54f3c9f21825e2dcU,
  0xfefc062908ef08faU, 0xdf0bf6fe16ef12ecU, 0xa1f8058105d81ae5U, 0xd0fbdd100fcc0a5fU,
  0xf42508240c9e4720U, 0x3f1938e8ca060c0eU, 0xe81b161c0f072c2eU, 0xd01d1cfcfd151bf7U,
  0x30d4120ef418d815U, 0xcac01603c2d317f6U, 0xeaf2f6fdf40e0d2dU, 0xe4ed10e4253007eaU,
  0x9ef0ae4f020fd05U, 0x180ec717fde3f1daU, 0xae111b1dece5e7fcU, 0xea0b5de9f6ffe2eaU,
  0x12cf3328e016dcd4U, 0xd0dfbc33ff0802e1U, 0x6e5d80902da3ed7U, 0x149216f2078117f3U,
  0x36f7fcdc010109e7U, 0xcafbf8ea13eecff8U, 0x6406e408cb0b2e0dU, 0xe7d4b9031e2903d7U,
  0xbee41cfc15ece63eU, 0xe7deeb900e4ce6c3U, 0x1e09ff09fd17f7f5U, 0x28f620d73012f13fU,
  0xd534fff9ca01d618U, 0x24fdd7f7ee093a28U, 0xfbd4fdecdbdc2a81U, 0xf26061f09d62ee6U,
  0xbce007e9f8f515d9U, 0x12ea0c161ff04f04U, 0xd6e221f50204dcd4U, 0x9f6f6fc172fec25U,
  0x926ec52b2ea0efeU, 0x109ee85fd440deeU, 0x23f5fdf0b7abf2e5U, 0xfaf20cda980df681U,
  0x19cb1bf5e700d905U, 0x8fa23d6e30d2043U, 0xecf627200c533adeU, 0x360128e72f01e8fdU,
  0x1a320cde0ff515e4U, 0xef00e8e01c1c03eeU, 0x20d4011fff211350U, 0x290eec2b1594c7e1U,
  0x39d0bc331adbf99eU, 0xe34e16e9f4edf635U, 0x91c7beebdcec1ff3U, 0x3f8fdafd1b1f1609U,
  0xb103e90b15f10719U, 0xe3f0f8110323fd18U, 0xfa3ae81a2e0eded5U, 0xcb2444c5812fe7d3U,
  0x260fe8e70cedeffaU, 0xefbe38b3e2d0f4fdU, 0xcdf0cc39f5f02733U, 0xf0ceaaf7f3d817f1U,
  0x4bda17e121dcfd0aU, 0xd129e314e606f5ebU, 0x13173fe40b7f09f5U, 0xf00e0ea540cee6aU,
  0xe7570cd3a9ef061aU, 0xe0fafb25130f01e2U, 0x60322e6d4b3d2e3U, 0x1a041409e003fad7U,
  0xdfe7edf6e724e724U, 0x350e33e8f6f1e823U, 0xdc0025c3e2f0f018U, 0x1041103ff2b0c25U,
  0x26fb117fd5031d98U, 0xe5d4dec304470aceU, 0xea111a1fe4323114U, 0x4899f109e50a00e2U,
  0xd819fd11fd1977daU, 0x1f1e0b4af01638ddU, 0xb929f854783412e5U, 0x1d232be2e9dd2facU,
  0x55d6e6f3f49ced4cU, 0xe9cf0f381f14130aU, 0x6cf47f928d1e805U, 0x582712c6e9e208f7U,
  0xf325cdf824def505U, 0xddddec00d7d5014eU, 0x81e2c80dd4f6f9e1U, 0x2e0bfc13eef1c304U,
  0xe700f431191121f5U, 0xd039e5e1f1d513faU, 0xefe302020e0ed1fbU, 0xbe0dd218fefc33fbU,
  0x6ed08cbd5ef222eU, 0x69b4119da9e261aU, 0x11a8444f14e7fd29U, 0x3d0d09210d0ef721U,
  0xe8e702e96e291ce4U, 0xeee806f5192aea0cU, 0xffc7d1f021eccbdbU, 0xcd7d9f4db3eb2f7U,
  0xf0f954facfd4d0afU, 0x32811d9077bf0d1U, 0xf547131903fc1a16U, 0xb00c7faedfc22f34U,
  0x3b24c75a9c03b31fU, 0xc67b8d2b0894c89dU, 0xa180fac36cad500U, 0xf20c35fb3bf7f8dbU,
  0x3b1730f3e1283225U, 0xe8d948ae0806076bU, 0xd2b23a5be4402e9U, 0x1c0cff1d40fdd4ffU,
  0xcd51e2fec28dd1ddU, 0xe0f134cd19f5ef31U, 0xf4ed131f00afa9e3U, 0xe67fee24dcf4dc26U,
  0xc8daf1f11f15e909U, 0x1ff2fa9d12ed1d18U, 0xf01001203bd224ddU, 0x9e7130eb68dfae4U,
  0xece987d56e0865cfU, 0xb4c90cc2ec245dfbU, 0x101ddae24120811U, 0xf3db07db1e19f307U,
  0x2f26d14122bbc4bfU, 0x1efe3dec02f718cdU, 0x15f829da34f6ff41U, 0xce1ec9d5e2d628d7U,
  0x32cd3a1f17580fU, 0xc64909f22ee6efdbU, 0x2e3de27fd9dd5ae1U, 0x39113ae1d10811e5U,
  0xc12fff23c1f028deU, 0xafa1a5fd5defe0eU, 0xf2e4fdffc5070907U, 0x2ccf53b313f852beU,
  0x32183ff7e605f519U, 0xe139d104d02438faU, 0xed35d527ec05de96U, 0x3516fb060ef8500aU,
  0x379defc36147f08U, 0xaf0ff42e0011f6c8U, 0xfa16edeeee331ef7U, 0xcfde76140a08ecc7U,
  0x2fdc00018dfee71aU, 0xd422482e1d49e9f0U, 0xe7fc04c6f5cf42eeU, 0xad8ef3831dde2d1U,
  0x15a28ee7fd60de3U, 0xc7562de0ec2eb6e0U, 0xeedd71f07e69b41U, 0xdf632a0bbb2cd341U,
  0xd204ecece50bed1fU, 0x250d22c21ceefbfdU, 0xf7161d2d4cece8e6U, 0x416f201cbef073cU,
  0x5fbd0fa184dd595U, 0xe1eb7fda2de7db1cU, 0xcd7033619c82fe6U, 0x222dc7232a0316ddU,
  0xe5fc04052b47dcc9U, 0xfa01c5ff30efdcf6U, 0xdfe0046c40d031fU, 0xb0e24cfbbf0133eU,
  0x1c02edf3e6d1d590U, 0x1703e002bdeafff5U, 0xe13fa5f8f0cdade6U, 0xbef13127caf53546U,
  0xd4ede81905e43903U, 0xf4e53301ff170017U, 0x501c50b3900db18U, 0x326eafb02781104U,
  0x3e57fd8fd0cd9c2U, 0x26f7f4ea3a22ffe3U, 0xd9fe1aedca24f1ecU, 0xd6f0ef29e0542308U,
  0xf511c5a33acdf005U, 0x3ebb154ae2db15ffU, 0xefffc1e0e9e7e0beU, 0x46e81b1df2e305deU,
  0xff2931fb73c2d4e7U, 0x12102c1454effe24U, 0x2506fe0547fb3bb0U, 0xeadbdfbbcbf9a21aU,
  0x1a00de842d0cc6b8U, 0x5134f532ffedf9f6U, 0x19240319ea102f07U, 0xf82fd71ddbaf0f10U,
  0x1842f87f170dd2cfU, 0xd93ad62dbed5e7e0U, 0xdb381c130fbdc738U, 0x4198f10001ddefddU,
  0xa65b9fa08d94f92U, 0xf4071cd2982819e9U, 0xfe14b0ed1510e634U, 0x342df2d83c21072cU,
  0xe830feeefef9979bU, 0x1ef6f7e721e019e6U, 0x5840f1e64ee6094fU, 0xfd1afe310a26e7ddU,
  0x2187fde0a19c2cfU, 0xd0f6ea3c1baef027U, 0xcaec3fe92aedee1eU, 0x3bbb3908430a7115U,
  0xd9b9d507e62df4caU, 0x280a33f12d440433U, 0x371f81ef14faaee3U, 0xf30fcd38a59d3d0cU,
  0xd4d810b0ece60c36U, 0x1d471a8a6456f0e9U, 0xd41ecb9bf3fd18eeU, 0x4436eb03a106f614U,
  0xcf9e56af6b6a4b5U, 0x18e448310ff851beU, 0xf4cdfffb0be0e44bU, 0x2d3506f30d06f9eaU,
  0xf20e1d00f90b19a8U, 0xddbc1507cdf33027U, 0x17d706e9d40fdb01U, 0x185309b6e7012005U,
  0x290805061aead726U, 0x24231498f6fd2b00U, 0xdace19174010e1d9U, 0x564148fbe037f9ebU,
  0x2b3504e60c05c4ebU, 0x16e23aceec00140eU, 0xd5cf812b25ed0f03U, 0x50f51a010413c3b9U,
  0xda22c100322e221eU, 0x7fc99ce051ed2f14U, 0x180bd2c7d1323d22U, 0xc70400093ab83129U,
  0xe9d820eab7f6d1a7U, 0xb4fd55ebc5702f57U, 0x1300f137070cd107U, 0x31b1f14a548b563U,
  0xc00cd4e103e84006U, 0xb1e7fef9d90923cbU, 0x3bbfd30728cbcf2bU, 0xf3f3e93fea2df7e3U,
  0xfddde6dc214e32e0U, 0x1192605eb401023U, 0xcf2af12e3f13b74U, 0x27ffd831e4ebe104U,
  0x2d3bed01e01a9bb9U, 0xe57f1300ecf526f2U, 0xc702fbb3f1f7f621U, 0xb7ea4c550afe10d7U,
  0x18e2cf3406eb97edU, 0x17020530db55c0ddU, 0xe2faf139e3d2e324U, 0x3aed74d333eb2b33U,
  0x77f2010ff0f13032U, 0xaebe834d7bc0a4fU, 0x56fe2315fd869313U, 0x72051c31a2ed34aU,
  0xeec00e724ea4aa0U, 0x3c0dbffa0906f5b7U, 0xd7faeaf84718efebU, 0xd10ad21892e48127U,
  0xbe95c11cc0f3dc35U, 0x2347c535efed2505U, 0xd1f7e9a7fce9118eU, 0xdafede4cf6d851ecU,
  0x1317fde027d8ffc0U, 0x21f70fc4f825d240U, 0x2045f4e8ce16d2d3U, 0x2b351aabdd0e34e5U,
  0x1a1b27f410e3c4fbU, 0x21002cdf3f51d6eeU, 0xe5e7181a1aefe30fU, 0xd03b172cdfc7dc0eU,
  0x2d11be38c5e931edU, 0x1bfc9faf4291181U, 0xf4e912e723f1f2e2U, 0xbbd8380b1fd1133aU,
  0x1dccbf11a9f9f07fU, 0xc4df1dc7161cd8f8U, 0x130021e6f4fae2d8U, 0xf2e7f2c9f5b2f558U,
  0xf71b2834e8f31b1bU, 0x1aea130b42c44efcU, 0xe3ff1eeb0fe3b0e0U, 0x93d721d06fec939U,
  0x100be31ece192d0bU, 0xfe01b1ca6bc34a1U, 0xeb84010df7e9d100U, 0x52d2213ef2bff0f8U,
  0xee396f7f5cf57f5U, 0xe7fc1d0c4407b327U, 0x319d9e717115c07U, 0x7ffae43de5f4c5ffU,
  0xe2e80fda1802f7ebU, 0x51a08da200c2003U, 0xe10feafcdffa10e8U, 0xe4f4d2cc1ced0ed6U,
  0xda2b0922e310ff3dU, 0xcb11d5fe8cf0fae7U, 0xda07f7f4fcc6e8f8U, 0x5ddeec200a000401U,
  0xad91a562fa03d00U, 0xfafaed05ad1cf781U, 0x140f16fb3cf8c01aU, 0x10f8f63ff50e09caU,
  0xfe0f35cae00503d7U, 0xc26da4fe0bdcf8a1U, 0xf3f7b72eb1fea4eaU, 0x19222705d747dd04U,
  0xe6e71733f2dfd0e4U, 0x113801cd0a1d18ceU, 0xe5de14740aef1236U, 0x1ff62c1fbc16ce44U,
  0xd1caeaf608d4d425U, 0xfaf102fbc32b0b21U, 0xe8d8cc17d8e87038U, 0xed0dc7fe246e39e0U,
  0x4c145b2be711fdb9U, 0xfb0cf8f8c302fd35U, 0xe7fb17f7f819d7e5U, 0xff0af30206240938U,
  0x2e6f77fdaeaf8d2U, 0x1ffd18fba501f009U, 0x2fa59e3a0d2e4eeU, 0x4addedc02bea0c05U,
  0x22f8140d12011a4cU, 0x1100d10037fb60aU, 0xf32c29d6efe7f8d8U, 0x1ce40ba9b2fcffe5U,
  0xe434f90bd0f402U, 0x50a21df0cd2e90bU, 0xb7e9100d1f1604e1U, 0x1a081bff09dee036U,
  0x30191708030411f7U, 0x4d8f30d1e1047d6U, 0xf2ea080511d5e8cbU, 0xffe12606f0010c11U,
  0x19e31fe2e9f61e09U, 0x40e3dd6f31b081dU, 0xfafdfdfe0c7f22f8U, 0xfa06f408f70cfcf9U,
  0x17ee1cd061fa17dfU, 0xdf050903050cf809U, 0xfe1d152100f0f931U, 0xe0d2af9c91bc8fdU,
  0x52cf314eeebf4fdU, 0x280c0ad5efed2d03U, 0xfcff090328f6f801U, 0x1d080dfff2aaff2aU,
  0x18cbf7f5e1172f29U, 0xe314f1092a602a60U, 0xdea45d6e41f0021U, 0x104571c8ead8ea0dU,
  0x910bb2a5e9d1f7e2U, 0x4081ec00f1d3307U, 0x15aa246428d6ec1bU, 0x28fd3dfc1e9a75d6U,
  0x464e6ffd5204107U, 0x23c0f74bda160c3eU, 0x578541f440361481U, 0x2141100e8e714caU,
  0xf2070f7fedf81c20U, 0xef070206f628ed10U, 0xfc101608f9120eecU, 0xdef06fb2be8e84eU,
  0x2fd050201f7eefcU, 0xf9f00bc6ee09f530U, 0x4ed2305ed2bf50bU, 0xc3d0908f906f703U,
  0xdc03ee060000e9f5U, 0x13fbf9eef8fe040aU, 0xeef715020c00f8fcU, 0xfffa05f9d2f5010bU,
  0xfe02ed0b29f216ecU, 0xc12111e4e430e43aU, 0xf53df30a34fde422U, 0x14eb4838f7e0f1f7U,
  0xdc1903270204c665U, 0xc50711e2142b0815U, 0xfd530a49c30b0e07U, 0xa8f173e51be7194cU,
  0xdeeefd7febfec6c1U, 0x5807ee39120af6b4U, 0xe600f3d9d8bce50aU, 0x1404eaf20c000cfeU,
  0x37e3087fe8f4f318U, 0xed0610f9f706e60cU, 0x30c23d2ff0a1607U, 0xe0a01e93efafe19U,
  0xfd2b0ffb1cd20af3U, 0xf502d80509f917U, 0xfc000dfcfc2d03f4U, 0xbea0910e5080105U,
  0xf2ffedffe708e70fU, 0xc0a01f4f10a120cU, 0xf9f20d2304f30909U, 0xfbfb060f19fb010cU,
  0x6ef2bf19d0fff7a1U, 0x19f642a4a20c4015U, 0xd0d7213831d03a11U, 0x2810dc0126f5a1d9U,
  0xe8fa10c9d432c616U, 0x1d261b03e80705deU, 0x3113bbe0e1fe251cU, 0xa092f2fd620062cU,
  0xc5f2157ffaf8e8fbU, 0xfe114c19f0f81dcdU, 0xde02ebf607e22825U, 0x1c6cc0c0edc9a201U,
  0x60fd3e02def6cc16U, 0xd239e36bfbf3d1eeU, 0xb2edd0e2e102306U, 0xfafcf62c25f7f236U,
  0xa161edf22b23cfdbU, 0x1aef0869c80de3f8U, 0xb4fc24f3d62202e0U, 0x1581154bbd232c00U,
  0x825ecd7ff0908dfU, 0x21fe46defe96e106U, 0xf5fc6e9e0ada271eU, 0x4ed91b4243e0e3cfU,
  0xb15eaeff0eb404c5U, 0x10e806f03610c21aU, 0xb6b3c71edc1ceaaaU, 0xb21bbcf8e2d218d2U,
  0xc039abebca268f19U, 0xf338fc1b1d3ef221U, 0x3e17ffd5ce040042U, 0x44de7f5df66b43e8U,
  0xbccda326f2e18ae4U, 0x3a8f3167992e9e5U, 0x42bb20000bebdc13U, 0x253160e8251b5404U,
  0xf7e514fa06c6f807U, 0x18fce2fffef5ec23U, 0x81ea2c101be8bb15U, 0xeb20e709f705f002U,
  0x27f505e50006ddf6U, 0xf1faee0c0c34141eU, 0x60006f81c071404U, 0xdceb25f4edf2f70cU,
  0xedfc011cfceb091aU, 0xf71c04fa2dcefd08U, 0xcc09fc0011e4e402U, 0x1df92809fffc0b11U,
  0xbacbfafcb11d632dU, 0xe2eca0eee0192d76U, 0xccde2ef8a00fa7c8U, 0xee734781411675b9U,
  0xe314309c906ab00U, 0xf2140c3a17c7aaacU, 0x2d18db24270ff3f9U, 0xd408a1ca020bce38U,
  0xcca0fe0cd902e149U, 0xce21d23437be65a3U, 0xcaf8165420f5d53bU, 0xb7e2cfe8ed08ebdcU,
  0x2e211eeef628e8c4U, 0x3bd2024336be3a22U, 0x8cd042bdae00ee8U, 0xd50203c608e81c12U,
  0x1e3e846f422b107U, 0x81c02d77f0d2103U, 0x4b2ee8ba5c4bfbbdU, 0x11e1d08309dd17c8U,
  0x2e6f31fb472c473aU, 0xc904260e1cf1e7d3U, 0x13c4d9e3e5ff0e55U, 0xbe23c8281df422f7U,
  0x1804961452c754b2U, 0x1706f5e11c55b4dbU, 0xbe16bbec29d32e1fU, 0x2eeec7fd21f8f21bU,
  0x1bfb1805f1f83414U, 0xed57387f07aeef09U, 0xf03821b731fbf818U, 0xc5fe08cd07e7d2ddU,
  0x5337bdffd533eeabU, 0x2fa0062dc7093be2U, 0xf432f105e4eeaff0U, 0x440f11da0cee41faU,
  0x7c417fd2d1f9e17U, 0xfa062efb5104d118U, 0x9f1333f05708d106U, 0x3ee8e12c0525ce0cU,
  0x4af1e00cd5fa21e6U, 0xc401f3fc003052e5U, 0x9111c813604ce01U, 0xd2e627e5e4ef29ccU,
  0xf030c12e9fa33ddU, 0x3efbcd16df9c1751U, 0x1728ea0bebd1d3fdU, 0xec03ebf80d20fe42U,
  0xed1eb3fdf3d5fdfaU, 0x17fa35f11e31ef54U, 0x10b0207dc15e628U, 0xde0ad70311fddafcU,
  0xd41210de1312f616U, 0xd6150ef721190007U, 0xdc16f00dfcfde70fU, 0x2fe10d2bd5290feaU,
  0xf4fbfd7fde0be505U, 0x1c04181924faffeaU, 0x1d403fef9f8eb13U, 0x28f0cbf0080ee81cU,
  0x2fe93ffaed020f3eU, 0x52d1d00f47fdc53U, 0xf012fd64ebe630e0U, 0x560bc8f40cf9ebf0U,
  0xe5e322ca1a65542aU, 0x224b91abb24c5deU, 0xc8f9a0e618e8174aU, 0x17115a3bc91bcef0U,
  0xb116eb315754b928U, 0x16fc34a716dfdb2aU, 0xc80a6e2a0bfa19e9U, 0x5509f3e9d8e4ef32U,
  0xe5d1fbf8190596f2U, 0xeed65e080beead45U, 0x3904360160f42cd9U, 0x8318c7b112e095b5U,
  0xbef9e1c15dfdc9d7U, 0xf70110f8fae2132eU, 0xfcd4ef13cd3e9e02U, 0xfbe4560a61cd101fU,
  0xe603a20b03000eb3U, 0x60fce3ebae3d9c0U, 0xf81deadbd8c0b7a4U, 0x7fe7080403cdf40dU,
  0x1f109eb10d939f8U, 0xed0912e6f6fbe20dU, 0x45ffd0fb1ded1ff6U, 0xaed04e3193011eaU,
  0xe9fb32f8e1fff30dU, 0x29eb0600140705d5U, 0xfbfb2dbe07dad6U, 0x180b3ff4dc0712fbU,
  0x3f08ea2215e8cae8U, 0xe609f8f42081110fU, 0x90214110a17ed0bU, 0xf70413f506de0605U,
  0xdfbedcf7de3b3802U, 0xb4fb1f16e3e2590bU, 0xc3039bf62840f139U, 0xd2d707390c1edddeU,
  0xf4f62a0123fd0dc1U, 0x3f01e0f817190308U, 0x7fece617030a1bf5U, 0xbdcc0cb5b930d303U,
  0xf3ff4cbfe40ea0f6U, 0x2bd22fd7eef5cb82U, 0x3cc10507ebda0932U, 0x2f201eff423f715U,
  0x10701f10100f1f0U, 0xf902f8060511f301U, 0xff10fdfdf4050202U, 0xfcf3f7f50a81fde9U,
  0xfaf500f607f200fcU, 0xf8f910f9fc0d00feU, 0xc04f507fef7f105U, 0xf4f20a05fffc04f9U,
  0xf307fd07fb04f9ffU, 0xa0f0b02ffeefa00U, 0x1fc08eafcfcfafbU, 0xfe0af4200afe0b03U,
  0x2afe1af924100a1aU, 0xee19f4eff20c0911U, 0x60c1e18dd98ea0eU, 0xfef8fa24da07062eU,
  0xf223edf8d01d0f21U, 0x141381cc181b2820U, 0xf8db270e0dea1ac3U, 0xc13fc2bf120f1f7U,
  0xea21f7f618fde213U, 0x24e80200e6fa2127U, 0xecf133f3d10e16e5U, 0x80c0310dd3806e6U,
  0x1f0cfff3f60e2c23U, 0x1111160211190438U, 0x310f6fa1114f2U, 0x913e213e902e6dbU,
  0x48ede7eab4f50ef2U, 0xd6c4f9e0f0f3110fU, 0xe300651605f1fc81U, 0x1707f326dffae808U,
  0x1617e300e93e050fU, 0x1a05e4e8150d1700U, 0xf4051b1507fc09f2U, 0x1af62ae0daeafdfdU,
  0x2bf50e7dff191020U, 0x11341d0fb7ff024U, 0x407078fe726fcedU, 0x180ad323e2fc0a01U,
  0x281e1ef3da8c12e2U, 0xcfda43ebee050efdU, 0xcefc03d80e2bf74cU, 0x1f0905e0cc1ee51fU,
  0xc1fb0e16f5eb0bebU, 0x1c1345d3190a09e5U, 0xd0feef3710f10bf4U, 0x4ef230ec2b30926U,
  0xe304d5f9300825abU, 0xec13d4330a47aa36U, 0x46ed5afbd2f90157U, 0x7ca6d33edd165a10U,
  0x822e9e416faf8c7U, 0xd155e1fce16bfb49U, 0x1bfe073f130196edU, 0x2d7b9a9d7f210b3U,
  0x2028c3ec092bc506U, 0x1c5996028102f4e3U, 0x93d4c725f1d9f5d5U, 0x5a1ce5dc2d130ea5U,
  0xf20781fa57e934d6U, 0x27cfef00cb244019U, 0x53b5e80dc2ed181eU, 0x42e66344d3df4aebU,
  0x2713fb2626f2f0eeU, 0x21f1fdeade02570bU, 0x2389edfda607e5caU, 0xf4e0452bc8f3ea1aU,
  0xd72397441c3af4f8U, 0xafed01e0fa93e58aU, 0xfbe6d8f8f2d6b8e2U, 0x489a2de615fae0f7U,
  0xe91c29d60da0e4e9U, 0xddf0c3fad423fd36U, 0x4afff8fc20e71419U, 0xcd04c0c7fb1f130dU,
  0x1bfae03a0d0cc7e6U, 0x2d140b00072e1417U, 0xf32116e5e507dce2U, 0x62f13d06ecc33c0cU,
  0xe9fc07fe48f8f805U, 0xf70de2faf1c87fbaU, 0x24d3d01d5ece3d4U, 0xfab80c07c6f843d9U,
  0xa5c2170c1d17372bU, 0x51714d9c4fc1409U, 0x1dfac208c7ddd8baU, 0xd6eeef3eec3285b6U,
  0xe7da1fbd5222f4d1U, 0x47fd0c6634f4bfb3U, 0xc8241de201f1f6d7U, 0xb9193e11a63ad92dU,
  0x1943284a9066df01U, 0x11c01dfe1cb8db06U, 0xaa0ef41301f9d6U, 0xcfd27f02f521c209U,
  0xec0104f9fbe2f016U, 0xe51001fc1c02f0fcU, 0x121707ed061a0ce9U, 0xaee04fc0f02f418U,
  0xed0ffdff15f80fe9U, 0xf20af313e20600ffU, 0xdb0b0f08e981f305U, 0x6fb0622e8f2fde2U,
  0xf40a00f9f70803f5U, 0x140614ebf809f312U, 0x5052ac2fb0703feU, 0x7fcfaecf60cfe0dU,
  0xf0eb0ce115fc2831U, 0xde24f91beb290438U, 0x10f2ed2fb2210fcU, 0xfcf7f5f01ffaf92bU,
  0xd5f108e71be225e7U, 0xf4ed2c0c0313e0d2U, 0x111701f0510403U, 0xdb7febf9f7f8ec05U,
  0xd605e614de3aecf3U, 0x1aed3af9f10c0a06U, 0x81408a817ebe7edU, 0xfff30fdcc0fd0e20U,
  0x13050beaedeaed81U, 0xe1e06b8bc0ff5d1U, 0xdbfb050dd73f02f7U, 0x29c90dfb10041109U,
  0x1ef02008980e18f4U, 0xe7eb2ce1a8220a14U, 0xf4d02e2d0afff9ccU, 0x10ff21ef121f506U,
  0xd904e321e2f404fdU, 0x1b023bf60ffb1f21U, 0xa0b3adcf92602d0U, 0x71f16c5d41dd10dU,
  0xd304eefbfefcf6edU, 0xfc08eb024310143cU, 0xf510f10e1ad4ddcaU, 0x2bf9ddea28018100U,
  0x3d40e5c51ff6e3faU, 0x3eebd414fb0d0bfbU, 0xb5e9fd4229291ee5U, 0xe3f81ff2110b1aeaU,
  0x2818e4e9edfd1ee9U, 0xa193308db03ea0fU, 0xe8b455ea3c05e320U, 0x3d2807df16eed7dfU,
  0xcc1af90bfb14e408U, 0xa813e9cfa707e372U, 0xff1d0c66ff7ff621U, 0xff16dad9080cd952U,
  0xc7e32f05d65f1b29U, 0x12a84000cf161956U, 0xe4ca380e03f632d8U, 0x14e2d8d3edbcce37U,
  0x4318edea1211c804U, 0xc5caeae5381ccd34U, 0xf72103f7cce6f2d1U, 0x1df3cde21f51007U,
  0xfffffe1d000000c3U, 0xfffffa6bfffff7b4U, 0xfffffcaefffffa2eU, 0xfffffcf50000047cU,
  0xfffff9fffffffb88U, 0xfffff938fffffd3fU, 0xffffff0ffffffb56U, 0x2fcfffffc48U,
  0xfffff7dafffffadbU, 0xffffff53fffff980U, 0x28ffffff827U, 0xfffffa54fffff828U,
  0xfffffa19fffff9c4U, 0xfffff92d0000017fU, 0xfffffbbb0000013cU, 0xffffff4bfffff914U,
  0xfffffa24fffff984U, 0xfffffb52fffff76cU, 0x847fffff890U, 0xfffffabb0000087dU,
  0xfffffb5ffffffe10U, 0xfffff6dffffff965U, 0xfffffd0afffffe53U, 0x898fffff938U,
  0xfffffac3fffffbffU, 0xfffff903000004edU, 0xfffff9adfffff89bU, 0xfffffd15fffff8c8U,
  0xfffffb14fffffdd4U, 0x2540000047fU, 0x77fffffb65U, 0xfffffa69fffff9f5U,
  0xfffffc08fffffd51U, 0xfffffc550000012eU, 0xfffffba5fffffa54U, 0x39fffff6a6U,
  0x2ffffffbeeU, 0x3affffffaf1U, 0xfffff7cc000002deU, 0x14fffffcf8U,
  0xfffffe4dfffffe0bU, 0xfffffe2bfffff828U, 0xfffffcd4fffffea4U, 0x49afffffa9bU,
  0xfffffad6fffffa02U, 0xffffff54fffffc05U, 0xfffffaeffffffb6dU, 0x98efffffc69U,
  0x4f51d0ae8ff2eddU, 0xff0df71ce6c7c109U, 0xd1e8fa13edc902dcU, 0xf7f2f4f0ec301428U,
  0xf6f7f4f952e2f8adU, 0xf6dc23310fe022fdU, 0xce3fdce2cdd2ffdaU, 0xddfb0301252ffaffU,
  0xee01f5c329f628f5U, 0x9c2102405052ffdU, 0xe001300ce20e1f1cU, 0xf7f221fd81f82803U,
  0xe9ee07e329e72a1eU, 0x11e92b0aff384ac3U, 0x31d806d620f62d37U, 0xbbd4df03f8162e13U,
  0xc92f261112eb2121U, 0xdeef8c163ade47eeU, 0xe90807db199d1620U, 0xef6fc0d0abffb06U,
  0xdd361c42c81dec2eU, 0xe5f5d402cef2862dU, 0x19e8001309fe1354U, 0x1f222312f8ef1107U,
  0x1638180518e0faf2U, 0xe4d3092b171a0215U, 0x200d4b09f7164209U, 0x10ff1bdc04f0ebe5U,
  0xdac8e9000ee13320U, 0x8d31413fe1006cbU, 0x1f0d59260e062a2bU, 0x6eeed10e8e119d0U,
  0x42e0ed0af3bb1822U, 0xd5f4eed6cd200aedU, 0xe834200b09ec1711U, 0x1108efe310e1ae09U,
  0xdee3414d813c3faU, 0x2190f020b14ebeeU, 0xe8f3faebe4dc0defU, 0x82908f8ef021a02U,
  0xf027bff88119e504U, 0xfdf1f21a14e3ed18U, 0xfd320fe705181f0fU, 0xdd0ad3e71a0de000U,
  0xee1205e1ffe1211dU, 0x12fe61409c507eeU, 0x21edfd0a1223fbU, 0xeef4f10008d5f304U,
  0x1f105d5ed25220aU, 0xfc0e22f41b35fc1cU, 0xf0e0ff4e2162d03U, 0xd90407d82ef413fcU,
  0x1903212b1a281834U, 0x41fcfb06031a210aU, 0x8010ee1ddf3e712U, 0x27f5f8210c0400e8U,
  0xb1bd635250aff26U, 0xc31ecfe0af5e92cU, 0xe0f604fa1b16ea2dU, 0xeb0333d100f70e12U,
  0xf1ffee04050405f0U, 0x5bbe7200312ef20U, 0x2efeeb1605f117e9U, 0x2200190119f50ef2U,
  0xfbe2e32df60c1327U, 0x2318e7eb10f20ff1U, 0x15ed1201e52aec28U, 0xfce1f102eae90403U,
  0x150903100cfb131cU, 0x5590a0eff24e8f8U, 0xf8e4f9c601f5f014U, 0xd412e90cf327ed07U,
  0xcee605deed09dbf4U, 0xe210fa0ae4061a01U, 0x20f4e10909051502U, 0xf120dee9100b042fU,
  0xf01ff0a13270b05U, 0x27fb06e9e2120216U, 0xac04ecf8f7f1eee9U, 0xebf115fe141800edU,
  0x12a7d51ef9301111U, 0xfd1ef2fcefce2508U, 0x1ee239f3303e81f6U, 0xd4fa141111eb33feU,
  0xc9e82135280edc1bU, 0x2010f6f6f2fff406U, 0x283b2906fbf9d7eaU, 0xf4011311bb0d10e8U,
  0xbecf649e7db0d04U, 0x41f1f731f2f40bf9U, 0x1d2eabebd605f8e8U, 0x2705e50ce22a020aU,
  0x190df311e720ede2U, 0xf329b711fbf8d702U, 0xfcfb1303eae5a3e8U, 0x1224260406031bd1U,
  0xfcf6c60ef9e2efU, 0x2904fcfe110907edU, 0xa3e3e0810e40c18U, 0xdd0923fb13f20ce6U,
  0xcf83321fdf2c81dU, 0x2afc130a1be51eU, 0x90b1419e6e7f310U, 0x1e13032cfe260401U,
  0x20080e250df5f1fbU, 0x406e5f518e6ddfbU, 0x27f81a191f2b1fd7U, 0xf2ec0bf4f916eb0cU,
  0x1703fb05170d1cf5U, 0xeeefef8190dedf9U, 0xfcfafd0a0610e4f4U, 0xfbf506f403050097U,
  0x2dfbf615e5e6fee2U, 0xfffd0ac0f7fa081bU, 0x12de00f908391d2dU, 0xe1d41aebffe2f2e8U,
  0xff2c411711fe0803U, 0xf7d2fc1a12150205U, 0xfbeef205000c25deU, 0x160ae2ffc70ad3f8U,
  0x1d1f12b15dfe2e0U, 0xb6dd26f9fcb0f804U, 0x20dbd318cd160644U, 0xdc02f736282343eeU,
  0x40541f813f8343aU, 0xc3f3027f10fb1b14U, 0xede210f9b32cdf1dU, 0x51e5bcf7fbfde6e3U,
  0xfe410a8fe1d1e08U, 0x8f6dbe9fc1def16U, 0x5120a260acc04U, 0x12e007eace1509f0U,
  0xf1f5fceff6f8e804U, 0x90c0bfd010507f9U, 0xf8f0e1f90e0011ddU, 0x5fb0807fedcff07U,
  0xb00f9ef05fbf807U, 0xfe0303f215e8030bU, 0x200fb04f617f805U, 0xf8f505fe06110816U,
  0xf70cea03f1fafde4U, 0x1d032cf6040b0f0bU, 0xf1000402f0f30a11U, 0x12001030505e5f2U,
  0xfff6fc0d0cddecf8U, 0xf30b03051714f019U, 0xe3f70bf1ece70915U, 0xf20809e5e80e12f5U,
  0xec061000ea05fbe2U, 0xf31eff1c01f602deU, 0xe80d0af20cc0cbeaU, 0x91634dcf402f2f8U,
  0x1edcf0b44409d211U, 0xf2fe1301e401f6f9U, 0x191234f83ff91a09U, 0xff09fc09f929dbf4U,
  0xd920f1fe4be41ee6U, 0xfaf032f30a53fc02U, 0xbceef0020ed34dfU, 0xed13f9f4db44ce14U,
  0x250b07d4d71e0e1bU, 0x17ee08e901f901d9U, 0x270a0ea4271cefe2U, 0x213031e04f4f911U,
  0x3af8dbdb2bcae8feU, 0xf0f8e202d3e481fdU, 0x6707f0fb63e318f2U, 0xdd05fde4db1310faU,
  0x20ed124d0016edf9U, 0xf7acffd812302503U, 0xfd1de72306fa310fU, 0xbd4f5f407eb1605U,
  0x18e5090108032bfeU, 0xfb15fd1ac9b702e6U, 0xf9dceaef150e111fU, 0xed3ec052a070ee1U,
  0xf6071211ecfa0120U, 0xfdea03300c19e4f8U, 0x2219f8d5f810d02bU, 0x15eee644eb16eb0cU,
  0xda0b16f9fef1db14U, 0x2a160efa07150f1aU, 0x1e2417f6facb0a0fU, 0x28f810e8e304f8f4U,
  0x31f3042a811cfa09U, 0xf311c9f6ddfd10b5U, 0xdbddf3f8e6f11d3dU, 0x1de700f11cf5350dU,
  0xece4080e1b17e038U, 0x15e4fa00000cdbdfU, 0xe8dafff9d8f20814U, 0xf5e8f1ff23e7ed27U,
  0xee9082bdef6ecffU, 0x96ebf0f6bed9fde1U, 0xe02f003e7ecc2ecU, 0xf71c03e92b31edf1U,
  0x2912ec08f6dcffe8U, 0xd11ede830fd1919U, 0x12dbf6f2bd061f07U, 0xf8f1050aec10f4d1U,
  0xf7f0b7c7effefb01U, 0xff161717e90f19f0U, 0x55ff140308d3cf23U, 0x25ef1a1428360004U,
  0x13e7f503e41310faU, 0x1803fd030d041f10U, 0xce1209f61015ea00U, 0x233b170707fd19ffU,
  0xfd1304fefeee02efU, 0xe51b2329dff40525U, 0x109eff6f3040817U, 0xe9011c370c09fa11U,
  0xe7201900ea21ffffU, 0xf14f6091d0ae2c7U, 0xfe17e0c610e01c07U, 0xee17f2f905fc1604U,
  0xe81012fe210d540fU, 0xdfc0000e4c312e7U, 0xf603f7e7f2010f0aU, 0xeeec28f219f5ef0eU,
  0xf4ea04b60cf402U, 0xe00c09f408ede814U, 0xfe11f10cc10bf8c2U, 0x11a0deb0ee2db08U,
  0xef0cf6000ad5d425U, 0xe6ebf0f418ff1703U, 0x500e8f0fdf2fd0dU, 0x8c3e7dfc01b0ef8U,
  0x8a6e9f2040febddU, 0x609ef1efd10f0a4U, 0x22020a1be8192017U, 0xfed3f5e0131a00f0U,
  0x3004291105f01311U, 0xeef8d6d329521627U, 0xf70006e300d1c5ebU, 0xfc06fd1cf0f40cecU,
  0x915d012fe160ef9U, 0x91519dac8c80031U, 0x80917def402f8f6U, 0x18021ef97fddfc02U,
  0xf406f5fe0ffb05f4U, 0xf40d03000bfd0206U, 0xf7f70cf404050c14U, 0x115ffea04f2fdffU,
  0x40516ff0302fcf5U, 0x15fb06f6040e07f7U, 0xc0f08141df60ce0U, 0xe4f806d9eff706f6U,
  0xeffe020609f60dcfU, 0xe00608f9f1f60cffU, 0xf00cf304092503f6U, 0x1e1007e006fcfdf5U,
  0xdde8fcbc08e181e4U, 0x1625e1f6edef1442U, 0xae117112afbf80dU, 0xe210b3d8c5b92620U,
  0xfc17c5091f08d60cU, 0xff11e635cb1b1229U, 0x302efd21ea0df6bfU, 0xfa1528f5d0ee1ff5U,
  0xe215d8da3b103324U, 0xfa1bee3dfda62bf2U, 0x38ff1810d1e027faU, 0x9eaf3d116111e2dU,
  0x333fb07470435f6U, 0xf219eb21fd0903f2U, 0xd1fe26faeae56917U, 0xd8f214e8f81a1823U,
  0xfd13f513ca00340bU, 0xe7e4d40b0cd748ffU, 0xf4e30fc30df51c49U, 0xf5fee8f4dce317f1U,
  0xd2fde422fa06012cU, 0xd1fef1eed0cb9e33U, 0xe8d145fce451f939U, 0xda0b1f0503e41837U,
  0x3d7e2f60304f92bU, 0x1f24e9f4f3181500U, 0x261e362602ede4deU, 0xf1e9101b2408fad8U,
  0xdd023603fffa1020U, 0xe0d150f03faf00bU, 0xffdc06cdc638f93cU, 0x32f413220ffacf01U,
  0x2d0efb05e6eff92cU, 0xf037df221cfdd700U, 0x42f51d16091732bbU, 0x13fdf32ffc22a723U,
  0x1207fdf801effdU, 0xf7faf702f800f9faU, 0xbf001ef1ffbdf0fU, 0x12f5fdf7f5f50aefU,
  0x110df3f508070111U, 0xcfa0bdf0008e314U, 0xfd050ffcfa05090cU, 0xf70b0a02e3ef0ef9U,
  0xfd0c1ff400f8e804U, 0xfaf9f407ff0a00f0U, 0xfe130a0af80509f8U, 0xfff4ff0800f70f18U,
  0x1f70001112501f6U, 0x705fe0208f808f1U, 0xece70f17fe060a0eU, 0xfcfd1107fe090ce2U,
  0xaf8fe0901180522U, 0x60dfe0ae900f8ffU, 0xfa01181afa0dfafeU, 0xedfae5ebf1f6ff09U,
  0xf9fbf504f30814ffU, 0xeb0108f91006f5e8U, 0xfaf3f0ffee05e50aU, 0xf50217f403f609f0U,
  0x172fdc03cb117ffbU, 0xf3e9efdd1003f00bU, 0xff0b1df8f4f206e7U, 0xfab60200e20218fbU,
  0x11e11ee1fff70908U, 0x4e515e71439eaf6U, 0x1f406f90eef0412U, 0xf918f9f61112fd06U,
  0xf8f1fc0105ecf10aU, 0xf405f309f60707ffU, 0x211f90819fbfdf7U, 0x407f705e30000ffU,
  0xf01f1fd8cd1eecdbU, 0xdcd0f42f0f15fd2cU, 0xef847ead3c6af24U, 0x1500f9c8020e1a24U,
  0xe20707fc0deb0bebU, 0xf8f60d4502f309d5U, 0xdf020de806fd1ecbU, 0xf1ffd0fe12630914U,
  0xe44e34d1f0ff9e6U, 0xd0b0d00051ddbfdU, 0x18e8eaebf08acdffU, 0x3c62213050fed4aU,
  0x2e5d481c22f3626U, 0xd9324bf2f7131ef3U, 0xd8d91dc0f912ba41U, 0xede8a3feea111405U,
  0x170a34f319b1e706U, 0xcf0b19e21ff0d710U, 0xe50cf9b92726ecf6U, 0x12fde2e426e5510fU,
  0xcb01ea9fde0f04feU, 0x1901aa040ce0d6d5U, 0x2b120ef4dcd9d8feU, 0x5f6ff08f5efcde4U,
  0xd19fae7f6e60a09U, 0x742d0e0b1e12f389U, 0xbeb0e0cffee170eU, 0x10ffe101e70150e1U,
  0xfbf800f70403193cU, 0xed0de6231713ffe6U, 0x7f5e9d703ec3066U, 0x35f80a16e5ebe6e1U,
  0xff0ace05dbf7dbfeU, 0x4fcc7db0207ede9U, 0x1d0f01e03c4f41ecU, 0xeff9f5dedefce207U,
  0xef081810db2b0201U, 0xdb06cefdf71dcae3U, 0xdef40158ea42c527U, 0x125ecc5140a3c51U,
  0x190f00da13f404b0U, 0xbf7f11c2ce0ff20U, 0xb214ee122eb2150fU, 0x2de0cd83cdcbaf6U,
  0xeeda13e805ff3212U, 0x55e51de407ef0aecU, 0x19b50b17e1e64cf6U, 0xef0e34f0ef221ae7U,
  0x6d319c9c9f00c1eU, 0xa0803fbb0ccfb1fU, 0xdfdb15fae316101aU, 0xf6dedc0acdc5dbdaU,
  0x2dbe042927182056U, 0xfdf7a8b300e8bf22U, 0xc909d0dbd9dbd71cU, 0xf40d03992bd4d72eU,
  0xe9ed063413040426U, 0x120f050a38db077fU, 0xbc0109f8ebdfbe1aU, 0x37c422eafcbd2f0cU,
  0xe818060502f81001U, 0xcc0af9f5d900e2f7U, 0x1cfa0af6dfd10e1aU, 0xfef9f010112610fcU,
  0xaf2fb08f200f005U, 0x1022fe09f1ed0a09U, 0xf7f8fef61afce31fU, 0xfae7dd26f4090a30U,
  0xf5f6f9fde2e3e81cU, 0x14320a1f022d0a09U, 0x2228e3050c111ee2U, 0x18f601050f08e107U,
  0x17f1fa1de9f6ea07U, 0xcdf6fefee0e608e8U, 0xfff60be0300b0fd6U, 0x3ff1f30c06f21021U,
  0xcb070d04052dfb00U, 0xfd22f1e9fbf21eebU, 0x933f4fc1118fee9U, 0x7e51eead023f0faU,
  0xffc5d9010a291ff3U, 0xed05220cf7eae219U, 0xea07ff10fc28260eU, 0xfc1f252b020801feU,
  0xf503f50c5101fe0aU, 0xf0ed8f6feb40408U, 0x1a10f6e1d9fd1f31U, 0x13e2b4ea2e0b3915U,
  0xbdada0229e927e2U, 0xed1acbb00615e9f4U, 0x113420810bfef612U, 0xf5f210e90e22ee31U,
  0xece407f910fcf700U, 0xf414d0c0d909c1ebU, 0x33f5110fd409cf0aU, 0xe3ee0ce800f11c03U,
  0xf04d0fc02e6f1d7U, 0xd1eefa04f003fc15U, 0x10d010bf404f7f9U, 0x18092efafcff0a1aU,
  0xced0611f9f0dff2U, 0x606e70d2b1016f0U, 0xfc0614f10fea1cf5U, 0xede4fbf90de912e7U,
  0x1100f809ecfcfc01U, 0xfd0a04f4110320f6U, 0xeedfdf70d15f504U, 0x19ff070cfb29f0e7U,
  0x5f2e30ef2f3d710U, 0xf2ece32cec0be9e1U, 0xd8f52ae0ecf11f08U, 0x300808e8daef0509U,
  0x2c04f8e736db0acbU, 0x2cfa27bd0a47ec81U, 0xf7280cf0fb1d0bdaU, 0xbef610b2130ffaffU,
  0xe6081802fed2ee43U, 0x21d8f9ff290e1917U, 0x175d320bffc2f702U, 0xf0fa0b1413fd2d26U,
  0xf0120cf20cc128feU, 0xfab741e32e16fe0aU, 0xfb1bf1fdfc1df2faU, 0xfed93009220b6c1cU,
  0x35d9f39105000a33U, 0x2f0cb014d128ddfdU, 0xa5d6fff306fbf009U, 0xca01d1359d18bb1cU,
  0x160ace0b103c0103U, 0xee10f7fce0352406U, 0xdd03140ad14cd229U, 0xe111d1eff2f21cc7U,
  0xf2e73bdf02dccd38U, 0xc5dcf0dede31ff15U, 0x351f1108fde8f9e4U, 0xcaefefbebef2400U,
  0xd1ad160b1d24d90eU, 0xf4f329043e220be9U, 0xe2fcfee8db0ef821U, 0xfaf4ec23f7e311f0U,
  0x116cff1e5f719feU, 0xf2e924e2fa0ee90eU, 0x1f0eecf321f02cf8U, 0xe7dbf8f2e31ef2f9U,
  0xde1afdebcff2e6f0U, 0xcbffe92007fa1cfdU, 0x2cffeac9ebf5d633U, 0xfe01f7e50df9fd21U,
  0x25392aac37d4e3cbU, 0x190338ebfee4f8dcU, 0xc90b211b0dd8e806U, 0xf2eafedd1df5ea0eU,
  0x237490e2434c119U, 0x8d7df112c2ae6eeU, 0xede20d20f43234f8U, 0xfbf9f50917e6f0edU,
  0xbbd200fc060f2ad6U, 0xe7e14de7e9c81ae7U, 0xded67f0a111ff89cU, 0xe8ff180104ee4112U,
  0xf315280f2bff21d3U, 0xfee507c21822e8e8U, 0x1319fbaef9f22011U, 0x26fac70f00ff011fU,
  0xc1eb10dd0c20fac1U, 0xdef733fb1d0625e5U, 0x61413033336f8c8U, 0x26bc04edf507ea1eU,
  0x11133e5105fef520U, 0x7716f5fe66e8d96aU, 0x1011ec0cf6020b10U, 0x7ddea102ef73b16U,
  0x9e8ece918fc2c3bU, 0xf70a26f8e8f70938U, 0x13eb05f90de7f839U, 0x1204d7fa0609ffd9U,
  0x8e7e4150903ebd2U, 0xf116e6030705fe0aU, 0x1df7eefa18090914U, 0x3200f606e508c80eU,
  0xef1415f8e5e8dcdcU, 0x23d7fdf9f70fec02U, 0xf07161c27f918edU, 0xf6fadafadbf22228U,
  0x10dff070f1004f1U, 0x4e5120ee5fa0708U, 0xda1b13ebfe110412U, 0x1041212f20be6f3U,
  0xc03d5c210000bd2U, 0x1f19e41a11f616e0U, 0x240922efd4f90d11U, 0xfdff03031def12fbU,
  0xe10ff91417fa0b25U, 0x619f807dd0d3309U, 0x35132de7d9d02708U, 0xe7f303ed191a0c13U,
  0xed19ea03dae42501U, 0xe4ddc7131bc41c16U, 0x51114cefbc5311fU, 0x21f8e10dd9e40afcU,
  0xe723081307ed021bU, 0xf2f4cf1210d7e105U, 0x2901140ee90bea2bU, 0xd029fde581e60d15U,
  0xf90303f80106dd01U, 0x6f7fe03f4e5f103U, 0xfb061c0b10e1ef05U, 0xc040401e7eceff5U,
  0xf7df2708e6eadae8U, 0x7fff6fff417f6f0U, 0x11fa1befe6fdecf6U, 0x4c0805f0140df009U,
  0xf909f9fae2150915U, 0x1406f9f9380fc4f8U, 0x1c0008231b2b09e2U, 0x6f80a13eecff709U,
  0x1601fb06161ef0e7U, 0xd1b080221fbeafcU, 0xffcdbc9f50dddf2U, 0x2d1c02d3f6020c12U,
  0xc16fa13e9f1fdU, 0xf11109efe42efffdU, 0xaf0110605e80d02U, 0xe1271101cf0907faU,
  0x10221416f200f529U, 0xffcffff70d070d24U, 0xf3f3c5151b26f601U, 0x12eed9ff16fb09f8U,
  0xee0006eacfeef3c8U, 0x1af330fbeff3fceaU, 0xf1e9d2290804ccd5U, 0xed06fd04c73e0c04U,
  0xe7e511f2ea00ea0aU, 0x16dceefd0a030117U, 0xf406ebe5f9ecfa04U, 0xf901013a191d0800U,
  0xfb1bf005dff3fde4U, 0x7da4ffefa08170cU, 0xf4f1eef500040605U, 0xdc0fedfa0806e7cfU,
  0x720c91e021d264fU, 0x19ed07d70df52711U, 0x802fac5f6d520f7U, 0x46b503f4ec01ebfeU,
  0xf6fb1611ff2019f9U, 0xe6080af9267f0df8U, 0x401fcf7f0e1fe30U, 0xf01b11ddfb241505U,
  0x1303f70ff5f0fdeaU, 0xf7f9f61b0701f5e7U, 0xf4060c1f04e70a00U, 0xfc02fe29f3140a17U,
  0xde9fd7bfd5c281d6U, 0xfe0dd6bc21bab05aU, 0xfdd9250f13f0130dU, 0xb5fd5c394094a32U,
  0xfc14e8ffc418f70eU, 0xf1f80e2823ffe910U, 0xba1436e8eefbe9d7U, 0xd72115f8dd0cedf5U,
  0xfa16f9c6e1f91806U, 0xff1c041dbdf2d1eU, 0x2814572dad10fe1bU, 0xe00618c755fafd0eU,
  0xf51e0df03cf81c0aU, 0xfb1109e72a1a2436U, 0xf9eb302d32de0a24U, 0xb1e500090416190fU,
  0xaf03c5e1dccc31faU, 0x803c1471ea84215U, 0x11fc1c2837fe0941U, 0xf805c5c2d3b3bc0dU,
  0xbc060d10ffe0ff14U, 0xe5e3d10c04e1e1e3U, 0xfcfb3616aa1bef5aU, 0xc328f4d7c4d81432U,
  0x298f2fb3201a940U, 0x350db3d72bce30edU, 0x4b0d6a21d7e1f7c2U, 0x16d9ed0b7103cce9U,
  0xf2dc5afc0df2e3fdU, 0x22df2ffc4a1adb52U, 0xced012a4ce340153U, 0x3af9194a2603d1e9U,
  0x100eddf7defdde57U, 0xe0dd64406080419U, 0x5db31ff3c8043cf3U, 0xe90ced6be554e718U,
  0x3e0c2ff722fffdd8U, 0xe60b9eede722d7d6U, 0x1fd8bcf100e8f42eU, 0x2df61806f7d4ec8fU,
  0xf413211cfecedf14U, 0x3fc727193af50c16U, 0xebeb2ffe0918ae35U, 0x18ffdef5e70aecf9U,
  0x2227cbed1105f2b3U, 0xf4d9bdc6fd060305U, 0xf7211e23f32611f0U, 0xf6072d1a1d371832U,
  0xd4ca353c25eaf318U, 0xfe17d927e2150b07U, 0x583500efb5411806U, 0xf0f0f0bd4981f20aU,
  0x1bd0a0209f4240aU, 0xd477de0f28e51e4eU, 0x27fa05e93a0dffe0U, 0xdc251a2b1003fc0fU,
  0x62ecd20044dce01U, 0x62e1601f0a5fb11U, 0xb27b2835ff26eb9U, 0x260521ee38fc0a1aU,
  0xfc04fdfe10fce9fbU, 0x20a20f8120406f7U, 0xf60302defaf5060fU, 0x310ee5fbda0508ffU,
  0x19022102eb1222fbU, 0xcf71a1f021d02ebU, 0xfedef8160619f90dU, 0xe612f042f70af11bU,
  0xf4effef7e404f805U, 0x2005200b02ced8f8U, 0xedea081442042500U, 0x1206dee5f608fde6U,
  0xec04e307f2ebc3c9U, 0x25000812f0dccfefU, 0xe9030e091e27def9U, 0x2cee01f3f10afbf7U,
  0x3016f2f2fe0807e6U, 0x27fcf3f6f635e32eU, 0x11ec00f5e824110eU, 0xe203190bea10fcf4U,
  0xf8ff4e0af5fa1326U, 0x22ecf619c6de3606U, 0xe62f0307df080dffU, 0xeb04f202ef0a1b05U,
  0xcef0020911fc14daU, 0xf40c26192becfe11U, 0xef0a2a31180a1226U, 0xbfe72cf916273affU,
  0x421932fcfd2700f7U, 0x15f8e4ee0bff2311U, 0xe70f0f18fce3fa2aU, 0x4fcf31216ff211aU,
  0xf5fedcff1e11fa12U, 0xf4143eea1101252fU, 0xfdeb01eec530b119U, 0xdd0f2c03e80f0214U,
  0xfe07fff20706e406U, 0xa06ff01f7eef30bU, 0x70c2efcecf0df02U, 0x33c7dc06e505f406U,
  0x6f2240c02eae3fcU, 0x1f312f31c7ffe00U, 0xf8e4fd17160b1918U, 0x11f7081b1110ecf0U,
  0x10f7e90ff7010128U, 0x209ed1015fbe3ebU, 0x2808fd11ee0421f2U, 0x16e3fc13dd31dd06U,
  0xe80403d81504f503U, 0xf8fff61cf103f3ebU, 0x7e9f4eafedb4203U, 0xe6ee0a04e2e8edd3U,
  0x3b3df05abc20e859U, 0xe7f306fa211b111dU, 0x7b0d3912ffe6dd12U, 0x1418f925347fec11U,
  0x101c0df4fce1fef8U, 0x10e1ff280700f6edU, 0x3a42d714f3feb7f5U, 0xe01ffef5e3201612U,
  0xe3e40807cc542bf1U, 0xf0db1cfab6ef0204U, 0xb745132f19fc19e8U, 0xead4eb10b8d2f6ebU,
  0xbea1ad8fa28052fU, 0x29f7cce92efadde9U, 0x1ae51ee4cbee0d28U, 0x64e8d9c7da005d63U,
  0xf1edeab602f1f004U, 0xdbcefbf33f70740U, 0x13f12cf45f0fe908U, 0xaef03f1f7ee1f38U,
  0xfc0e021a011215f2U, 0xf61405f2ffdd0006U, 0x5fafbebf208191dU, 0xdefaff12121201f6U,
  0xf80af4d80ce63517U, 0xd208f3f916cfff0dU, 0x19fde1152efdf013U, 0x207c2080617ffffU,
  0x1708011520120f17U, 0xf81709f70108181fU, 0x190e17ee0abcfbecU, 0x3fd08f01208fdf8U,
  0xf2fcf514d426f5e0U, 0x8b5ffedd9e615ebU, 0xef04f52c31e0f2f6U, 0xdfd034c0d50204c7U,
  0x3d350dcff3152803U, 0x25e4e2f21d1de533U, 0x360e17ff001211dbU, 0xcd0f04e53f16c21dU,
  0xce701fc06280adcU, 0x180709250f0d00fdU, 0xf51512f8075f2ee1U, 0xd80b4e07e6f03ad7U,
  0xf1edf44e1e400dcaU, 0xf83ffb1d23391c12U, 0x2f2720e2fcd62719U, 0xc1c8551c0cf9f812U,
  0x9010a44c7612e7fU, 0x22f1fbd829f61307U, 0xdd36e006e9c33035U, 0x2907cf011fd4c327U,
  0xd209bb10df08fb2dU, 0xcbdb34f84c4006f8U, 0xfdcbf337cc17042bU, 0x25f80d0ee0d50bdaU,
  0xc0606daf6e70cf3U, 0x30a05f7f7f0060cU, 0x2aeae5f3fb1d2b08U, 0xce2dd060a02f517U,
  0x9ed0afa191de2f3U, 0xdfea15f10dc82bf4U, 0xdae8fd060ff60be2U, 0xcf0b0715fbea2e12U,
  0xfef0f3ec27030c15U, 0x12f837ebb40c0ff7U, 0xbc11e207feebff09U, 0xf0f2f6e4ed0919caU,
  0xf9220a00ed0a0a0eU, 0x2ce903e6ef040203U, 0xf609fef60503e5ecU, 0xff2b0418e21c0828U,
  0xeef4fce4fd09fbecU, 0x8e40be0f13206f8U, 0xe914e105313e2de5U, 0xf504092824e1ff20U,
  0xf1bdd0241f071be1U, 0x32ff0112f0fcd829U, 0xebf3fb09f7d7d40cU, 0xf20de70f1a0811f1U,
  0xe716091010f50ce6U, 0xf8f8dc00f8fc1a08U, 0xbfd1f2c9dfecf8e2U, 0x33fa42ff19ece90dU,
  0xdb0b105f521e5ffU, 0x1002ce12fdf8fbU, 0xf0be2c0bc6edde07U, 0xfcfbeddd1829e9e4U,
  0xfd2101e501200714U, 0x804e7ddeef681f5U, 0x2ef0feedd4dee505U, 0xef24eb051915581dU,
  0x1f607f4250dfc0bU, 0x171c0109f309ef0eU, 0xfe00131efd0211eeU, 0x70df20d070d03f7U,
  0xfafb0df6fbf4fffdU, 0x910fb1111efe8fbU, 0xfd06f4fa081bf9f1U, 0x202f9e4fee202fdU,
  0xf2ecf6e206e3f726U, 0x4000242ec16fc10U, 0xf61408ebf1140fd9U, 0xfe101910f10cf3edU,
  0xcddc5502cd09aedaU, 0x200ee90ae50ae321U, 0x9df04452dc0f8ebU, 0x2dd1b1c3a7efefe7U,
  0xafece06e7d8c0f2U, 0x38f500f507260a25U, 0xf816e7dace3a3510U, 0xf9abebd5e5dd15f2U,
  0x714e8f31cdf440bU, 0x5fed6fc51d832dfU, 0xd83af3d9f45c2015U, 0xe905e501bfc9f924U,
  0xea26f142182913faU, 0xe7461323d2f305e2U, 0x270e2ae8db1d4b1bU, 0xeaf442d31af31815U,
  0x31fef92ed5033cf6U, 0xcf08d30a1ce23b2cU, 0x8620397c9abe243U, 0xe7bee91221c2fdedU,
  0xbc54be11c70d045eU, 0x81fb2e03fecfd936U, 0xa4f7420f2845c159U, 0xea2f1e2102c91129U,
  0x1305e314dd10f731U, 0x14e42907f1f30805U, 0xea11f6cdf2e80d0bU, 0xe91f01f2d2fd09d3U,
  0x6fee921ddf9f1f0U, 0xce2fc540ebea03d0U, 0xe9c9c0c60e36ce6aU, 0x1c050d1a1044ed33U,
  0x1904ff35c809df2aU, 0xf944e500fa1cde91U, 0x441529de1fc51df6U, 0xaf12f5331f0aa822U,
  0x51032d8d60bfdf2U, 0xd104f6ffda1c160dU, 0x10f7e71729ef1cecU, 0xfc20f22a1df9c4c3U,
  0xd8ec1a01fffdce1eU, 0xfcd5df2a07000c1eU, 0xad3506f3f1170aecU, 0xf126f1f713e5d6f1U,
  0xd21be1b10051d808U, 0x191d023212c0261dU, 0xb81d09d2fc1f67e3U, 0xede8f8dae812e527U,
  0xf5e74fb8c065b9f5U, 0xae0311305ea36U, 0x4c1a3820ed264609U, 0xe8fc18d510c46b2dU,
  0x3534d018ebc61a0bU, 0x99ecb0db1c1b2403U, 0x214a42dc4eb85ceaU, 0x6b2b812740050e09U,
  0x92dc1311d45b01cU, 0xcb5533163eb9f90bU, 0x1c1b41f5c546f7f6U, 0xcbe639d4dbe3eddeU,
  0x1de8fe091afcf41cU, 0x1b31e913fe1912fdU, 0x100c07d2eceed622U, 0x917eeecf1fa0f07U,
  0x1d626eaf00d07cbU, 0x208f21d0d131dfeU, 0xdddd04070902ed26U, 0xe0fa0e2e18fe2717U,
  0x1b1a1c111819c2e4U, 0xee071c050e000110U, 0xffea02020bf6d606U, 0x391bf4d6e5eafc1dU,
  0xb3e07d1341df2dfU, 0x2df8e0f918dff61bU, 0xe5fc12022f45d934U, 0xefe2a6fee5c00707U,
  0x10faf9ee0f04f9eaU, 0x21eee931e611e2e4U, 0xf230c62016e5cdfaU, 0xe28d18c996df0208U,
  0x1a1a4b220719f7e7U, 0x48f00e2bd0be172bU, 0xdb0e0df8ff0d18ecU, 0xd15edf310f7d5e2U,
  0xe70def2dfdebb0f5U, 0x4e014005019203efU, 0xe8cc015dd3ddde3aU, 0xf8c3de0ff01fff05U,
  0x12e5f7cd07c2c7f7U, 0xfc15b8f8bae6f1fdU, 0xc9d9eb44e92200ebU, 0xf1dfddfe0beae338U,
  0xf2d411feea0f22f1U, 0xf90308ecf903dfe7U, 0x3d05dd457f1b0c19U, 0xc5fad303eee71e29U,
  0x17fcc9eae421fb0cU, 0x908ddc00addb106U, 0x30b3dcddedbd3ebU, 0x2888be2ed503dfd9U,
  0x42fb1ff3009d2610U, 0x104ffcdfd4feddeU, 0x20b2f71524170e1aU, 0xe4e824f8071d0b2fU,
  0xede2f2faa3db0016U, 0x4e7fb0325041af5U, 0xdf21ea03cffd0bfdU, 0x1210b901cf0edbe2U,
  0xedeb36d0281622e4U, 0x26fde40af51af629U, 0xfdfe9c61304e7e8U, 0x22f6f8ecfdde0c06U,
  0x91f53071470be428U, 0xfe00e63ff9f6fd06U, 0xe02bf31c1521fc03U, 0x19d10bb2fcb2d3e3U,
  0x169e34ee0af7f6f7U, 0x17073e3108f9edd1U, 0xfdd5c8211e0cfee8U, 0xfaf00ef3150b1824U,
  0xefe312dff11fc30aU, 0x7377fe9fcaf0b29U, 0x310e0551ee2724f4U, 0xf7df9afa11f10c12U,
  0xafd19e2e22a2939U, 0xdc03fef4edeae2f7U, 0x2025181ae6f30b1dU, 0x2cb07df05d7f1U,
  0xed1fece30a28ed01U, 0x6d723c7f51b6b08U, 0x50301fd520ea70eU, 0xf9e7f412d8dabd03U,
  0x1528f402040c0210U, 0xc0bf7080c0edacdU, 0xceef08e5eefd0e03U, 0x70b08f405010d06U,
  0x1beef106f0052826U, 0xd8280aede0f7faebU, 0xf1ffee181efff111U, 0x13170af5f10523f4U,
  0x1cfe0d0b18e400dfU, 0xf6e2f01ff608f10eU, 0x220d061d2d37fcf3U, 0xf31d180ff727f2fbU,
  0xf615e1f7eae1fed0U, 0x13e8df05f2c7e615U, 0xdf5bf05fe570428U, 0xf4d4e800e6df1705U,
  0xda0ddef4f62e0b37U, 0xbf8f011160d1247U, 0x61a340bb6cfebecU, 0xe220f1c403f8010eU,
  0x20dcd0ddde0017feU, 0x53e8e80aefd9f419U, 0x2af23f00ddf025ffU, 0xb903f3e40d24d507U,
  0xed07f5e6f8d9242fU, 0x511f8ffb0c9f90eU, 0x380acc1d00f62ed4U, 0xe5e22cd82608b8dcU,
  0xf400f142bffc181bU, 0x4ffca4006222b02U, 0x26e0f32ef1d00826U, 0xaf5c8fd4708bb3bU,
  0xeeecda1305d7040dU, 0xf8e0633f0ff61a18U, 0x35000714f614bff4U, 0xd94e4ae5d8d42421U,
  0xda3d2ed87f12233dU, 0xd52f0bc3e9b001b0U, 0xc51945edc9f4030eU, 0x2a8e31a001a2115U,
  0xf9c41110dd190c17U, 0x180af4e3ec27caf4U, 0x19f211ed0703fa1bU, 0x1fe4f83c04f7e7f4U,
  0x11e4f5f1f0f90620U, 0x22f90126e1fae819U, 0x1502131405060be3U, 0xf7e706e4ef2ad4f8U,
  0x20c4f11228150ddfU, 0x5d06f555dce5df0bU, 0xd4f508fb24141800U, 0x3dffd4dc01f5211fU,
  0xe3310ffff90cf5deU, 0x5171425f635ec81U, 0x33fc1d17eb2605f5U, 0xda0e3ae82db80211U,
  0x2623272ad60ef318U, 0x28ee002cdf19e41aU, 0x23282cf8181505faU, 0xed05e4eaf92612f1U,
  0xf502131612fd2a23U, 0xf0f81ffaa220fb05U, 0x5b720131413b94bU, 0xf6c7d4f0a610fbe5U,
  0x28c01cee0649133bU, 0xfc0206f3f5102512U, 0x6e1ffd9e2f0e92aU, 0xcfcd4d512e8d5c9U,
  0xe02df0fe12e009fdU, 0x2f2d7cafc09261fU, 0xf4140423b92da4dcU, 0xd719460fdcfe1a33U,
  0xee15901bddca52aU, 0xd708f9dc55ea13dbU, 0xf6055f080611fd2fU, 0x1f89140316e5ff02U,
  0xfcf510011df3bbd5U, 0xfdf3ff92242d633U, 0x6fa1104e9cdec1eU, 0xe70b1507f6330607U,
  0x7f61311fa0803e7U, 0xe0c10f3dfd9fd00U, 0xa0a0f2cf70c14c2U, 0x11f8fe07ea16dcffU,
  0xf806f5c8f8f1fc13U, 0x526ff372001ed1dU, 0x90a25ef030dd220U, 0x403f2130e1ebd23U,
  0xf5e4f620c9eb0aebU, 0xefddd3cf3316e3f1U, 0x3f0e1cee250b07ecU, 0x1d13fd3302380604U,
  0xed65e07e5f20fb6U, 0xd01414d1082dce22U, 0xae1f9f0070c1a0eU, 0xecf1053be5c1f8fbU,
  0x60d1af9ecd6b9d7U, 0xe4ef27fed70809d7U, 0xf7e1ea01f0138c04U, 0x1f05e31acfcfd416U,
  0xce04d3db051fd3d3U, 0x47d8fbddb2ecc914U, 0xc9d4e95003230008U, 0xf82621c6562822eeU,
  0xf4d429a500e803ebU, 0xf7110908261dfad5U, 0xe60eeb0a4714e0dcU, 0xfeffe1ea14320211U,
  0x3103f2f0261d0521U, 0x110706fe09f93de8U, 0xc1f4ebb2d219062eU, 0xbf0b07e917112c05U,
  0x1c200824e5d4ffdcU, 0x258f336d31df0ddU, 0x29c6150d0c177fU, 0x6f704ebdafb241eU,
  0xbfb07161d270cf1U, 0xd3f605d9d6e8060bU, 0xb4f7f0c8efe00820U, 0x132624aec90df4f2U,
  0xf89fe0eedeffdefcU, 0x17d8ecf4ff13e812U, 0xf21611140812e30bU, 0xf3fbf40829fe3311U,
  0x30010d2f2d51010U, 0x10dd0d18122200e8U, 0x628e825f036dc16U, 0xfa342403db0fd996U,
  0xe40daab7f1e0dec8U, 0xad9f71c18c61ae4U, 0xbe08f5ccf7e415f2U, 0xd62008e10ef50a1cU,
  0xe1e50026051016f4U, 0x456e6081d30cb50U, 0x20022ef5e62e0c10U, 0xbcc8f2bf20f90c19U,
  0x35efd80c2c0015efU, 0xf2efde3112de210eU, 0x131127e57fd708fdU, 0x1a1fd60cf6ce17e5U,
  0xbc45eef1172b232aU, 0xcc12c10002e1f624U, 0x41f716fb501bd9c4U, 0xc908211112d125fdU,
  0x19ef20ffdced0014U, 0x2e8fc03fc0f01fcU, 0x141427f6170fea06U, 0xaebe2ff0ce4f712U,
  0xf6f305f5fff6ca03U, 0x14d9250c0b172d28U, 0xf800153a17cdf51aU, 0xf01ae5ed0a0c1dccU,
  0xf5d8fd030a0fdb2aU, 0xdffe0001e7251efcU, 0x10213dbf30900dbU, 0x5fc1015f601f0f7U,
  0xf5fa6fe6f0ffc5e5U, 0xfefef409d3ecb018U, 0x7ee030e13f2f8e2U, 0xd23e5baf221e806U,
  0xf912e204c60fd9ffU, 0x5f823040aed0b32U, 0xe13007f9e203fef3U, 0x18170be41203daffU,
  0xece9ddd305d82d0dU, 0xea01b5efefd509f9U, 0x2219f80cf8fa1a02U, 0xff0aebdc9dfa23e5U,
  0xd4f900c5110d130fU, 0x122e012fc21cf68U, 0x2d2820e9e6003dffU, 0xb9cc03814e1402e8U,
  0x2a0d281addcc3725U, 0xe303d9f4262c0d13U, 0xe9001cc520c1e933U, 0x1f05fc25d5cefd0bU,
  0xcf2e1417e50d0402U, 0xea1dd0fad3adda11U, 0xffd2a0190f21622U, 0xb2a3bddcbe40e27U,
  0x408fefd0a0ff6f8U, 0xed4e60f0910f1f8U, 0x16fe3c05f8d50e00U, 0xef1d1ff108f709e1U,
  0xfdfb1a1cf6e211e7U, 0x171bf71aefd90df9U, 0x9ef2b07a814ec5dU, 0x30e90e150f0cfafcU,
  0x1bfb0afebf03012eU, 0xfe45f9010d04dee1U, 0x27ec10e619080d0bU, 0x9b16e2e7d0f2a61fU,
  0xdf5f0ef100aeefcU, 0x1204f9f601efe00cU, 0xcfb00fef5fafc0eU, 0xf8f9f0f8f3ef0af7U,
  0xec07fcfe0111fdf3U, 0x100106fcf90cf3ffU, 0xdea10f6f207fbefU, 0xfc141004fbf7faffU,
  0x9f00805fd0403f7U, 0xaf9ff1003060f16U, 0xef260305fa05ef00U, 0xf4faf603fef8020aU,
  0xf7fffdf908f8f2edU, 0xcfb0df714fe06fcU, 0xfcf105110605f910U, 0xfcf70a0efc051602U,
  0x10200fcf71ae8feU, 0xf603fb11fafdfd03U, 0xfb07f8fff602fdfdU, 0x107f41009ed00fcU,
  0xfcfc01fafd0d02f8U, 0x3ee0ff9160311ecU, 0xf7090001000cf713U, 0xee080801fafd12fbU,
  0xceaebff1913f37fU, 0x109f8e104062c02U, 0xfffbf8f8e9ed0a03U, 0x6d9f305f7060bffU,
  0xa050001fe07f503U, 0xf30e03f0f4270505U, 0xffec050afcf1110cU, 0xf50a00f20412050cU,
  0xf6f6010404f703U, 0x30512040a040103U, 0xfaf90101fb0100edU, 0x905f1f8f11408ffU,
  0xdde42ffc0a16f3f2U, 0x1ffd823f2ee0afeU, 0xf8d62afa220205fdU, 0xed01e2ea000fea08U,
  0xd406f4fa1415f1ecU, 0x160f1023fcdb1b21U, 0xd6ffebe4d0edf9ffU, 0x70217dc232afc01U,
  0xe6e3e20cfa241e35U, 0x11f4fa0104e722f9U, 0x10efffe0a0f2406U, 0x2ff14d209f11806U,
  0xe5fe0a0cf6021b08U, 0xed0bfa09fc140eeeU, 0x290cff140fe62e14U, 0xccfd04e4060d1febU,
  0x1de708f0d207f11cU, 0xea02081715fd160bU, 0xfc1a25d20fd6e902U, 0x1315000dd6f00906U,
  0x7ef0821d40ef600U, 0xaff124f6e5e0dd1cU, 0xf300f0dd7ff62528U, 0xfe1bf022def9070dU,
  0xfefde9ff02fefe02U, 0xc050806f60dff04U, 0x90403f102e6fd29U, 0xda011bdd060dede6U,
  0xfe17060a0bfef8f9U, 0xfafbe009ecf6e817U, 0xe1df1001ff27eb13U, 0xfe13ff1e0710ea17U,
  0x802fd1ef4fe1019U, 0xe10c06f52ef5cfc9U, 0x210003ee0c0706ddU, 0xfe08f4fdea08d71aU,
  0xeae6f300c0103be8U, 0x300b5ee210802e4U, 0x1ab905fc07ea0a0cU, 0xee0a17dcf9f9145cU,
  0x1919fef40fb3170fU, 0x11f6f2250111c912U, 0x33e2fee606bd12eaU, 0xccee26dd2ce7e0f4U,
  0xeb37f1e2e2db08U, 0xde28e11ffad434ebU, 0x3031c091a460027U, 0xd4153223141c0029U,
  0xe913ea26091e1de3U, 0x291e22363913e402U, 0xf8e5f70110f2ebfcU, 0x1ec1f0dfd0a06eaU,
  0xeeec120cfe1ce011U, 0xccbc2014ccfe06e7U, 0x131fb7e90e261efdU, 0xa0aecf9e9c2f436U,
  0xd0f80ee1e40607faU, 0xdbd7e40ee709ccedU, 0x1ae22122bd1ad025U, 0x305ef09b9fcd1e3U,
  0xee473dfcfbe3a147U, 0xfc100af309011f0cU, 0x2bf119ece9ed200fU, 0x19eac8f14f01ef08U,
  0xcfaa30101914e6cbU, 0xcdf52335f70d1e07U, 0xe3f612200be9d62aU, 0xa7e60f04e408fedcU,
  0x29f00202234bd930U, 0xdafd350ec5251229U, 0xc9e23efa81cd030aU, 0xe803e618d407e90fU,
  0x190bedef0fd1efd6U, 0xaedff8db0a14fad4U, 0x121502feff27e102U, 0x2c2201d8e0d7e4f7U,
  0x13170c2d0fe218ecU, 0xdb00350fd3fdd10eU, 0xfbd33d162d5000c3U, 0xf0d2e805e52fc516U,
  0xea37d2fe22fe10c5U, 0x26eee2043d32faf1U, 0x17f0f838fc084efcU, 0x6e7f70c08ffc3faU,
  0xc8fbeb7ff1fe46feU, 0x18f435e0d7c71defU, 0xd2ca0535efee02c6U, 0xd0e1e0212e272df0U,
  0x12eae0edc4d1dfffU, 0xddffd31c11ff12ddU, 0xf970e22908f20c3aU, 0x9ae4a0e0fe1814f4U,
  0xf8f5da56f41afd2bU, 0xe3c221ee17f63e1aU, 0x230dea0c3a29cd3dU, 0x13e20af3f4000a1dU,
  0x4fc06fc0b1a1cfdU, 0x60c15f60519fcU, 0x2a0d23ebf9fd0ddbU, 0x10bfcf80814f806U,
  0xf2b1c05d3ff1e00U, 0xfa1dd1deef05fdf8U, 0xfa02e5f301080603U, 0x1913eeca1cf7fa0cU,
  0x203ee00fffc0decU, 0x6e307f9f1ff0ce2U, 0xe04fb06f6fcf5fdU, 0xe7fb07f5edf40fdbU,
  0x203e0c30bb0dac5U, 0xd6c7d12bd2d7d631U, 0x44d4eb150014c5f1U, 0x54e9f1021b13f203U,
  0x50cefd366f2e329U, 0x49f8e22c0e37de50U, 0x320524dde6342316U, 0xa42edbcbd001f903U,
  0x4130141c38e224ecU, 0x42cb587f3dd5f11aU, 0xf1dce32ee44d34d9U, 0xd8c7470bf6441a3cU,
  0xd8f31b2d3e0be5d4U, 0x1191327fe0e0226U, 0x6eeed670cb32d2eU, 0xbbf9380cdb174527U,
  0xb5f40a27d054f6b5U, 0xe1b730fcdcdcfeU, 0xd24c1f2617e31012U, 0x10f7b9d9e60e1c42U,
  0xcd0efcfc0643114bU, 0xd9b75d303437dbadU, 0x28eedc04e3240333U, 0xd523f7f2ea0a310bU,
  0x2527fe3fe59cd3U, 0x14e801dc24fee70aU, 0xef2a6cf7fa1a3104U, 0x20b6090c1c2d2d2dU,
  0xe8ad550b54beda0dU, 0x70e6942ef580711U, 0x1fce1edf29ed3472U, 0x3b1cd50f2a1719f2U,
  0x1acd0117c9fe1f25U, 0xeef59539083a12fdU, 0xe32cf8180d561ef8U, 0xe9d5d7dac9f4cc29U,
  0x1c2144cd0bf1e60bU, 0x1f0303c810ecd80dU, 0x2c042c07cee1c8d6U, 0xc107e702c9080438U,
  0xcbfb070ac9eb06f5U, 0xb70204dd1d2ac049U, 0x301a2ffa0af7feebU, 0xb248c0d6e9e52df8U,
  0xbe13211b1ff90224U, 0x28e9062dee050d38U, 0x31525bfcad51b17U, 0xea00d31c2b13f430U,
  0xfc0521ec2e0642d7U, 0x8de6d01e0e63fc0dU, 0x56f4d3caeb42152fU, 0xe8dd4109d006eb44U,
  0x2df7e579d06206fdU, 0x700d53307ed26f3U, 0xe6fecde50e0cf6eeU, 0xbfffbe5e4dd13U,
  0xeed2e12208261744U, 0xe3f06ff802c68108U, 0xf8ed3efeedca4f68U, 0xdf1ee018d6db4be1U,
  0xf208e103cd070c1eU, 0xc11f60ecd171c02U, 0xed0de1dbf4063eeaU, 0x17f8f02203db3b1aU,
  0x6e1dae7120c1729U, 0xecff130fec0716f1U, 0x6fb25dd0f092125U, 0xdd2020100ffe0f17U,
  0xfcf3eed608140b36U, 0xffe83f0510130c05U, 0xfe7defc031315f4U, 0x252611fbd1f702f6U,
  0xdeee21d409d70ee8U, 0x85f2ed14020d0a3eU, 0x7f3baf70505f7c5U, 0x6e2ef30bda032906U,
  0x4553cd38c3ffd71dU, 0x22db1571332c51f7U, 0x2c28f0270fe90835U, 0xb70cec341e2d36feU,
  0x21f2a7df31f50726U, 0xfddded0d21f2fadeU, 0xce2d912fafb00e8U, 0xd209c2f1ead7f32eU,
  0xf03010d355c3276U, 0x4095708d0ec15e6U, 0xcb35d504f4e17f05U, 0xf2aa6cdb3ff6fd24U,
  0x4021185cac375b06U, 0xcff7cf01db573817U, 0xca8dc6a9fcedfb71U, 0xd0eecc164b32ea2fU,
  0x8d49d62516071730U, 0x93dba8c70035f2d7U, 0xd5e02811a464c710U, 0xdbf747d8e4c712f9U,
  0x427bf8cc0ee229fcU, 0x520afb0b3a534bf9U, 0xea1f03f1b809120bU, 0x57e63124402a0200U,
  0xc8dfcdfd1bdcd533U, 0xa34976e50407effbU, 0xcdf6f0e7da14154bU, 0xd027fb38d815e9fbU,
  0xebe61af9e2f82219U, 0x304a2b21a1e8e824U, 0xf81de6d8f8011f0dU, 0xe611f7cefa2dd431U,
  0xff10ff2b06f7e4d5U, 0x613ffecf40ec2f0U, 0xd01af5cf0bfb1500U, 0x8f4d4f100fffa22U,
  0xfae4e42800d5e104U, 0xefd5cc0c2b06de25U, 0xf5220429e721002cU, 0x460efb1ae01d22f9U,
  0xdde8ee8ede1f43dbU, 0xed0e1edaff1df4d9U, 0xe4ecf802dae029deU, 0x128e1f20e33f10bU,
  0x1703e61afef60644U, 0xef370d01f3f0db02U, 0x1f023e100e0eeef5U, 0xdeefdefef4fae2daU,
  0xf32709eb531bf3f7U, 0xe5e71fc8ffdefde1U, 0xac820e034f0e4a9U, 0x23e73e1d0613e1dcU,
  0x2ee32709fdf838c0U, 0x223edbf7d8e10502U, 0xec1df42d6981670cU, 0xceffb715c545f314U,
  0xe1cbd90d0cfa26e4U, 0xdd080912c2c81cf5U, 0xe3d80007e413f81fU, 0x7071026250ddefaU,
  0xe6c91608180cfaecU, 0x330d03d31f01fed0U, 0xeef7dee30f0be846U, 0xe7fc15effd0105fdU,
  0x1b18ff21dec81820U, 0xc8f2f6f90f17ddd9U, 0xf1131aea1601f418U, 0xf00d2518f815ca20U,
  0xe5f214c9ef1fda0eU, 0x32280a0ef40fd5d4U, 0xc3200df8dd1d0617U, 0xe60a1930ed060f14U,
  0xf70e0012cb3df678U, 0xc1eed6cf0f15f331U, 0xedf3fd0cd6ffb5fcU, 0x331d03eb01f21c0dU,
  0xd707082e1509f20eU, 0x3f22121ede120e2U, 0xcb023c02d3d015e1U, 0xe7f3e607e2efffd9U,
  0xe69fdec41b17db0dU, 0xf8bf200a8107441bU, 0xd6edf3cbad260408U, 0xe8fb10a4e5e93706U,
  0xff53f6441ba0fe0fU, 0x3f046ed9117deda7U, 0x42f318baec0af907U, 0xd10118f2efcf1d25U,
  0x17fdcaf2a10b01b4U, 0x9b092a05fea5e6f8U, 0x1ce435e836de2c1bU, 0xd9eaf0352b27d3edU,
  0x1ff5fd01cb05b4e7U, 0xa121cebdcf5efe9U, 0xd61620daf9d01533U, 0x40e0be3f0022615U,
  0xf3f000f9f6feee0dU, 0xcd1ce4191a0ff4f3U, 0x2fd131a3bf7c51dU, 0xcbede1321e02e3fcU,
  0xc1ec0eef1ee92d27U, 0x3312fc2f3a060fdbU, 0xfdc7f3ff3dee14f9U, 0x2efc022503f6c10fU,
  0x1518e8e014f8e3cfU, 0x6faefc31ae9ecd3U, 0xf8e7f0fa13e3b03cU, 0xf4e2c99e07cc1ee3U,
  0x53b95f02b0ffdaaU, 0x20f641e7f437b1eeU, 0x34f4e3c5f6bcf6c6U, 0xd9e81ba510f72115U,
  0xd5e8382119d7b5eeU, 0x23061309230c1c31U, 0xd84cf22feb1bbc17U, 0xf7d117fe179fcc4cU,
  0x10d805e4f507f7a4U, 0x73ed3df961be2119U, 0xdb08ed4bed11fc11U, 0x88bf2f1c0cfa5f05U,
  0xf7ff05dccd5bce06U, 0xf70de91da20eeee8U, 0xe8e3c91d1cfee7caU, 0xdee7c9ee12c4eb00U,
  0xf6c520c6f531fe05U, 0x6c70edc0dcd0a12U, 0x472f2c01b716c536U, 0xb3d0f33207d32ef0U,
  0x2130e04e4223305U, 0xeb841deef515d90fU, 0x6f0f2ce9ffb821e0U, 0x4081e5432e09f5f8U,
  0x1f23cfcf1d03c3dU, 0xad52fb42174000aU, 0xa50b2a03151e2b25U, 0xec21eb4afc14ebf8U,
  0x8d6dfc5eac3074dU, 0x3427e42afeff15d5U, 0x2c1ef109fd0c09fbU, 0xf103b1e2d8e0f019U,
  0xfb090de5ddebfbf5U, 0xfed7ebeae1060307U, 0x4cf40411e7e1f40aU, 0xfd0bdf0b01081626U,
  0xea0efbffee22ef14U, 0x38e10fe4f90efb19U, 0x21fce6f318f12ae3U, 0xe6130e0adf1f221bU,
  0xeaf21beb03fffa13U, 0x36ecec1117d70de5U, 0xd314f1fb0cedf402U, 0xc0411f413171cf6U,
  0xdefe0ee8030f0601U, 0xd60f3004fc4b0fe8U, 0xcc09e011ffeed0f0U, 0xfee481fd1522f90cU,
  0xfef11c0bea4a1ef9U, 0x14ff15ffc10e10f7U, 0xebd411ca13edfa1cU, 0xc30bf6f1100abe0cU,
  0xe7e0f724e7eef5f1U, 0xf2f420d4e90cea31U, 0x4120908a435ce0eU, 0x2010d24f206fdddU,
  0x81efbec15fcd808U, 0x161015f8f42ef3f7U, 0xef31d1012e60d04U, 0xfffff91af0103701U,
  0xe404ddff0ce6fc3cU, 0xd19001e130109e9U, 0x12082203f9eaec3cU, 0x1c0e0a15f90bedf7U,
  0x11030c08f30dd714U, 0xf904e51c04ffe40fU, 0x27e607f5ff0b19edU, 0x1000efed7fce701U,
  0xcdd10eee6e9ea1fU, 0xe41b17bbbd09fdfeU, 0x61518d90fccf710U, 0x511806dbffef0b01U,
  0x30efea0304dfe20cU, 0xee262a0c1e16e407U, 0xf2dc24090102f9eaU, 0xd9150f06d90404ecU,
  0xe0080cf206dde3d8U, 0x1ec223412f8f817U, 0x2dede909e207f5efU, 0xff131af7eb16cf08U,
  0x1e6deebe9140a0aU, 0xf5dd0ffb2adafff1U, 0xabfdf73ee3e4cf0eU, 0xead02400c71d14e5U,
  0xd0fa34f5f902f236U, 0x6f11c00efe10dd8U, 0xe1eb110f4c21d8fbU, 0xf15f1f901efbc08U,
  0x901030ee70efc04U, 0xdcdf0106f509c9dfU, 0xe9f705e57f31e2fdU, 0x6e30d040dfd3308U,
  0xf9e8e2eb150012e6U, 0xdff6f0ee060302fcU, 0xecf0ea031ae1eae8U, 0x4bfa23f6ef090315U,
  0x270af9211ff9dd19U, 0xe2fedfff7ec25faU, 0xe6ed02e51cfc0402U, 0xf809f2c30cf7fb07U,
  0xefb06fdd7f70fe9U, 0xfd12e61debfae504U, 0xed1f2ffea22f212U, 0x250b04310b050323U,
  0xf4261dda0de706d3U, 0xe32b180909bf0714U, 0xf61ee7e7e2de0aceU, 0xf90a1d1d02f6e4c8U,
  0xf5f509fe32c52d0aU, 0x33eff2e6fa22f3ddU, 0x241a26f53002fa15U, 0xbee9db160412d61bU,
  0x1e3a180cfc2deef0U, 0xc8f9e4eeede14f05U, 0xfc2af81ade29fae6U, 0x6f4f83224e40634U,
  0x1b1bec1c241416ecU, 0xe90318faff160638U, 0xcdd6fa22f9f21340U, 0xe71303fc421b3009U,
  0xdd1612fdf42958efU, 0xcdec8ecf228250aU, 0xd1b09f01422c9f6U, 0xf5fadbd8bee9062cU,
  0xfb44f60d0539cc1bU, 0xfaf342f818021c18U, 0x908f7f70409f1daU, 0xed2932cfd5be3039U,
  0x4d8e1e2390529aeU, 0x2940f0da15adff11U, 0xc8f82312cbec8f1dU, 0x4a67dd0ec24301f2U,
  0x400a0be4e408cc1dU, 0xf93c3215e01405d8U, 0xae4d2d702c7eff8U, 0x3191eddfd500146U,
  0x20d9fe2bdccd0aaaU, 0xf10d07f54bfc81cdU, 0x11e5201b29e81205U, 0x30e2f0cc0df606f7U,
  0xd7e5f20e1dca1fe7U, 0x4e6c008ee2a26c5U, 0xa802be03ec2217U, 0xdb2cb3b2e8fc1efcU,
  0xac3904ddf706e1aaU, 0xdbb42c3940f7f612U, 0xe650311bccff05eeU, 0x2269260b59b5e126U,
  0xce4fdbc0ffeb2df7U, 0xc139d9f1262417caU, 0x29e5e80224cffa24U, 0x223d7fa36090cddU,
  0xcd080bcad515b03fU, 0xeff52fea22ed08f0U, 0xfaedbeccb6b8f5ceU, 0xeae6e7cb00f10b29U,
  0x2a721ef2c656effdU, 0x310155e299d217feU, 0xca3de39fc80df123U, 0xf2e012222e7f27f5U,
  0x14ee01140a32eff1U, 0xf5f034e1c0965e19U, 0xf40ee7f36ed5070eU, 0xdc120f1bd6000508U,
  0xf820ecf418e2e8edU, 0xdfdbe940f315f4c6U, 0xe30929e415f5f8d6U, 0x4f084707d907160aU,
  0xf714e7b32df4102aU, 0xbc30e9ffe6d5f10eU, 0xf5090bdfd231f532U, 0xca40ebf826b0d335U,
  0x3d1e111f6f71af3U, 0xf02a2fd9f9f7c7f4U, 0xe0e4e4f8f1f50405U, 0x230ae3d1251fdce2U,
  0xcecedbd22a20102aU, 0x70be3f706fe0c17U, 0xff5d7f29a1235f0U, 0x3f307e0e6ee1dedU,
  0xd9050a201c10f9b1U, 0x4109de05dafcf7f8U, 0xdee2e6ec0ddf0af7U, 0xd8290de4f0b6e0eaU,
  0xe7c8273f09e6f3f7U, 0xea1d1f250a32d30dU, 0x16f3ed04eeef02f5U, 0x28f803f60502a93bU,
  0x3104f3cbdf0f21e0U, 0x2ffadb2b3eff0df8U, 0xcac0ba1804f6e613U, 0x2fae0b19d705e5f0U,
  0xe0ebddf6c4fcf4fbU, 0xe60bedf7f4f1acf0U, 0x20fcb72eef2412e6U, 0xdb0110b0e0e617f7U,
  0xcebaf7fbe7f11223U, 0xe0e2f1f2e61dbcf1U, 0xb207bc25c028ce15U, 0x5d29fec091adcc8U,
  0x27c0f9fe31052ce3U, 0x112805f33eb40600U, 0xc3fbd0f2efe42315U, 0xd57f270bfa0011ecU,
  0x53e7efd50c1500U, 0xe34cf120fbb80d08U, 0x4b0af4fad1eddb09U, 0x3beacfdc0aff0b14U,
  0x10010404ddecf5c5U, 0xddf9f2f5c603e944U, 0x2410e8efff1bda06U, 0xdbfad1ee3ed610b0U,
  0xfa03f5030a05ebfaU, 0xef0c0606fde2f9feU, 0x4fc1f0105170a08U, 0x12172cfdfc0200d3U,
  0xbd1ceac60b12ee26U, 0xee1b032907ea01a1U, 0x16f4faf0ef0826efU, 0xdf07f6ecfe10f403U,
  0xed4b1af302feed11U, 0xf4e8fd10f7411a12U, 0xeaf013f814e681eeU, 0xbf0ee0efc21df12U,
  0x1800072936012f18U, 0xe02c0b14200cf011U, 0xbd08c93321152038U, 0xd9f84d0cfb2ae504U,
  0xfbc52f05120f20f5U, 0xe41bc3430d371507U, 0xf523d422b51de7e3U, 0xc4eb0a11cfeb0100U,
  0x9daf0ea12e8fe18U, 0x8f748fdf1031e1dU, 0xff0afcf727f9d333U, 0xf908f7d70ecf10f7U,
  0xf1e1f205fb021102U, 0xf80405090b08d908U, 0xff06fb01040904f4U, 0x1fff1513ff1e000aU,
  0xb10061813120c1fU, 0x1709e9f41d1613f7U, 0x70213e5fff8ffecU, 0x2f1fbf503fcfc00U,
  0xef070d0a0710eafeU, 0x5fbce0d0403fbfbU, 0xf6fcf6f2f02508fdU, 0x2fafaea090a061aU,
  0x5dc3def00f5e20fU, 0x1af0fbdaf92be5e3U, 0xfcfeea03faff03ffU, 0xe50ceaefea32f708U,
  0x2b06fcfbd307e91fU, 0xfffeea48060cf807U, 0xc31eb1c01fb01dcU, 0xf0b0ffb06eddb01U,
  0xd5e0091c1c262c02U, 0xdaea140e14f9f8faU, 0xf507dded1edf07e6U, 0xf6feeb55010227fdU,
  0xdb0ef33dd7fa01f4U, 0xd202ad206e01947fU, 0x3f5e4edd623cce9U, 0xf6d0fec7652dc021U,
  0x70812e60c0820deU, 0x27ec2fe6d631f111U, 0xeaea1a233608f7fbU, 0xf0f27130a0f14efU,
  0xbb06b8f043daf624U, 0xd603d6f8e7efc807U, 0xb1307ff3bcfdefcU, 0x2a1dfae4d3f019feU,
  0xfdcffde9e307fd25U, 0xf2f10203fb3d1107U, 0x3f41a0f10defe12U, 0xfb0a0ef8f4fcf9faU,
  0x2b191bef09ff0409U, 0xd0b0e040ff8240dU, 0xecff03e3ecfdeb06U, 0x150612ea0be701fdU,
  0xc0ff90f021a2ffaU, 0x3290101150ae9ffU, 0x21616ed17071306U, 0xf5f6f61106d6dff3U,
  0xf00635d71b14151eU, 0x231b0511cefefbbfU, 0xb01f9edffd4dce0U, 0xd2e42020f0e5f9d2U,
  0xf9e0e82d110d2e7fU, 0xd2fa201be7dde74cU, 0xc9e8cb1624d9f1eeU, 0xb9e704c6c5a1dc0fU,
  0xc9e3ed1ff4f11bd3U, 0xe9f1f9130efcff1fU, 0xc0841ea03dd0f17U, 0xdffc270e4609cf36U,
  0x20dd4e220dceb05U, 0xce0acd10b9daf5fdU, 0xe828c22ad717c5eaU, 0xce2239f80ff71222U,
  0x20fba040ed6f213U, 0xea19bd3cb8f2da26U, 0xf9fb44e4412c27c9U, 0xed22cbe9f343eaU,
  0x44f3dd020f1bef12U, 0xf7171c26fca2ab1aU, 0xfe1e0ed56b1ee75aU, 0x521fb0c21005a33U,
  0xa1422e8e7f0e3U, 0x31d0d1026e8020eU, 0xbee7f6fe2709c0e7U, 0xdf22f1ef609243cU,
  0xf829d2050e120f2cU, 0x162730d700c8090cU, 0x925f9fd0701cbf9U, 0xf911f1f7e620ef14U,
  0xf01160408fc2deeU, 0x2225cb15e1e407e6U, 0x2ef3f2f6231c0d10U, 0x15e204cd0602bffcU,
  0xdaebe7b1fbfafceeU, 0xf1e9e0f0dfcd0b3fU, 0xfc909252902011dU, 0xf9060aeddb11f2e1U,
  0xfc36f302150d0f0aU, 0x22d00a0c02ffeadcU, 0xeb04dd042308fbe9U, 0xec0306fd202d10fbU,
  0x211313ca04230512U, 0xff0e0b1df3f91bddU, 0xf0dceeb292ad3U, 0xe0fef70224f642faU,
  0xe7fd07031a39ff1cU, 0xd40d25fde206f101U, 0x161565fe1bfb371aU, 0xedd2fd0137fd1106U,
  0x31030f07f20714ffU, 0x24eadbf11d192907U, 0xe71b1cca2c9f0affU, 0x1414b60722060322U,
  0x9f09dd0cda030b12U, 0xcc0e0fe336f7f810U, 0xbdaef270621180fU, 0xfe04fefaf9d0fb14U,
  0x108cdaf50aff7ffbU, 0x2d19d9e62ca703f6U, 0x152a72e80f1ad51dU, 0xf7c51afb5bd8bcbfU,
  0xafb35f812e49b92U, 0x601fa05eb03ba5bU, 0x23f211e0dbf8f44fU, 0x45f80b0ff603e2e6U,
  0xa02fd2708510ed7U, 0xf7f1fe0511ee2dU, 0x32e5120bf41b3911U, 0x130a1026f3d5a50fU,
  0xfa04feece6c5a9ebU, 0x4218cee7f4fdab2bU, 0xadffa4e0acb24a8U, 0xf1798cda5f9f408U,
  0x21109fcbb41d527U, 0x11eae72a2a6ff2feU, 0xe6e133eff7eee3c3U, 0xc2326b8e6e03205U,
  0x33f6cecf32dac5e8U, 0x390cee49dfc90806U, 0x1243550f9c0f0d29U, 0xf9abe69936ede839U,
  0xb423fd036f2a1efeU, 0xa7fbb3fc1ce8ffdbU, 0xb052deda9ed451fU, 0xace9fad3040b0220U,
  0xdcf0d2e6c2181812U, 0xe526cef81acf111cU, 0xf51650f63bebf761U, 0xf1e5042940b1d01cU,
  0xaa44d81f96f0fb2aU, 0xd9d8bc5ad6a714c9U, 0x32e24c2dd90f8b6cU, 0xc418f80cd8bd4525U,
  0x51b84f21e23ef629U, 0xfee212ee33531328U, 0x10116b27dec1ebe3U, 0xf815f7f40a3c371cU,
  0xfbfe3a02f6a5da22U, 0x131a13403af9110eU, 0x2ae9f3a1fb34cc7eU, 0x5af7034d2304caf9U,
  0xfeefa0dd5f0cc5eU, 0x4815814f364abaf3U, 0xffe8170c0d1122d2U, 0xeaf3e12ddc1c9b1cU,
  0xf5c156322eedc3bbU, 0x152cd6edfc4be414U, 0x11e9ed180ca524fbU, 0x11b6aefcfa4d0f20U,
  0x460306e6a52e1caeU, 0x4192d3f1f041a13U, 0x8240ff59c90fed34U, 0x111ef273eb90bfdU,
  0xc1d44eb8e10c404bU, 0x15bfd205e652142eU, 0x2d24b518f9bcee50U, 0xe737d78109092503U,
  0xe318f0d311fbdffaU, 0x26e3ec05f90ffbf6U, 0x3d0cddd4fbec25c4U, 0xfc3516b114e0f7c9U,
  0x20443f1b41680643U, 0x8ffa3b9dee00e418U, 0x4bb30f1e1d212334U, 0xd6f22d1ceb19f6e6U,
  0x20fa1bb202e802deU, 0xdf8ecf1ccfc21e9U, 0x80b2fb811c22015U, 0x26fe711af7200abaU,
  0xfa050adc1ff3e842U, 0x1ee6c3fe22fc05f5U, 0xc19400803ff0244U, 0xa7065019f70b33eeU,
  0x2409fa2326f2091eU, 0x1be9e8410cc700f0U, 0x31194c03b335f172U, 0x6913e60af8f4c62aU,
  0x221e1d1fe0392600U, 0xfd32dbe32cdd11d6U, 0x53f1e8b7241919edU, 0x8b331af3dbed8e29U,
  0x17d40b3107c5f4fdU, 0x14eae20902290907U, 0xd3cbfdf6f31c09f5U, 0xffee1e1c13fc3cf4U,
  0xc9ddeee7f8111322U, 0xed10060fed1af6fdU, 0xea0603eb0f0e163fU, 0x3c0e0e0805ef14f5U,
  0xe3dfbbe9071ce6d3U, 0x2a1815e9f4070eefU, 0xdb061dcc05be0d11U, 0xfe18f804f8d722d9U,
  0x131df6e80fcfe11aU, 0xdcfd2200dd0a0f07U, 0x3cd5a7e708dac8e3U, 0x341309b418b7fa0aU,
  0xd507fcdb2220c9dfU, 0xf8e61bddfd03fcf0U, 0xe41fefe106050495U, 0xfefd1827351eed19U,
  0x18c228161ff20fcfU, 0x1d01f72fdff825fdU, 0xffedf137feb40d4U, 0xfbcc151ccd1b01fbU,
  0xfde20310e7fcf6feU, 0xbd1d61fd61704e5U, 0xe20a1502f208f4U, 0x42b15edf80704e2U,
  0xdef8fe0617d50b0aU, 0x802e52200ad141eU, 0x110317fbe92dfb0aU, 0x240d1bdef114fef0U,
  0x8dedc1403fe0e17U, 0xfb22f9fb0ff5fe0eU, 0xdada02f522f20011U, 0xf70bf804fd08cb06U,
  0xef3e1db1bd6df07U, 0xe609f0fa0912032aU, 0xfce226071e17f114U, 0xf913e006e6df2af7U,
  0xed370a0a0cd9e32aU, 0xee0619f6f90901e4U, 0xea1b30e81304c7feU, 0xd9e519f02541fd12U,
  0xfd0edee8141221edU, 0x25e8ee0e03f0def8U, 0xfe25352bfb0c1dfbU, 0xf3ed02007f13ed1bU,
  0xeb13ee1a252415baU, 0xd519fc05140603fbU, 0xeaf2e8e9d519f71aU, 0xebdb152616143b00U,
  0xb90c1608c30e04f4U, 0x2dfb3541e5e75cf2U, 0x20909daf8f5e62dU, 0xf307d7c91ecce202U,
  0xc8ddeb08db1f082eU, 0xc2ef14091bfee433U, 0xf1ff0a212801152fU, 0xe92edf2006d5430fU,
  0x1007f1f9ec10e402U, 0x7f80e0101180d01U, 0xfef410f4f3030132U, 0xf4ee0f0519f612f6U,
  0xf9efebe71ef017ffU, 0xf901f019e0e6edf8U, 0xee4faee120d223dU, 0xe7f1180302ffee06U,
  0x41307f9fd0bfa3cU, 0xe8171ff91210f71aU, 0xbfaf40ef50a0a0aU, 0x1115e505f80df821U,
  0x50067f0acef4e1c1U, 0xf2fbea00ac012e24U, 0x100fecea0af3d3feU, 0x13115ede82003a2U,
  0x523f623fb08f202U, 0xcee1e170f1afa23U, 0x662f12ede019ff07U, 0xd12419fd0024db19U,
  0x2101f3c02125ebeeU, 0x4f5cfe920cbf7feU, 0xdbdf29f9130615feU, 0xc619ea32f5d33103U,
  0xb3edf831483d0531U, 0xb60e0309e02a0bf2U, 0x253e1041d4f53f2eU, 0x99c619a959ffff25U,
  0x4de7da3afa044513U, 0xdf15e21828074c2eU, 0xf92731d511071a17U, 0x280ce03ee7eb0816U,
  0xcd090227221ecc27U, 0xef13f4e30fc8cc1dU, 0x1e3f1cdf2614e913U, 0xd71548f825d83513U,
  0x1130906faf20ef7U, 0xffe180002fcfcf2U, 0xfa0222f00cee04f4U, 0xdef9eb04f902223cU,
  0xc9f9f213f5fff911U, 0xf8101817160903fcU, 0xf6fe13d706011429U, 0x22e512143913003aU,
  0x340411f3e8fe4730U, 0x2016f1ffec13e2aaU, 0x1dccfb0d2509fce3U, 0x1823e703f1ded831U,
  0x17122cf611fc39eeU, 0xdc02fe08330bf81cU, 0xfcfef606ea12cef4U, 0x17154ade0bed10f8U,
  0x3603db1fe6f026f8U, 0xe4d824450428f615U, 0x3bfb16ed0922cdcaU, 0xd911bbdb47a8d62aU,
  0x485e55f037f6edf4U, 0xabf1f91f1be2d3ecU, 0xd40a410dda2f75d5U, 0xe5031ef41bcbf02fU,
  0xf4dff8e520602dfeU, 0x15de1c3525f4fb07U, 0xf2262bf00f463c06U, 0xab636dc1be92025U,
  0x148a8cafc48d72aU, 0xc8fff68114f4092aU, 0xc8164fc24fad48f1U, 0x2e17b1dd3af55522U,
  0xc14c0cdc102ba027U, 0xed1d42f216c100f6U, 0xf5132605713a9f04U, 0xc6de3c041311fa1dU,
  0xf4e9e51de716212dU, 0xf612e6f0f1f9fffeU, 0x1212f40600f8f9e4U, 0x703de070305ee17U,
  0x1ef9f72405f10df2U, 0xf216f5ea31051e13U, 0xf40503feeef21c07U, 0xce5d1101c00003cU,
  0xf1e8f4f9e3ee07e0U, 0x140cf80c14e7f0d2U, 0x9fe1ad1fced0609U, 0xc8e00aebd10417faU,
  0x610ff0315fefdf2U, 0x2fdfdee0904f700U, 0xf0408e61100f1fbU, 0xafff801f6fa06ffU,
  0xf205f8f90efe0203U, 0x50d0303fe18e314U, 0xffff0ff8f8f3f7fcU, 0xf40910f7f7f804f4U,
  0xfbf904fb02060104U, 0xdffff02fcfc0c0bU, 0xff100509fc120001U, 0xfef80006f9fffa05U,
  0x808fb08fef5f1U, 0x3fa0bff01070c01U, 0xf8fa010c0401fd04U, 0xfcfd1301f80a0cf7U,
  0x7f3f9fdf10ff409U, 0xf900f40bfef9fffeU, 0xfc04f61ef9fb06fcU, 0xf901f8010cf300ffU,
  0xfef60106ef01f503U, 0xfef213040a0702eeU, 0xf202f902f007f503U, 0xf90300fdfd060af5U,
  0xf10f1a001c058129U, 0x9f7f2ec1003f403U, 0xf4f706e60ee502fbU, 0x1ac0fd07f500d003U,
  0x8e921fbfdd90507U, 0xf50506e40435e601U, 0xeef6f0030cf4000cU, 0xef050700040eff12U,
  0x5f501fdf3f50204U, 0xfdfa040f0202fb01U, 0x313010c02f40afeU, 0x200fa09f40d06fbU,
  0xfdfb1def1619d6fbU, 0xe105fc04e5ecd2ecU, 0xa19e510e8180501U, 0x1effd7dfd60edbc5U,
  0x1814cd1d102804e1U, 0x11f80138f013fddcU, 0x2fc915cc251620dbU, 0xa1171f00e4f700efU,
  0x132a4a03f404dc04U, 0xdb8233715fb260aU, 0xf0101f0c42432fecU, 0xffd2230322041820U,
  0xd7ef111019eedadeU, 0xc209200d1402201eU, 0xfa1981350a01f71dU, 0xf0e7760efb38201fU,
  0xeff526fbfce2dfe2U, 0x812b42102eb3114U, 0x1effe4eb302b1f08U, 0xae316180508332bU,
  0xd90fea150df6f418U, 0xe1c650c43021d8f5U, 0xfcf819ded542dd46U, 0xe8181f0309ee1af7U,
  0xef003060c13fe03U, 0xefeafffee50810fcU, 0xf51c19f3feffeef5U, 0xdf60f2404f0e7f9U,
  0xfff001080c0deaf8U, 0xf501eaf6ff0f0b04U, 0xf5edf104e6f4e3eaU, 0x1efe8230405fe02U,
  0xf10f1fae6e6f601U, 0xf6fa0ff8fc14f8ecU, 0x3213030422061613U, 0x5ec14fadc110916U,
  0xc423affe706bab7U, 0xcb0e5d5f6ee2672U, 0xda042a140a08d503U, 0xbc37361ffa05d411U,
  0xbefdb239e8ea29fbU, 0x24ee0835df480feeU, 0x7fe331f83b25f31cU, 0xe3b0d2d8ff3ce454U,
