/**
  ******************************************************************************
  * @file    network_1_data_params.c
  * @author  AST Embedded Analytics Research Platform
  * @date    Mon Jul  1 15:09:28 2024
  * @brief   AI Tool Automatic Code Generator for Embedded NN computing
  ******************************************************************************
  * Copyright (c) 2024 STMicroelectronics.
  * All rights reserved.
  *
  * This software is licensed under terms that can be found in the LICENSE file
  * in the root directory of this software component.
  * If no LICENSE file comes with this software, it is provided AS-IS.
  ******************************************************************************
  */

#include "network_1_data_params.h"


/**  Activations Section  ****************************************************/
ai_handle g_network_1_activations_table[1 + 2] = {
  AI_HANDLE_PTR(AI_MAGIC_MARKER),
  AI_HANDLE_PTR(NULL),
  AI_HANDLE_PTR(AI_MAGIC_MARKER),
};




/**  Weights Section  ********************************************************/
AI_ALIGNED(32)
const ai_u64 s_network_1_weights_array_u64[7122] = {
  0x300000001U, 0x700000005U, 0xb00000009U, 0xf0000000dU,
  0x1300000011U, 0x1700000015U, 0x1b00000019U, 0x1f0000001dU,
  0x2300000021U, 0x2700000025U, 0x2b00000029U, 0x2f0000002dU,
  0x1eed13e6f5320de3U, 0xdb0f7fe2e1fdf511U, 0xcb24362a33f9eeefU, 0xc47fd6b6d814c50eU,
  0x4231f5350f1a6febU, 0x7c07d52202dc150bU, 0x2028191afbc61ee2U, 0x11eb9e3fb81c364U,
  0xd163d1d26daf136U, 0x4cff67cae81c0fbeU, 0x7fa2deb813510dbcU, 0xa1e108f6fac41211U,
  0xf6f6ee00fb2ef8fdU, 0xa23a88e5e415011bU, 0x2a4030bb20e5f17fU, 0x213a3b24d6e612dcU,
  0x7f114ecdbaf4ea66U, 0x25b22052d2db671aU, 0x93c30d510f8d171fU, 0xf5f2fcdd02811a59U,
  0x10012341ef1dafcU, 0xdf77fb823f012fbU, 0xe6d3e3c6e1191bcaU, 0xa5baf759ea236426U,
  0x1944d520330f1e06U, 0x345102eec5f01cdbU, 0x4ed71e12390c7fefU, 0x302a3b25e530c9ddU,
  0xeaf109c6f7c4fa00U, 0xaf82fa2923cc7f20U, 0x3acb434c7fa74e13U, 0xed082af10a9cce56U,
  0xe1f7120047f80912U, 0x1cbe557f041813c2U, 0xec2929f2ee35f8a7U, 0xf4f80efff8e2f3ffU,
  0xdafbc822f5220c36U, 0x371006ff140b07d7U, 0xe5780417e60981e6U, 0x97c48e563b81634cU,
  0x13f4ee04ebf4db2dU, 0xeffe1318f41505daU, 0xde7c61d021e0b81U, 0x7170cc8f9e1e912U,
  0xe7ef07d53af12b00U, 0xf6cf27e6f10ff026U, 0xaf7f0725d8dc18f0U, 0xbbc2d813cf5d7d29U,
  0xf31c232f393b650fU, 0xd32358e7b529f643U, 0xf4fd7f0c2dcdc95aU, 0x44c93fe97f1717d5U,
  0xdfc86ad785af2c15U, 0xed1309030afadab5U, 0xfc23f794ef1ffd12U, 0x13ed0b0009cc810fU,
  0x614fbfc0712f8eeU, 0x1eee120b310ff402U, 0x1162a70589d93ae1U, 0xf7911717dcff7f5aU,
  0x1fee38ffe545ffdbU, 0x1fe62508f4e239dcU, 0xe0ef7fcd1f19e93cU, 0xacdd812bb4a3cb4aU,
  0xaa1c42c602a4100cU, 0x19014f73101744f2U, 0x1210f20b14e70410U, 0x1a4a266158fbe5e5U,
  0x877fc5081a188ef8U, 0x31d94515101626dcU, 0x5bd8cf26f8e1f20aU, 0xfdf6dcf3337fef13U,
  0xfffff46c0000050eU, 0x1a5800000123U, 0xa7400001f9cU, 0x1c7900002053U,
  0x284dffffefd4U, 0x7fffffff08U, 0xfffff60e0000153dU, 0x11b7000011b0U,
  0x1e73ffffea19U, 0x150000001109U, 0x124b000004caU, 0xfffff70e00001288U,
  0x22f4f30dfd1df500U, 0x180c06f406f9f81bU, 0xc7f8e5f604f50afcU, 0x4afce41df121df0cU,
  0xff19fa7f110301d4U, 0x1437c5c6cbff04eaU, 0xfe0dfbf5f4fc09f2U, 0xecfa140b02f9f9feU,
  0xec02f6040024f5faU, 0xdbe40d0fe8f4e4f0U, 0x43e0fa4203f1ec2bU, 0x7f811d50eeea00e5U,
  0x81817f8187da7fb8U, 0x8181a78cdea0a981U, 0x700e7f7f7f817f9cU, 0x182fea54ca816c7fU,
  0xa26a81f7817f7f42U, 0x3455b1f8ec460781U, 0xf82dfa041e310af9U, 0xe8f3fbfffbef02e3U,
  0xe1fb1618d51df4eeU, 0xf67c15377fd4d2e3U, 0xe6f0ebeff3de0768U, 0x240c492f4c7e9fb3U,
  0xedcef5e23ada0053U, 0x51fdf403f41a0832U, 0xe0fbf70006a11bbaU, 0xfffff6b9fffffd23U,
  0x2270000046dU, 0xfffff80bfffffde4U, 0x65700000049U, 0xfffffed1fffffb8dU,
  0x61a0000016aU, 0x406fffffbc1U, 0xb2c000003ceU, 0xfffffb0700000b5fU,
  0xfffff8a20000001dU, 0xfffffac5fffff560U, 0xfffff81afffffda9U, 0x8f90a14f0e2f47fU,
  0xfad3e906fc28ecccU, 0xebba1b2437fdefdaU, 0x40f02f2f3beefd7U, 0x781331eab73f305U,
  0xf0caa1be3ff016cU, 0x511f4f2ec2e7fffU, 0x32297f183ece51aU, 0x67ea2edc272f1d23U,
  0x7f040aefe90c0d02U, 0xe71dffc0fef1f900U, 0xeef5dcdae6fec0ecU, 0x34f010581ece203U,
  0x1f05ff000a060400U, 0x1000e0a0a1a3029U, 0x225817e100071cf1U, 0x3e7f00ccb0ff30fU,
  0xd5f4f7edf081fe20U, 0xbf803f412f00709U, 0x26fff58608e3fe46U, 0xf07fe253a6e91919U,
  0x5bc0a6297f1516f0U, 0x3a1a2fe309ddf762U, 0xfbf1fcd63ed856ceU, 0xffee0ef82703e3e2U,
  0x33eedcde81c2f1e3U, 0xe2fbbaf0dcfef40eU, 0x14f27f0614ef5f2fU, 0xc4fffce51c3b11dfU,
  0xe1104f927ded817U, 0x1cea7fbfda0a0802U, 0xfaf22217dc063505U, 0xdf90de6b44ccce3fU,
  0xd2e27f3d0bdcbbfdU, 0x910271dfd28f0f2U, 0xde190cc6fee72621U, 0xbe9102267f0eeef8U,
  0x3a0bdb01221ffef5U, 0xb02f0ea1c091a0eU, 0xadc40130ede0becU, 0x3d9c125fb8100ebU,
  0xe1101929150711efU, 0xe6f6ad0f01cb0cd0U, 0xe12b00f7812d73f8U, 0xcb4adde53d0466daU,
  0x80a2b03fdbcec1fU, 0x16feddeeee0eaff3U, 0x97f22b6dd070018U, 0x80702ec020703fbU,
  0xeffef003f5fb03f2U, 0xfafef700fe7fe60eU, 0xbbf5dae4f50611fdU, 0xf2fd0d7f030ae627U,
  0xfffe17141501f314U, 0x1e06cfc3fc8aea73U, 0xc25dc08167f7645U, 0xeaec3627dffe1672U,
  0x701e80bfeeb1b00U, 0xf70ef4fdf3187f07U, 0xf9f2f401e7000d13U, 0xf7e32f15e3eb1907U,
  0x7f9394fc1218231cU, 0xc4f5a255e514e63cU, 0x5d9e013bd61c1365U, 0x5991df0126f1ee71U,
  0x81d060ead8e6fa2aU, 0xe12175fe715f1f8U, 0x9ea1336f6fcec15U, 0xd6f2fb087f125b09U,
  0xeae8191703e5f40cU, 0xda7ffc00c7eddf07U, 0xeef01f08eaf7ee1dU, 0xfffffe2e000003a9U,
  0xb000000b06U, 0xfffffff6fffffe8fU, 0x18b000002b2U, 0xe91000005f3U,
  0xffffffdd0000162cU, 0x615fffffedbU, 0x6c000008a6U, 0xffffff8dffffff9aU,
  0xfffffeee00000279U, 0xebd00000321U, 0x2c800000ba4U, 0xf2fa085fec0c0ef6U,
  0xd80126fefff87ff0U, 0xf60de9ef2806fbeeU, 0xf0d71afde9ef01daU, 0xfef3e16ee91a17f2U,
  0x7fb7ec41ddf015dcU, 0x4ed5a6010733ef3dU, 0xa9f2c44181882440U, 0x2eedd7e5ec47053dU,
  0xad235552e8e03714U, 0x22150a004fbb7fc6U, 0x104ee804e8b6e0f9U, 0xf6127fa88d81dbceU,
  0xbce616f7670f17e6U, 0xf1fe37e2d10715c8U, 0xec913aee1904caa0U, 0x132d263904165304U,
  0x197f0807ef1acb00U, 0x209a0a5d07c3070bU, 0xdc09fb0400107ff9U, 0xeae60416352851fdU,
  0x3bd0f90711f4142eU, 0xe6fad30d7fdf051eU, 0xe9e1f17fe87a1f1eU, 0x3d2015bc781b50f0U,
  0xcf5d9022d057fd0U, 0x2a163c15dde4b5U, 0xc3440ce529da4242U, 0x33f313ef0d9aebf5U,
  0x3ef81d8d9f5e20cU, 0x17031fe05bf83619U, 0x9f9ee200e528081aU, 0xb9e87beb7f071e2fU,
  0xc416c4f8167c571eU, 0x213a1936d6faa77fU, 0x14142cd33d1ae1a4U, 0x9aae423aba986419U,
  0xf5fe100947f87fe8U, 0x212fe111ee71a0aU, 0x11cde542fef5ce0fU, 0xfec6e5b8d7dae200U,
  0xb0849bbf37fe2c5U, 0x161b0dc3e70dce41U, 0xff0a17ea22f6bc7fU, 0xf80ee509e7e6d704U,
  0x11ea0ddbec0df004U, 0xbfc06fc81fe0b24U, 0xf70f130bf422f00cU, 0x1800d0810ef91a52U,
  0x2705ddd1f2f2c261U, 0xe7e317bcb5e8011eU, 0x18e654f3d7e898fcU, 0xf744daeb02f43af8U,
  0x2a2fc7d425097f53U, 0x7fe2fb23ff160329U, 0xe5f6ed09db0b081bU, 0x10f808090a19f831U,
  0x2709bbf3c00d34feU, 0xf1813d081ef0c400U, 0xc200ab1098cc2517U, 0xa3c3d5dfbaa8150aU,
  0xf7447feaeb2cc3daU, 0x1fe545e30cfe7a78U, 0x18d559d6b8f5b77fU, 0x33d028efe9c24eeaU,
  0xd713134519fdf60eU, 0x5a09b0d9fa7f16d8U, 0xc0506f7fd0a3700U, 0x1140b1c06f6f1e0U,
  0xe426ec7fac1bf4c7U, 0x50526a7fdb32ae6U, 0xa9109c17ccbc1100U, 0xf00fffffa81U,
  0xfffffd9c000007b4U, 0xfffff3070000222dU, 0xfffffe7400000051U, 0x120efffffa10U,
  0x1d72fffff717U, 0xd5b00000d9cU, 0xe2000002464U, 0xfffff1c3000019aaU,
  0x1d2bfffff7c1U, 0x208000023f9U, 0x1127ffffff42U, 0x204081601f2dc05U,
  0xfdff1201ef18f5ffU, 0xf6f9f7f204030ff3U, 0xf404f9050415ff81U, 0xfef1f812e2492be9U,
  0xe9d103fbe963167fU, 0x30f130e00d4dfeaU, 0xfe3804fad3411503U, 0xe202ef17f5243c12U,
  0xfaa304cb40bef2aaU, 0xfc0a490ffe7f67dcU, 0x53f8f80f9ee11155U, 0xef7f8181817f816cU,
  0xea817f45e7797fe3U, 0x797f7f8197817fa8U, 0xd518e91aef4ae139U, 0x8c05c1bad06ab7fU,
  0x7fef29cfecdc3abaU, 0x15d411352b0cdd0eU, 0xfd101f13e0021108U, 0x28f7ef488510d70fU,
  0x7f03c8c5075dd450U, 0x7f5166816968f14aU, 0x381414f9811603c4U, 0x4502f0f5054106bdU,
  0x171c41e07f27e5b1U, 0xed02f7b00e0617U, 0x12e600000172U, 0x376fffff265U,
  0x78a00000a86U, 0xfffff720fffffbd9U, 0xfffff592fffffc86U, 0x59ffffebabU,
  0xffffec020000005aU, 0xfffff7e80000039aU, 0xfffff39bfffffe85U, 0x24ff000001b9U,
  0xfffff48500000901U, 0xffffe71afffffb8fU, 0xf4c6d1f6fde60708U, 0xbf596f2132beffaU,
  0xcf4aacce117fff10U, 0x15e2f4b7ff021038U, 0xdf1ef720d1f90621U, 0xe6e113b8137f0814U,
  0x18e7f32dfccc7f9aU, 0xfb1bfaf4c54cd236U, 0xd61aca044c15e1aeU, 0x581110e560302faU,
  0x5e7fa2b07e8ef0eU, 0xa09e113140347faU, 0x1bd4f1fd230f0316U, 0xf8daf481d4f2010aU,
  0xf9fd05020e0001fbU, 0x2b261b1cc5d0097fU, 0x4ee816e9c5ef2dbbU, 0xd463d10f5802fe3fU,
  0xe9fc0d29e90bfc04U, 0x7ffdef2ad20606e8U, 0x22fed5e01bf5ef13U, 0xd91df9081af1ce4eU,
  0xe42f131931f5eed7U, 0xe8e81a25f2812540U, 0x5b174fa9d3b3a79bU, 0xd4e8e92f4a24eeffU,
  0x4ccd97fd814517c1U, 0xbe276027fb671ddbU, 0x73a13c8c715daf3U, 0xdb8128be35e57e2dU,
  0x141be900f5f46a3bU, 0x211c512deec0315U, 0x7ff41801282156f8U, 0x21ef71f497febc3U,
  0x29c07402edcf5120U, 0xbf0b353315be8ebeU, 0x3d5ba7b80909ff3cU, 0xbe29d010f7f8ae3aU,
  0xa4d0bb3a55df7fe5U, 0x334f80581101303U, 0xdf0dd1d2f1cfd1cdU, 0xd1e70212d0de0d30U,
  0x7fe5fab9eec452f1U, 0xd0db461a40e9d602U, 0xe52b7113c505ffefU, 0x6acb2b13d0120fedU,
  0xf581b2ea23cd6609U, 0x5ed738d427f603e9U, 0x1511597efa7fdbe9U, 0x13e5ef202c0807c9U,
  0xe745e05f8e23af5U, 0xe08013035ff06beU, 0xe2f0c30f3cfdaeeU, 0x77f5ce7de01f0a6U,
  0xec18a4f9e7eaf3e9U, 0x212a403636cdecbbU, 0xd8e8f58113ebfd04U, 0x1c2112e17ffa211eU,
  0x1bceed26114fdb02U, 0xd31a0094281b0dfeU, 0x12f98110f8dd0ad7U, 0x590723fcdcf904fcU,
  0xd3a10f133e4ecffU, 0xcb200515d7f2f01aU, 0x2b7ff70307270913U, 0x36f92bf0e30dce4bU,
  0xe1f40b14ee148135U, 0x230a3909ec64cdedU, 0x42cb34362bfef01bU, 0x2219082a0dd80c3aU,
  0xd922fb0b0ce4f37fU, 0xe51823041b150e2bU, 0x11600000254U, 0xffffff020000053cU,
  0xb1fffffec2U, 0x13effffff67U, 0xcf40000098bU, 0x53400000851U,
  0x25200001415U, 0x8c60000029aU, 0x31c000011e4U, 0x2b500000599U,
  0xfffffc9e000001fdU, 0x1190000062bU, 0xfdbdec3c081b0fd4U, 0x7f08b9440a0afce0U,
  0x171bc1431755e9f1U, 0xffbaf9131b211719U, 0xe9faf326044f1ff9U, 0x7fede4d6efd503d9U,
  0x25acd706def2e0a3U, 0x6459f5fcd5cc881eU, 0x7cf1a922c17f07c0U, 0x8d0e15fd9f64af4U,
  0x325e0af3c5183540U, 0x6fe0137fd0e6f492U, 0xf02b4cc8a50408f5U, 0xfe7cacf01648547fU,
  0x47090ec5f150ff60U, 0xfb7f3afc13aa05f6U, 0xd7203ad518260af0U, 0x25ab01d6f30de9adU,
  0x27f2f47fc6eb24afU, 0x2e91335d6d0ec35U, 0xbecfecfe200fb2dU, 0xc7f67a0a943eb881U,
  0x619b035dc1c1502U, 0x100006eb3805f6bbU, 0xab37fa8c4ac73ff7U, 0x6300942f39313a7fU,
  0xe4e538299121cfa3U, 0x7fe4f2c0f3faeabeU, 0xd6072804f2dffbf6U, 0xea31a7075a640be9U,
  0xdac2a497fb0bd89U, 0x58113742d04f03aU, 0xfd4b0602d1fc9ea1U, 0xff0b81fa39f5d2adU,
  0x253432d40817f92cU, 0x1fa00ffad043a911U, 0x1625cdf929c45b23U, 0xf9ddf3e12c1ac37fU,
  0xdaf92c3ae0374412U, 0xd3f3081bfe260e77U, 0xbaeb4f2109f267fbU, 0x94c37fb800c94cd3U,
  0xc77db0ccf100a7e0U, 0xe4f2dbd6977ff802U, 0xfced4231ca37fe4cU, 0xa30c01e08110fd05U,
  0x5dd3c20e7d520f9U, 0xe7d3369e7fdf4ed6U, 0x609931ffe341a21U, 0xb4ad2b5f5fd5b27fU,
  0xf03b20d2f7400036U, 0x81e684223b75a6d5U, 0xf1e3e911c6ce67c8U, 0xe21ffbe47dcb34bdU,
  0xdf7ea207fe3fb15U, 0xf18dffbdef9f8U, 0x90f0408e42bfc0eU, 0x693020d5b8006c75U,
  0xb4d01b7ffe9eb811U, 0xbb0f65153434d37bU, 0xafbf22c00fe0a0dU, 0xff2fd207feb05c6U,
  0xf8df0ef40204f0fcU, 0x3f87f0d1c18aab5U, 0x1102193425e6ff24U, 0xe9d50608f00c1504U,
  0x80cc20c6a813b27U, 0xe90d04f807fffb31U, 0xf7d50bf9fe0012d5U, 0x1ff60c2125dd1723U,
  0x1e187fd607dff711U, 0x1ce31621caf00916U, 0xffffff29000003b7U, 0x21e00001983U,
  0xca7ffffee6aU, 0x1dd000000117U, 0x24be0000201eU, 0xea600000bc9U,
  0xfffffd6ffffff3dbU, 0x299100001004U, 0x1b93fffff2c5U, 0xfffff3d9000004f5U,
  0xfffffb95fffff4aeU, 0x1ae00000a88U, 0xd011cd527edda04U, 0xd70401de26e4fa10U,
  0x1502ebf30efb15e9U, 0xe6dff732d0fd3621U, 0x4903189c0d2bc8bfU, 0xe11155c000addf1U,
  0x27f2cdf7ec120217U, 0x7f0600dc22f54af1U, 0xd71bde1ffe2ffc1dU, 0xbdfc732f17ec7ff4U,
  0xee55fcc1fe080444U, 0x1a09f1f9d3ed1905U, 0xad7f6f1281816635U, 0xd97f7fb6817fa428U,
  0xba817f7f8d4e8181U, 0x7f31edb9f328097fU, 0x7c4cf939a90b7fc0U, 0x81f956484798ca98U,
  0xfbf46805ffff27e3U, 0x2be31030f4001c12U, 0x10dd602d3131b48U, 0xd3307f81acfbe4feU,
  0xc031267faf1f0b7fU, 0x29dd77238127a61eU, 0x284241ed02fae223U, 0xb90ffa08b50217c1U,
  0x190924013a81d982U, 0xfffff818fffff340U, 0xa9d000004faU, 0xffffe56200000688U,
  0x1a7fffff83eU, 0xfffff811fffffb2bU, 0x1076fffff6a5U, 0xfffff6e1000003a4U,
  0xfffff5dffffff2caU, 0x123e00000d81U, 0xb7500000314U, 0xffffed20fffff6ffU,
  0x745000006cbU, 0xb03e4060ae1fbc7U, 0x7fd21f1dd408f758U, 0xc11cef320e1aea10U,
  0x3ce7f907f31afe34U, 0x1732450c27166a34U, 0x1ca92503482c7fdbU, 0x2dc03b3821cafd06U,
  0xe4d99951c83ad081U, 0x27ccb7845605f679U, 0xe9e70bdbe52c04f7U, 0xf1f541ddfecfeecbU,
  0xa81ad1c07e948f9U, 0xfca301073a37acecU, 0x8e26064608f3d9a5U, 0x3b5e2e7f4f65cf0aU,
  0x725c60596df2ef41U, 0xf906ebddf9b60b2bU, 0x412424e48123da0cU, 0xf0717f0fb401ef06U,
  0xdfc08f033eefb04U, 0xca1fe12a10fcf445U, 0x39e90a2ac39d7fd5U, 0xf0d6bad5e6e15cfcU,
  0xf61c1feff73c0207U, 0xd33cc019ede7c972U, 0xcf0606813c0d35f9U, 0xc015ebf4c6492a3dU,
  0xf63f0f0632d3f33fU, 0xf6fdea19d57fed3eU, 0x4a9a6f4fbf015e0U, 0xfee4ebfa0deaf9bfU,
  0xffebd0ecf4245128U, 0xb1eef729217f2711U, 0xeee8db9ea57f4804U, 0xf52f2508c8f82721U,
  0x911df3a82c230df1U, 0xdf14db313c95e27fU, 0xa5b7aa2d1f8ff25fU, 0xd73e31ce23f851c8U,
  0xd8290df30624e4d3U, 0x2000ce618ea1531U, 0xfbf42038d3f71381U, 0xe604f0ed2a42eb07U,
  0xede1641ef7022bdaU, 0xc471d4052d8139f0U, 0x4fdeff0fc220037U, 0x6eb9261a81e3b72aU,
  0x1fef013f2ece2a2eU, 0xfaa3c53510c3337fU, 0xefe92cd6f9ef11e1U, 0xb6f01afebaddb4c9U,
  0xf605fdfe1b0af202U, 0x10fe431f4b4200e0U, 0x71c7fba1b0b2e31U, 0x1ff71dc3251fecebU,
  0xf8de0bd9e9baa70cU, 0x23fdbfab16f281efU, 0xcb052a147fbbbd04U, 0x491cb108adf1b901U,
  0xf821f80616f52532U, 0xcb37171508cd0a22U, 0xde76d530bd910921U, 0x252a8145143c40a7U,
  0x81daf823c6e8f6deU, 0x1d0fe531f91004c8U, 0xd7f9fb180ef90af3U, 0x23310857dce93d4fU,
  0xb23eb7f6d4ec512U, 0x3519fa4bd8f2fbd6U, 0xc7e7f485fddb2f27U, 0x2b81142fbecbfb1dU,
  0x793131ff25daf90fU, 0xfffffedffffffe1dU, 0x2f00000044aU, 0x30100000355U,
  0x153000008b4U, 0x1f8000000bbU, 0x66e00000002U, 0xffffff7000000957U,
  0x1d3ffffff14U, 0x28000000315U, 0xffffffe500000278U, 0xb80000041fU,
  0x3bb00000450U, 0xe92300e61fb428cbU, 0x1eeee1d20bd82db7U, 0x2a7dc0cf2cfe705U,
  0x24d934f706e11af7U, 0x1a29ebed37e33032U, 0x58eedf390606d912U, 0xb16037b2138130eaU,
  0x4ab2bfe1eeaa5a81U, 0xb7acbf3befbff168U, 0x19172ddf0fe3120bU, 0x484b200d0ba4362cU,
  0x7fcaec5b3414de0cU, 0xcd4628ec278a15efU, 0x4bcbf0d6e5d5548fU, 0xdaf1c633aee2000cU,
  0xf5b708ed09e4e502U, 0x132e2b2ae8bb1a3bU, 0x3d7121346fef7c1U, 0xc69f01ec55d13ac0U,
  0x3deab714d4bd3b0fU, 0xe59bb334e0bfdf1cU, 0x46f6351f0f0f294dU, 0x1d263bbf7ff1553cU,
  0x63d1ca6b16161806U, 0x8123dc3f7fc27fabU, 0x7281813b99817fbeU, 0x8181817f8181817fU,
  0x7fca7f2ad5b34170U, 0x787f7f8157557f65U, 0x41819a6c7f7f3019U, 0xa64cda4737af45aaU,
  0x7f9b833b9c9a77afU, 0xbcd0a9699bc9a869U, 0x3dc95a14a1814d44U, 0x7f495fd7cb7f4c5dU,
  0xcebd007f74431b50U, 0xe08feded29fb11f2U, 0xcf8d623bece181fU, 0xdffed52ad80ee932U,
  0x21c01752d6012e18U, 0x244151ad42d82516U, 0x27e1c52513301020U, 0xce81817b533b4b81U,
  0x2dd1b07f81c53c23U, 0xb1cba0599af69729U, 0x7e816b7fa4f57f7fU, 0x747757a85ec1707fU,
  0xbbb1814c417b7f5aU, 0xd3eb8f7f2f2d29acU, 0x31d5a558aedd2efbU, 0xb5f7bf40b7ed8a3dU,
  0x40957d5881e5223dU, 0x762c4825077b5a55U, 0x8becc53d4b3c687fU, 0xffffdabf00002ac4U,
  0xffffef2d0000137dU, 0x1badffffe67eU, 0xbf7000001d9U, 0xffffee85000017e3U,
  0x18f5000013f3U, 0x2490fffff029U, 0xffffea8f00000fe6U, 0x2b8effffdf02U,
  0x1a8000002e8cU, 0x2677ffffbb0aU, 0x216d00001433U, 0xfffff09afffff1f2U,
  0x13980000126cU, 0xffffdc02fffff03dU, 0xffffe94300002347U, 0xffffe812ffffe94aU,
  0xffffe862fffffc9cU, 0xffffece1000015e2U, 0xffffe883ffffe66cU, 0xfffff088fffff250U,
  0xffffee8cffffe050U, 0x108cffffe25bU, 0xfffff95200001798U, 0xf9edb48d1512ff14U,
  0xd0fc24000ae2fbffU, 0xc2071625e08e8100U, 0xdf4ffbd92c13cfebU, 0x50e11bf80af25c06U,
  0x201210353ce4f0ffU, 0xb435137f5725ed2aU, 0x32df4719a72caecdU, 0xc6273329f364cbdaU,
  0xa6f90070a1bf9f7U, 0xde0f06d2b5245b51U, 0x25104b1f173f71f9U, 0x613ce131413bcd8U,
  0x1cd5b4fec207dfd0U, 0x2bcb18c1212d13f5U, 0x5341cc053a2c0de0U, 0x58e8114025f9bee8U,
  0x810603e520ffef27U, 0x3d1f80cc0ef1afdU, 0xe9fbd3ed13fd06c7U, 0xf0f5f78121d41df4U,
  0xd4dd14002de31c0fU, 0xe6ce0918f7fcefdcU, 0xdef917e2f024fff6U, 0x4ffd82f201ebb2b9U,
  0xcb39e719810206ecU, 0xe21c2ee7d8e9ace9U, 0xe004d6d9ebb1f7fdU, 0x1eff1af3d7f74bebU,
  0xf46408fc7015aefbU, 0xd916e6d7d5e30806U, 0xec4e02efbca9e0f4U, 0x23e5080e4f361df0U,
  0x54e023ca9bf4cf96U, 0xe0c0010121200ac7U, 0x1c7fe600090af7c7U, 0xca14423123b2160fU,
  0x159740d0e2e3ee2cU, 0xdaff068131ead9e4U, 0xf9ce2b3259100cf3U, 0x11f429d836e82e60U,
  0xd7f8fa14dabdc7f1U, 0x1b130c99f112dac5U, 0x3b0632f8171f0109U, 0xca0148c630e713f0U,
  0x3e1d18d8e32df781U, 0x136cfef2e2316d6U, 0x53031f12f34ce3faU, 0x9e05106e13beb019U,
  0xaaf692fa851f18a6U, 0xf8ee2ca581bcc139U, 0x910aeb034bd91652U, 0x9aad4cbba267305U,
  0xe1a922e7d010ebc0U, 0xe1e3ec18341bd816U, 0x5a0cfb09a4eb19f3U, 0xd73c313cd96812aU,
  0xe1ec16cc032834f6U, 0xebedc79e33d9c5feU, 0xcee3b4f70bd333b9U, 0x20c0717090ed81aU,
  0x2509e609f406d8ffU, 0x222910f202e519fcU, 0xc3f240050a13510dU, 0xfaecf0087f01170bU,
  0xf415efff34ee0932U, 0x9fffb3c501f7d6e4U, 0xee221041292e1600U, 0xdbdbdac1811be5b5U,
  0xf4ce11fb13e6f6d6U, 0xadcb9e7dbe9e333U, 0xff403101fecd8c5U, 0xb802ccc7e81d24c8U,
  0x12a257042a2c2a30U, 0x200d2707c9cfc02aU, 0xa4ffc903ddd8c6fdU, 0x4586c105d2f5fcdfU,
  0x7c640e1e281bd25U, 0x41383e3a26ea0b0bU, 0x4fc4afc340d3bf9U, 0xf2282ffea20fce4eU,
  0x2204ff83acc2904U, 0xbd2cf4dc05b7f0f0U, 0xb6f06281dd1f430cU, 0x3a16043b12f829e4U,
  0xe3dfe9f93539e4ddU, 0x1da0810101460118U, 0xc5f21ac5edf229edU, 0xbecff43dcc261a5aU,
  0xd7c1e59e0ed9ee34U, 0x47f24faee98aa560U, 0x254681dbeb3ddbd9U, 0xf10bc5bfe51f053dU,
  0xc3e8affb203b14dbU, 0xc20ab2cb360a0722U, 0xfb9c453fdb30b2e5U, 0xcfef0349ce06bce6U,
  0x29db131d8c16ffd0U, 0xfeb7362738e80406U, 0xf7e6b8e4eeea12eeU, 0x18c8f408280f7ff8U,
  0x43bcddffd9e13424U, 0x7f00ffe0f90e23deU, 0x70bedfc12f3910eU, 0xeb0815f1fb12c50fU,
  0xe3e5fa090bf9ecU, 0x4fe1808eff410f5U, 0x5030016f9e7fef6U, 0xc71a122fe4f7111dU,
  0x2594130b50e7e30fU, 0x475b3819f0815028U, 0x6b21e30fef22c6d5U, 0x11bc18cc09d5ee9aU,
  0x27a93a08ff04fdd6U, 0xf7dac2e99a6da845U, 0x67f4e9327cafe5eeU, 0xe301431c341808ecU,
  0xaafee5e6fcf52a5bU, 0x5f48dc251db87f25U, 0xe914f99fd73128efU, 0xfdf04f2012ff191cU,
  0xcaff02d5fd1efbe0U, 0x96ef08813de0dc01U, 0x1c22151f4fed121eU, 0xc7e91ac50ae559b2U,
  0x55fc07037f14f6e6U, 0x46f281fcc20ba3c4U, 0xa40e22199fc1eae0U, 0x47df42beaedc1c0eU,
  0xee19122fb3ca5b25U, 0xf807eb2fc017f79aU, 0xc30ac4729f61b0aU, 0x511530cefd1ceae9U,
  0x1b81120e262873e4U, 0xd61e19f124d9dbcbU, 0xed03e4fb3121ea01U, 0xfe181ffbd51ff2efU,
  0xdc1d2413e50dc242U, 0xce655ccd335022dU, 0x23fdd1e29eb4bd9U, 0x3449e437f33e65a0U,
  0x1202e54c2033071bU, 0x7f0fcdfdec00b42aU, 0x5a090b00fcd2ef43U, 0x9e4fb0814f9dfbaU,
  0x21f0f0123cdae422U, 0x7f1af122df38d5d4U, 0x1c11b720f9eee30fU, 0x16f2eff2d91c2127U,
  0x1aeb3e2603f5c628U, 0x46140a23f15e811bU, 0x3303f2e1f3ecb4eeU, 0x3d2cf1da58b9def8U,
  0x1931f8e82123e430U, 0x212c92e2000414f8U, 0x1023150dfdddd6b7U, 0x1b344ee12e4b1fa1U,
  0x17b83d28eed5f613U, 0x572302dbc4c7ce50U, 0x280e8427eec913a6U, 0xe8e7e4ba02410fc3U,
  0xd1ee43e041813736U, 0xe2f10cf9150381cbU, 0x7052a20f6eceaf5U, 0xedf826deff080b0fU,
  0xfce3fadc03150f06U, 0xfcf1000224f3f9fcU, 0x9002a0f13f30cffU, 0x1b09a44208e4b262U,
  0x230ac9efe4edc9f9U, 0x1d0dfd4efc0c071fU, 0xc1faf3d7e32a0d37U, 0x4709ede2130dbb33U,
  0x4381070d210b2c17U, 0xfb3a4dbde818c4fcU, 0xd81a05dfb9dd2f4cU, 0x7c0f3ed6b5f881e9U,
  0xf32ce2e2d827f2f7U, 0xeaef2ed42634d03fU, 0x2e03e11b69328b23U, 0xd71921e8ab38ee06U,
  0x17b8be2af81b19aeU, 0xd35729ea0ef9261aU, 0x25cefd4e997f2161U, 0x56ff0aedfb5750d9U,
  0x1d07a7b5ebafd8e2U, 0x940b774723131b36U, 0xc41d361dad0e7fd5U, 0xec0b22453cdf57e9U,
  0xfd32dedaef031621U, 0x1deb1eeb09232cfbU, 0xeddbf79d281a073cU, 0xe5fcecd94241c0d9U,
  0xd5dd3fe26cd7593bU, 0xa42f26414bb451e7U, 0x68e0e5d64b1cb5ffU, 0x28bf07fd23f32afeU,
  0x379c166bae0481d6U, 0x1fed5641f6fbb05eU, 0xfe110d36ee21c9f7U, 0x42de2d7536eaf31cU,
  0x12cc21f8810f0712U, 0xf4ee1c2f181ccd08U, 0x13c7f3f4b7eb432dU, 0x8120afd3ddf2f223U,
  0xc4a332aff1fe9038U, 0x16d431b801d62ef6U, 0xfdf1ff2a04cadfeeU, 0x3a2416d4da03a616U,
  0xb9180d48ff32c9c5U, 0xffffb5ccc0c72572U, 0xf009389c1c09f3e7U, 0xcafb2d3df2bc0683U,
  0x6b44f01014d00f9dU, 0x14ca41df16dc81e5U, 0xefe2564f68c7270fU, 0xd81485e44aff81ddU,
  0x2afc10fb02fdfe09U, 0x5eb2fee0b29e5f6U, 0xf40fdfb7fd19d50aU, 0x18f9e0e2ea04f407U,
  0x1d02015809f8a3c6U, 0x4aeb2c5a205ccfddU, 0xcbf5c2031a5bea32U, 0x9dc82bffde1d1c57U,
  0x16b906edf10a25e7U, 0x2ef28111f1110939U, 0xfec0f1111f031116U, 0x28fff40b24ee0be6U,
  0xcc7f2ceb032fccf9U, 0xf2e4252411e212d5U, 0x92ff304df020a1cU, 0xbf233701e2f6f3f8U,
  0xfa4100d91a15ff13U, 0xfbdaf2fee2cd3cd3U, 0x17bbe9e8c8d633edU, 0x9d8d9f2f2c44303U,
  0x1b812cdbd20d4701U, 0xf03d7b2012ddecf5U, 0x3cfa3ee730ee27e1U, 0xadff361c1b5d32e1U,
  0x47ab7f37240f4512U, 0x3fe02fa155c3949fU, 0x13ecdb015a361c1dU, 0x45c60ed918edc768U,
  0x27c70ee9e0cb47f4U, 0xd71b49fa070a301bU, 0xfe4d3ecde58ec01U, 0xf700073f0d2613fdU,
  0x23f5f00227fd49dfU, 0xcff981e3011507d5U, 0x91aeedf040204ffU, 0xc10eb24f7f6fa2fU,
  0xd937142e23031924U, 0x4212acfa1b09ed1dU, 0xb4c5fbebf736cff1U, 0x7763e232ff57471eU,
  0xc60d3b08ed7f3f18U, 0xd0ab972f2d9668U, 0x4723a80399ec41faU, 0x521cfa08acf6bb97U,
  0xa1ee0f43ff0bf1fU, 0x6031f0de6e6811eU, 0xfe1115da4d1810U, 0xe741eb4ddf9cff7fU,
  0x24183ed0dbcd1efeU, 0xe9970b121b58eefcU, 0xf2e9ddd0ffd9da20U, 0x14ccfc01d5fe0774U,
  0xe60bfd91f1e4caeaU, 0xdf036f1f014cf8f2U, 0x418f045812e9cc0cU, 0xd618bd18be24f4f6U,
  0x2b067f3f2720c92eU, 0xcdcb573de2c2fa00U, 0x1fbfeedcbbb0b4U, 0xf8264560b1d513b9U,
  0x25320ad381f23e12U, 0xf3f196ce5ae0f439U, 0x15b3afdc42f4dabdU, 0xd1eed7038e250fa8U,
  0x1dd46619f8d36bb5U, 0xea4c54cd980409e2U, 0xc3e3f7e0ace348e4U, 0x197feff0fdafc364U,
  0x9627c21806309be2U, 0x3ba32ccc0ee20ffbU, 0xd42053f8e5f3f7f4U, 0xfffffe9900002e5aU,
  0x31700000601U, 0x45700000485U, 0xffffff3f00000dffU, 0x73a00000f9fU,
  0xfffffdf200000701U, 0xfffffef800000cbfU, 0x68d000005d3U, 0x37e00000f78U,
  0xfffffcc90000063fU, 0x22700000704U, 0x7e000004d0U, 0xffffff4600000222U,
  0x4680000114dU, 0xfffff60f0000028fU, 0x4c300001215U, 0xffffff1900001979U,
  0x118800000072U, 0xfffffd5000000448U, 0xfffffee8000001fdU, 0x3d00001722U,
  0xfffffdc400000540U, 0xc08000005b0U, 0x21000000afdU, 0x63b281c4b82ace06U,
  0x2d4a2a5047fa135aU, 0xb006cac90dfc5307U, 0xfffcfa0defeed0e7U, 0xfcb6190efd094215U,
  0x2119ede2dbdee214U, 0x3213b8b48c0b1781U, 0xf6f1aee8b6081fd9U, 0xfb702922f077c6d3U,
  0xe9041414298a0014U, 0x1fa2154dc028fc09U, 0x102a2434f6010bd8U, 0x351c692400dfe581U,
  0x16a025faac2e4ed2U, 0x1c3303fbf847a435U, 0xf269e664022de2eeU, 0xe209090a1d062634U,
  0xd3bed92ae611fcfbU, 0xfe0efc4926cfaa0fU, 0x2ed52ed10303ee51U, 0x36d61417c659e13eU,
  0x360dfbfce1bc3d0fU, 0xf63304f02f47dbe2U, 0xe1d87fc4b1063617U, 0xdfd2e7e6eff1efd6U,
  0xdbed2ddd1aedf8d5U, 0x6b3befd0781e2e8U, 0x2efa5a24daee0717U, 0x136f9221923daf6U,
  0x47310a1df26522bfU, 0xbcdea6552ec11d8U, 0xfcdb14c8f6e3b91fU, 0xf62f301e1a520845U,
  0xf0ded2ea9a0a349aU, 0xda7f89f65211efd2U, 0x1f2761c0e10108faU, 0x470710ca0f94fb88U,
  0x4502cd2404c4ef77U, 0x3e19c4fee4f071cdU, 0x2d02f4afe86cf98cU, 0xf7e8a4476226e420U,
  0x2f17463b81ce05dcU, 0xa066bddb8072d29U, 0x612dd03511edf914U, 0xbc090afeedd4d2f5U,
  0xe421fe030a28bfebU, 0x21f0a823cb267fdcU, 0xf3fc18dc0eceb217U, 0xd83d35f7cb10ad03U,
  0xbbcf43eeb453cbe3U, 0xd0cddad65a693d6aU, 0x2831fa09f11fb72eU, 0xc7a40fe7810a3871U,
  0x82d021e5ce03f3e5U, 0x4de09ccf2cac2a3U, 0xf9ee333bcd16dd51U, 0xd2e9b340faa2be10U,
  0xcce80be54be305d9U, 0x29e7c4f63fd41656U, 0x3de781d6e4f4fbdeU, 0xfeb5bc1a1ee4e52bU,
  0xfb45e8450bdf1402U, 0xe32dd48106c62977U, 0x46aeb80daa16bae5U, 0xb7a9f51f45c89861U,
  0xf2331101c6fdfef9U, 0x30419e901038115U, 0x1cf8e6fffaeb15e5U, 0x13f2ecfcdd10ce0cU,
  0xeb36020dff09e2fcU, 0xf317e30ce7fa10f6U, 0xe301e9320204d9e1U, 0xeb2fe0c71726fa1dU,
  0x5cfce73e15fd59f6U, 0xaddd4dace017e306U, 0xebb8af1544d93c16U, 0x2bfee2b1ecf61df9U,
  0xab0c3d1510c681cfU, 0x3b1a1e0c0c24fd12U, 0x1621f7fee232280dU, 0xe3e8e8d71c52dc4bU,
  0x4f02504d081f7fdU, 0x2ef4d4900f92042U, 0xeac0d9f7f0b9bff3U, 0x448c4950dcfccb45U,
  0xea230b0da7080d07U, 0x360be6badca97f55U, 0x53d5a80192cad3a0U, 0x31d7c90c20c5c805U,
  0x72b9aac0f634cfb7U, 0xfb3ff197eefdf1d2U, 0xd6f517d59913f9dcU, 0x6ca47ff6de64e5ffU,
  0xd826dee4ec209742U, 0x5d59d2f9c3dfd1aU, 0xf0ae1f9b02b5c33fU, 0xf1294aebfae712fdU,
  0xf7f1fbf715eaf9deU, 0x7ff0346512c3808U, 0x1620cdc77fe30d00U, 0x4f00ac9ecfd0229U,
  0xfdea050633c1bbd8U, 0x1807ea1e4316c200U, 0xc8ef7f20d537f8e6U, 0x7d1c03d0b0ba847U,
  0x29d59cd2fa38e5cbU, 0xf5dfc8105c340ac2U, 0x37525202d1d1b4aeU, 0xf01f4a090fead5e0U,
  0xecfcdbeffae4bcf2U, 0x418e8e3231dfc03U, 0xb1c8cfed1b1635e4U, 0x1706811bb71a1a2eU,
  0xe722d3c5d9013707U, 0x2a022df3ec8115e7U, 0x17231df728d521c6U, 0x9f5ee2bc282bb2f7U,
  0xa01d7b30ff100d2U, 0x3bf8c41609fee8caU, 0x4c1e0c16d737a4e1U, 0x23811fdafadaf703U,
  0x1615e4edeec929beU, 0xe9f4e61f2fe30411U, 0xe403f6030617c6eeU, 0xe3c7fb26cbe018fdU,
  0xf716d602fc092029U, 0xd542e57fde212235U, 0xea2d8313f7091107U, 0xc0f03ee45a16fe4aU,
  0xbec54265ff9d3c5fU, 0xea6d6b87c5fa3717U, 0xcc0a2f352cb71cbfU, 0xd8776cfc7f93e0beU,
  0xbd2aecc6eb0afdd3U, 0xb320d913f3d4acf8U, 0xe7e0afcf57da66e4U, 0xad40df3d0e3619eeU,
  0xea0c44c5db9b01e3U, 0xb63351a759f3cd0dU, 0xcba1dd4a15e0d1ddU, 0x231b9ed2cee4c2c1U,
  0xd50113b97ffc6a09U, 0x833aba0d064acfb5U, 0xf8894b1c1f0aefbfU, 0x3ef97f2b1114e318U,
  0x92bd7050e0613e8U, 0xfff2fecfe720052bU, 0xed03e318f2f9fcedU, 0xedaef0df722f60eU,
  0xf105f4ede000f0f2U, 0x1fe403c1d6fffd07U, 0xe4f6c0270c352103U, 0xe6c6f3df2a0e0701U,
  0x81da0f28291ff136U, 0x6077e21d0e41ee0U, 0xcdabd1d5d4c5f6dfU, 0x978f119f0ecc431U,
  0xfae9ebec11eefaf2U, 0xfbed5945dcff39d1U, 0x5ee5e7091cf2f51dU, 0x40ccfdecb46bffc0U,
  0xc2d20f32d181a2feU, 0xfb1700f60bc181U, 0x1af726e508f31617U, 0x23292efc01df04d6U,
  0xe4ebe7e5f110fa04U, 0xe913fc17eaf60e40U, 0xc6220e15030e0ec9U, 0xfb2f7ff6031ef1fdU,
  0xeccad2eb09e617dbU, 0x82801eae940233bU, 0xfdbecce71fddc928U, 0x3b0be642eb10fd18U,
  0xd7cd01f40eb994d2U, 0xf8221bbfdf26a77fU, 0x92ce001c1ed9dce0U, 0xcafbef00392ce44bU,
  0xf4f5f4c8fcf307c5U, 0xeeb0bdf63565e60cU, 0xdac30cadfcc4e698U, 0x812ecfe1e8eb1004U,
  0x8a9cf30c36998c45U, 0x463dc90bd0dcebdcU, 0xeec3330affbf01ecU, 0xbaf7fd1a313617c6U,
  0xf7bffd1d24f8fbebU, 0xc2cdc76738c2cf9U, 0xd3ef84333c2252c5U, 0x2168305085478debU,
  0xe43d1b13c220136U, 0xc6bdcef2eff57fe4U, 0xaef1e13091322a5U, 0xf101f976eb07d13bU,
  0xfad6163f3a2a1d0bU, 0x12156efc21d4e05aU, 0xd6cbac2aee2e9904U, 0x4628f82395d00cb3U,
  0x77f390449d30e9aU, 0xd22b5cf2abbaa1efU, 0x2cf4ef1019e214d1U, 0xad32cf4abc08f5caU,
  0x66c27bb97ffd3711U, 0x1d00d1ae506ca22U, 0xc159e26cce7cee6U, 0x4c24c6d20516ff39U,
  0x4b69e6f4d221413dU, 0x6e492846e4fb497fU, 0x78f5e0fa27f7d04aU, 0x239415c444e45d10U,
  0x275a382dead80102U, 0xf3fdcb81991da503U, 0x33b0e6d46bd3dc5eU, 0xbfcee006b00b49d6U,
  0xaf31e42d0a1dddb8U, 0x92403d944c4f6c1U, 0xd64bffde0e65e70cU, 0x994e9c8f211e4caU,
  0x28f8f113e0ee2ad5U, 0xa034f02ac481570fU, 0xe0cb72ed204e4c7U, 0xe8b312c0e7c7f35aU,
  0x160cd708e90cf5f7U, 0xf7e7d542fa86b401U, 0x13ecf4080715f6ddU, 0xc67c04bb290f0ceeU,
  0xf7fbcdc86903efffU, 0x2df1dcd9dc1718f6U, 0xac39d6cad6f381f5U, 0xf902be277ea913bcU,
  0xbbe42ed1264eb1c2U, 0xf9093a28f4befe1aU, 0xcdc949c91803d342U, 0xc5ef1075fddf7f25U,
  0x27e83a6a3ecd1619U, 0xc61336e3d9428d57U, 0x16faf6207ff9c403U, 0xcd28f486c32d240dU,
  0xfceeb00023dee1dU, 0x1ebde020f8fe280eU, 0x8fb1d0024f3b0e4U, 0xf5ff7ad0f41917faU,
  0x13e02fb269ec1ddeU, 0xff4824cb33127ffdU, 0xc1f8d859ddfa0500U, 0xf5ad266ebefe5349U,
  0xb3fb0ef552edd451U, 0xec254101120e1301U, 0x141e14ede204021cU, 0xf3fcf7bcf67fecccU,
  0xf09d8ece9f11506U, 0xfb14ec2d0330fa04U, 0xfee70fce0cdde6e8U, 0xc440332f37d8cb29U,
  0xd3a5bf290d691a67U, 0xeec016814d13d23bU, 0xd2bd0f3ce6f5efa8U, 0xf70ace3054f62c5fU,
  0xc705fbfcfb07ba0cU, 0xecc8bb900eb4e817U, 0x1202351082be923U, 0xf57f046ff5f4daeaU,
  0x73f204151269d2d8U, 0xfe508121f1f2607U, 0xf2ec174238cad8ecU, 0x11277fc7d81c060bU,
  0x8f613020126f2U, 0xfbd817cd0aeec10eU, 0xfcdd1624bd1ce503U, 0x15f9dc3df61ce60aU,
  0x18e506d32bdb15eaU, 0xf56fde62052af9eeU, 0x1130aebeae002e81U, 0xa8f452eadf1ffa12U,
  0x3efbbd1f0d85084dU, 0x2ef836dad21c29edU, 0x3f39362cddc7cf02U, 0x2e192e4b857fa728U,
  0xfcfe13e38418f733U, 0x445e7d4065aabbeU, 0xce261ac7dcf57cd4U, 0xd3e119f433e206fcU,
  0xe1d6f7bb2998b70aU, 0x28e4dff0b4e9eeedU, 0x3bbbf27fddf303f8U, 0x2d162ff60dcf17fdU,
  0x4bc4d016e82ff156U, 0x20fee013edcb1001U, 0x4a18e6221fd1dbb0U, 0xa0d000012f9U,
  0xfffff102ffffe85eU, 0xffffee6f000016f8U, 0x46efffff301U, 0x36fefffffc0cU,
  0x82a0000295cU, 0x8d200001884U, 0x17cd00002486U, 0xfffffa14fffff569U,
  0x11fc00000e10U, 0x67900001531U, 0x2d5600001f5dU, 0x2279fffffc44U,
  0x41600000928U, 0x191d00000955U, 0xffffe4a500001d64U, 0x930ffffdee6U,
  0x183dffffee04U, 0x15ed0000396aU, 0xfffffd68ffffff4cU, 0xfffff769ffffeae0U,
  0xffffece5fffff19dU, 0x75500000432U, 0x1e00000830U, 0x161f09f2288d1be1U,
  0xccf91b1628ecc308U, 0xbff989e8efcfdfdfU, 0xcadb2b0df920fcd3U, 0xd9e420d40192f10fU,
  0xc81c0bd929e41211U, 0x6d4432f430853cc9U, 0xaccd53433f1dddf6U, 0x810e81bfb990bac2U,
  0xc6987928c43655bfU, 0xafe04be2c5c8bb4dU, 0xad3312ca16bd2979U, 0x582b42d9ed9927cfU,
  0xcfeb4b602249e2eaU, 0x990c4be2b2d1e1bfU, 0xc2bc6822cd0328e5U, 0xbdf31ae8d448d628U,
  0xca04dfd218c82625U, 0x2353ccfa62e92cd7U, 0xbdb9b70b53cba7daU, 0xe740abb4ceb0da0bU,
  0xcd046f3da3848efU, 0xd4b23de8a7acc42dU, 0xd335cdbe68c7326fU, 0x7f7f54f727a27f81U,
  0x8181e06d7fd38183U, 0xa97fd78186818114U, 0x94817839817f7f37U, 0x81817f19810b817fU,
  0x817fc7817f817d7fU, 0x78407f3c818156a8U, 0xafa73f7f3b12caa0U, 0xbf4c56c281a288fcU,
  0x81a9617f9c38595eU, 0x94b86837d87fa658U, 0x9f59a8ba38924c9dU, 0x549cdee5c081becU,
  0xded2810d3fc1daafU, 0x2d4056c4efee0625U, 0xf3eb3beddb21300eU, 0xedcb18ff9c01e217U,
  0xfa3aaed33cde254aU, 0x227c0922f7e841adU, 0xb1d28e4b53818481U, 0x577c43a5d5cde47fU,
  0x83cc7ff2955e4a7fU, 0xbebc657f8c1ca560U, 0xba5f81cc62c57f16U, 0x2c5b307f8bd22dc4U,
  0xd9fe453a1fa4ceaeU, 0x24431ab6b7cb9d5cU, 0x9ae22634ab342365U, 0xc6cc5069df58ba47U,
  0xcf2dbae12ecf498dU, 0xfffff384000013e7U, 0xfffffec600000f35U, 0xfffff6d9fffffa7aU,
  0xffffe845fffff0baU, 0x1f6f00000bdaU, 0xfffff95300000b7dU, 0x1e8fffff373U,
  0xe0c0000177eU, 0xac6fffff972U, 0xf55000010a7U, 0xffffffd900001505U,
  0xcd8ffffe8b8U, 0xffffe73efffff134U, 0x8b5ffffecb4U, 0xffffeadcfffff3ccU,
  0xe8f000011c1U, 0x14d3fffff6e8U, 0x121efffff8afU, 0xfffff9d2fffff58eU,
  0xd61000011c8U, 0xffffe779fffff798U, 0xfffff505000009ebU, 0xeb10000140dU,
  0x8e8ffffeee7U, 0xd31eb530c518fd02U, 0xb904bb06183a31c6U, 0x2eef833052fec0bU,
  0xf329eec3297fdcf7U, 0xae6fdf119d61420U, 0xf4fc0afb22065b35U, 0xd764d7a6211061dfU,
  0xe2cea019ce64335U, 0x14721ffd5044f32U, 0x1ffdef0fecf308d8U, 0xfbf8400e2d01ba33U,
  0xce81381520ff1134U, 0x37fc02bb1f2bf507U, 0xdd19a4d5d8c80e31U, 0x9eadcc2dcfede333U,
  0xee06e30a85d0e804U, 0x114b17d53a21f9c5U, 0x4cd0e8be08237fe7U, 0x1063e40cfaccc2dcU,
  0xb50421cb00ba23feU, 0xf0e9eff900efe0f8U, 0x5da11d7150c9dd3U, 0xea19ecc1d5f628edU,
  0x2eef49cefb7fdcedU, 0xb41e2406a945d5b7U, 0x2d37043f69cf83f1U, 0x5b1ff1e4f9cab455U,
  0x381028eccbf030f3U, 0xf524ee05971ae757U, 0x1de6c461f41681b4U, 0x3a3091700f1fde8U,
  0xe40d0fd62f142114U, 0xf101ede0d3ea2bffU, 0xec22e0c22b999dcU, 0xf511e41400e80f0dU,
  0xf12d37c58106e30aU, 0xe812f8d5283dfbf4U, 0xbf4cfefdec1081b6U, 0x6931833e51cced6U,
  0x2cf5ed1fe0a5f552U, 0xd9cd1bf6e31a50cfU, 0x27230b08d7e6f70cU, 0xf6d7013310aa69e0U,
  0xe309d9e481f108bbU, 0xf54d66371ae0d917U, 0xd52dd405f347fcd8U, 0x2eabfe1fdecdebe2U,
  0x1623584598b6ed3cU, 0x10e00efffb192cfeU, 0xa600c0a8b6a00181U, 0xc0d20732f4ae18deU,
  0xfe2efc3c39e1e003U, 0x561bd64b020fcc0bU, 0xe44b33bb9d912019U, 0x2f0a0d05f6cf5d04U,
  0x7ffd2af6d64ef114U, 0x1cdef7a0edcae4f0U, 0x390f28bbb723511aU, 0xbc5dda47e8f12300U,
  0xc0b0522c5ef9cedU, 0xcf53f1ded2e6abe0U, 0x2cf7ed251ba964d4U, 0xb2819f171318d6e3U,
  0x4200f7e0c0c9d1f0U, 0xf534bbfe512b54fcU, 0xe6ef1d2aa9ff5ae8U, 0x7ffed6afbf0bc820U,
  0xfb2ac648533c9de9U, 0x23ab3730adebd71cU, 0xf3d30d3f9f35f81bU, 0x4433d50824ba50f8U,
  0xc9c32626d1f424f5U, 0x19f3e3e30be7dff6U, 0xf702fef75104eafeU, 0x3c812fe1fc661210U,
  0x7dfa004fb3c1f0dbU, 0xd53e2ae717c23fdaU, 0xc8c70a2d33051833U, 0xe68bd20219ec3302U,
  0x3f39e045200e6628U, 0xe60dfa137ff2500eU, 0x200fd63a05e17ce5U, 0x24df1cfde52ef6c1U,
  0xea21f103e7d9befeU, 0x4eb6be0d6181c34eU, 0xef37ec501742f334U, 0x508d0ff0a62d03f8U,
  0x6b279e2b218c8d3U, 0x3c2c195a11e655bfU, 0xd6092b1fb8ec3828U, 0xdde80ed80a07efe0U,
  0x779eb087fed0c1bU, 0xfe30b925cb1450edU, 0xf7bae8c4c2dec45aU, 0x3631ece90d16ffd1U,
  0xdaee77e6815e56ddU, 0xcd10d81917e6fb01U, 0xc7812ad40f13de2aU, 0x559610c228df48ebU,
  0xff1be7c43ceed3e9U, 0xcbd0a14807e80e2aU, 0xe0bdc1cad8cf12f6U, 0xa17f5825b423f70eU,
  0xcad2db0bd84276bfU, 0x213a24fb543badd0U, 0xcd13281b08c51a5bU, 0xff307ee2d028e6bU,
  0xaf5807593120f40eU, 0x68d604f55d42bb0cU, 0x100c6cb411777bfU, 0x412c2635fa0cf204U,
  0xfcfcf4153fffff5aU, 0x2127511dfaff0aU, 0x2615f87f2cefeb06U, 0x3bcc0fd8d128e3bdU,
  0x221e0fe3f028bf10U, 0xec72f3d2806152eU, 0x7f0eedeb23fb2bfeU, 0xa808db10effac6d3U,
  0xfc01271737fe0b0eU, 0xdbf9093120260829U, 0xeb493cf5d7210845U, 0xbb59cd57e1d2f932U,
  0xf9c330d82fbdee33U, 0xabf12bd4a807b1f8U, 0x7f05e439122102e2U, 0x452733fffbd5e137U,
  0x1bba10fc14d10d06U, 0x1dd71b81d651d60eU, 0x1d46ef0ec51f3629U, 0xc01be4df5dfa31b8U,
  0x227ea3cfe07c01cU, 0x92fe6733c3ef09fcU, 0xe8ff4ca1dadc234dU, 0xeee8320fe72611ceU,
  0x2404e2ec0d7f43dfU, 0xf5c2f008bfd254b1U, 0x8b9c6bef799eee7U, 0xb2a532092508da76U,
  0xf0ddf1601114750U, 0xeaa30f2922f71922U, 0x1581cf4a13e6fd1aU, 0xc8e7e009d8ce02bbU,
  0x26fad202372c351bU, 0xb0b19f709e529ebU, 0xc1ee161addfc0ae1U, 0xf681cf12e032d901U,
  0x305e909c5efdfU, 0xdf091a28210319faU, 0xbde183717cbd816U, 0x215905e01582e527U,
  0xb935fbdf2c30a04bU, 0x1a12fe1005720500U, 0x13e6d04a2defdc96U, 0x67ba2e246bfdf08fU,
  0x27cfdc477f5b080bU, 0xf5130f20e1ccee51U, 0x1161f0423b51af4U, 0x1d20e70911c115f9U,
  0xa91efd7f294dedf4U, 0xf003f6e102c9c8ffU, 0x363f27c91b020009U, 0xe2003cecf2fbb6dfU,
  0x1702f4e1e5e11607U, 0xea4a21d71b812a06U, 0xe025091c3e1a0b33U, 0x4bf0dd2beaf1ab1eU,
  0x10c4c5eb002108fdU, 0x2c215adc7a384e38U, 0x2aa717d0b921f1f7U, 0x18e9e33c0bfbb5f0U,
  0xc004cd4efb3c3ae1U, 0xff9dffcce57ff0b7U, 0xf8df2b00d7df57dcU, 0x6913ebd818d0efcdU,
  0x57eeea2d54fa03d1U, 0xff52af5db3c052fU, 0xe823efdd44d3ea0bU, 0xc2287f0806b7fef3U,
  0x1712265dfff8feedU, 0xfe7c1c143318dac3U, 0xd6935089f64bb020U, 0x4c1c70008ef4d31eU,
  0xd20d23fbc4e6cbe6U, 0x47c4daabcf02ecd7U, 0x81e3fabd263f17c0U, 0x4e0a1deb15fc2306U,
  0x2807420720edd2c7U, 0x31494614da06ee20U, 0xd3f0e4ec0818bc50U, 0x93dc0c10ad7fda34U,
  0xd3b9c53350dc20b7U, 0x20140efadcd03663U, 0x71afe1a101821f6U, 0xfb182107fb1bf641U,
  0xbf06ce2509e9fae2U, 0x200b3bbf1b1507eeU, 0x252df3111b337fefU, 0x1ec1e0e644ff2ebaU,
  0xe91ed19c1f1a03fdU, 0xabd1f9e01b67f08U, 0xd719e405f914e847U, 0x42a05f7f0e12505U,
  0x26a413ead9d7041cU, 0x2cf7fc05f4dcbd23U, 0xe8313ced2e00eaU, 0x7f24fdf312230d08U,
  0x21091c17feffdeecU, 0xe92f56f9cde2f15aU, 0xe8e8123630c51217U, 0xf3f1f1f4efc42acfU,
  0x5e611dad411241bU, 0xf702fbce14da2111U, 0xb5dcf0e4f9f0fafbU, 0x7fef20e7f7ee2b30U,
  0x2cc9a5f91d03dee5U, 0x639d515cb30fa7fU, 0xb31a1917b2c106d0U, 0xeebe1a17ee151a5cU,
  0xf532547bd516fdd7U, 0x4dc2dfa50fc4418U, 0xe8260517fa4bfb77U, 0xe019b556d1b2f710U,
  0x1c441236b531f20eU, 0xf9decdd8dbe51ff0U, 0x5d0654fdb349837fU, 0x93ff392f5213f7f9U,
  0x10696e348efb426U, 0x216fbedf614ea7fU, 0xebe0e73a00f9f0f2U, 0x22e2071503102504U,
  0x2514ff10c60a0b0dU, 0xac100030e9f52813U, 0xc304f11c18d574e0U, 0x94499d334608c97fU,
  0x30ecf626d1b435e3U, 0x74eaa8a6110d208U, 0xc3e53da90d340aefU, 0xfd213903e98127e3U,
  0x4a0c783b17165ffeU, 0x5703e345f6e8ca51U, 0xeb17ffcbfffee1e3U, 0xb56f27f89d92af3U,
  0x20d8411a395cd843U, 0xfd2c2e039cc02ee0U, 0x28d8081fd0121816U, 0xd72a2602aaff270fU,
  0x5929bc04e793e1abU, 0xa7e7d21dc9102f48U, 0xae34d8d9c5d2ee07U, 0x414061d3816a8dabU,
  0xf30f056408d920faU, 0xf9d1d224111626cbU, 0xd084260602280cecU, 0x2ed52c0be8e60f31U,
  0xab1839dfc6c2e0d2U, 0x11dae69d092a4e00U, 0xeaeb8135fb04fe01U, 0x2556f30bc2fb4c9dU,
  0x81f6a36012e5f20fU, 0xe0f4dd3c402389deU, 0xfd330cd3534d1ec9U, 0xfcb04553dc2f16e7U,
  0x1cc5f06b2105c5ebU, 0xa15e0b22332fe7c4U, 0x4432ddef431622b0U, 0x1c3fe89122a9bfc9U,
  0xe90911d9f57fb7e2U, 0xf4deeb42f4d01135U, 0x4c058eff3418e336U, 0xb523ef021114bd3dU,
  0x14fd0981a92008c3U, 0x4824dbc94acbac12U, 0x26c8446c11f5d62fU, 0xd4f1ee0dfe39af1aU,
  0x17e33e2ee4f29262U, 0x48d40fad0c1df5dfU, 0x89e81beaffe6b8f2U, 0xfa14fd0817d54481U,
  0x2dc220dd053ba5f3U, 0x1cd0e04fd9ecf724U, 0xa61c3eda021bce6fU, 0xc403f20bc8d52a14U,
  0xfa05407f112cf213U, 0x3e3acbd94b1e1a7bU, 0x123a9bcb120ac4f3U, 0xe7f10beceec8b505U,
  0x3f529331836f7d3U, 0xf250000170fU, 0x259000007f6U, 0x2d600000526U,
  0x26e000009dfU, 0xab000012dcU, 0xb00001660U, 0x5b000000029U,
  0x6370000105bU, 0x4b4000021b7U, 0x4dc00000568U, 0x14c00000b91U,
  0x2a3fffffecfU, 0xe1800000582U, 0xffffff390000099eU, 0x5f30000070cU,
  0x8a40000104eU, 0x50e0000166dU, 0x68e00000604U, 0x307000010c6U,
  0x59a00000b39U, 0x737000013f2U, 0x60f000002a5U, 0x34900001f79U,
  0xfffffe9b00000550U, 0x300000001U, 0x700000005U, 0xb00000009U,
  0xf0000000dU, 0x1300000011U, 0x1700000015U, 0x1b00000019U,
  0x1f0000001dU, 0x2300000021U, 0x2700000025U, 0x2b00000029U,
  0x2f0000002dU, 0x3300000031U, 0x3700000035U, 0x3b00000039U,
  0x3f0000003dU, 0x4300000041U, 0x4700000045U, 0x4b00000049U,
  0x4f0000004dU, 0x5300000051U, 0x5700000055U, 0x5b00000059U,
  0x5f0000005dU, 0x2546c7f4c8ff4555U, 0x7ff6651bb1a71e12U, 0xc7002a239816e031U,
  0xc55e0830c7791b9dU, 0x4242d9cc26149648U, 0x1ef82ee4223cd70aU, 0x821d04370ee903eaU,
  0x9329e2e404bdf9a6U, 0x552dfe70cdff82cU, 0xca8100fab5b4294fU, 0x1815fcf0d3fe1a20U,
  0x3a0b23e602e5d984U, 0x1b35501558bec644U, 0x2fe2ac0de8c11072U, 0xc419d1c0cb6b1fc6U,
  0x69905381f7f89e50U, 0x400ee4948e6a5d5U, 0x9dd92c1164c275dU, 0xfbd1e1aedd17070dU,
  0xd300f18012fe126U, 0x7f2f10e3363febdbU, 0x957343f5e109e20fU, 0x3138f99fdb08f224U,
  0x40c30adbbd2357a9U, 0xe7fefb04fc3dc208U, 0xe331441ced0c25c9U, 0x1622472bbafd494cU,
  0x39cafa5225d6171fU, 0xe6454c12011f0ae7U, 0x2450ba7fc50bbc0bU, 0xd39010004f6ec48U,
  0xf9db5ce7ffcff6ddU, 0x547ff11b092afa07U, 0x913cbe8420f36U, 0xd7de1da88929eee1U,
  0x1fdfb5cdd7fc1b17U, 0xdebe6403ef18c5d1U, 0xdafca8e5c51bc425U, 0xbce710d6eb3613eeU,
  0xd0d541df2201dd01U, 0xc92f7f558ced4b43U, 0xfa05d8d50007ffd8U, 0xf3f541cf9524f96dU,
  0x2fe246b927d7eee2U, 0xe37f0bb6e634dcfdU, 0x23354119230cda07U, 0xe214f0c0e50821feU,
  0xd1e0482f00073c11U, 0xb5fd680defe632f9U, 0xc7cf0e9ff339cfccU, 0xfa20ea025a0abf24U,
  0x164cf1f83c99f371U, 0x32f9d6a9ddcd4f32U, 0xf8817551f34fc1e9U, 0xcf0ab21fb63dfbf1U,
  0xc92f5614163fffd2U, 0xccf0c12cece2db54U, 0xe9ce2022460c341eU, 0x7ffcdd1804ead8d4U,
  0xf1152f0efd13febfU, 0x91fcf61a0a4afc30U, 0x40eb52333b3b26d9U, 0xe1e0b610bff3a402U,
  0xdd53eaedb2ea17aeU, 0xec48a5b6f7f3201bU, 0xa0f617d150e28144U, 0xe8ea2ce3047fddf4U,
  0x1432d9f2e81ee4fbU, 0x6bce9f7039ee01bU, 0xdc0807d8fdb7007bU, 0x1d68d21d28f559f6U,
  0xec0c21ebd72ebce1U, 0x2c7d3d3fce300faU, 0xab5622a5ef012be6U, 0x23acdfce3d054afdU,
  0x1249fecf4610d77fU, 0x1001232fce4d150U, 0x2aef052dd9d5f208U, 0xef54f7fd291b0e3bU,
  0x2d0be24b2a220775U, 0xff0305d89c2b6a34U, 0xa316858f07f0e16U, 0xcde3701a0f1d0612U,
  0x2b793f0d2fa64522U, 0xa0ff91a1f13f1b7U, 0xb15fe0e1ded1705U, 0x9bebfc1812f6ff35U,
  0x3d04f9c80152e8e9U, 0x7f6d22cfbecd2e3U, 0x22f5e0b07f0ed5f4U, 0x20e902f820e73ea4U,
  0xd62bd81d17ec8951U, 0xab4623eef5fbc605U, 0x4b7ff5e2c8fedf36U, 0xdac0d23128f77b3bU,
  0x9d6211b23f9f1c8U, 0xed6e35d03bdcf829U, 0xcc2732cb1a6ebc08U, 0xefae242e513f97fU,
  0x3322276bf939c221U, 0xbb3306d6441c0408U, 0xe0fb3614f4ee34eaU, 0x2311133eb833d1d9U,
  0xedc3fee4fafb07faU, 0x9272ba6fefeff0cU, 0x9d7f1befdef0e20aU, 0xe830ed2defe00dd7U,
  0x1d2a9ccbcfd3a2eU, 0xfae805ec2808c5e0U, 0x5302fdd44cbba1c9U, 0x1cc92a28f0cef9U,
  0xc6b6fcc3e2c4d7ebU, 0x7fe5cefee0c0cccbU, 0xbc927ebeff6eaa3U, 0xd50a2419dbfcabdcU,
  0x414c0d04d70bfdfeU, 0xd732f82a0ae836cbU, 0x1f0bfbcdbd7ff6fU, 0xfdb5dee6af810d3cU,
  0x202e8dfcf2aded2U, 0x4a16053974fdf233U, 0x30de4c04fb1fa1c2U, 0x1dc5262db34781feU,
  0x78d239feba2770ecU, 0xc2c1b2ce114b72cU, 0x1015436cf01ae4fU, 0x4facf77fbe10c800U,
  0x38cf23040911e023U, 0xcc9111d1111d407U, 0xd41a2cf8220353efU, 0xaaecedc1f0cceb09U,
  0x27fe36b7bfe1d2e2U, 0xdb2120119e2cad9U, 0xf8f3fc2bde49651bU, 0xc4e9d1cd09010b66U,
  0x767fdce3df1512a7U, 0x6c15cf2fee4eb1eU, 0xb6fdc7004401c8bdU, 0x8f7e540fc1e110eU,
  0xdcf781f6f9fcdadcU, 0xff0ff02b12f7f40cU, 0xddbe24e64e012528U, 0x13fae31c0b23dbd8U,
  0xeeb8ccdeedc31800U, 0xe3f1d1cddb9942a8U, 0x47e805fadd5a1dc2U, 0xdc6229180ca934c6U,
  0xeba7d4c01011e72aU, 0x812ef7bde4e44fe7U, 0x8b434b57016e127U, 0xf1e6e6d5f93d1ef1U,
  0x2ae7f5f27ff61333U, 0x10f0d3eb1327fd16U, 0xecf710e0380f2d0bU, 0xe9fa574f0c13d7feU,
  0xffef22071fe2ce1bU, 0x591cf04d40d818fbU, 0x2a1c031f186d22cfU, 0xdc33e7c7ba01a301U,
  0x99d2b40b37ccc80fU, 0x32f3b89ee6040eecU, 0x7f1b01471d57d9d7U, 0xe6e83339cedd04fcU,
  0x11ed7ff2d31f1ff5U, 0xa1e60e1b001d51fcU, 0xfe016edc3ab2041U, 0x492cbc0cc9f2252fU,
  0xc83ae0b8f202ed54U, 0xfeea184abafc191bU, 0xfd9e25ee02d1eee9U, 0xc158f42539c2ed26U,
  0x72bd38b43733a700U, 0x2dd8d381b9910f10U, 0x76cb8900fbbabfd6U, 0x2cae65afe641062aU,
  0x3213381a4cdf9fdU, 0xb005c7e4ff06e9a1U, 0xfac7d1e517bdcfb4U, 0x6029b805e6a83326U,
  0xf8c2d701045ef093U, 0xccf01c3cc9e1ffa7U, 0x473909e42369e4b4U, 0xf2364ca267fcca9U,
  0x32b30112e2b4e635U, 0x4f32d6f521142f33U, 0xccfea676f1bcdb1cU, 0xfd32c144d56322U,
  0x165011ec20072b23U, 0xf86c48f4af347f22U, 0xeb2bfde221d7693eU, 0xd2fbfc0c0b35e9e0U,
  0x220c03e005ed3ff9U, 0xfef30eaf2910045fU, 0xdc3781e4b7f90626U, 0x12df07d5eafc51f4U,
  0xd8c63113520e5550U, 0xdd07eb521e3cda27U, 0xe9783ff2f6f90c37U, 0xd122516f3c5e102U,
  0xc32e1bf503ebfbdeU, 0x7f4a09c7f7c4e619U, 0x3f1f43819b4c403U, 0xe3d808cbcfce17deU,
  0x3c0bd38c8be1223U, 0xaf91efad23d4c8c5U, 0x191e3d370064fafbU, 0xc4bfbdbf67db5509U,
  0x7fbcb7a092fbe1beU, 0xfb2f0ee1fec1cc3eU, 0x35cfcbafd1d8dcfaU, 0xf2f82819402ffedeU,
  0xe829ee1517f4e2cbU, 0xf028a216c5d54aefU, 0xd2fe09e701a57fa1U, 0xe9d9e717bcdcde4dU,
  0xd360d73a2e51c7d7U, 0x10eef003f5f5f704U, 0x2ae7f7dd180204e4U, 0x231516def3eaf8e9U,
  0x157f0b05fdcfe316U, 0xf92bef10fef910c7U, 0x24e3d2def21ef9ebU, 0x150fe5113068033fU,
  0xb20cbc0b521e7d64U, 0xfc1436ecf2e5f4c8U, 0xd3e775f8e0050d2fU, 0xf4d6f4154ff07f9bU,
  0xf83fe8f105040fe2U, 0x31d2c2f81ce214feU, 0xa20317ccefcb111U, 0xe621f2dab3ffdf5fU,
  0x16e797bdcfe6e74dU, 0xd97fdc0be8c2d5e7U, 0x4c8d644e90024e8U, 0x4c5fbc3a62bf2b0cU,
  0xba73e6d6eabe8efeU, 0x283b37f4c9bca3fbU, 0xc629b0327f55c99cU, 0xf58cedeca9ce1010U,
  0xb093debe8cec43dU, 0xf0f0ccf90df7eafcU, 0xf9daed2cedf41b81U, 0x1c07e2e801e8fe0bU,
  0xedf309f409f3f91dU, 0x2df8fbe4f301d8f4U, 0xf2f619e4f322d91bU, 0x5de2dfc124747af8U,
  0x7010a05033fe52aU, 0x32ce481981d468f1U, 0xd03d4b49b4395315U, 0xb40462f07a54f720U,
  0xdeea07fa33e62edcU, 0xf306c107ec213b04U, 0x810fee2f16f0d5bfU, 0x7d41127f3ffe2baU,
  0x18350de1e10e0e22U, 0x293fd40f2fe70eU, 0xf5f2d6fbf83aaee9U, 0xb1c9c807c818e860U,
  0xcd160ddb24113219U, 0xe6d0f0e2dd01062cU, 0xd421f0beeebdee8U, 0x3e7f69ff5309e31fU,
  0x2a1f1604fffc350aU, 0xd00417fdee0da00eU, 0x11f6d4e721eed814U, 0x6b3160b04c83a18U,
  0x2f1201f9e09198f3U, 0xeb1bb53db8d81bc6U, 0x7fe5211f69271ac9U, 0x36225e7f261423e0U,
  0xbf051a2ceba9c63dU, 0xf3042ad1c91703e5U, 0xe1adb4644dbc117U, 0x4b29f2041dff741cU,
  0x2b311d2bdfc23653U, 0xee7fe60fe6eb2de3U, 0x51159f6e0fd28e8U, 0x90f824eefe0a3c06U,
  0xfdfeedfd00c0f2b8U, 0x9ac513cc1f1bcd20U, 0x42a0cab12150171bU, 0x20e3ebe60e39c9e9U,
  0x1ff0bfafa0b136eU, 0x93b5931c5094c5aU, 0xa250b19b5d9514aU, 0xec2a054f19fa0007U,
  0x420a7f6d100221b1U, 0x4ae4ffffeb10U, 0x217600000cdcU, 0x1438ffffce49U,
  0xfffff87600003570U, 0xfffffdd600000aebU, 0x15c80000187fU, 0xffff8911fffff9e3U,
  0x9ea0000015cU, 0x1b50ffffc930U, 0x381b0000756eU, 0x2643fffffc40U,
  0x212a00001a02U, 0xfffff08500002a00U, 0xc69000022adU, 0x586500003f81U,
  0xffffbc57000008a1U, 0x2091ffffe941U, 0x1fb20000675fU, 0xffffe42200001571U,
  0x30b2000012cfU, 0xffffc4880000236bU, 0xfffff34600001955U, 0xffffc2f900001786U,
  0xffffd30f000023d2U, 0x1163efe6bfe830edU, 0x10619ffff0207dcU, 0x1039071b0907ddf1U,
  0xf830d80f4e0d0112U, 0xffd50408110ff33cU, 0xf209f3f0e825080bU, 0x1a3b0a41093c111aU,
  0xcf592281ee0577ebU, 0x247f15f7a1ecaedbU, 0xf828b7bd4dda810cU, 0x5bb7f020e2dd52eU,
  0xe6cf4acdd23f1e48U, 0xfa2cebfe3a2174d3U, 0x161a0d0af845f0U, 0xd7ed21b604fc1007U,
  0xda01d202b60a0d05U, 0xe8f4fa35f3e6d0cfU, 0xe6f1f0fa0b1cf90aU, 0xa3249e8c3256552U,
  0xbb3533a0101b69f1U, 0x2ac8fd10b9f381e1U, 0x229f10b52f08d4deU, 0xe5cd361327be2db6U,
  0xc81de14add240d0bU, 0x2812b7f7f720681U, 0x98c681867f7f367fU, 0x7f134e7f817fda81U,
  0x7f59d7815181b381U, 0xe81218181819063U, 0x7f33819f2975817fU, 0xcd088112cb7f71e4U,
  0x408112c5df1dff06U, 0xa5ec492fb90473eaU, 0xf9eb810b81e9bf40U, 0xc9ac37d7dae08181U,
  0x14811f61b310d36bU, 0xf00a091818be4c33U, 0x2d411437ff131ff9U, 0xe1f3e4dae4f7e5feU,
  0xf594f1ddcbffd7edU, 0xfeceff13f70de4b3U, 0xdcd605330a280326U, 0x81ea5eb516707f48U,
  0x7fba0b33eb0fe912U, 0xe99d7f6bac1b0dfeU, 0xf481f6ccdb42f8b8U, 0x81ced3f7e0141b88U,
  0x918b83c817fc804U, 0xfd45dff4c4ea0f1eU, 0x23ca09fbebe48112U, 0x8d1a530de6f5e2faU,
  0xe0c6f9e9d9f9f215U, 0xeada05ef0df7c718U, 0xe2ff167feb3700f7U, 0xffffdc58fffffefcU,
  0xfffffdadffffea9aU, 0xfffffcc5fffffb43U, 0x84bfffff8b0U, 0xfffff42afffffaf3U,
  0xfffffb0afffff965U, 0xfffffe8500000deeU, 0xffffff2000000372U, 0xafb00000c6bU,
  0x1d99fffff611U, 0xffffe975ffffef71U, 0x256fffffec1U, 0x1648000007c4U,
  0xc8000007e6U, 0x12f500001437U, 0xfffffc440000092dU, 0xbad00000abcU,
  0x85900000b8fU, 0xfffff2890000089eU, 0xda400001422U, 0xce4ffffef67U,
  0xf16ffffe532U, 0x7ecfffff87fU, 0xffffff58000005b8U, 0xfbb42106da1a2029U,
  0xb402edb6f5930becU, 0x32db35b18afcca0aU, 0x330a1a5db8098150U, 0xfefcd1ed163b41e4U,
  0x251106f82ba932f9U, 0x8a25195df9d0f235U, 0x5d815fdf407ca43U, 0x9cc08c1e41e4cf2U,
  0xf7f1c60051e5f3fcU, 0x16c77f1c24272838U, 0xbdd0722ef231ae1U, 0xd4f32ffb0973bc06U,
  0xbd29a6d6f481bfebU, 0x12df332fd6a2c424U, 0x30255422152002f4U, 0xee5c53cbb29d0d43U,
  0xf601f0d90df0ff2eU, 0xb8fdf2e3f7811a9aU, 0xdb1c160df9372f3fU, 0xeb09eded6e24ed0fU,
  0xed11d3d6fc20d817U, 0xfdb203b8f8e31aa6U, 0xe6fdecced5ee12e3U, 0xe3fb211212d43cc2U,
  0x1c84cc23f57a93a9U, 0x29081469b0ad5f34U, 0xc0405fae3a16660cU, 0xd42f0adade81c12cU,
  0x92222e0c34eb2921U, 0xfe0decb10d501efcU, 0xd0db09570418a858U, 0x212fcbd8b63f1219U,
  0x351c32d5d4ce20f2U, 0xc7fc39da08f006feU, 0x49c781630d046254U, 0x300a25f9061ff22dU,
  0x24253cf6f6e70debU, 0xf657e70af6052d0dU, 0xee0ff107c5f32c2cU, 0x1aedfd81e221000eU,
  0x151dde22f8fb1904U, 0xeb1df1f7160ce211U, 0x43e9fb005bfedbe1U, 0x16346677f029e159U,
  0x303c1ceafbd5f2e4U, 0x51eecd9f2922c325U, 0xf7bd4322003181c5U, 0x39aca0bacf39c91fU,
  0xbde325e9d3ebf51fU, 0x11e65ae9c4cd06e7U, 0xd20d85ff2ed37f54U, 0x97fce4311fe0531bU,
  0xe4fbecb532c74996U, 0x37d3eec44dd7abf8U, 0xfa225deb12cf1628U, 0xe8c098c02d4f0713U,
  0xf4451dfa3cd6e517U, 0x34ea0b2a16a0125aU, 0xfdda110aabce7f01U, 0xbc21e16c1f1003bU,
  0x20420d3a3c32c7aaU, 0x61313a901275964U, 0x2940577fdacfffecU, 0x98e3f0c9c3e00b0aU,
  0x22ede7994fe2fd26U, 0xf52726311ef4fe1dU, 0xf22e1020f059dbf9U, 0xc5f72b344ad2e2faU,
  0x33eb107f540fa118U, 0x1504f3e5e7ebd4f8U, 0x261cf9f014dfd736U, 0x310319e709fd1f0fU,
  0xf60638fc5bf70006U, 0xdc01d215fb3c0507U, 0xd61a4920d5e015d6U, 0xe4fed3f7f0fa07eeU,
  0x38ba042b021a107fU, 0x43f844dcb2d218d1U, 0x81f627d8f61bf406U, 0x905013410e6b212U,
  0x8f649eeb606daebU, 0x19dcfe249f381f38U, 0x11fa22eef2cc1709U, 0x6c94f81438dab12bU,
  0x962cd3c5d50b7fU, 0x5acbc000f1c14421U, 0x737d5ed2ea8152cU, 0xe90cf4c7d2bf681bU,
  0xe50c02e93bef0322U, 0x18d8e1321f184d42U, 0xb8ef53eb0a4eaf11U, 0xfe3806c81c38f01fU,
  0xb34c12100cbc34b9U, 0xc3bc16cc08f132c9U, 0x922611bb7fc627c3U, 0xc42df5eb18e0bc14U,
  0xb0a05fde913f1d4U, 0xf7002e12f67f121dU, 0xf3231a0df40ef90fU, 0x4f613ee18e50f02U,
  0xdff61e1121d4fc1dU, 0xf8beb0dd9621fc08U, 0xf41e6bd31af50930U, 0x28eef004d229f0f5U,
  0xf0fbf4025f14200fU, 0xe2bdf54cc6200c32U, 0x7f0917b5da0f04e3U, 0xc23ccc0ee3251b2dU,
  0xdb0cee0e7642f656U, 0x1ff6e1da20ee0e56U, 0x73bd2e2150f2937U, 0xf3ea0aeab8061932U,
  0x81f4b3322fd84077U, 0xeda030f0dedf52bU, 0x12e9b9af2a12f73aU, 0xdd814f0d9b96350fU,
  0xa28ec263a213a51U, 0xa2e0c6df039931f0U, 0xc7dedba0ffe12030U, 0xd4f9c82e67ab00deU,
  0xaf1602bc497fe11dU, 0x20e629fd2cb8cb33U, 0x41bcf277b712d4dfU, 0x279c2fb0c6444800U,
  0x308ae60b1cca0fe4U, 0x41413e3b9da1700U, 0xedccf657bbf782edU, 0xfafecccdadb5d181U,
  0xcdfa71b3e7e1eadeU, 0x751fb3425da74bfeU, 0x35fa27ed09c2f1e2U, 0x2246f015e56d260cU,
  0xdc19e241fd1016e3U, 0x27d8d22981ad0010U, 0xdc2b08b4fa542abeU, 0xd62ab6540e3056e7U,
  0xb7f9bbce39fd0cd5U, 0xc707d640e9d6f1e7U, 0x2f06efefd9ed0a0aU, 0x1902dbe9ed2a7f26U,
  0x111966b138102ffeU, 0xe9ce1bfbc4e1d400U, 0xd13cf3ece1d141ebU, 0x2ecb567aac1a1cd7U,
  0x2fa7f0810015abd1U, 0x524de3d6f1d91c72U, 0xc2f9debaff2222cbU, 0xedfafc03ee15130aU,
  0x5f71ec52dd53656U, 0xff99dae4f2db3514U, 0xd5c092def17b606U, 0x35353e7fe2d771b2U,
  0xfac64b31ec036d93U, 0x5d27045a4342ce1aU, 0xe6f0bdc0093a231cU, 0x25153449fff53cf7U,
  0xfe2eb5c044c8d7edU, 0xefd7b8d916a5e005U, 0x9f0063cd5c7312fU, 0xc51510cddf320303U,
  0x1d5ecd6a67f7abbU, 0xd20afea6fdfe60aU, 0x1323e9fc192432d7U, 0xc2f7dec8da1201U,
  0x150420ea59fddcdeU, 0xedd62b5d18daf626U, 0xd9d9e814f531c781U, 0x3ddc4ea757816d2eU,
  0xa5ed0d97e7b9e913U, 0xc6e02407cc15b824U, 0xe00724c1df570d50U, 0xcff4f800e3890362U,
  0xcf2fd0e572670cbU, 0xd8cb2af0eaf47f16U, 0x36c3dec016def428U, 0x24e503fa2400f1a6U,
  0x1439d431fa14e42eU, 0x1ece0413f228632fU, 0x4416e9e2e321a404U, 0x2df00bfa2bb1e30fU,
  0x35f7b86b273dc0cbU, 0xb3f029bde7e69501U, 0xbecbd4f10ae821f7U, 0x5626aa0df993507fU,
  0x9ade19fe6c1c14f4U, 0xe1241bed21d2aa0dU, 0x110fe51dd0d142e4U, 0x1f10eee1186711fdU,
  0xe7ea0c7b4bb6dfd9U, 0x812eaf436427af54U, 0xf3fc18d42557d70bU, 0xfc08ea0e46e0a7d1U,
  0xf12110ef5bd8b2faU, 0x3b2ee00781fc430aU, 0x1ed3d53a46bb29bcU, 0xf3b4f517ee01dbU,
  0xdba8062b26f61001U, 0x56fbf7e22804b1fbU, 0x11d0909b3e1e8d8U, 0xebe5c72d230cf3abU,
  0x3c25f7eeb9810425U, 0xc27a7140345bbddU, 0xba4bb2efd6f8bc34U, 0x2b167f0ace1a49d7U,
  0xd6e646be4379fb0dU, 0x124256109ffd4f1U, 0xe401c133c74cc901U, 0xfe43afbbed0fa20U,
  0x1f4fd81c0bbf13efU, 0xea0be246f49130c3U, 0xec1dc8db5ed4fca0U, 0x4e1e2a4f3b3cd3bU,
  0x1181b5f90111e00fU, 0xfdfc27d80120db0bU, 0x3e3bcee7eac4ed08U, 0xfd17db54d7cf1bf9U,
  0x1df301d833efea22U, 0xff1f3338cd132a18U, 0x402fbe1c3236092fU, 0xedd1162b810805ffU,
  0x45ff1f07150bdabdU, 0x146424dcd2ea1c0aU, 0xe3f6bccdc24eeed2U, 0xc43f8d32f2693010U,
  0x4c0d6228d2db6a00U, 0x107fd842bfcb76e9U, 0x18021ed7e9662ee1U, 0x906faf002e71414U,
  0xddf7f5f41bf5cf59U, 0xf9db3ffbd93507f2U, 0xe22ef0601b7e6b7U, 0x13811c2e2207f5ccU,
  0x4de10c0e00ceddf2U, 0xbbf530e1e856d2d0U, 0xf9fdaf01346fcdcaU, 0xd2d9fb20d2453b3dU,
  0x2fd8dd1c1021e208U, 0x7ff5ac0b63e14222U, 0x1611fefcbeb40020U, 0xe04ecf2f7c7b016U,
  0xe0011fcbe40cf011U, 0xefd3ed230caece3U, 0xe3a0fea0cc90bc5U, 0xe2f5d1810a24cbd3U,
  0x1ff63ddfeaeffee8U, 0xd6e6e609816f4d22U, 0x11cfe0fe30fb21c9U, 0x25cabdf75d0a19c3U,
  0x3d46500ee22e806U, 0x290f402f18fa20c5U, 0x2ad7faee05ddc7dfU, 0xf3cd6805facc05e9U,
  0x47f9b93914e6398bU, 0x7ce916922bef561dU, 0x70daa5670f810ef4U, 0x4bf0bbd8481c1292U,
  0x1dfde950a1b18c10U, 0xeb142c1d422fed0dU, 0x934e82613dfdbb5U, 0xd14ceaf633d0e1a7U,
  0xe72a4ff9eb59dcfbU, 0xf8fc7f0d0802ed23U, 0x50502f91f24ef3bU, 0xcd6240e07f2f202U,
  0x1c01f00536f118f4U, 0x351614c0e7f1ecfdU, 0x230a04eb17081108U, 0xffee0981290fbc1aU,
  0x19d3e80cea1df510U, 0xf9b8273507ec45f1U, 0xfbfaeec80e588adeU, 0xdc1b0a0fdb640b12U,
  0xd41911e8230bab29U, 0x8105cc25292d012bU, 0xe30bec411ccc5901U, 0x19f0fa81f81d1125U,
  0xf3cd2f27290de408U, 0x29cb6605dbf00027U, 0xfbd0fe9beb052953U, 0xc528dc00f3112f18U,
  0x26f391b5ca04fd36U, 0xf227e7160ff87f5dU, 0xfcaf51a2e40a0908U, 0xe548ecc3c61d020cU,
  0x50e23c1a50c96201U, 0x51d1e1d526ed8dd3U, 0x18f459cfb5f8fa1dU, 0x371000018a4U,
  0x3e0000055dU, 0xfffff97700001b00U, 0x41e00000355U, 0x6ba00000f0eU,
  0xffffffc7000000cbU, 0xfffffd6a0000019bU, 0xffffff9400000b48U, 0xfffffbf500000fd5U,
  0x6f900000365U, 0x7f0000013a3U, 0x27bfffffcfbU, 0xb200000939U,
  0xfffffe04fffffe74U, 0x2bb000017d4U, 0xfffffe4c00000c73U, 0xcff00000a22U,
  0x2a8000002cdU, 0xfffffd69000015cfU, 0xfffffa38ffffff4fU, 0xffffff29000003feU,
  0x5c8fffffd9fU, 0x3df00000284U, 0x97b00000409U, 0x200000000U,
  0x600000004U, 0xa00000008U, 0xe0000000cU, 0x1200000010U,
  0x1600000014U, 0x1a00000018U, 0x1e0000001cU, 0x2200000020U,
  0x2600000024U, 0x2a00000028U, 0x2e0000002cU, 0x3200000030U,
  0x3600000034U, 0x3a00000038U, 0x3e0000003cU, 0x4200000040U,
  0x4600000044U, 0x4a00000048U, 0x4e0000004cU, 0x5200000050U,
  0x5600000054U, 0x5a00000058U, 0x5e0000005cU, 0x7b9d72dcbd60e13U,
  0x2aded2e5e0271c20U, 0xf4ef527f21a6ba20U, 0xee04d73b0e4df9e6U, 0xd30b27f3dbe2294eU,
  0xce11f3c329f01bedU, 0x338693d88ee0ce29U, 0xf2dcb9c3d04275a6U, 0x4a2149a0ba4532f4U,
  0x2f53e1d430c6fdc6U, 0x24ed1103165c8157U, 0xd0e0d833c90be274U, 0xd01fa2c6125be6c1U,
  0x47900a1030ad7fb9U, 0x2dc110f78d59ed14U, 0xdae4f208f3170500U, 0xee331df5ebe2eff4U,
  0xee2db1d5e91d17d8U, 0x12e30a8743004e81U, 0x525c81839f137c5U, 0xb74b571df71de3d6U,
  0x47e59c5b4822f558U, 0x221ae825b5b459f8U, 0x1f12c322d2160a05U, 0xc05a0a330200f6dbU,
  0xed6b3115ea0f81efU, 0xf71817bb4592d6f5U, 0xed14232312283f35U, 0xff21e6e9f1eaee19U,
  0xfd1cb5e612081619U, 0xcc241312e139d35eU, 0xd0b35d0ccd0b5f2U, 0x2107ea61c3bec1dbU,
  0xc6fc0f3940d415U, 0xc1f10c7f1baf25dbU, 0xf50ce615342905aaU, 0xf5e52304305d2ff7U,
  0xc5b712254816d804U, 0xe1a9a4d2d5d9d904U, 0x30ea154bc6477fa3U, 0x1f8cef7bf1418d2U,
  0xebe9eb8422f83b5cU, 0xcaf9712a0f76adfdU, 0xaecbbbea47292c24U, 0xd11903fc19053981U,
  0xee2d55004b1a46fbU, 0xc315c8c35e0e3c29U, 0x2be3b9200dc704a3U, 0xb0a283fdce00411U,
  0x7f2ae0d8ffc1fabfU, 0x78ecdf1bf112e50bU, 0xfc0de1fe43ff2b1fU, 0x26eddf1d62051806U,
  0x109d1fceb37f7fcU, 0xd7c3f9261c4342e6U, 0x4cfaf831dee5dc1bU, 0x19eefc011581d067U,
  0x38160802e10ffb27U, 0xf7c5eb09cffd3b17U, 0x30f1f62149f140edU, 0x12d9deeeede2d710U,
  0x1381f3fd9bd4e4d0U, 0xef1506e7f52401f6U, 0x3ff1d315ee20e8f3U, 0x1e1f120913bb281bU,
  0x1541caecca1a36f2U, 0x107f1207d6405dc6U, 0xe6ed643db4131c29U, 0xfebf5040d6094613U,
  0x29dc1de707ba44e5U, 0xfde2ea35f5e5ecfaU, 0xe73ceaf60bd6e724U, 0xba2c4fc093e6406U,
  0xcf06cb0ecb0bc051U, 0xf4dd61e81a4efd7U, 0x1c1bf011a0bf7920U, 0xe2fe84e1ed2197a9U,
  0x23fb41b5e6d6ef17U, 0xfc2bf2f5ec031deaU, 0xe2d6c4d10d1ddff6U, 0xe5e1d7e3e37fe24eU,
  0x2bf5fb08e1ec37e2U, 0x16b7f6dd0dec2f27U, 0x1a061311ebfbabc7U, 0xa81d59cca91a157fU,
  0x6ca1052b464d920U, 0x44a1ce60b1de307U, 0x15ddc552dd9f1819U, 0x31d7c5db291c25e9U,
  0x291c09c3b414011dU, 0xcafeef153ce333f9U, 0xdb0d1b551ad8ec03U, 0x157fcefbd1ceb0e3U,
  0xe7011818ef01f80bU, 0xf230c1cff6dd00d5U, 0xcd1ceaf307df1123U, 0x2b2b3d09b3041ffbU,
  0xd707200bc9fbb6e5U, 0x1e47fc71ef1ddf8U, 0x24489f2e271da58fU, 0xfee1f41f29f903ffU,
  0xceb06b04d7fbe1e4U, 0xe57ffd4d00b8ff14U, 0xee29010b30d7f52fU, 0xebece64cb70fa827U,
  0x37de105206e33ff1U, 0xc4fe1df6ea0226b5U, 0x563324d136c9befcU, 0x48fa3bd70cc32af7U,
  0xb9e910c26bba9dcU, 0xedf1211cd081b015U, 0x45e6b6470448ee3bU, 0xcd04e403eaf7f1f0U,
  0xf20eeed8d1ee13b1U, 0xb14f125d04672bf3U, 0xb6aca0bfde300beU, 0x460be2f7f8da1820U,
  0xf80d5aedc381f715U, 0xe51cd866081dcdc8U, 0xbdcd35ef2403a560U, 0xb52705f9f0d2bc13U,
  0xf66b05dff5e90c08U, 0x909c62a7f16d30bU, 0xfa2c391304bcfbe8U, 0x608fa2a06f61615U,
  0xead5eb23222dea1fU, 0x694db97fc7ffa13fU, 0xf64dee2b8dd311feU, 0xca024ac3b108ecf8U,
  0x3f1cfd7cfd07e30dU, 0xdd7a9af21f3d213U, 0xdf0006cefdc9c2c4U, 0xcc38fa9ef8f8d5f3U,
  0xd5430979f717f0d3U, 0xd6a27a3119f9ddfbU, 0x185d4141f3f1f7ceU, 0xd952bcdd81e50e4fU,
  0x223fe1f44836ea12U, 0xfaddd7f511f50f22U, 0x62df13aea7502935U, 0xaa0da7022b81f3baU,
  0xd1230f26f11bf2e4U, 0x643e261aff42f9d2U, 0x10fa2434e5a0300dU, 0x81041c6738b8d6baU,
  0xb800d3ddf33eec09U, 0xf7470e3164ad0a0fU, 0xd814ff2d09f7ea27U, 0xe6ff10300caae208U,
  0x2073f508f8383ad7U, 0xcc0ac954e441e909U, 0x3ceb6180c0f3106U, 0xe1264e2a7f5fea1cU,
  0xdd0df8341102f215U, 0x24ff180d51bb2debU, 0x28dbc5f4d522cdedU, 0x1433eafd01fb7fc8U,
  0xf0ca23fd19262516U, 0xbe56ae586401543U, 0x7cceff721f53c04U, 0xbdcc0af93ed3fe27U,
  0x50189de8360f030cU, 0xfd191302fb151bebU, 0x361647042b2d813fU, 0x2e33ffd8e4120425U,
  0x2fe18ead9d33cf4U, 0x30e5feefe6f502f1U, 0xbe9deb2f193b0fe8U, 0xa9f326fc12fa7caaU,
  0xa33bea1d49d5e85aU, 0xd4c4d607f5164b45U, 0x301afe10d05c1fe5U, 0xba93bcf7810bddU,
  0xa6ffdfb20a550e7dU, 0x1e5945ee81d1c328U, 0x407bb18d70a1055U, 0xbcf82234140916fbU,
  0x26e6df1be62de4deU, 0x5ee510101d5e15e6U, 0x2ee2edc3b14aea32U, 0x301443f91dff27d7U,
  0xc5e153c82512f8f1U, 0x7f31290ae82df5dbU, 0x18b9071d2844fbdbU, 0xea9110062fdde90dU,
  0xcc3fb17fefcd2d7U, 0x81bffbc6dffbc803U, 0xd3cfddf5d0cb25d2U, 0xe2a2bcfe10de14dU,
  0x1202c6bfdbd94c2aU, 0xf63440e1e027b3c9U, 0x45dc765ef91e15fbU, 0x3601b5fe0c4827d3U,
  0x7fd611ef0a5110b8U, 0xf816b1c0fae620eaU, 0xeae7f6382fe34acbU, 0xaa29d4f413562c02U,
  0xcefefb2554c2f01aU, 0xe185ff968dd5ee9dU, 0xdd36cb3f4fee11f6U, 0xfc135be30dbb1030U,
  0xf0e7f664196a5767U, 0x9dedd3e6a1b1a219U, 0x7fd1315b2bacb49fU, 0x65cbf2daf622c0dbU,
  0x22fcefe7d9dcc311U, 0xe5593b5a81ebd0a7U, 0x51b3fcfb31e4d2baU, 0xa7ccc7eee3fa9b23U,
  0x2e3dfae57cfecc8U, 0xf16f8f1deef3d13U, 0xa2d02f81e5ec15eeU, 0xfe2ac80e0ab6e358U,
  0xc9642166f0d91222U, 0xf437e0ef0dfb35dcU, 0x1d2ff5e7282116c4U, 0xffbf3e3d56bced34U,
  0xe06e1b6e7ff0a9fdU, 0xf0f2eae9d327c3e0U, 0xfd5965f4be16e6d0U, 0x17a4bed7db141443U,
  0xbc0de6f9dbe0e4eeU, 0xfc9d70af2911c90fU, 0x401e0787f7bc186aU, 0xc31d042d8c03349cU,
  0x9ac191a7e0663c7U, 0xf2de0ee4ebb72b0dU, 0x62e2ff00a9b0377fU, 0x11cac1c86905ab7fU,
  0x2cfdfd11c8372ed1U, 0xfee1a59ed594cf0aU, 0xdd533bb6c227c118U, 0xe11a1acefc04df00U,
  0xd62b123648e36ca0U, 0x943f651a749c1270U, 0xd8fcab81fbc6d5aeU, 0x38d2e61ecdf61d28U,
  0xe89df51c0b131bf1U, 0x108f71013d6ecf8U, 0xa3ecf9d04e314de7U, 0xce3fc3038eec916U,
  0xe936500be313d614U, 0x39109b727fe4d0f1U, 0xdb200f5555fbfefeU, 0xb0f8702354eda53aU,
  0xfd11d7f50c1a4a12U, 0x45ecdee55a3dd729U, 0x5dfd609bf33fb12U, 0x41ca10ab220626cdU,
  0xfce47f1238dad5c5U, 0x19252ff7176c13ecU, 0xef48ce063c1b8b1fU, 0xe132ce36bbf77f56U,
  0xdf10903a2addd529U, 0x14b9fd1426c1fbd9U, 0x707ac0ff1032131U, 0xc0ebe9de1ff9e968U,
  0xe11ab5db1109c216U, 0xcfecf2f8ea673f23U, 0x8217f8cec0b0c213U, 0xb4a1ce42c30fd75aU,
  0x7f74f8fe1409ef57U, 0x32c343c942d6d652U, 0xbccdcd4297b2e1f6U, 0xacbda43f5b813514U,
  0xeb83f628752353c8U, 0xf8da9386e6220a03U, 0xc2f03fc832b5e05cU, 0x3efb41769801940eU,
  0xbab6d85739f16112U, 0x240b1e13157f191cU, 0x21b80af5ca1ff2f9U, 0x1aa621ea5f0aaac9U,
  0x35cefdfdb72c26f7U, 0xf99e25a33c13d825U, 0x18d6f212532247f4U, 0x2c04d4cff8e87f21U,
  0x285f0e8ccd17d4ddU, 0xd06dccf25aa8ee0dU, 0x57fdad5d1e162e7cU, 0xd8da482f21fd5a5fU,
  0x47000bf010011103U, 0x6b25f7f9d1fc08e9U, 0x4d850b413c189daU, 0x9c556dfffd89df4dU,
  0x2a27ec618cb4f111U, 0xe3f7112cf8e42d12U, 0xd7e981cef2bcd4f7U, 0x4174fffff646U,
  0xfffff9db00004559U, 0x2a9900000184U, 0x73d00001c44U, 0xffffff21ffffe377U,
  0xffffe43200002ae0U, 0x1f1c00004aefU, 0x1c66fffffeb3U, 0xffffe15f000004c6U,
  0xffffeff100005ba0U, 0x961fffff0dbU, 0xb5c000002c9U, 0xffffedd700001cd9U,
  0xfffff71100000033U, 0xfffff3f4000030a1U, 0x42dffffff6abU, 0x2fc0000002f9U,
  0x150e00005a65U, 0x166d0000154cU, 0x3b8f00004705U, 0xfffff7f2ffffe2dbU,
  0x36ae00002449U, 0x15b00003f08U, 0x3825ffffcee0U, 0x7248b051a002123U,
  0x6fbfb1d0bfafd03U, 0x2fddffe3f9f33e11U, 0xf4d1190dbef2edf1U, 0x10fcea0126dccf16U,
  0x5dd344b3f1060bb0U, 0xf32d41508121e97fU, 0xf7dfef26c3b8f1d1U, 0x1b78c37f02e92f2cU,
  0xa8bd252be4fb3d1cU, 0x14f2f0c62d56e683U, 0x787fcbdc1147de9dU, 0xb0317f9fefc0228U,
  0x9fdfbdae9c8fc1bU, 0x4a16113cec452657U, 0x1309fb03eee1d4eeU, 0x2e0bfdd9060884dfU,
  0x551cded4e204f644U, 0xb1f181bfff1e0f11U, 0x7ffa322542040e34U, 0xe0f51fe881ddd21bU,
  0x29eaf2fe81c40012U, 0x3ce04b4234f409c2U, 0x4dc87f810d53167fU, 0x81814de34b818108U,
  0xad7f275c2181817fU, 0x817f7f402e817ff2U, 0x513afa7fe881507fU, 0x127fdd7f7f7f81ddU,
  0x7f064b97e37fb170U, 0xfd21488100e2f203U, 0xaff14eff01b81491U, 0x50cc113a38e2374aU,
  0x817f04109e2bfaf9U, 0x7f27cfda2b603de2U, 0x6afe6a114833f7c3U, 0xae2ecd6e9f10c03U,
  0x7505e2db12d80dacU, 0xd1e1bebd6292b3bU, 0x60dd9acb5f0f207U, 0x19ee0be9dc2bccebU,
  0x42ee271515013cf3U, 0x96b7b53b001bf138U, 0xb70b7f817f13d68bU, 0x55cf20e102c63c7fU,
  0x3aeb81ca235881f7U, 0x3cab7f3215028c7fU, 0xc54613927f277f3aU, 0xea2d2d09d515f1f8U,
  0xf40d49f820d01ee6U, 0x1caa0ce21ae8ff3aU, 0xe529e71aafef23f8U, 0x1222f91d22d8fe10U,
  0xffe540d133f216c4U, 0x1064fffff87eU, 0x57a00000914U, 0x3d500000873U,
  0x13c0000006ffU, 0xbb300000949U, 0xfffff03700001293U, 0xffffed23000000c1U,
  0x24cfffff673U, 0xffffef4affffe7adU, 0x33600001480U, 0xfffff532fffff2bdU,
  0xfffff5fffffff7d8U, 0x7efffff32dU, 0x213200000cd1U, 0x991fffff61bU,
  0x31bfffff9f9U, 0x1ade00000e68U, 0xffffe6cdffffe7d7U, 0xfffff87cfffff3a7U,
  0xffffe0b4fffff8cbU, 0xfffffa67fffff8b2U, 0xfffff11cffffdea9U, 0xffffdf3600002770U,
  0xffffd0e3fffffa80U, 0x210922f7ec092704U, 0xfaf707e22420e5f0U, 0xf52518e529ba51f0U,
  0xc1e2d2e0f1b0d627U, 0x110e4b1ce50fe241U, 0x7f1602df0136ffcbU, 0xccc3d8ba21e1f303U,
  0x3def30eaf54f06e4U, 0x399bfe40fbbd326bU, 0x2cd9215dceb4e333U, 0xf3d71ddfc4c4dbaeU,
  0x5e298146c307f309U, 0x1034230dd7ac0a58U, 0xeec8160e8235f2eeU, 0xf433b3b63b54f84bU,
  0x730e0bf31246ec58U, 0xcf268118f63df816U, 0x104329053f53202dU, 0x9ec72f090cee07deU,
  0xffc3c84fa1ac12e3U, 0xfe2abcebee39e90dU, 0x8132482b98145671U, 0x2cf4d7d99dddf80eU,
  0xeb08ef082753ad74U, 0x15decfce2f142532U, 0x21152c05f37fdd19U, 0xab9ed82909403faeU,
  0x5e10b3e0625f712U, 0xebf31cf545d9a4c7U, 0xd727fc3afe79aad4U, 0xa08862f2fd0ada15U,
  0xdfee2fc2089379e0U, 0x40379db811d8ab08U, 0x2fa12f03d8d22f5U, 0x1e923611d6e81d3U,
  0x968f601baa8feba3U, 0xf709e916cb1b1434U, 0x110a6fd81248dcfdU, 0x2a0af515d7811c08U,
  0xd41805c6df4a951bU, 0xf63c10daf6000be7U, 0xc4e0f0190c2f12e6U, 0xe63dff04f6eaa3ccU,
  0x7fe30b4025d615f4U, 0x18240eac9353efc9U, 0xe9b8d501fee4eae1U, 0x1f1ee150dc2dde19U,
  0xfd80f331810f860U, 0x10f7de0ad8fdf90cU, 0xfdd6ad0af6cf31dcU, 0xdae8e95190f2c42dU,
  0x7d081ef700ed6ecU, 0xf9251a1820f2cfccU, 0xd50ffa2abd5924e0U, 0xd8e2680ff2d5d804U,
  0xe40fbbf3418104U, 0xf40cf61f1ed8e81dU, 0x3be2c20236192033U, 0xd640f311fefbde08U,
  0xd65a3bfe344bd2c4U, 0x5efa2aedc3f41715U, 0xd9f654ee2e07061cU, 0xe32107ebfc81f0c3U,
  0x1d1624ef33de09ceU, 0x1ee1cc0e05e1c64dU, 0x5b05ad221501fb0dU, 0xdabc4f92cbc1851U,
  0x82e22fc35e070ad0U, 0xfa0ab14cf9a7e464U, 0xaaf5be0515240ce8U, 0xc87f2b43f4f700a6U,
  0xf9dad34325dfec25U, 0xd6ceec8145f421d6U, 0xebd9122a04270eeeU, 0xbb01c11d14e1ed01U,
  0x3e22bfcfbe4e7e2U, 0x14e0b23ab54c2ff5U, 0xf5f929351611ddf0U, 0x36fbeb0deaf9cff1U,
  0x1b131aebfb22110bU, 0xeaf3e220082ae67fU, 0x81db42f292e37f6U, 0xe60302210ad5cbd1U,
  0x3bfa300ac1c817fdU, 0xd2a7c3e1fdde2e1cU, 0x212fc806fc1b38e4U, 0xde2ae7d303eb0617U,
  0xff28374827f202e9U, 0xffc16e81a0e71ef1U, 0xe5f9b13515df371eU, 0x5ad12ea9eef02500U,
  0xf8dca1075e16e902U, 0xd73e33182fc21eebU, 0x3fed06bb212a3125U, 0x81e1db33ca2514f6U,
  0x65def306dc17f848U, 0x11f800080a4c160dU, 0x57fe614250c03dbU, 0xe813131102fafe30U,
  0x3e50bf31b36ebfdU, 0xd9300113f5ef15e0U, 0x19fbf711f102e8ffU, 0xbae53bd1d153fc1fU,
  0x1631e9e9350cf80aU, 0x45539c1fce213ddfU, 0x1948e456d6d8e02eU, 0x2f50ee7f1011381bU,
  0xc73daa2122140517U, 0x13e0f64ff92c0edaU, 0xd611fad3ef063944U, 0xbcd0d10f1e0f5e0fU,
  0xa6f327c97fe0120dU, 0xd8ccb827f94e0020U, 0xeae240214af3d424U, 0xc6091426f2230be0U,
  0x95ec14e90a66027dU, 0x1810f2ebfed844a6U, 0xc2081230f7ebef39U, 0xe3844c02327fdf0dU,
  0xb9b8eff9fed9e07bU, 0xfad9c629cffdfbc1U, 0x97f2c2e01d108107U, 0x3ced63b3d1df4c8U,
  0xd8e80211aef3cfU, 0x16061409f9e41edaU, 0xc0cc50ec410fb320U, 0x7ff3fd5ffa0bd119U,
  0xcbe6ecd444384dcaU, 0xcdceb9020ccf5ccdU, 0xf4d641a41c1ef1e6U, 0xa2f5942b4626d1cbU,
  0x4a0951ee1de0a0fbU, 0xffc90d1b44cc7f22U, 0xf500da101a6c152dU, 0x52733f4535b74415U,
  0xef41cbd849765fa6U, 0x26162b9b02faa30dU, 0x472134430331eac4U, 0xd6c9e9256909a4f6U,
  0x464ac2d0befb1dc1U, 0x81181d0b28fbb402U, 0xb7dcc4ac171f8b26U, 0x1bea2c8de138c943U,
  0x143cf255d9b4ca19U, 0x1a0e491505e5cd66U, 0x27fef223e40781f0U, 0xf05005d3e20302dfU,
  0xe10bd10300df6fedU, 0xf4120916a1360750U, 0x2216180638fdde11U, 0xd619f50e0a1743deU,
  0x36f3cfe8fb60dd14U, 0x21d08ee04423409U, 0xaf3df21b52e17d6U, 0x412005079d2ff4e8U,
  0x83a1805e7810ed0U, 0x4ed02810f8ab4606U, 0xdc0602ce02e3b3bbU, 0xf907dbd9f7d604efU,
  0xfce4e0392f1a0bfcU, 0xf47f43fa1d091af3U, 0xef141d471f2dede6U, 0xa0004224542e7a5U,
  0xe97f3ffd17b3eafeU, 0xdef6fc3bb909ef2bU, 0xd82125282b7a1660U, 0xe4ed0ffec008a318U,
  0xcfe21e9c628c5ebU, 0xbb03ed0d37e13dd2U, 0x2aedb1b0aa113d16U, 0xbbdafc38f108d50cU,
  0x87feff4fe31e537U, 0x1dea22d10628203cU, 0xf73047f9b6f5f8d9U, 0xeb1450811fa9e1ceU,
  0xf6221afcc83eef2aU, 0xc4202e160f073937U, 0x345d4ef60aecf2c5U, 0xd1e8e0eabd8af9ebU,
  0xea6221c421302bfeU, 0x2ef1f2befffc7ecU, 0x21f8d2eee10b1df4U, 0x7ff12cf1efddf6fcU,
  0x93d72cde26a30ce5U, 0x9a1d0c591534342cU, 0x2644e644141405f4U, 0xe4113edc3f309377U,
  0xefdea57000cdeeaU, 0xe134b97f4fc0840bU, 0xe117f9b3f89a1fa8U, 0x13f411e3ebade821U,
  0x4285ff08e5e4eae6U, 0xb209000901ec1333U, 0xc9de7f1060e43d11U, 0x100bf8e1bfd83ce9U,
  0xeedff40039c64ec6U, 0xdf08e8ead029c3edU, 0xe322342f0faf000fU, 0xe72d39314d900e2fU,
  0x575c5d7fa2d2f9a9U, 0x32385f8f9c380c9dU, 0xa7fe16c04653f13dU, 0xc13dc7ea0ff5e7f3U,
  0xfa160b1d4dba44c5U, 0xeff559cf05352f18U, 0xb825537fdb1bf112U, 0x2d3e064a1df6e2d3U,
  0x22cad031e3dcb026U, 0x9b1ce724f9be1123U, 0xf5d6d922ff183c3bU, 0x94f50b10f62a8901U,
  0x8c5142d48e2d848U, 0x9ecd101cf26530cbU, 0xd0eaad073ce7ff81U, 0x8a20102fbb9be3dcU,
  0xe1cb2292e8adeee6U, 0xe6fb291df2f54dedU, 0xad750edf6f4f804U, 0x2c7ff60603180f02U,
  0xddd16110bef174bU, 0xfce4efdc40c5131aU, 0x3d8fa47f411190bU, 0xcf361dea523aebc1U,
  0xe703e873f5310b52U, 0x36d11e0de8c126feU, 0xb51d1ae6f8e61027U, 0xe0bc9f49d016ee43U,
  0x60d5fb3638317f42U, 0x14810bf915ce1df1U, 0x2206f2b0e1050413U, 0xf6e81844430cfbedU,
  0x1c262bc11eeb1c11U, 0xffcf140c29e70ae5U, 0x11383ecc1cc3f2deU, 0xa219f3efee8f807U,
  0xc3d4d8dc1732bcd1U, 0xc4ebfdf1221e12f9U, 0x563b2b38f20f0e0fU, 0xfdda81de280e083aU,
  0x204efa4dce3fa0dU, 0xffe1291b1a0cd0f6U, 0x290a07f0350adb1dU, 0xf9f337242336ddffU,
  0x272d2713f630f0dfU, 0xc105f9ed68250910U, 0x7ffb0b47b2c906f6U, 0x12eff3ddb58198deU,
  0xdcdf2503c90113deU, 0x132e2d79351c9fbU, 0x3cfa1906bc661c41U, 0xf4ee6ac5fbf63cc4U,
  0x2149820609f9f00fU, 0x1e30ac8d3c9e2f0U, 0xe821d1f2097fe6c2U, 0xf743cde2042fdf4aU,
  0x2cf807a7ca1c25c2U, 0xbd20c007d646c4cdU, 0xf7e81fbe1a8a0115U, 0x112ddd0ddbd31446U,
  0xa704f4f1fb08dabfU, 0x471c7c00e202a4feU, 0xca3f34e5ece14524U, 0xe95c46198108f61fU,
  0xdf2f1dc509d4b9ebU, 0xed1f19261b0cc5c2U, 0x71ede03c31fdff8U, 0xc7eef7cfe30e3720U,
  0xd00beaa8e7581642U, 0xe9d9d116f0061381U, 0xced36070cf2e2f0U, 0x19e5e01f2c1fd6U,
  0xede917eb24fbbad4U, 0x19ed48c4153f2c07U, 0xf30c81df112b185dU, 0xe261dec30ea3b02U,
  0x2df50f280b101e0dU, 0xcaae17e282f33c33U, 0xc002ae5813ae904U, 0xf5ef1fd2223d3517U,
  0xf8d60633dec3e415U, 0xd6dd3611ccef182fU, 0xf0fcf8f12c587f06U, 0xe1f2dadef352231fU,
  0x1d2cb5fdbc09051eU, 0xe4b834e2531fe6e4U, 0x1cf804ff0e19e60fU, 0xfdea3578dd810027U,
  0x9e134e1e331fa3cU, 0xfffffdd0000018ceU, 0x7d3000008dfU, 0xd71U,
  0xfffffd44000002c1U, 0xcc700000af6U, 0x34efffffc7cU, 0xfffffd8e00000b5aU,
  0x7160000033cU, 0xfffffd1b000010ffU, 0xfffffc3efffffb28U, 0x22800000126U,
  0xfffffc3000000d1fU, 0x39a00000827U, 0xfffffc90000001d7U, 0x55c000008a8U,
  0xffffffca00000c43U, 0xfffffae100000dfeU, 0x1a700000ee6U, 0xfffffa1700000e36U,
  0x14000001f2U, 0xc800000ba2U, 0x88900000663U, 0x327fffffde0U,
  0x81c00000458U, 0x4c020b10e6e5df54U, 0x9c4e804fbc881adU, 0xfeef17f041c62a1aU,
  0xf891522c628efe2U, 0x16ebecbec726070fU, 0x14913bb081bdc11U, 0x2b7b3934132fdd17U,
  0x3e7f36d967613e11U, 0x1ce59d0ce5fab6U, 0x68f721082891f0efU, 0x39d50cbde9c42835U,
  0xf9121eeacf3df357U, 0xcbb60c7f1a64207bU, 0x3d1e7553832ddd1U, 0xafccd8fe2bf94a51U,
  0x3b1ed32bc347cad8U, 0xfa353df406431e34U, 0x1a0629eedf2af00eU, 0xcc8ecc52144b8f3U,
  0x3272128103c37329U, 0x3cb1bb211ed6b50dU, 0x40beef545ddcfb2bU, 0xf8ee170795a62592U,
  0x4c1b253e5bc888fcU, 0xc611f8e6f847bf57U, 0xf5190806cee6d37fU, 0xde1517dcfb181d2bU,
  0xfbe70035250b3a02U, 0xea3a17e4f220cbffU, 0xe408e511e8e6f0feU, 0xde3aed38fde5df13U,
  0xf1261909bf067ff0U, 0xdcdfc4e302183941U, 0xd71dccbc0df9f3fbU, 0x19ec73c616ddf6e8U,
  0x7d4f83ed3a9cc2aU, 0x213a351929037fb8U, 0xfc3c549dd77e3a15U, 0xc4fabb32c442f334U,
  0x4fd128d0ae962e35U, 0x54099ef110fff839U, 0xfaf9f621dd4f130aU, 0x31251a101a0a1cd5U,
  0xec11fd4b2d3ed0daU, 0x1ef3cae72f769ae3U, 0x11d538d3cd7f430bU, 0xd9ccdef8153919d7U,
  0xc941da04ed3ee006U, 0xb3df12f04a6f1f32U, 0x7fdde802070f55fdU, 0xe505e3de0f390f2cU,
  0xa0fab4fadc01f4daU, 0xf1cc27e404fd20deU, 0x174cea572238ec29U, 0xc104459a715ad62dU,
  0x13e9cd004fee1ee1U, 0x2404f8ffc556c5c9U, 0xceb34231da3c27e9U, 0xf0b4bfcca7d072e3U,
  0xbd31e93a26f7811eU, 0xf1faee4e91ccbfeU, 0x44ef7bf4bff243ecU, 0x32fb401afaf0007fU,
  0x1a1df219cf28c5d6U, 0xf01e13e2cfdd3afaU, 0x16ed290cd927d18cU, 0xd5d31502e706f219U,
  0x1a10fef7d508cd7fU, 0x11e4f413000f17fcU, 0x1af70e0013f1e5f0U, 0x2224eb00e70f051bU,
  0xe51beb03d4f0fbfcU, 0x164b811a24e0bab5U, 0x7c62fcb0b4b0824cU, 0xfafc6ee8b9b6f32dU,
  0xd5dd46457fd04127U, 0x1a0bddedd9940e03U, 0x640da1f6b02dbf1eU, 0xe6b6b5c4031b0681U,
  0x2537eb49bf2bc609U, 0x6e5fae4fc0f61edU, 0xcff3cd2d19312ed2U, 0xf3191d0cd4d1c9daU,
  0xcc251af7ecf6fc19U, 0xeaeceac60a1b25e2U, 0x2740ce02047f4cd8U, 0xeadc90d8d8c01fU,
  0xdfe501ea0b0f3652U, 0x245149ee0df9acc1U, 0xc82d50300adccc50U, 0xea3afd5da66c2217U,
  0xce31260ae97f3eb8U, 0x41c7c4f509eb2d34U, 0xffb2060a34ffb0fbU, 0xd01adcd6132bfa0cU,
  0xcac0c10f230bc51dU, 0x393c1071e9f5da37U, 0xe2e246241c2da3f2U, 0xe14ff0d4140ed889U,
  0x46d5b0f522089bf3U, 0xdd1b0a171a285104U, 0x1767fcda7f4d2136U, 0xf9046de70f427f0dU,
  0xca74b90dbaef06f8U, 0x3638151130f5fcd6U, 0xf5eb9ce000d1eef1U, 0x56f35ae15805d5U,
  0xe89cbdf53d2c2dfbU, 0xd1e57fcbf02423c5U, 0x31e2fa29d3ddfc11U, 0x61f21e1cbeb93343U,
  0x5fce4ae30918f10cU, 0xf7f30502f5d510c9U, 0x7d3f2fbe1f91ff6U, 0xb12d18d615000ad5U,
  0xb1cee0a7f2ae8faU, 0xd1e38c7051beffeU, 0x8170a06e6ebfde2U, 0xfbef01f02cf9caf6U,
  0xf0efd729d547ef08U, 0x1de162ef40bb2149U, 0xb146d07dbf20bdabU, 0x8dd2e80acfbad40eU,
  0x6435db0081c4b0f8U, 0x9bdf215ce10115eeU, 0xe3250b90f3c3cfeaU, 0xf21f43c57ed0c3cU,
  0xf80c312922f8f631U, 0xddd30c3f7ffd2e0cU, 0x2142eeebb0f9f82eU, 0xca1be600d8ffd308U,
  0xe3e2f1b8bc23dad3U, 0x16d33237c84e8183U, 0xef00dfde5d105faU, 0x4fb4fc1719febcU,
  0xd8f9c1342cdd46d9U, 0x32ecadea9ff91027U, 0x1e5edf53bd5e00bU, 0xe527f171d043533U,
  0xe90451f90f7340fcU, 0xe8750c664df30262U, 0x37daced116b7fafaU, 0x1122aaafe3feeee7U,
  0xf203511031e826e4U, 0xa61a4e7f4e47ef12U, 0xebc8deaad74affacU, 0xa33eb9dea97e412U,
  0xaccf8fde4d0268aU, 0xf6df5ec0503861c6U, 0xd31b11ec0954c953U, 0xfb1213d1d8c6d53fU,
  0x6901df00c71cf117U, 0xce010d7fc8f30a43U, 0xcfeb2d0501001bdaU, 0x8f907e821410df5U,
  0x28142ccf02dd3cU, 0xe1b3bff5e7bdba31U, 0xfc4e2af05b57115cU, 0x91003dcf1eaf9ffU,
  0x13e6fe097fdd3ef1U, 0xf254f2eff9d5f240U, 0xc4fbce29fbc6f6eaU, 0x4a08222905ff4ce3U,
  0xd02afd0efab1bbdcU, 0x53cee0cf047ffdeU, 0xe9d1fef7f02c0726U, 0xf0d0c81611d4147fU,
  0x13140e0af9fa0b09U, 0xec12400973e0cdf9U, 0x1f272704f9f01e4eU, 0xdde2eecffcdad3e8U,
  0x2edb457f0a1be290U, 0xdee201c7ceee21e5U, 0x245e6912eb2c0105U, 0x2f8d9eddb072de10U,
  0x9ee0e34238c2238eU, 0xfe58fe9e05defb1dU, 0x9e00dfbe2e81ecc0U, 0x5552bbe009b9fcddU,
  0x5a00f4c501b7da08U, 0xc2e2f42434b37ffeU, 0xe910f60ee904f4eeU, 0xd9fff40806e608e4U,
  0x25e4fde20aefecdcU, 0xf1fff2ccf7d817e0U, 0xe6f904e6191ce5dcU, 0xb9d7addcb642f9c5U,
  0x7f4919d890283170U, 0xf112baf5dda11462U, 0x171170f3040bdee7U, 0x31bf09a2a2f1f351U,
  0xdff8ec8ed3ddc3efU, 0xf500f4bd401b1fdbU, 0x1ec7170708ffd765U, 0xd9c5c0c842e900f0U,
  0xe2e6174300d41cefU, 0xbcbef1f0e0a261fU, 0xf0efdf15302481d3U, 0x479adcf4d47f1960U,
  0x26f8d219fb505146U, 0xbef838b03851edb6U, 0x27f8ed310c360928U, 0xf6c9d334dc0521d9U,
  0xb326490b1a124011U, 0x241adaafa02d1bbbU, 0x1f5bc9dee9bbf943U, 0xeb1cf21c14e08149U,
  0x261a2a261640c9d8U, 0xafc8afc8147cd011U, 0x33de5be04f8d133U, 0xb3003327f8d4e920U,
  0xf622dc23ea7fddc5U, 0xf8dcd8345e47c13fU, 0x2bc3e40befffee2fU, 0xf335bae4021b0af0U,
  0xe62b2710fff6d84aU, 0xdd93fd81ed5851a8U, 0x48ea372664d62d01U, 0x4418545cc36c6636U,
  0x13c62869d133f21fU, 0xe5fa0ff5e5f508e8U, 0x4d4a2f0f09fbb6e6U, 0x2f0d1503ab2dc125U,
  0xf31440f32d813e2fU, 0xd21dfefee2f5180dU, 0x17e3fb260fb9f7b5U, 0x2b4501ee010cf2feU,
  0x3e2d36e7fcf8f0dcU, 0xdfe6cf71f193328U, 0xba4d14df450f68eaU, 0xbc3ff46e81475d1dU,
  0x7ae63e09e5e665deU, 0xdae2cad6cfbd3f1bU, 0xdc4b2ffac9c9e1e0U, 0x3a1afeeffc2203d1U,
  0x112345c8f521fb0bU, 0x252256fbf9141df6U, 0x2be1da7f163006fbU, 0xecf2eeece2214fe7U,
  0xd8f2df1cdff7e32fU, 0x4493eb2e0a0eda22U, 0x1500057f00d5ccf4U, 0xb8ecb903fdfcdbb2U,
  0x321a374d04cc1c31U, 0xfd03bb272efee5b4U, 0xf8ec1bdaedfffc2aU, 0x13f00223e731ddcbU,
  0xde2b3c22273c0b0aU, 0x2e14f90ff6eec057U, 0x3491cff02ad07ff9U, 0x334e32cb28fd4f26U,
  0x64cc15000cf2e217U, 0xf4f5fc6fd71e231dU, 0xe4e2f7fca2c200e0U, 0xc3052281fe4e3bf4U,
  0xc4c2d8d1f6f55912U, 0x6e9c5fcd1db00f3U, 0xc80fea3834ce2b0dU, 0xb2ec3c89f85911b0U,
  0x3a008100cffdf0f5U, 0x3529b8eb1b305d0fU, 0x3700c328ef53622dU, 0x8d2a2d1cf4dd00e3U,
  0x4760b7cddff3eda4U, 0xdd1b7e344b92421eU, 0x5534377fd6f1002fU, 0x7b0bfa73ee84406U,
  0x1d15ce2d5433f71fU, 0x590b00f00e10ead6U, 0xfe2d44bd1a3cf04U, 0x2298338dbbe4dffeU,
  0xf4c61846e131c5b5U, 0x2a54baf6a5dfe103U, 0xeed6241ad9c40ea4U, 0xf01b25dc12ea5624U,
  0x223931fd3e7fe44eU, 0x70dd2a44fdec412bU, 0xc7fc81fdc1d5c5c4U, 0xe7def050deaff9cfU,
  0x48f6f4d2921d701cU, 0xf81d1501f75b076aU, 0x7cce22892d2246c3U, 0xd924f01113d4002eU,
  0xbdf00003f2d73d58U, 0xf5962d82581cc4fU, 0x491f0be2e9db1abbU, 0x12c1f922feca1a0bU,
  0xcbb6e62e121dec0fU, 0xffffcb5600002491U, 0xffffffd8ffffd3a0U, 0x131400000a8bU,
  0xfffffd6affffd508U, 0xed8ffffe761U, 0x9f000000d2fU, 0x1fd700002e51U,
  0xffffee58fffff44bU, 0xfffff1bbffffe19fU, 0xfffff71600000fd6U, 0xffffee0d00004549U,
  0xffffae8600002fb0U, 0xffffff9500001bb2U, 0x9f8fffffc73U, 0x49caffffe5c9U,
  0x1f3400001b81U, 0xffffbef900000285U, 0xfffff92800001bceU, 0x1a5ffffec2dU,
  0xffffe5edffffe5a8U, 0xffffdf7f00000809U, 0x1a8000002c01U, 0x1f53ffffe4deU,
  0x5a900001c47U, 0x1ae3f50be8aaca0cU, 0xef4c000013b212d6U, 0xc49e2a14f82dc90fU,
  0xf73142d6e536a30dU, 0x3754e10cea3b1a12U, 0x182c2bf520fefb07U, 0x6c4ea2721bb7fe6U,
  0xdbecb32cebb0ac81U, 0x81818160d15128fcU, 0xd4f3178beefc81dbU, 0x784d0616117f251dU,
  0x26125d03317a6317U, 0x1f1c1311170b55ebU, 0xe0e1d502d76ceafbU, 0xe4ced9efecf300cfU,
  0xddf300cb211716faU, 0x24810914e14bfb20U, 0xc8e61419090e27dbU, 0x2e08e5fa4dd64c35U,
  0x1d5e41fce48c81ddU, 0xa7d4c31bd9f91b1dU, 0xeb3f04f2984203e9U, 0x2049233af624194eU,
  0xe72b231bdfdfdbccU, 0x818181817fc1dd81U, 0x7f81277ff6a1974aU, 0x2199937f81c77f81U,
  0xc37f090f816d1f81U, 0x858f7f8181167f34U, 0x137f7f0f2ab781U, 0x59fb0ceacf7fc70fU,
  0x56301b130aaf8f27U, 0xb8d9cd390ee43bd5U, 0x3166813b277f15ccU, 0xbeb2ff19ac267401U,
  0xd4811f467f253c07U, 0x29d8022c0c193f2dU, 0xf312efb14dc2d28U, 0x3500caec0efde20cU,
  0xb738fcb10ef81f02U, 0x1d0b2323f6f0fd27U, 0x907f0fc07aa1fdaU, 0xf9e404def8ecd61dU,
  0xfd3b7f1b7f7f2d68U, 0x17ccfb1fe18119e5U, 0x8116e9811f32080bU, 0x7f4a02f68636237fU,
  0x81269fe2ea8181dfU, 0x360a010de228bc22U, 0x1c0d22fd121ee746U, 0x4ce3f1ecff0039ecU,
  0xf121db0509c03a02U, 0xe3250507bc1dee57U, 0xecc2d41209d400ecU, 0xfffffa3f00000164U,
  0xfffff6660000055cU, 0x8490000086bU, 0xfffff64e00000f46U, 0x1358fffff94aU,
  0xfffff92c000010dbU, 0xfffff451ffffeef1U, 0xfffff5ddfffff925U, 0xfffff08f00000fceU,
  0x123b00000a00U, 0x1c34ffffe94aU, 0x854000024aeU, 0x26900001025U,
  0xe2fffffe539U, 0x609000011ecU, 0xcecffffec18U, 0xfffff257ffffeb00U,
  0x1e1bffffe40fU, 0xffffee7cffffff43U, 0xfffff6e5fffffeb0U, 0x41c00000f5cU,
  0xfffff14c0000044cU, 0xfffff13cffffef21U, 0xc2f0000031bU, 0xc4cea64f07f111e9U,
  0x4eb13ecdfd0a0a00U, 0x901b6144200e93eU, 0x3db0f34260fe884U, 0x8ebb25081efa5e4U,
  0x24e5c745db0df475U, 0xf431a74214fb0cd1U, 0xa91c1fcc36e4e41dU, 0xa8e6182f0eab2c03U,
  0x110af2af2e2eebf9U, 0xedc104e4de7fdc1eU, 0xd6d8324434cce6ffU, 0xcef0f401abf0ff81U,
  0x9d1610182c3b1acaU, 0xf83eab1a5700b1ecU, 0x4e14aa4ed1b5dae3U, 0xbe10d123a5e1f903U,
  0x1a0ecde2c5cc96d6U, 0xb1d50e5ad9f92a09U, 0x43df171861f5e4edU, 0x2274fdde613f9caU,
  0x31b8134faa1823e7U, 0xd053ccfde11ddd06U, 0xb3264c4d81def93aU, 0xdf5ca9a1d49fa1dU,
  0x1ec0120d2527fa36U, 0xd92a0881d60ee602U, 0x19d1020431ece745U, 0xe5085d3764b006ffU,
  0x21dce0edf5002441U, 0xc0e032ec611ef10U, 0xa02cffc19efe0d12U, 0x2601fad1c22f3bc0U,
  0xe7f6ec3f3d7f052fU, 0x3343f6d0691ebc2eU, 0x3235ceeffffee6c9U, 0xe5ce3cb4f5961cfeU,
  0x30d0edcf7a0fb871U, 0xc794fedfd9e01e02U, 0x23f64526dbd97facU, 0x56162404d8ebd8edU,
  0xcb41461b213935f2U, 0x3433d9ea0cf3fce6U, 0xfe00dde86732db41U, 0x1c1810ec7f2909e1U,
  0x2508defef14a0d37U, 0xd99fe3e403dd3e18U, 0x499ff04318ce3dc1U, 0xf71a7422f91a0e31U,
  0xd2bdcaabc7f73843U, 0x152dd80ce9f813cbU, 0x502138f8d581fb1dU, 0xf129ec0bb615c6fbU,
  0x1b3526f22623cf1bU, 0xe01ad3e10ef0e31aU, 0x3e2a4cfc2e54b717U, 0x3226282ae1d22903U,
  0x40e324f3c4c8c517U, 0xd8b554d37fe6c428U, 0x26f31ee52d1317bcU, 0x5f77419f9fc0ef2U,
  0xe4011ad410e4201cU, 0x3834bb15f121f5f2U, 0x18810c1ed5fb1920U, 0xe0e6071155d01847U,
  0xf8fbb809e91ae8a4U, 0xdcc5edc3a97f0ffcU, 0x1e2f930ebea0526U, 0xef05fdab2bef0535U,
  0xfae691f6cf97dc1bU, 0x5d231081a11a9edU, 0x29fb20152513091aU, 0x1dca091be6daeb12U,
  0xfe172cd931d3af58U, 0xee963e3d5daf93aU, 0xfcfce51803f9f0U, 0x1333cbe1db81cf58U,
  0x1df12e471fd549d4U, 0x1cf1730b5f502b30U, 0x1da34c7f1a2c5fdcU, 0xd5c650e4cb46d7b8U,
  0xf8f02e3afcd95545U, 0x5f9fd11ff11f7c8U, 0x58b7f925e84e9b0bU, 0x1037f8e424ec43fdU,
  0x6f7cf000d11ab39bU, 0xc32833d8f80a2037U, 0x6d8136eed462916U, 0xe7dd1506e8cece0eU,
  0xa4074ece03f47f26U, 0x1fee7f14d6144403U, 0xe5f20d3ac8c4e325U, 0x62ce434814f0c503U,
  0x4187121a8d534e0U, 0xec2d120e0ad9d848U, 0x1e3cec63ebf11900U, 0x15f1e00850ec1305U,
  0x7fe927eccaef42e1U, 0xf02c211ffff4503cU, 0xecfd0618251e33f6U, 0xf12105d5d15f37f7U,
  0xef1415ae2318e319U, 0x7f00d4011bff2c10U, 0x180fea371325d0efU, 0xf70dddeee20c0f22U,
  0xd01a30fd331210e4U, 0xf1ef24e00b09c910U, 0xf9cd0e062ceb07daU, 0x202dd63f48e9ebdfU,
  0x2ef9270327053ecaU, 0xc70315014b947f25U, 0xf208d82ce23995U, 0xc12503d7e4172ef1U,
  0x815ec276cd15b31U, 0xe21611ec2a23bee6U, 0x59d9f89fb3a81daU, 0xe0e9f2f4b6022455U,
  0x39c8f360a919f601U, 0xab21e900b959bb20U, 0x312305a8f20af9cbU, 0xe306fd06de2303e2U,
  0xf5cb0a0819d7060eU, 0x5e286d315815ad7U, 0xef77f214e11317a7U, 0xd7152b95ef305619U,
  0xf25abdf42deaaf5dU, 0xb4ffbf1b4a0ea8c5U, 0x4100b623bc1dadeeU, 0xe86013fd1cb9d31bU,
  0x8ba1d2a4e28f8f4U, 0xb3d1fb810cbca508U, 0xdec74ec50caa460cU, 0xe1d1118125cafd88U,
  0xf1fc06ea35ea432dU, 0x2cce66e6e26406cfU, 0x3017ffe3c3e1fa06U, 0xeb9e2025902102c2U,
  0xbe0cf3daddbfcc1U, 0x2b82272c06f2b344U, 0xf9e006d91de8c312U, 0x8d81ead5ea971c9bU,
  0xc2d835f8f3b74026U, 0x502b3cd1ba46130aU, 0x9e5471622220f3aU, 0xc7f608b8ef1e28e7U,
  0x2024ffa0202bdb30U, 0x61502092f0329ceU, 0x2eb52d2a1ffaece2U, 0xf65530eaacea6381U,
  0xdf2cc83bd20f5233U, 0xadf24d07de93054eU, 0x320a192681251acdU, 0xbb620f3e1bfb9ff9U,
  0x4c01295aa51bfeffU, 0x33260621e0d51c01U, 0x1ced2b0c79e3c8d4U, 0xc4bfe8e7069fcba8U,
  0xe8133d2ea49160fU, 0xc4053e9da9bce2bU, 0x24be9c11fa24fbb5U, 0x92b0ad87f093c20cU,
  0x1a071bf51f8c1ddcU, 0x4dcfe4b8a813f9a5U, 0xb2fe0ddec12a3e49U, 0x3b1a203a027fd1f8U,
  0x271cb8a1b39ee907U, 0x3908a0df403bd18eU, 0x1ad07022fed2fdfcU, 0x431c830d48db81ffU,
  0xd40613c6063f2f3bU, 0x2b9f0ebf201043aU, 0xc2dfa760c00d1bbU, 0xc2ee3dc2fc11fc15U,
  0x3702144e6afa0ed8U, 0x33a3df2db81dccbU, 0xeff7ecd7aecd0c0eU, 0x1220e5f42ed5e533U,
  0x33e4d3dcaf45f3edU, 0x1dead0db13ee03fcU, 0xac24fecfdde40721U, 0xdfaae31be0ea2151U,
  0x60cacce8ecdff8a3U, 0xefec3c23fe6d3a18U, 0xd764d62995815578U, 0x3733a3e2ad051390U,
  0x1934b5f09843310bU, 0x251b0bf9cf1fc214U, 0xfce981d4f6322006U, 0x60d0bcc7fa0bc7e1U,
  0x10e639b3c7d007d8U, 0x280316fee2cac1fbU, 0xf6f7dd53233600daU, 0xd1ea1d0beb03c219U,
  0xc3e91355fe11f115U, 0x194737bbd2f3dbc6U, 0x59312de0f9e2f585U, 0x181445274438dcf7U,
  0x1f3e34f5ee12cd7fU, 0xcdda0dfc35dd20f5U, 0x4d044e9fe5515d8U, 0xac3df17f3940599eU,
  0xcd515ec3dbdd662bU, 0xc9ee9f0bbd186659U, 0xe5feef37fb3345f8U, 0xcb8af9e70ae8ef1fU,
  0xe41bc2a7f9d721a7U, 0x18d535bbbc3a19dfU, 0x81ade65021f3db39U, 0xfe35291110e70216U,
  0x38c2da3f9eaaf51dU, 0xd81e505dc0438f0U, 0x71328a9ee14ef0aU, 0x3ae5dde9c40a1e14U,
  0x30a31e3dd51bf30bU, 0xe8123d094211393cU, 0x1d2ec9fd1c180d25U, 0xb0bb28472f0b0de6U,
  0x390e2f0219ecc3d1U, 0x8edfdc41bf40081U, 0xedfaeb01f5c1c4cbU, 0xdab4f82f0a14c5b1U,
  0x4f5b78e9bdc6f9dfU, 0xbffd3edfca1cbb36U, 0xf250a8214a314df0U, 0xf0e8f9d2afca41feU,
  0x110ddc8b05ed37fbU, 0xc7d6987feee3f61dU, 0x26ff5432154b9207U, 0x5ae8bc0b0be8f3f5U,
  0xc939f0fb390f1a43U, 0x74b10fb35049cdfU, 0xde82154631c703aeU, 0xc41f4b31eff40fbcU,
  0xc42e7f920121e019U, 0xfd254430ebf202f0U, 0xe646ad35e9e1cd11U, 0x62dd7ff5a8d52e4cU,
  0xd6d1543a9defae13U, 0x48af98256ae1c4e1U, 0x2d8eedba47ff2aecU, 0xdb080699313341bcU,
  0xd110cb315c283981U, 0xd1dd1bc529f0ef3cU, 0xad1e91ee1d24d7ecU, 0x502bbcef1eff106U,
  0xdfdf01f62a11e6f6U, 0xcbe20fe30a170a1dU, 0xf11369185e81c5d6U, 0x1153cfe5fefec8d7U,
  0xa02ed904fa20e6e9U, 0xae24ac28100fcfe0U, 0x6bfdf904da110f11U, 0xfe01a1ce69b06e0U,
  0xe09020e10dc0611U, 0xfcd132e5b6237f9cU, 0x3c152966d41c0ccfU, 0xe70fef001a2efc21U,
  0x2f0a1dc2db0f170dU, 0x131cd82cfe030702U, 0xf0f921f4180a0918U, 0x2c131e25dbe0e8e6U,
  0xd1dff41913db0f81U, 0xefef12520ddf04bU, 0xf5d42700d1eff6f7U, 0x10d3e90d25cb0f11U,
  0x7f08efe6b72454f6U, 0x5f1fc7cbba212f24U, 0xe3010c02009fc40dU, 0x43edb7210f030a01U,
  0x44c1f83617ba9017U, 0xef543b07eaeb36e8U, 0xed7ff2f557fb9b1U, 0xc1ae56b61a5cf8daU,
  0xaa91d5347d4ecba9U, 0xc29138cb4af194aU, 0x2301f3fe7bc40a27U, 0x320621ece2110ce1U,
  0xee194414b565e960U, 0x5611e127812338d6U, 0xf257e912c803f0faU, 0x16f1da240ed6d9b4U,
  0x1e01b876ef12eaddU, 0xfce5c8a14a362c81U, 0xcdc8ede7ca10242bU, 0x1ddc0e12fb954922U,
  0x14da28c8eb0d2209U, 0x3735340bc2d317f7U, 0xd2dc23d1c0d518d2U, 0x714000025eaU,
  0x91b00000a75U, 0x240000007ffU, 0xd2fffff9bbU, 0x7380000081dU,
  0x2660000057bU, 0x60600000652U, 0xfffffe91ffffff39U, 0xfffffdab00000f2eU,
  0x39effffffe6U, 0x3eeffffff66U, 0x1dcfffffde6U, 0xffffff390000090bU,
  0x22bfffffab6U, 0xfffffebd0000042cU, 0xffffff8500000552U, 0x24d00001418U,
  0xfffffee0000004a9U, 0x56700000722U, 0xfffffe4500000295U, 0x161ffffff72U,
  0xffffffa200000634U, 0xffffff6c00000490U, 0xfffff98300000392U, 0xfe73f0cf0ce6ae1eU,
  0x27d632f7cd1a13aeU, 0x1b72a160d4c5a27U, 0xad27c2f71d148145U, 0xfb35c4112f47197eU,
  0x11eabae327ce2d04U, 0x58e900fb39030dadU, 0x3209dfdbe889f807U, 0xaf060fb0c5a5a00aU,
  0x4581e81f7f0313d2U, 0xf71e05c2824c29f2U, 0xffd54aae16b30608U, 0xd432062172810b60U,
  0xe39dc4d8037cd2f0U, 0x2425ec310eb71cceU, 0xf660e7ce180a64c9U, 0xc739742ca4182135U,
  0xfa67f6c0e5e215c6U, 0xc5b681125157e44dU, 0xfdebfa1808db5dfeU, 0xcdb21a410e0317e0U,
  0x11ab0ad9eb0333f0U, 0x113fdafdf91ec1e3U, 0x204af21205dbc5beU, 0xec64de40840cec1U,
  0x5d223c4e96f42e4dU, 0xc0f02003a3af7e04U, 0xe6ed28e57fd30ad1U, 0xfede1de44639de4dU,
  0xeeb1c3b06f1f1aaU, 0xd6f5075c60e13b81U, 0xfce33b6c1dd94952U, 0x17edeaf00a0bfd3fU,
  0x56fc5cbfd9cd5bdaU, 0x11ee5d4f3d9e1ddU, 0x22322400e42bc19eU, 0x140dc1b6c71ef1a7U,
  0xfd7700484c16e921U, 0x26cb29afd02b5803U, 0xdee2f32626f42621U, 0xb0fba114163fbfb3U,
  0x81b420f7e2bdc2d0U, 0x2225f509fbd64c2eU, 0xdbc254bf9af8d4ffU, 0xcc01f214c3f31816U,
  0xc0d5fdffb6e80b0aU, 0x32c71737df34f137U, 0x2fe57f9237322d09U, 0x383436e59ab5e423U,
  0xef2de03de8f7cd0bU, 0x7f30d5cc510758ebU, 0xb109effbf9ceecf6U, 0x171beafbdbc7f6c7U,
  0x4108f2d13ef3ca20U, 0xeafa48c515464909U, 0xe57f15dd0a032a24U, 0xd3e3193deb0fb2ecU,
  0xe3e403f9e2f2de00U, 0xfbac4dd0b62f15e4U, 0xde2112e6f9cf21dfU, 0x1eea15fcd9550bdcU,
  0x2cffecf9ebe40be0U, 0xe8ee01f229f5eff9U, 0xb57f51010087f23U, 0xee211f12f1fd2ce3U,
  0xf6c6223bec2fc65bU, 0xda7b49e3b39107f0U, 0xf4730c2b6743ba63U, 0xedd023dd897fb063U,
  0x53100063fdf23e9U, 0xa6fed5c92537169bU, 0x7548cb0f9ce5014cU, 0x36587fcd22fc413cU,
  0xef01f2d722ea1bc7U, 0xede706ed13141fd3U, 0xeffbe2c5d4d3ffc1U, 0x522002df0c0effe0U,
  0x2ef325e210e9f024U, 0x4708591a7f4bf818U, 0xf4ae4f2dac6f4e0U, 0x63e725112ecefff1U,
  0xb5f3ebcdc639e0e6U, 0x60fecff18f10ec6U, 0xf6f1131cbcdbf3ceU, 0x6deef970134dd659U,
  0x23f01c4cf3a281daU, 0x46b65408e30b2200U, 0xd7131183d45bd146U, 0xdafc0ab58be7d617U,
  0x3aeadf5440c8cecdU, 0x41c403fc03183214U, 0x3a15416e2f8ad123U, 0xf236f1f201080842U,
  0xcf93fe41f81f108U, 0xe92b17e53626fab5U, 0xf1c6e012281c2348U, 0xe30bc9c62e2452deU,
  0xc5d1bf35cb083685U, 0xe4e27fee133a1c48U, 0x18071dd2c5ccd3d8U, 0xe621deed9f221702U,
  0x1c091c17f805c54aU, 0x3cf4080b11e4f622U, 0x23f7f86dbe155775U, 0x2cedcecffe81ea19U,
  0x5da59c6f50a6fb0U, 0xa7b3f3ece7d90af6U, 0xed0415f9ce473017U, 0xcf095b132eecf329U,
  0xe222fecbdb6df108U, 0xe2f6ea7fe10bce03U, 0xf90a23f71df5f31eU, 0x1b130642da05f7e1U,
  0x626fa13faf80d0cU, 0xc742432007b14ef8U, 0x39f1c9dc215ccc0aU, 0xe8b2bce3c2fb100cU,
  0xbe04d8c4e3fcd2c6U, 0xed436016a8a9c403U, 0x2581e1e60eae0f0cU, 0xe2dbd7251a9eedfeU,
  0xb314cbef34b73d69U, 0xf63e6507133906e9U, 0xfe2ac2c118bd1314U, 0xddeee7f01c9f1d5U,
  0x2cf522dec0ede040U, 0x6816755661244f1U, 0x531540f5e0cf07a4U, 0xf8eae5d30c30fb3bU,
  0xeefdf99213daea4bU, 0xfd105c150b04fd31U, 0xccffe02abc200923U, 0xbff60f1bfb379d7dU,
  0xec9aedcebfcbfedU, 0xf7ffd2c02f61aeaU, 0x24e00e0624dccdf6U, 0x53050503103ef013U,
  0x30c1327d4f90c1cU, 0x825d45b85e27865eU, 0x52140adf33b810e1U, 0x810394ff213725eaU,
  0x1deaf7f21cc6d460U, 0xdfdfd8caf4c7e5dfU, 0xe2072e3ddad6d400U, 0x3c1c1267fd12cf7fU,
  0x4e190fd4c60cde7cU, 0xf8f73c685929f201U, 0xd407bf2044e9f202U, 0x2f7eedf0d01fcdeeU,
  0xf8c22315e80ec700U, 0x1656bfdf0f6ae1bbU, 0x1412e30356f554dcU, 0xdae3c43b7f20145cU,
  0x38c8b127dad533c9U, 0xcff1ffc3dc0b2ceeU, 0xe4a01801affaf2efU, 0xe4e62c47f1c3a08U,
  0x5c1844ed0cf7dc38U, 0x300fd0b3219d5b0U, 0xda0f0efc2a4522f5U, 0xcc9f406140a290aU,
  0x1f461fc71007c8dcU, 0xf7f7d6f2753502eeU, 0x29e605eae41654e3U, 0xfff82fd6fa7fe9e7U,
  0xd9d9daeaf90be1eaU, 0x3e0619d3d31f1222U, 0x26e7f5badbf7e8d8U, 0xef4a22f07f1f0902U,
  0x22c119f608c4caeeU, 0x7e916defae4d6ebU, 0x7f90716f2f51713U, 0x3042839fb0d00f9U,
  0xe5d122c90831eb2dU, 0x48e6ea7fbc0a34d7U, 0xac19e302fb1ae055U, 0xcce0112cb313ebbU,
  0x380932df16daec2dU, 0x1ddbdb223b37d709U, 0xb44f40018e5bcdeU, 0x38105626ec1414c0U,
  0x8e0010641567f71U, 0xc2df9f21d135efeU, 0x13193be60ee1d315U, 0xdff4f94ae0efa913U,
  0xcfcecdc09fee0f4U, 0x59ff033dc626ef25U, 0xd4db0718fd591e1aU, 0x390eb4bd511fe220U,
  0xca1c070ce42a35b0U, 0xd37f150c07d22be0U, 0xe3020459d10000f7U, 0xeff4b874f99b1915U,
  0x4381eae0a22d70f6U, 0x4e2c5da8f42dc213U, 0xb23f809171021ccU, 0x9e3c20deb144b7dfU,
  0xff4321e943e30d12U, 0xb309ca59e34641f7U, 0x12cb29d24412f845U, 0xf257e647b729a10eU,
  0x3d051023e6d1f381U, 0xc53255f96aa7f5b2U, 0xcf22119759e0ed7cU, 0x5a1e04bd137f0c0dU,
  0x71d8ffadd1e943f5U, 0xd3d3ec155f180262U, 0xb44520c99ba1e386U, 0xdac802f4d053e7f2U,
  0x2df12a1edafcb7a1U, 0xf92dc126bcd02514U, 0x318cade7fe6f320U, 0x18141de017ec23d8U,
  0xc447b239f019af1eU, 0xca0511ccaf4fbe2bU, 0xf2ecfdd8f1c50f11U, 0xfa1e9f7f56554624U,
  0x1ff4e119340417dbU, 0x4ae2f152ece20a20U, 0xd9f3e6350fb6daf5U, 0xdc04e306e875d6fcU,
  0xcac216d5f4f126faU, 0x5f7f8aa2d19fd7bU, 0x44bb2db600e7b515U, 0xaddce31dd30a3a31U,
  0xdaeea1330029c427U, 0xfedf5f32fd7ffbf1U, 0xda18f7add5ce2ae6U, 0x19ce0d157ed2f45eU,
  0x3bdba7f3eae12216U, 0x30e7bcf32c04e0eaU, 0xa0eee4bdb97f045cU, 0x34643f6ed2d3df6U,
  0xd9f9eab5ced701f4U, 0xbd380e81d4d1969aU, 0xf8fafbc10debeb05U, 0xf5400a00e9f812e2U,
  0x2c3d2c246302f5e6U, 0x505d644f2fce76aU, 0xdc10c8e8bd2bcde4U, 0x13e80255421afa03U,
  0xcf161d24a04a1245U, 0xd2f2fcfa7ff2c042U, 0xe1eaf74ee62300dbU, 0xea16cdf6c008e1adU,
  0xe3cc0cf4763aeddeU, 0xb5f9da31c72fea32U, 0x60a2e3112dc1cce6U, 0x56454e2a37321981U,
  0xd20ebb1ec104c020U, 0x99f4f414b53acb37U, 0x310d182bc182f61eU, 0x20cdc70ee224f3fdU,
  0x3bf725f67fb3fa21U, 0xb6e2df11f635f003U, 0xffe1eabe26e406e8U, 0x6f4e5150234a4d9U,
  0xcdeed9dee96027ddU, 0xd87ffdb62567d806U, 0xf1f6130e0ec60de5U, 0x53a8d265cbd600ddU,
  0x69dcf4ebfe0831efU, 0xcb11f33bea132dd3U, 0xcf1833d6f82dfd29U, 0xf72906d3c314e31cU,
  0xc44553dce1c0a741U, 0xe2f57f32887c1051U, 0xe24fbde12db8d7eaU, 0xdb37f8dde40818b0U,
  0x58c4e8c5f600e131U, 0x457f288dd4cce043U, 0x5051c2211a3bfc08U, 0x4ec7f629f5191d1cU,
  0x1e199fee3e2d841U, 0xf514411cd635c601U, 0x40decc051d0afefbU, 0x7c381d34d2bf12e4U,
  0x8a4e178397fc55cU, 0xcca17fe10b812eeU, 0x4303fcf6e5073d0fU, 0xe2ecf7b3f8e60819U,
  0xa15093b11d233e8U, 0xee345b9b94ac1fd0U, 0xc2fc81ffede8e6fcU, 0x1c41fd1dbf91f9eeU,
  0x35ffa2aa4705b6b2U, 0xa52fd3e123d6281fU, 0xe401fb561c40443fU, 0x43d4fffff4bfU,
  0x1459ffffd875U, 0xffffe06cfffff407U, 0xc75000034e4U, 0xfffff38500000233U,
  0x10cdffffdbbeU, 0xfffffe9fffffe745U, 0xfffff2ed00000737U, 0xffffea4500000963U,
  0x26eeffffd64bU, 0xfffff18d000004d0U, 0x1196fffff982U, 0x491ffffbb21U,
  0x19ebffffbd59U, 0xfffff91e00000286U, 0xffffdf85ffffc4d2U, 0xcbdfffffb7dU,
  0x18c900000581U, 0x7ceffffff52U, 0x48adfffff97aU, 0xd5affffd149U,
  0x17500002396U, 0xffffef5800001d56U, 0x4c0cffffd9bcU, 0x11441c181aff78f7U,
  0xcb35fd040ddfdddbU, 0xe9f2e2c3e3f4fbf8U, 0x12f4acdb04feebe6U, 0xf8ebd7071110c9ffU,
  0xf4ed25242e1743fcU, 0x287ff8360f2c7b65U, 0x2b63c014f0529851U, 0xca77c9f9f30bcbb0U,
  0xee5067ded6981b00U, 0x64881f5a7ec0effU, 0x7f7f58666c3c4ee9U, 0x1f7c1fe106f14605U,
  0x20de73c04cef821U, 0xdbf4be26010d1c03U, 0x2f17aeef7041ddfU, 0x823fd118cf9101bU,
  0x472ffefe1a18c309U, 0x7649e052df6b3cddU, 0xde0f0a01e722fccbU, 0xd4098148190dd69fU,
  0x67bdeaf5e75dc2ebU, 0xf1147c74ce601ecU, 0x15f7fad1badf24f5U, 0x7f237f1081ee7f28U,
  0xd07f7f7f817f8154U, 0x817f89477f6481bdU, 0xd3817f7f7f7d7f81U, 0x81235a8163817f81U,
  0x4942b9ac7f7f3db9U, 0x70bb6a81bbb41f7fU, 0x81b707ee18d20c26U, 0xbaf7fb1e60ec39d4U,
  0xa4c15505e80c4db9U, 0xeef6a16781002692U, 0x412c122c1c022012U, 0x39d00318f41f26f9U,
  0x244a08d3f5ddb2bcU, 0xda3e342e2ae828d0U, 0x6e14a605e8f5f8d7U, 0x15fe43f3e40deb0eU,
  0x2a0ce0bad402810bU, 0xe51312d6d181c042U, 0xe565e8364f3faf81U, 0xa43c967f697fd281U,
  0x9fe6fe2c1d81ee2bU, 0xd81130cf5ed2bbaU, 0x495a81811b08c181U, 0x3aba33caea151623U,
  0xb633fd19272ad6e9U, 0xceff4e29264ffcc9U, 0x81cd0a01e6250de7U, 0x2005d300950038e8U,
  0xdd1af2ddfefb6fc5U, 0xffffe006ffffeeafU, 0x13a9000001f3U, 0xfffff03800000196U,
  0xffffe6caffffee79U, 0x11860000020aU, 0x4d6fffff7bbU, 0xfffffbb1fffff613U,
  0xf1dffffe94aU, 0x73f00001089U, 0xffffef30fffff1dcU, 0x171afffff0ecU,
  0x1fe8ffffe794U, 0xfffff34600000ef2U, 0xfffffc1bfffffd29U, 0xfffff2bbfffff609U,
  0x97b0000128fU, 0xffffeb8000001281U, 0xbdb00000993U, 0x10a0000086eU,
  0x8e500000029U, 0xfffff9100000084bU, 0xffffebcbfffff3c3U, 0x776000007fcU,
  0xffffdf63ffffec58U, 0xdd0b2706f7f40a21U, 0x16f017ff23f804ffU, 0xb9f739c2dff504f0U,
  0x2ad3d4636a2c7f10U, 0xef10f4d3cd0103ceU, 0xe5fafa104ae616e7U, 0xc914eb3b5c459081U,
  0xcdc1d4757ff42e24U, 0x2dcd3430f555eed6U, 0x5bed46ecfb050ad3U, 0xfb5211eb96fbc822U,
  0x9af213ceca9eb4dcU, 0x20baffe836def4ddU, 0x3a9ae6cd01e92e05U, 0x16475427f94ec62aU,
  0x69e7feed9b4b81aeU, 0xfae312d1b13ab926U, 0x829f2e5c2edecf5U, 0xcee13eaf5f6a7e3U,
  0xe5f4ff07e723c6b1U, 0x1805110ccf553406U, 0xa37c425ec150ec2U, 0x5215efd107ff2af2U,
  0x287f36fc02e82af5U, 0x2e09033dc5c31edaU, 0xee1481232d15eb0eU, 0xeb1716f6040f29dfU,
  0xff0d20fbe61306bdU, 0xd0e45bd31de53edU, 0xf2f8040f5a62123eU, 0x47e6fdfcc4215c1dU,
  0x68ee6d587fe131bbU, 0x305c28151f0a36abU, 0xa6fce0ddeee2f713U, 0xd0e31d30d300d4eU,
  0xf8f6a33ccb34d5f4U, 0xe4bdbb7f05b002fdU, 0x3ffcd6dde5f1c537U, 0x6040f83b145bfd3aU,
  0xb1f74c41071ce110U, 0x10ec311ce6761ae8U, 0x6180dbcd51cd51fU, 0x113e3a42012e06f3U,
  0x759d7adf5defe2cU, 0x6d1a640beeee3231U, 0x11e42a077f202302U, 0x17c9dbb70ef300e3U,
  0x2c6e2d25ac5d2cffU, 0xf64372c322edecd5U, 0xb7eafe48d1dfb9feU, 0xf3cc81f9025630fdU,
  0x1bc8df0112fcf240U, 0x520ae2d21920cb22U, 0x951344ebb14f18f1U, 0xdc2a25da26640970U,
  0xee4e811efe0020cU, 0xb04e2e514f4df07U, 0x1e57edff62fd12e6U, 0x89fdf9e105c881e3U,
  0xff0c0ae2c9f40c24U, 0xed9637214b02f426U, 0x354f6f2e23ec0e7fU, 0x2cdf0539e934f210U,
  0xf125d2cc11dbf1a9U, 0xf8ba12be0df7ec08U, 0xa747402daee0ec17U, 0x2f14758d9814e79cU,
  0xfeeefedef9c90436U, 0xf10808e9b1c03603U, 0x51e9814508e65406U, 0xfdbf10c8fde809ceU,
  0x4c0d8e83c083d5dU, 0x3ead03ca2fdefe1fU, 0x3846d4193417f41aU, 0x4630f2d9c3550857U,
  0x174e24fd26c2a2f8U, 0xfb7fd9bbe8dbd8e0U, 0xd8ba661719a42999U, 0x3ac6417fb61535faU,
  0xe0342130924ccdcU, 0xfe13f61ed54932b5U, 0xdb8263623fcdb37U, 0xd0cd311403f03fc5U,
  0xc33231e1afd0eceU, 0x47810f1e0dd3f297U, 0xf72feae63104e9a9U, 0xfc04d642ca3bda8dU,
  0x3449262b13ce9999U, 0x26e9de98f4041575U, 0xd057cc5c782541efU, 0x8c7f5ed1c7fd3f8U,
  0xe61404fa103f0ffeU, 0x6d5f298151c1135U, 0x121c26f7eaecffdaU, 0xcc3618e7e5f10af3U,
  0xd1dcee0be61afa0bU, 0x41f40060f62c0b2dU, 0x6357a21e40d43fcU, 0x45aff4814dca1610U,
  0xc0de3405174513ceU, 0x34c2e6f525a0b1f7U, 0xd4deaac9e517b81cU, 0x90f606f6331fd707U,
  0x9d65e0f3b3fab74bU, 0xb5baf6844072a8U, 0xd9c6d3dcf90beabcU, 0x28d31dd0662cea5cU,
  0xba0e08c081f8da79U, 0xfd27d908f5bb561aU, 0xd4960508e3ac31c5U, 0xb57f0b41a58f7fd0U,
  0xcc1b6f0122b20eebU, 0x324ec5ef6fa0cefU, 0x7d6db0ce2e1101fU, 0xffb4f70460010410U,
  0x7fd90826d923b105U, 0x2b01c7cdfc000e1aU, 0xb0f73c20f90af21aU, 0xeff2f864a7f6f53bU,
  0x19fa222012d5cecdU, 0xd8cce9ad05056a25U, 0x2eefd8e001d723efU, 0x3de4f4121c5700cdU,
  0xedc202de1e1fad52U, 0x81b0eefc5ddc9b0cU, 0x389af7ddcceaf422U, 0x9e587fcee5231ce1U,
  0xfc9e2f1a0adc7509U, 0x45eda6eabc034115U, 0xe60353df19e59e15U, 0x136c09474c49da64U,
  0xd8d23832c1b9f10aU, 0xdd0c0a3cc00de0adU, 0x19fbfcc73e7f44e7U, 0xe90be41ddbd717e8U,
  0x4f23b180a4b0ec8U, 0x27f65a25e91c46faU, 0xe24215d2f42730dcU, 0xe7f905496105aa76U,
  0xb3f9fa6e2df414b9U, 0x5dc6e6f227d812d1U, 0xc21ff0ddfd05137fU, 0xc81b1ab7450ce03eU,
  0xa86c6c56527e10eU, 0xdd0834fd8312df1eU, 0x5308a5c2f7f8effdU, 0x44ea1a30f322d5abU,
  0xe4a006814b0c4708U, 0xc1d3ebfb14b2de9aU, 0xf5110c0f0cd2f1adU, 0xf6d1f80af4fadb32U,
  0xc0012728173c2e48U, 0xd609eedbdc48f2d6U, 0xf7d4307feff00dc4U, 0xede60ffcf629dc16U,
  0x1ef1dc511bc7e512U, 0x8f5b8c0505646bcbU, 0xc9ad2af1e40c93f7U, 0xc9ae9e204552f26dU,
  0xed1a44483becf223U, 0xe8ada4a64609b081U, 0x1721de4def7bd656U, 0xb1bc923e4acfef5U,
  0xe08ebdefec725d8U, 0xff27e7f13bdfca13U, 0xf433290726ef4ee4U, 0xf8813b01e1e6c705U,
  0xad11f0a1c11ced4U, 0xda4935e23b0e20a0U, 0xca7505cfc481db04U, 0x66ae45eb851ad4cdU,
  0x87bef933e90b1bbdU, 0xdc4c6da3b09ccf4U, 0x1ecff98f454611f6U, 0xcd7f831ee02e930U,
  0xd512471b080d0a2dU, 0xc4ea7fe536c412b1U, 0xb080dc3a9ec0bb8U, 0x1f1fca0a4b010bffU,
  0xfce53050084c5e6fU, 0xcb0edc34b8e01d33U, 0x37ebf1ef07a6de0fU, 0x812910e98ee81eaeU,
  0xebec553b593d76ddU, 0x522c40a8cc14185fU, 0xf0ef1b183d1c2ffdU, 0xe0f516d3810a0535U,
  0xa1f122caddfe3c29U, 0x751cfcf1e9f30900U, 0xdf48505aed14fce3U, 0x57f92315f50141f6U,
  0xd3b4f008aba91a1aU, 0x3fbf3eefbfe2952U, 0x70e13c7174f2aeeU, 0xf213340418b08119U,
  0x28290ee0a321e3deU, 0x9b0abb15f18dcae4U, 0xe8c7324bd0203bdfU, 0x1c0824eb2a0ada09U,
  0xdf7ffcfe061527dcU, 0x1b33e6d188e4d842U, 0xf09cf820f515fffaU, 0xbd1af42ef0b5ae32U,
  0xff271c154311e2f8U, 0xa1d6f5b9f310b4ccU, 0xea04d2cc90e14a02U, 0x423e2f1160b322dU,
  0x28b7dcedf9fc337bU, 0x5dd6a3a048634914U, 0xbd7f17bccc460e91U, 0x5eb204d82aee00d9U,
  0x6fa180fcbf5f1fcU, 0x2b62e136ec1b0d15U, 0x12faf6fa033ce417U, 0xf7d0e3e9f71806ebU,
  0x1c8142d818dd03fcU, 0x21e4c1cf3dde20cbU, 0xfac7dddbf3f6012fU, 0x6112f00cefee2bd6U,
  0x159f01f20dd13746U, 0x2724d9f4ed30dffeU, 0x7f2bee123702fb4dU, 0xf9f20ae224e31b03U,
  0xcbe2c5e9d1f60adbU, 0x442409f92603fc62U, 0x1dddfc03b0dfe2d6U, 0x2b19eae7122d5581U,
  0xea3ddddfff62e90cU, 0xbeead5be51ba40bU, 0xc6422d1bfacd58a5U, 0xd4e41a2eddc6d4c7U,
  0x7fc3dc3c0f1b81dfU, 0xb84c51016ed424ceU, 0x19bc18e82c3dde17U, 0x3ee1cbd502f50c27U,
  0x14f42a56360c0011U, 0x69d4d4c403d61749U, 0xf41fe516354fb53bU, 0xf22d2bae3df5208U,
  0x9a033b147f07e50fU, 0xdc1afb078ee2e107U, 0xe9c823f03ed2fffcU, 0xe7050cfac607f23cU,
  0x1c1c2cd0c5d913f8U, 0x500344810b0504f0U, 0xeef1ed193053121aU, 0x22eece09e5b738ddU,
  0x30fcd3d717bb460dU, 0x201b039b0678d7f3U, 0x22d53dba2a38c300U, 0x20d43c8102b00c07U,
  0xce330ae906bcc8f2U, 0xf5d61bb130bd0807U, 0xfb031cbeef12082dU, 0xe3e42622f0fde6feU,
  0xd4be4734bc203328U, 0xdc13d8f623edd02aU, 0xc105a0d5277fd405U, 0x3c1af3f11d0a55bcU,
  0x26b6633509e8fa20U, 0x4813261281c52d53U, 0xfddef9b71be03ae0U, 0x24fa191424890495U,
  0xb9ddb844dc2e1cb5U, 0x3fe05fde31140d6U, 0x120c7f3033facd13U, 0xc6ed0304c6eccefcU,
  0xd6fb385df4650c11U, 0x492a150106b7b7f8U, 0xe801153af6f8fc06U, 0xe75e125839f41104U,
  0xc2ad24c27ff92e09U, 0xfd0d12f3e71df216U, 0x822f0aeefd174130U, 0xf265f214d8f0bf17U,
  0xc933f2f8c1fb3722U, 0x14582520712ea4f5U, 0xf332c7ff8bc1f11fU, 0x4c400a23c31e4bceU,
  0xc1209d4533c83535U, 0xeff929ba4ed9cbe2U, 0xc4dacf8149ebfdbdU, 0xbfe3ca1e36d937feU,
  0x142dfd3b05f7e5e6U, 0xb23beaed3610090eU, 0x7125d9f839c91130U, 0x33fb0049cad9e1e5U,
  0x99812ae31be6ece2U, 0x5b9000016f3U, 0x55000002a1U, 0x8f00000a3aU,
  0xfffffe6500000731U, 0xfffffd0100001756U, 0xfffffb80fffffa07U, 0xffffffb0000006ebU,
  0xfffffdaa00000398U, 0x55f000013e6U, 0x29d000002e3U, 0xfffffe8f0000080cU,
  0x2e3000009cfU, 0x255000031c5U, 0x1e0000007fbU, 0x11e00000587U,
  0x39effffff33U, 0xfffffc0900000cb9U, 0xffffffc9000002d1U, 0x2a0000005a9U,
  0xfffff81b0000089cU, 0xfffff99c000020feU, 0x1da0000054aU, 0x4ca00000287U,
  0x3b1fffffbdcU, 0x44baf0ce1f1417U, 0xfb14dd107fd62203U, 0x41a551d3082fece9U,
  0xe1ee6d3d933c2c6U, 0xd019dac9571b0cc0U, 0xec1618e42cffeee8U, 0xcadd5fbacf1b78a2U,
  0x7fda98f9efee5ac9U, 0x202b4bf9252be12cU, 0x1ae4b12ad7ea2828U, 0xddff0d9bd5b6f5c2U,
  0x5f305436f9deffdfU, 0xd4e3f92436b0f47fU, 0xad061ba0312837fbU, 0xdcd66fd3eed90810U,
  0x2ade0c35f1f0b056U, 0xe72905ddfa38dc5dU, 0xfbc911f8ecfe02c1U, 0xc870e627f2d2c9ecU,
  0x147ff43cb2f82814U, 0x16313df032e50817U, 0x30d80eeb17170f2cU, 0x42080910e5d93eedU,
  0xf9ddad0d0e2005bfU, 0xb92b091ac1292139U, 0x2e4c4f2051a001eU, 0xe1e7220e816d670eU,
  0x2925f45cedf09955U, 0xe31700061703eb32U, 0xab1711313600ddb6U, 0x3601f366d955e736U,
  0xfffc15b514040ad3U, 0x45b50029d12746ceU, 0xce0930ecf938e138U, 0x93ee3b1ec0f3cdfbU,
  0x467fb7080ffdf4c9U, 0x5e05e22a2bbf7fd8U, 0x1d06bebffb61544U, 0xf8210eb62f3853f7U,
  0xc80c4a65ff160921U, 0x382f159c9b1ca174U, 0xfbfdda402df311e3U, 0x55281f2ffb187fabU,
  0xfd38fbb8ec1931c4U, 0xb2b226621a26b919U, 0x32ef26603bc6e6f3U, 0xc4fd2ff910e48707U,
  0x15f3ea4a09edb918U, 0x2c4ece41e7660defU, 0x7ef81d71fb69718U, 0x1201a1e0a1d25d6U,
  0xcff44c11f7a6bbecU, 0x11c00f5407243ea1U, 0x10b7de3142e6ef21U, 0x12c4f129f01284a3U,
  0x41fbe40aef0e08faU, 0x20b1183aab2dcf16U, 0x6e1d447a9d7c2e7U, 0xdfe1f075177f25ebU,
  0x4c0dd0e150a9f014U, 0x4e2c0bfce631124dU, 0x1af5e9d4de2fc6c6U, 0x29fa46d7396bc255U,
  0x1fdee8d8ed0cfe1aU, 0x3d2bdced12d654fbU, 0x3682f7f2bd51f00U, 0x2ee77fb8d20c5811U,
  0xecfcefbdd618eed2U, 0xe853ac12d31e30e2U, 0xefadd74119c5ecddU, 0x1150d5e8dde40cf3U,
  0xccf61236b7f7890eU, 0x43e5c6f07f6667f3U, 0x15f0e3340ec0e6d6U, 0xe8cf32f00d09e607U,
  0xe2c4bbebc2fcd3f4U, 0x13111608112e1df6U, 0xfc1b20f0f6baf5eaU, 0x62f3234c09b51815U,
  0x2cb9fbe23f6649f3U, 0x290533ee1d523dd0U, 0x2d3310fbcfa0d25U, 0xfef327d73c211642U,
  0x3d42639a26d81f6U, 0x271952f27f213e7fU, 0xf0e1faed1508e734U, 0x1187cfe8e7f20d8cU,
  0xcbd5f9c8dbdfc31dU, 0xdfce301001d96cf5U, 0x333eecc61ad6ed37U, 0x51c5086df0d95d1U,
  0xb54c1ce5e60b7e02U, 0xe354c930c30ff04cU, 0x4c05f4f532c7354aU, 0x7f23eb0f27012be4U,
  0x10fa9e462d562814U, 0xe37fe515fe2d39f8U, 0x27daf2c0bfedf82eU, 0xdf0bd70508dad60fU,
  0x1d035b2665a2f4d8U, 0xf4e71de40930cb04U, 0xd02c0013ff20cdffU, 0xe81b0dd862af6ae5U,
  0xc79ec10b0b40f7c0U, 0xdc704beeaff39c3U, 0xb8ef4628533d2060U, 0xea31b51a77c6e64cU,
  0x47ce7ff596fd1205U, 0xb2e016dbb90881fbU, 0xed3d6a542d0cd9dfU, 0xa3392dd41b72c98U,
  0xd219aef912e2e6d8U, 0x11e21a37f7d563efU, 0x68bebed0f9dcfdd3U, 0xcf00229057fbf16U,
  0xe6e3f6090cec00efU, 0xf0f509efce1501e4U, 0x25f1f024ebf3f2eaU, 0xf618f104deef0f42U,
  0x8001ce712fdff0eU, 0xf0c71853296700cdU, 0x2fdd0bce0e26fdb0U, 0xe4ffdbf6122400d7U,
  0xf507237fca06bfceU, 0xf2e4fb37e51df9deU, 0x19e021e709e70633U, 0xa5eff1cce63eda81U,
