/**
  ******************************************************************************
  * @file    network_1_data_params.c
  * @author  AST Embedded Analytics Research Platform
  * @date    Sat Jul 20 11:34:51 2024
  * @brief   AI Tool Automatic Code Generator for Embedded NN computing
  ******************************************************************************
  * Copyright (c) 2024 STMicroelectronics.
  * All rights reserved.
  *
  * This software is licensed under terms that can be found in the LICENSE file
  * in the root directory of this software component.
  * If no LICENSE file comes with this software, it is provided AS-IS.
  ******************************************************************************
  */

#include "network_1_data_params.h"


/**  Activations Section  ****************************************************/
ai_handle g_network_1_activations_table[1 + 2] = {
  AI_HANDLE_PTR(AI_MAGIC_MARKER),
  AI_HANDLE_PTR(NULL),
  AI_HANDLE_PTR(AI_MAGIC_MARKER),
};




/**  Weights Section  ********************************************************/
AI_ALIGNED(32)
const ai_u64 s_network_1_weights_array_u64[1197] = {
  0xe9e71de8f011fc00U, 0x704dc1bf3ec1510U, 0xc981d0d7b9e30adfU, 0xe0fa160ff202d005U,
  0xfd1c18f6dec02204U, 0x317f0c4810cf6caU, 0xe4021ee33511eff5U, 0xf3916d65801b20bU,
  0x731a946d059202dfU, 0x9460ebb4f0db32U, 0x13f1560ede09dd7fU, 0x295e170e3501ea7fU,
  0x371c3a2f2b105702U, 0xb2c5a8b80414fa3aU, 0x392a1ad799f6bd81U, 0x4f17fdfa57283441U,
  0x1be70b1d45502f45U, 0xf0eb0213184403ffU, 0x566332454d1614feU, 0xd2b8a881c7c3943aU,
  0xb52b15b653f3f5eaU, 0x4e2a946e0ed62a19U, 0x2c25ff1a01f2f81U, 0x342625c91d16bc3bU,
  0x626cdedaedeefbe5U, 0x5fa0819bfbf6ef6eU, 0xcab3b30406085d32U, 0x4f10cf8c9eea2857U,
  0xdce818fdf317c4eU, 0xda9293d90753505bU, 0xb83a10d51e4f4602U, 0x6511a74a12d02112U,
  0xdd1270f9e561781U, 0xb5c909c03717b930U, 0xac28d3ca078181fcU, 0x818171ed7da04beU,
  0x2044fe1a250ef1deU, 0xfb080105112004ceU, 0xfdf1f27c7f5ce6e7U, 0xefee6664578782a5U,
  0x3ff2f904a3b2c3f7U, 0x49626402fd121721U, 0xe9d1fb060429494fU, 0x47c4bc99b6968109U,
  0xf425f0045c1b1c42U, 0x630e0a3a05fc0cfbU, 0x251c7f19ff28db11U, 0x53dfe80ef0fa0f72U,
  0xc4aa62ebbb65f7b6U, 0xc462f5b06fe3b27fU, 0x1fecec40d0ec43c1U, 0xd1fc1ebb18f5cf02U,
  0xada8ef09e81e2efU, 0xcc6ecbcc100cac4U, 0x382a35534a263435U, 0xa2c59781d3b5a327U,
  0xa2939081424cea8U, 0x2fa1220993011335U, 0x43051b201b28ae3bU, 0xcfd24dc5f9ed2666U,
  0xf5f402f07fbee556U, 0xfa367f77ba8b930fU, 0x5fbfa01fa03fbfeU, 0x8a814c797deb120aU,
  0xf9d6caf4ebaeb4c4U, 0xa781cef5deea0eeaU, 0xed0e553132e0b600U, 0x302abf14f1eafdf3U,
  0x2bb02333b52036a6U, 0xe30e2f9b322f8145U, 0xd14c21d1db42712U, 0x22e799275f61ded5U,
  0xce812c7669afa5f0U, 0x9e346b7abcb10809U, 0x8ba3702d62204d3U, 0x9f66fdc73f24d008U,
  0x7ffaaf5b11c037fdU, 0xb3a6aa1bb03bfe8dU, 0x8181384f4f0b130aU, 0xde5e6e760c0dff9dU,
  0xa1025060304f0e9U, 0x6e5f0000704aU, 0xffff487700003aedU, 0xfffffd1b000003ccU,
  0x3b0f000024c8U, 0x172fffffffdaU, 0x18b00003476U, 0xffff3369fffffd8fU,
  0xc6e6000032a4U, 0xffff9303fffffd3eU, 0x9318ffffff9cU, 0xffffffa4000017b7U,
  0x202000023dfU, 0xfbfc13fe1112eef2U, 0xa2b03fff91005fdU, 0xc0cfe08f61215fcU,
  0x11f431334937ba3bU, 0x2b2b91d7df6002ebU, 0x13aae920813b1eedU, 0xe1fb321c220f9430U,
  0x17ce81c9d552f3f1U, 0xe9e6fb16bd3111f4U, 0x5b9270255e26dfbU, 0x506e46f7f72869eeU,
  0xfce1e501232701fcU, 0x611d7b070ad77f05U, 0x190f0f86951f0c81U, 0xeac785b1b57f8198U,
  0xc27f7ff6af10ff18U, 0xb181bc8181f9819cU, 0x83c98e028660c38dU, 0x5be19fb30d551ecU,
  0x454045f402f25ae8U, 0xf903ebfb5f131bf9U, 0x7f026c81c0816681U, 0xedd974979c8b0897U,
  0xe27f8681604e8384U, 0xe7426c9081f332b3U, 0x818d18a69381ac96U, 0x815481efde349b81U,
  0xfffffafe000000adU, 0xab000005f2U, 0xfffff7670000059fU, 0xfffffc78fffffdc1U,
  0x4d00000599U, 0x915fffffffdU, 0x5500000743U, 0xffffffe00000014aU,
  0x3250000066eU, 0x151fffff79dU, 0x73b0000040eU, 0x4e3000000d7U,
  0x58c17fc3f91bc824U, 0xefe1402054f5102dU, 0xf009140fe1efeba1U, 0xc07a518481d60210U,
  0x420d60025e012ab3U, 0x386cbee8e0570d9aU, 0x38f3260c7ff11fb9U, 0xda0ab70b62d729c4U,
  0x683da9c61d4925deU, 0xf7f3be11e0c1bf1U, 0xd6e61b03caf95a3eU, 0x31bd13c8fff0f9dbU,
  0x2419384a43becffdU, 0xdb250c5881ee27e5U, 0xad1ac2f09245c24aU, 0x263ae1e64c982896U,
  0x811ff74a67160c4aU, 0x44574a611ff30327U, 0x161fe0e118f638faU, 0xdfd080639ec0d09U,
  0x81b9193ff4482c16U, 0x15ea81adf0a12e18U, 0x131010a9f2c41deaU, 0xb700e897eca60301U,
  0x8da2e7f2d41c372fU, 0x43091890baef6b74U, 0xe60e7f2da0384ebdU, 0x381cc700f7f51e10U,
  0x2111781680acaedU, 0x3ff0f501d812d1ccU, 0xde8e2f821701b64U, 0xd70e5161fe1bcb4eU,
  0x1e76538db37fea58U, 0x9ff7ce3210d5af8U, 0xfa00524b16f0f6c2U, 0x2b18c821b4815addU,
  0xb1042eeb3df918d4U, 0xb30c0dc1a0f4c934U, 0x937f6601592dee86U, 0x2534d3e0dc18ba51U,
  0xf64f3cbae6312ad1U, 0x333ca07f028e48e1U, 0xd486b7abd7407fb3U, 0x930a2ed2ace9d0b3U,
  0xe1c0a608d40fd4f5U, 0xf8e13abe18c40728U, 0xf8fc104deaebe7f6U, 0x7fa1e334f3311707U,
  0xfeddcf0b505047a4U, 0x9abdba13acd309fbU, 0xd7f922ec127f455eU, 0xf23c3d03f9c73b08U,
  0xe37ff83dd414b9deU, 0xe2f8f8dadafbd108U, 0x520effd77fc016e3U, 0xa9072d0f20d3eb10U,
  0x22fe561108ddedf4U, 0x181f11fd2e0ee2e8U, 0xff231ef0f87f0eU, 0xff5df8acfb08ef03U,
  0x562d0afe0879301aU, 0x267f0804f82556abU, 0xe2d4f9e907e516fbU, 0x5b4fe05fb85f8c2U,
  0x2dcfe617e4ef0bbbU, 0xf2fdde811df19d03U, 0x80dd53904048132U, 0xe8c6dbc3064c1ebU,
  0x1b21ea088d06e102U, 0xede63cadc1214b2cU, 0x1ae57fc6160bcf0aU, 0x5141012cf2efba3U,
  0xf2d5081a1c7fbac6U, 0x1321e4170f0bb040U, 0x34527dd2ffa0d01U, 0xefef2be3c8140ce9U,
  0x7f8039e7fe0490dU, 0x341148e809ee058bU, 0x10e8211bfeddf8eaU, 0x1226f716ff173d2aU,
  0xef24597f0d34f2fcU, 0x811fed1a01dc29c3U, 0x4221bf312cedf808U, 0x2a02f4dd57150c3eU,
  0x422f89249f81bdfeU, 0x1bfcef84471cc811U, 0xd6f1c9d1c343027U, 0xbcc1ea1d8168152dU,
  0x23900425416f6014U, 0x1a077fe0edf9062fU, 0x2fc5c313e9482be6U, 0x5d499eadfee94adU,
  0xfb51ba7f21df0912U, 0xc828cae7bf3ef6d3U, 0xf91b09d2dc054881U, 0x35f9a692ad621f3U,
  0x0U, 0x0U, 0x1U, 0x0U,
  0xffffffffU, 0x0U, 0x0U, 0x0U,
  0x100000000U, 0x0U, 0x100000000U, 0x100000001U,
  0xffffffff00000000U, 0xfffffffe00000000U, 0xffffffff00000001U, 0x200000000U,
  0x100000000U, 0x300000002U, 0x500000004U, 0x700000006U,
  0x900000008U, 0xb0000000aU, 0xd0000000cU, 0xf0000000eU,
  0x1100000010U, 0x1300000012U, 0x1500000014U, 0x1700000016U,
  0x1900000018U, 0x1b0000001aU, 0x1d0000001cU, 0x1f0000001eU,
  0x2ede1adf8cbfbd7U, 0x9dd2bec7fe4f815U, 0xfdf509eddacdfce3U, 0xafc39fa7f182e0dU,
  0xda04f00c337fdf20U, 0xecca13cbc124f4efU, 0x1c32beab811ae4efU, 0x4b77d405cd7cd31eU,
  0xe5eb7cca505f51c2U, 0xdf818a537948dfb1U, 0x26fcc1e490222ce0U, 0xa9d8e9d0f7fcd881U,
  0x60281630df30205U, 0x3806f1d513f70225U, 0x81f80307ef0fe817U, 0xd71c07fa26fdd712U,
  0x1518cad77fecf2f4U, 0x1f2f28d9e41801faU, 0xd1e9050b080c031fU, 0x1b272f0f26dc81d5U,
  0x51bd786ed4af810fU, 0xc8465ff501232bf8U, 0xf78112ea0e36e965U, 0x2b52b1cc22ef38f6U,
  0xaad06993dc2b8123U, 0xd1a3a8dbdf902fb7U, 0x4c4a14d89a41571cU, 0xc443e11606adce7fU,
  0xe111ce824eb8123U, 0xfc1b36b6e1fceffaU, 0xcd69fd8087fd1daU, 0x90bf7218132c4b41U,
  0xfffffefa000002d1U, 0x34100000046U, 0x118000005f3U, 0x95000006b6U,
  0x1680000031cU, 0x209000005f4U, 0x6400000730U, 0x93000001c5U,
  0xb1ffd0df902fffdU, 0xffe0acef90b0ef8U, 0x3d7f0bb4f3f3f07fU, 0xecff087f01812e7fU,
  0x13fef301e8e60dcaU, 0xdfd05e1fe2d16abU, 0x13f4e821de10c706U, 0x23fbf540fef4dfd8U,
  0x81c67f294fd17f83U, 0x817f8106f86a8102U, 0xfbeb09817f816a2eU, 0x20eb94c3fed6de53U,
  0xefef6e8eaf90003U, 0x14ff0b190d01180fU, 0xffaac55dfafefeffU, 0xf112fb9c7f181194U,
  0xf141830f2f3100cU, 0x17f310130cfc0e22U, 0x3ffffff22U, 0x44900000ffcU,
  0xffffffd0ffffffdaU, 0x1f100000045U, 0x277fffffe81U, 0xa0ffffffddU,
  0xe79ffffffc9U, 0x22ffffffbf8U, 0xe80011011b2115f0U, 0xf52ed61d13e3f904U,
  0x2d5fd03eb0b101eU, 0x2f901ee811d2812U, 0xf5cb2b0e3c16cc04U, 0x3113132e1d30fffeU,
  0xefff0104fd81c1fdU, 0x13f5f6140ff1f3f5U, 0x8d535f3be6519e8U, 0xad3d39180143eb06U,
  0x1e3d8113bf0ff112U, 0x15f2db44da0ce321U, 0x64cae637a72fce3dU, 0x305a81ec210e0245U,
  0xfa1c29aaf1fe0902U, 0x524d723fe3b18f6U, 0x490f25c4ebe5ddbeU, 0xd80e09e181075d30U,
  0xfe19d1e7feeefe18U, 0xb15f53208190df1U, 0xcbd81c12e71a2014U, 0xdf0121e7030ccb29U,
  0xee7c2c20e5ebf7U, 0x1dff15f80c46287fU, 0xf9810fc01f08eeb4U, 0x52f922d514061228U,
  0x1105f6f4ff223a0eU, 0x1117fd150a062907U, 0xd6df7f0cc30704abU, 0xb7241672f22e3ca3U,
  0xe244cdb2eefadc12U, 0xc12f10b090210fdU, 0xe8e90026150ad20dU, 0xf7edf913eceb06d2U,
  0xf23bfbf4fef8ee09U, 0xeedff237f0f2615U, 0x110913250c0502d1U, 0xfa1ada0d012101fcU,
  0xfce9273bdbd04c15U, 0x7f67c10df826de2bU, 0xdbdc17a21938ed2eU, 0x21ceee81222532d1U,
  0xeee4d8fb082ced03U, 0xfbe72826e913d8fdU, 0x2e0e3d35df9ce2afU, 0x91eff811269bcdcU,
  0xc90de2eff0f01dfdU, 0x2223f4120a07dc0fU, 0xc93d2af0bfd2f0f8U, 0x41e97ff21ba2e715U,
  0xeebdcff04a09e5d5U, 0xdaef05dfd5e402dbU, 0xfd3a0b27151bd50dU, 0xf34710192112e765U,
  0x2b0ce53581c65a40U, 0x6325eb39f422b916U, 0xd3023cbcf53b1cfdU, 0x12edded3193631edU,
  0xdd2ffffadc2581f2U, 0xba426f907053201U, 0xf2a542f7f2269b1U, 0xcb982ccdf6cf0e1dU,
  0x5ef0d3815041201U, 0x4f70905fbfe0600U, 0xdb0406d6cfdffaffU, 0x709030d080f0700U,
  0x402010ee811f2fdU, 0xff04810003fefaf7U, 0x902d3a24bcbee52dU, 0x41e97f190898ea39U,
  0x103ae2a58f31004U, 0x1ef1afc0efafbceU, 0xc5f71b19ea2c81a3U, 0xe4e8bebaf5def4e5U,
  0xaee4c9df0713f60dU, 0xebf60e171500c815U, 0xeae450d805c91065U, 0x55bbd48134295c9cU,
  0xe8d404d4f1040796U, 0x10f122e28001742U, 0x4cda2ec811d581dbU, 0xbbfa12eb43f7b9e1U,
  0xb2f8fef7d7e01b92U, 0x2f11dce4fbcc02f0U, 0xf06c3ce127c5cff8U, 0x6b14c9dffba9dd00U,
  0x27ffe6cdafc130bU, 0xfcc1d0c7edf42bceU, 0xbaddb6fa20d0e815U, 0xc2ed32ebd23a0a11U,
  0xcce8b33481d02202U, 0xd7e5e8d107f9ed1eU, 0x66addde5be1ca09U, 0x6459d084b88ef91aU,
  0x164ed070cf70807U, 0xf067fcced291ff5U, 0x1125f93fe01eece1U, 0x1ef2f0f2200a03U,
  0x26f70de6d509071dU, 0x7f1cfa1fee0603f3U, 0x477a6700df47927fU, 0xafe13f8d4afe5d96U,
  0x17ec05071eddfbd8U, 0x61be01f03df6b03U, 0x3f63a4b3a6924cdcU, 0xb9f11c96002d013bU,
  0x7f21dcf40b1139baU, 0x20f6f974d4470d14U, 0xfcfff744ffad14fdU, 0x141836c63679e704U,
  0x7f0b0a10ecc6e925U, 0x90b3016bce80b15U, 0xef196fcf27efc133U, 0xffc2d619094cf97fU,
  0x24fe1b03d9130f1bU, 0xece805190b1e2223U, 0xd63cc8f030f0f5e9U, 0xd7fd5ed232259e0U,
  0xf7a1f8e6ef24f7e3U, 0xfac9f7912a1adbecU, 0xe32d1e0a0a52aebdU, 0x31ede6debc2887adU,
  0x14f60df2edfd127fU, 0xede8040f0e65a257U, 0xf3391981bdf01911U, 0xa0d493f5c2cdcfe3U,
  0xe7ecfefcf3545630U, 0xd1734f81c0b1c18U, 0x4380000039aU, 0x2af00000381U,
  0xfffffd91ffffffd8U, 0x113fffffb5bU, 0x324fffffc55U, 0x2a2000001e8U,
  0x507000014d3U, 0xfffffe1ffffffd1dU, 0x3da00000597U, 0xfffffdfffffffabbU,
  0x2ca000003e8U, 0xfffff81a00000656U, 0x3ecfffffb7eU, 0xfffffebffffffc05U,
  0x42800000052U, 0xfffff75dfffffd85U, 0xf01017dfe529f0fdU, 0xf6191dd9f515160dU,
  0xb360f122df22016U, 0xebeb190d201ffed7U, 0xb62b3bcec345d73dU, 0xc34848d8d9151248U,
  0x334a353326e3433eU, 0xccbb46384244e9c1U, 0xac1726d3cf17e341U, 0xc632314be2022041U,
  0x38303b1c12db1944U, 0xe0be3d482d2cead6U, 0xd0352a9fc64dd112U, 0xed2832cecdeebb1cU,
  0x1b4f193a44d32d39U, 0xc9d62c22393bded5U, 0x8f7f7f81817f817fU, 0x877f7fe781bec47fU,
  0x777f657f7f8a7f7fU, 0x81817f787f7f8181U, 0x81675eb9b13aa777U, 0x81744e7f91a94760U,
  0x7f567f6748873579U, 0xb391747f504f8da7U, 0xd62a21b1d037d817U, 0xc221bf0cbc5920eU,
  0x183314302cd01725U, 0xdae8161d2826d703U, 0xb36e6093a5489953U, 0xcb6049fb8f94814fU,
  0x595c42627381554fU, 0xaaae4e6a5f5b87b5U, 0xb45b4ad5c92cc548U, 0xb2622a4d9b812e32U,
  0x57454c5a44902f4aU, 0xcdb94b623b3d8ec2U, 0x563fffff91fU, 0xbf4fffffaa3U,
  0xfffff0e000000799U, 0x5c6fffffa16U, 0x37ffffff621U, 0xba600000927U,
  0xfffff30efffffa72U, 0xcb9fffffad3U, 0xffffebbaffffefebU, 0xfffff83f00000229U,
  0xfffffa54fffffa43U, 0xfffffa15fffffd5dU, 0xe010000071aU, 0xfffff688fffff5a9U,
  0xfffff4aefffff270U, 0x66e00000883U, 0x1ba9b8ef5c4b5641U, 0x47841ae67f2ccc7aU,
  0xb1cabf1068cf5ceU, 0x7d23171de93c5c99U, 0x9d22151ad5d543d0U, 0xc213babf11fbf2ccU,
  0xd50f02e54fb84790U, 0x7f8a28a9270fefcdU, 0xac426e902df3db9U, 0x202930d2ee628edU,
  0xf01ffb2cbfd5a216U, 0x4c57f90190f65d0U, 0xe42918e5b7d2440dU, 0x1e11be15ec394824U,
  0x30aec11e7f1dfd2U, 0x57c3e8088204e081U, 0xcfe310804e839d9U, 0xebf77fb5053725d4U,
  0xf6fbf4f6cc23fc09U, 0xf63d21e402eed450U, 0x2ad3e21a10131653U, 0xe725d7d7f6261317U,
  0xc8043bcaf0580a15U, 0x520e29143f813e27U, 0xe510812e8163ff0dU, 0xabf13b310013efc3U,
  0x793ece605570c02U, 0x90c38c4cb33fa12U, 0x42b3e8f4e57a1681U, 0xecaf2c4dd11dd5dcU,
  0xd643da21d0c68526U, 0x6ddbc6a8c993605U, 0x66f643fdb40bebe5U, 0xe9ed829d05ea25eaU,
  0x4c3051a7faaed23U, 0x993db803760518cfU, 0x117fc516fe280fc8U, 0x22d875052312c276U,
  0x32cd0b38439fe4c2U, 0x2d0343a10efe8d1eU, 0x811e11f2ffded6ddU, 0xa8300493efd45b2bU,
  0xdd1ef315ed1a6409U, 0x17dc4546fc7019aeU, 0xe81601149df829b0U, 0x2b1795ebc8fe8128U,
  0x8d150e16ee6d2cb6U, 0xf21717f20be3dcfaU, 0x1e29e710041f4bf4U, 0x16a41a3fad045025U,
  0x360b131b81f0d8fcU, 0x4a3482d8754bef13U, 0x101f3d0f0dd91808U, 0x8b7f4d3f0fae68aU,
  0xb9122107dd1511efU, 0xacfb19eaf581f693U, 0xbcf4550289bcfca4U, 0xf5f8152a7fe9e8f1U,
  0xe2e02a1ec3d11121U, 0x11e6ed0d09e7100cU, 0xda380d7ff9215659U, 0xf072dee36e42dbc1U,
  0xf0fe1b55f8addbc1U, 0x3d74476b3902b8b8U, 0x13483cdb270e1b25U, 0x321cdf45ec2e6fcU,
  0x1e11ee482f3d3015U, 0xfc22ee810518cdfdU, 0xea3cf716f8d1b1f5U, 0x4212d80b3e7fd1b4U,
  0x1a42b133f7f80812U, 0xfaf406330043cbe8U, 0xf221e73c1629b6c1U, 0x3a0f382e7f9164d5U,
  0xf4dfc2acced8dcccU, 0xde45eccbffe3ea45U, 0xad8ecd5b0099211U, 0x41aad88b03c9c2c1U,
  0x7f19e3e4f63d12faU, 0x232f3113b1533c68U, 0x10d9eddb09c202f2U, 0xf645201ae4e31e8cU,
  0x1f31d50c1a2d411fU, 0xe23153db9c71e81U, 0xb0d37df03f11462U, 0x3c097859e8ccdae8U,
  0xf64cecb8ff098113U, 0x1ffdcad856f0fcb6U, 0xd8e7e5cbb6eaae2bU, 0xbdba81eb174602dfU,
  0xa781fd3e1bed8e0U, 0x8d2a1c1b20d4e806U, 0x203cf4e5b1281a4U, 0xe1c655bbde1fdef3U,
  0x1b06c908d8a2bf56U, 0x93fc8b8e7f30226U, 0xef3ccc3e8f1beeeaU, 0xda281eab6e73acU,
  0x359dcc27fe1ddcd0U, 0x2370d781e601cff8U, 0xe3e8e6081396c106U, 0xfa10187fe4d26ad9U,
  0xeddde8d41efe4ec8U, 0x909f4dfe22c2141aU, 0xe7d60a2bce0081e8U, 0xfee0d5cfbef3a9bcU,
  0x410fcfe3ece1f169U, 0xdcfef617b3cbedeeU, 0xe9ff64ecb3a6f981U, 0xbdabbff8bbb1edeaU,
  0x3e06ecbbf4ecc744U, 0xe5e3cde7eee618cbU, 0xf31509227ff7fff0U, 0x28d206fcfcf5bdf6U,
  0x25f40504c402e1f5U, 0x13149cec080dc9e5U, 0x395e1f7f5bd6e3d6U, 0xbb112509b8dce9afU,
  0xf71ff33609f91172U, 0xe6f72abc0ec9cbb7U, 0xd2b7c319452ef3U, 0x6d7fa927dade92b2U,
  0xedc0c2b542029d9U, 0x60b5515bb2031649U, 0xe3fbe80f4efc1006U, 0x3a1f05125005130fU,
  0x7f1ae2180c03a52fU, 0x443ef808cc4a0ef5U, 0x1dfe3ca800391aefU, 0xd52745db47c10e0aU,
  0x7fdacbd3d3f3b25bU, 0xe2a3d3dfba0403dcU, 0xddde5309ea42194bU, 0xd00a1416b9e00679U,
  0x5ef57f9ab818f91cU, 0x170be60b4d46192dU, 0xb6061cc71ffae5daU, 0xe231dd12e8d72fe2U,
  0x3007b706180c7f02U, 0x1bf31723df2bf2cdU, 0x45d95e0323f71014U, 0x1d03290042d81ef8U,
  0xec0e1fe43309d441U, 0xe011f2397f8e1412U, 0xf2f681eaffef11f5U, 0x2427f0082ad6ddf1U,
  0x4a40b2d8d7defea2U, 0x4dfde631c5682ee5U, 0xdf352c1df50fdd3aU, 0xbf3c0825e881161dU,
  0x10c7134d382805fbU, 0xfc475547ec24bdd2U, 0x1214e3ed1314812bU, 0x3ae9ef3f1e094c5dU,
  0x1110f0fd7cce81aU, 0xd43be602015b0306U, 0x20fbd346f17fdf4U, 0x14a3dadfc1c43245U,
  0x38230e519fdb9b34U, 0xc67fecff052cec54U, 0x49e90621022b14f5U, 0xf0048d64d806f281U,
  0xce0cfebea2947c2U, 0x4e0bf21ef0fc39ffU, 0xf1260bd71781d414U, 0xfbf726def6feb8fbU,
  0x2cd8ce2dfdf7410aU, 0x994dcc4b0b17dcc6U, 0x162e374715cad20eU, 0xc126750a04e2fb13U,
  0x33d9b204f7f1bf7fU, 0xcd41d6afc4fedfa9U, 0xf42b5f7fdffb48fdU, 0x22318f4308f93914U,
  0xc4f22b33fcf7d9beU, 0xe6ea23143ed8e0c8U, 0x40ed21a71cf4bae7U, 0x1129102489013d14U,
  0x1d5ff8f664f0c03bU, 0xa9c18162f9f2e5eeU, 0x41c81cde37ec1803U, 0x330e5db8fef97fc6U,
  0xde01dfa7c118c601U, 0x2cd2c84bcabe2cebU, 0x1a2a0a5ae1e9ea02U, 0x287181b824edef25U,
  0xf5e45e65151b3cbaU, 0xbd2ad7f025e6e104U, 0xf2d1dfbff8cc3247U, 0x52f61104d9180151U,
  0xa72b7febd1c4e5e7U, 0x40cefa223e0d44a3U, 0xffffffffffffffffU, 0xffffffffffffffffU,
  0x100000000U, 0xffffffff00000000U, 0x0U, 0x0U,
  0x0U, 0x100000000U, 0x0U, 0xffffffff00000000U,
  0x0U, 0xffffffffffffffffU, 0x100000000U, 0x100000000U,
  0x100000000U, 0x4U, 0xfffffffefffffffeU, 0x100000001U,
  0x0U, 0xffffffffU, 0xffffffff00000003U, 0x2ffffffffU,
  0x1U, 0xffffffff00000002U, 0x1900000018U, 0x1b0000001aU,
  0x1d0000001cU, 0x1f0000001eU, 0x2100000020U, 0x2300000022U,
  0x2500000024U, 0x2700000026U, 0x2900000028U, 0x2b0000002aU,
  0x2d0000002cU, 0x2f0000002eU, 0x18c6d5f2fef5d4d5U, 0xe1301adf2d107f06U,
  0x1a36e5c728f71401U, 0xee1dca96abf019fU, 0x5fe602facc81ad53U, 0xf50cf215350bf4a8U,
  0x3a27d00c81d7f0d1U, 0xeafd330d3b0302fcU, 0xcf24e9df1e162403U, 0xfad8c2c0d6ca4f36U,
  0x354bd3da27122114U, 0xedce5d1d3dcc811dU, 0xc02681093f3cb0c0U, 0x3c17dc15bad24dbbU,
  0x4cc6d12dcfac26e3U, 0x3c049dc081cdc759U, 0xd12e41281c9b9ce1U, 0xf2a31035af1d1ecU,
  0xc8c9d2fb95995af3U, 0xe62f8a38fce3b287U, 0x7f111eb8d2d36d04U, 0xc0a868ecdfe4e22dU,
  0x81a1c5d51d836c33U, 0xe205c5fd07543dc9U, 0xc9f76ed11e6248f0U, 0xbfcbf459bdeaaaU,
  0xec7f05053ce0e5e5U, 0xff81c6c63103a8f0U, 0xc423dd0c25a3270aU, 0xfdc7cc26b806dbaeU,
  0x3429c051711e8dbU, 0x12020a688140ff17U, 0xe0ce0e06aa0a1b05U, 0x422aecc1d31af928U,
  0x1aec0576816ba709U, 0xe433e7ddf7e207daU, 0xb4f24b00d40b22c4U, 0xeae8fbf4decdc4b8U,
  0xf86434ea7f01941bU, 0x2b48e4ff05dbd8e4U, 0xd582b24d22fc0f02U, 0x26c4499726c48146U,
  0x8429faa7f0338ec9U, 0xc3300a812d0a94edU, 0x180f1ae232eaf4eaU, 0x7f077333c407aaa1U,
  0x5016c6f53dd9e9e9U, 0xdc03e57ed32e4bbU, 0xe5c7e3dac8132831U, 0x70a46fbe7816d26U,
  0x329524da0338d6c1U, 0xff7fa2e2fd2816aeU, 0xe912d123f2ce17f1U, 0x14fcaced0099c408U,
  0x1c17b2244a029c60U, 0xfd09a42c1e81e623U, 0x2659504d26fd190eU, 0x1fae22161e02132fU,
  0xcb18f8ed06fee838U, 0xffc6d6d8e77fe5cdU, 0x2ae42c31d9f7a85eU, 0x7f281cdbd9c51cb7U,
  0x9e66a3991413f208U, 0x9fc4fceb189d23U, 0x3fadede09e9501fU, 0xfd1144ce8133eabeU,
  0xcd0d51f4151ef07dU, 0xfbd6b9d381a9c916U, 0x30a8f3efae46de06U, 0xa1e61b3503d81f39U,
  0xbdd1c3108141dbc7U, 0xf90ce50647daf610U, 0x44d000006d2U, 0x28d000009c4U,
  0xb5800000266U, 0x93a00000297U, 0x93100000f83U, 0xcfd0000028aU,
  0xfffffd3300000670U, 0x3fd00000b1bU, 0x6be0000083cU, 0x5b100000608U,
  0x84000000560U, 0xe510000083cU, 0x41f409b5fc0f1d20U, 0xecd9f224f9bb14ddU,
  0xef09ecfe280100U, 0x5326f17f27f37fe0U, 0xb13a2914eec683d2U, 0xef7fe11a14cdecf6U,
  0xdaef0aeeb404beffU, 0xff01f1ea35310d7fU, 0x51701eb0ffe0609U, 0x1302f3ac037f8e33U,
  0x1d37131030d1e80bU, 0xf4f48112e87f2d7fU, 0x817f99f44ea72881U, 0x7fe87f81817f7fedU,
  0xb0b76f7f819cac90U, 0xc10c7fe281df693dU, 0xe4bc13231604f019U, 0xeaef0330c7e126eeU,
  0xcef1ff2d0006c715U, 0xe52af3e109d3f80fU, 0xff1aebf4162b263bU, 0xde0dd91909f7b88cU,
  0xe813714307e0c27U, 0x7fd124696bd481cbU, 0x54f13100cb01ff3eU, 0xe8591313c9dbf5ccU,
  0xe0401fd290410fdU, 0x1e2000004e5U, 0x728fffffe7eU, 0xffffff930000014dU,
  0x399fffffbefU, 0x5b0000054dU, 0x5a000000bacU, 0xfffffd7000000430U,
  0xfffffe12000002d7U, 0xc69fffffedcU, 0xfffffff4fffffec1U, 0xbbfffff632U,
  0xffffff000000007cU, 0x100000000U, 0x300000002U, 0x500000004U,
  0x700000006U, 0x900000008U, 0xb0000000aU, 0xd0000000cU,
  0xf0000000eU, 0x1100000010U, 0x1300000012U, 0x1500000014U,
  0x1700000016U, 0x25a8d40728562f7fU, 0x335df214ed440eeeU, 0x301f12b8ead940dcU,
  0x15cd003ed31631e5U, 0x6d38bd21eac9101eU, 0x2fd4f0ddfa071121U, 0x1edbf3fc0b191205U,
  0x29fe392121ce0c0aU, 0xdd1518b8fe25b6dcU, 0x26f6a4feb2e40faeU, 0x3ae3bcf515e42fdaU,
  0x5c3688e27fd8feffU, 0x3172fefc9a7f934U, 0x24910625f1e80020U, 0x2afed210e23d1afaU,
  0xbff8f56023f9dfe1U, 0x3d65de130981ce72U, 0x9d8e23b4d7dae80cU, 0xddc533a2efe91bU,
  0x81200e43ead147e8U, 0x59f8e8dbdc30d5d6U, 0xfce1cbf0dfae07edU, 0x721c41a20d41c07U,
  0x1bdffda4eec7d5a8U, 0x1125dede0c1afb2cU, 0xd3f7981cf5f001fcU, 0x29dfd0ec2a2d06d5U,
  0x3cbe29f5ec35f216U, 0xe123c87fb34f39bbU, 0x16052cc6fa1df30aU, 0xe23f3b0c7f38403eU,
  0x2c05224201f621c7U, 0xd6b34409d210b421U, 0x4bfaf10cfde8ced5U, 0xead70ff5edd32401U,
  0xefddbd81f85f7b6U, 0x4d75e926466e50dfU, 0xadf06b2e12e24be7U, 0x7f41298afcbe0788U,
  0x21fe9111f511544U, 0xebe9abe8f3fcd4d4U, 0xd1e411c626ff46e3U, 0x52a21be79f409f24U,
  0x1081c817cfd7d327U, 0x5d152ec52b0a0cd2U, 0xc819d80ef2cfd6c6U, 0x23ede3bcadb6a05bU,
  0x9b98f6ddbfd6d510U, 0x330f2277edd1d73fU, 0x362cb50ac7f2ef07U, 0xd73340dc4320c8ebU,
  0x79fa52ddab116eaU, 0x22198c5661045d04U, 0x381f2281fcf7e4e3U, 0xae30209f8fa2335U,
  0xf7eee5e856eb04eaU, 0x15fdfd362d09242fU, 0x33ecdce0c0b4082cU, 0xfdee002b26df7f15U,
  0xce073fca56ca12f4U, 0x27cfe59e2fe0efe5U, 0xeb07c2daded12019U, 0xe481272ed62ac92bU,
  0x200dfa14030d373eU, 0xf9f5d90c17fd0ad3U, 0x13928f96511141fU, 0x1dff28fff518e549U,
  0x25ec01ef05fee5ccU, 0xd10def0d8fbde0aU, 0xc0573f9774e0e7fU, 0xa26d8171cede3b7U,
  0xfbe504e7fb2e791fU, 0xe56a2321b635f869U, 0xfb472d99d6ffeb1dU, 0xe223de03a35d6d1U,
  0x80813f2140f07fbU, 0xec31a4203da5091eU, 0xd4e27f8cdd2c0a2aU, 0x1ee404e520e2f11eU,
  0xa9e02b06e937c3c8U, 0xe3f05158cfa6c681U, 0xe3fafd0f0812fefcU, 0xc0bc851685132e6U,
  0x2c060bc7cadbe610U, 0x6d51bf9190ea538U, 0xdc0592edc6aac134U, 0xb563edde437fa6eaU,
  0x67f3992f8d14139cU, 0x4f09d21ebbecffc5U, 0xe0af7df10c9aadbU, 0x4506e81f391ffefbU,
  0x81f12fd501f822bdU, 0x4fdc0d32ebf2e5c4U, 0x616f8fc2212f224U, 0xfdffe2d5d4150255U,
  0xac2d0ae6befad307U, 0xadcb10f610f6210aU, 0x12182ef5d54dd82bU, 0xf4c30f57026ebe61U,
  0x420d071ab3ced400U, 0xecfd470404240adaU, 0x297f9a200ac3cd99U, 0xfebee11e25482a1eU,
  0xe5020549e61e00ecU, 0x12101af71160f5b6U, 0xab551da66ce3ff7U, 0x2f27b1e5470a37f1U,
  0xe7eda7e0fe6281U, 0x321f00f757e2a131U, 0xdef319c357e77fcdU, 0x2bfe85d8ee3dc811U,
  0x8e4c80104f86cf3U, 0x1bdaf41e2002591cU, 0x12904e51808f0fcU, 0xc4c0a090318cbfcU,
  0xcf54db15d2df480cU, 0x2b3a7f9ed0c124e7U, 0xc5a5e5ff20f223fdU, 0x2407c2ff19cf1f25U,
  0x18f467a11516dc3aU, 0x2b904f02ef350507U, 0x61b540126e1bf55U, 0x7eaf3ef9e14ba9bU,
  0xeee23208f9257a12U, 0xfa0cfb27fcf46c9U, 0xf914dad72507f70bU, 0x38e00102ed2101f2U,
  0xe70b024ceddde300U, 0x3ce409edf8eac614U, 0x1581090af012c801U, 0x5500be2f350e0b08U,
  0x3b08fec2c500ddfcU, 0xf7fc2e26e2fa200bU, 0x230b022b1bf5e0faU, 0x2f0fb1b0d03f535U,
  0x1a1af7da1ff7fa44U, 0xf9fa2cecf011a5e5U, 0xcc14f91a220fe27fU, 0x33229df6e6257eccU,
  0xe3d5330532f12833U, 0x394c3ff2d07f39daU, 0xd5d7cc27d7092d5bU, 0x47e311dfd2082394U,
  0xff97e7bc12d9081bU, 0x460126ea1d201e08U, 0xf50016ab2ec7f594U, 0xe1efaa2127510dacU,
  0x1556ca57161713f3U, 0xece7d828c19a8159U, 0xc8c706f5f1db0e0eU, 0x47d6fbfc1d12bef3U,
  0x36b5e654e8b16b2eU, 0x20397f2a2bdc078eU, 0xdd9aebffd1f93c0cU, 0x492d06344ee4f2ccU,
  0x56f70ec4d7f1f5f6U, 0xf6ed7ffc91f84b0dU, 0xe54bbbfef10cf89dU, 0x2cfde1de153cd3adU,
  0xe5e31221c1ec50e9U, 0x1a0bd7db04c8fae9U, 0xfe11b3e0d7b7cff0U, 0x413ef8115071731U,
  0x253a1cb773a1387bU, 0xb8064ad357d229e4U, 0xcf30720b3e6e314U, 0xfcb505ea3fc6dab1U,
  0xfbe729d9dffcb750U, 0x21c922e2d91edd9eU, 0x30dceafd2faa1436U, 0x30b9ed0ddc5afd5aU,
  0x2f4b06d7e118fb2bU, 0x2fe162d5f92898bfU, 0xcd199f5381c3f8c3U, 0x50470e43e419bbe9U,
  0x12556cf5dfd29fd4U, 0x3028df7f471e2d0cU, 0xdfff20d20efef17U, 0xebf6d72800f38ef9U,
  0xaee01acbce171008U, 0x12f11b050d20def4U, 0xc406f01adb15daf7U, 0x11e10c3020ae5beU,
  0xed11eddb2e81f527U, 0x1408f9e729000814U, 0x3f00b0fefab9e7ebU, 0xfae92fde21dc2217U,
  0xb08fc0133b108feU, 0xbf7d6ea18edf822U, 0x3b02f508e5aa1cccU, 0xffe6f7000305ffd4U,
  0xcdeb15ee4db10f81U, 0xd823f12d57121b6fU, 0x47e2d239cbc110d0U, 0xa6eabde3c21dee28U,
  0xb46981f1021f12eaU, 0x20f91befbf6cc44eU, 0xd4c2c34990a0b0c6U, 0xf6e720c82709090cU,
  0xe4ebe51de317d6b7U, 0xc25fe19f83b18adU, 0x33f4ce0d1ef3ed3fU, 0x627fdf32d7e51bf5U,
  0x230ff4f333f601fdU, 0xfee330cae22bf714U, 0xf5132be192d3a52eU, 0xd7fe61a0337c19bU,
  0x441efdf9bf25f60bU, 0x34129cc3a519bb87U, 0xb86ee6d561f0ed37U, 0xdcdb2c1129c1da0eU,
  0x7f0ebfe31a0beccaU, 0xe35712e8f51334f2U, 0x18fa0cfe25bd1ad4U, 0x312218e1d5e7320dU,
  0x5840fa200ddb06e7U, 0x3deaee173783be18U, 0xf84206550fd3bf0fU, 0x22d81aee0a5c3681U,
  0xdcc61dd91a0004U, 0xe801bc06f007f9feU, 0xf60720bedaf5f3e9U, 0x15f9e3d7dff3080eU,
  0x15f92113fae72bf8U, 0x253c01d304e2e6d9U, 0xded9ce3ae23be7f5U, 0x3205c62a01f4405cU,
  0x7fe453c1d30ae23dU, 0xa307c302d7e0fe93U, 0xb655c21228684617U, 0xb7760a321b90adaU,
  0xf1be0c7ff12d20bfU, 0xf821e8d6ae341cf4U, 0x4e2e39eaf4774036U, 0xc9f1ef2b2af4f3d8U,
  0x6e00514d5dddc19U, 0xfe8f8041d2400d1U, 0xec834718245b2dc3U, 0x2b30873c18f715b9U,
  0xdee32989dc627f14U, 0xc49df33b81ddac59U, 0x1f9c2dc4a812118aU, 0x57c26614024a472dU,
  0x2f98bf1af9cdd52cU, 0x482fb8321abf2c37U, 0x171f57abede6d0e7U, 0x6c1d2e8ffcaeadU,
  0xb88df17d51fe8129U, 0xeae614114ae4bebaU, 0x231405f6ef200e11U, 0xecf8f5323fef09d9U,
  0x2113fa020ffdcf24U, 0xed57297fefe0d641U, 0xfdde0239c4d641a6U, 0x2cbe7bc915d41c09U,
  0xf5a8cff6fcf4f00cU, 0x29f38af019f701fdU, 0xc1e25c001d5e5f0U, 0xefac2c38e00cff99U,
  0x1a004ce33eb8e31bU, 0xfcf4f3fac532fbfcU, 0x81cc2007fa1e36eaU, 0x1daf0fdc63c8fee3U,
  0xc24bdde27160a19U, 0xee9d03ed3801bc7fU, 0xa1e667500ebddfe8U, 0xd0eb51f61ce364ceU,
  0x114efe4dee2bef05U, 0x6e13b8e6d9c6de10U, 0xf722ffc90cdbf40eU, 0xe47f131836f834f7U,
  0x34ce243b220a0cf3U, 0x6ebf2017ff4a1746U, 0xdb6fbe84246fcf2U, 0x4e02f317dfb2c122U,
  0x1ef5110a2a267c02U, 0x2059dd9dc2ecd9faU, 0x1c2bef3d3a95f0a2U, 0xc2ac7309815cf970U,
  0x18d131cefef532b3U, 0xee32073518f557c6U, 0xe50415c52833dc46U, 0xf102ef2ced35e514U,
  0x3725033dee020b22U, 0x10e90d0add1135fbU, 0x1cd90806f1d901f6U, 0xd7f0f01f2c4d3cc3U,
  0x257fffd53208cffeU, 0x1310fffff4d4U, 0x5d3fffff457U, 0x146dfffffad4U,
  0xc4f00000820U, 0x1fffffffd8cU, 0xfffff778fffff147U, 0xfffffa1100000e86U,
  0xfffff85f000014f8U, 0xfffffd3c00002884U, 0x24f5fffff888U, 0x55fffffcbeU,
  0x8e0000004c6U, 0xfffffb9efffffca0U, 0x13a400000af5U, 0x1df000015feU,
  0xd49000003a0U, 0xfffff5b700000722U, 0xfffffc380000082bU, 0xfffffd1800000bffU,
  0x550fffffd31U, 0xfffff8860000092cU, 0x110400000845U, 0xfffffe44fffffacfU,
  0xfffffcf5000003fcU,
};


ai_handle g_network_1_weights_table[1 + 2] = {
  AI_HANDLE_PTR(AI_MAGIC_MARKER),
  AI_HANDLE_PTR(s_network_1_weights_array_u64),
  AI_HANDLE_PTR(AI_MAGIC_MARKER),
};

