/**
  ******************************************************************************
  * @file    network_1_data_params.c
  * @author  AST Embedded Analytics Research Platform
  * @date    Wed Jul 17 17:15:02 2024
  * @brief   AI Tool Automatic Code Generator for Embedded NN computing
  ******************************************************************************
  * Copyright (c) 2024 STMicroelectronics.
  * All rights reserved.
  *
  * This software is licensed under terms that can be found in the LICENSE file
  * in the root directory of this software component.
  * If no LICENSE file comes with this software, it is provided AS-IS.
  ******************************************************************************
  */

#include "network_1_data_params.h"


/**  Activations Section  ****************************************************/
ai_handle g_network_1_activations_table[1 + 2] = {
  AI_HANDLE_PTR(AI_MAGIC_MARKER),
  AI_HANDLE_PTR(NULL),
  AI_HANDLE_PTR(AI_MAGIC_MARKER),
};




/**  Weights Section  ********************************************************/
AI_ALIGNED(32)
const ai_u64 s_network_1_weights_array_u64[1253] = {
  0x11284d3337042630U, 0x5363537f1afd2b39U, 0xe1f93e31126f2520U, 0xcfc8fff1fc29214cU,
  0x81fd0f1d2d514ff8U, 0x1a566d0802f2c48dU, 0x26de0801f8f2f1fcU, 0xe1090aee132bcefaU,
  0xe8da311821e7093aU, 0x816fe6bb34ff04f3U, 0x3d0d3343003f18c5U, 0x4a404b2a2f131a26U,
  0x68307f65463c2327U, 0xdeebb2ec6870475dU, 0xe1dce00cfed803e6U, 0xe2f3e2f801ccd6c4U,
  0x47caf72a81c1e0abU, 0xf0c83efecb4affc7U, 0xa36cef9e7f03a853U, 0x50f9ab4006c632e3U,
  0x7111a42302cfedbdU, 0xb832a07be2f06c8U, 0x9c1602e258fca07fU, 0xcfc1b55fda85af5U,
  0x323428193d33284aU, 0xc60a0f0a24333127U, 0xc2caa6afac81dad7U, 0x39422c2f41f7e802U,
  0x7f00f6fbd0bbb82cU, 0x998983e2ddb96d7bU, 0xafc2c4a808060b11U, 0x93c5adbdf08fa7f3U,
  0xe2efdde0b5ccb981U, 0xb8e4d2fcfdf4dce6U, 0xd3e7dcb8346365e1U, 0xd7cca64a737ddbaeU,
  0xebb74c677fd5b2d4U, 0xfbc39481fdbdd2eaU, 0x50ffedcbfbe060cU, 0x424fe8f8f74b6d7fU,
  0x5fefd03a0b233f1aU, 0xeec93ff5f816dcd4U, 0xd931e3ef31c7b17fU, 0xedc2e54dc1b16cf8U,
  0x8f9dcffcbc20704U, 0x1afe91818bc7e1f3U, 0x41adaae7e8d8040fU, 0x40cf2c3abe1ce70dU,
  0xb8d42aa7d542d342U, 0x8c1ca8ae23c60b1dU, 0x202a24f5c4e5dc81U, 0xb0b41c2622274034U,
  0x2ccfa7a9b58781d0U, 0x1529371d4049122aU, 0xaeb909fe073c4939U, 0x9d07fa0f7b7a7fc8U,
  0xeacfef573e5ea791U, 0x20c9232fdfb4b2c7U, 0x81402a971ff8d53dU, 0x3f1ea74f09a77926U,
  0x4e624207b759098dU, 0x2804fdf0eed6f525U, 0xe11ebb4818b040aU, 0x684ff3ddc3f6f809U,
  0xcecc2bd6e94ef43dU, 0x59f1117f26d1f0U, 0x4d19234f29bee5b9U, 0x2a2aad23e105e621U,
  0x30ad2237bc134493U, 0xda063ea91a47812dU, 0xd621d30736b70f28U, 0xdfbb95cdae81fbe0U,
  0xd0d16293529354cU, 0x331220450300230aU, 0xd241e8ea2de90911U, 0x7fcdd859e6e322f2U,
  0xe0dd2df2d856dac4U, 0x2d5b51e230e7d04cU, 0x1414242a1bb1878dU, 0x9aeeefedfbf3f411U,
  0xe4edf7637f7fbc93U, 0x69fffd85daU, 0xfffeb45fffffff56U, 0x27aa0000a348U,
  0xffffff07000025e0U, 0x2931500000125U, 0xfffffd9400000047U, 0xd24300002b83U,
  0xffffff7c00004f86U, 0x3c4e00000ab7U, 0x20b000000104U, 0x1fd00000fb2U,
  0xfffffeaf00000c74U, 0xfdfefb0aeef8e2fdU, 0x52f09fef012f91bU, 0x16080fffd5fbee02U,
  0xc803fb9c7fdcc526U, 0x2ddcdc0ecc10312fU, 0x43e9261e2ad3fc10U, 0xd81305d331e2da39U,
  0x2bc8ca1cd51b2e12U, 0x35fc274c32d00b0bU, 0xf2cdd0d822efd6fcU, 0x20392bebb43e0b46U,
  0x22200c0681dad900U, 0x81a91d81258681c8U, 0x7fb046a0817fe67fU, 0x7fb171b80381105eU,
  0x82347fdb208699b7U, 0x67818a20b271c751U, 0x78937fb25a9d657fU, 0xf0f1cbfb11f3f105U,
  0x1b2549f0ba230b2aU, 0xc220814a3d4e108U, 0xa281f555a397acbbU, 0x64d17f819d71c660U,
  0x4c9867a8dba21552U, 0xa1127f6cad81ac81U, 0x4d9bc4e4cc6e8153U, 0x5381708128c17f73U,
  0x821000003e8U, 0xfffffb8a0000013aU, 0xfffffa0e00000099U, 0xaba00000354U,
  0x482fffff3fcU, 0xcf3ffffe773U, 0xffffff8600000631U, 0xfffff77a00000117U,
  0xfffff746fffff45bU, 0x3c500000884U, 0xffffecc500000584U, 0xfffff4400000127fU,
  0xcfdeb2c0189c9d5U, 0xf426f5fd440cf15fU, 0x278148ed092634e9U, 0x234411ecb8110313U,
  0x81f70d18ff04ef2eU, 0x40f5ce0ce21ed5edU, 0x1f17290df92fe1ccU, 0xfce52ef4d77fc96eU,
  0x292cf72938b8db4cU, 0x4bb924383112f6cfU, 0x81fce30b06fb432bU, 0x501ad7de0730ec46U,
  0x8110f512f364fe5fU, 0xd707f1e1b440f107U, 0xfa24f5aaf196e4faU, 0xfd13e1b2d5d6e2e9U,
  0xe245f6d51c124bcfU, 0x2803dd1247dd1c81U, 0x16f4ea09eaf32f05U, 0xd9d822fbf6adcdfdU,
  0x42fe81dd04fd2febU, 0x81ff1b032afd131bU, 0x22e4fd0a1ceae1ddU, 0x3fff18dcf2fa12eaU,
  0x9ffbc0e200ee220cU, 0x2050c0b811d1811U, 0xe712ec3012e7fb0dU, 0x51b50fe9e3dc2625U,
  0x73f306fea4c12b81U, 0x6db0790432eb3dc6U, 0xa617a1fbae332cc8U, 0x392604f2359219d0U,
  0x50637f55c631a6edU, 0x1a040cfc0c0f9addU, 0x151b040977f35678U, 0x4fa52fa0d7f02f0U,
  0xff11f76a7f01f240U, 0xe40225f5fcf2bf12U, 0xff0af01b1c1d00cfU, 0x1809e92239ca54deU,
  0xec1d13fa96343b9dU, 0x9d9a2dedb810b2dU, 0xfe0d1d0fd8e7b4d2U, 0x3fc54a001d07d82fU,
  0xeb057f8de4491d90U, 0x73e2d1d706ec813cU, 0xdeeb110c545ccb59U, 0x1100216d422f329U,
  0xf5cdd101e304ff01U, 0x3c81f4909fcd40bU, 0x12460581fc022c0fU, 0xf4f4fb0ef009e90bU,
  0xff8b1000f06d805U, 0x305050d0c14e97fU, 0xfa1411fc1411fdc2U, 0xf4f603cdf80119feU,
  0x87f018e0904db0cU, 0x667150202fff30bU, 0x92cff81ff04f609U, 0xed0356fb0b9d02U,
  0xfcfbfd08f7f6fb04U, 0x1400fe07f7240219U, 0x81fc0cfdf9feff16U, 0x157cbe3b0ceded24U,
  0xdfcfa0b90d4bbdf8U, 0xcf3fdfff5ee677fU, 0x81eb18ead70202ccU, 0x56c209f3a22cf0f1U,
  0x180b4e04d0cc19fdU, 0x81eac5c3c2d71ce3U, 0x5ffe0d530ceb201eU, 0x3483481b07f400f5U,
  0xe72601cac7f3070aU, 0x2c01d00df13c700U, 0x801da1981d30f0eU, 0xfb177ff70002fbdfU,
  0xff24fec10c050d0aU, 0x4560be405009efaU, 0x11c2a4191308fef1U, 0xfbf0007ffa0026f7U,
  0xfdcafa01fb033b06U, 0x18f3dcf3d50ef5d8U, 0xf44c3be6fc033529U, 0xcbd9f57f1b1ad0U,
  0x88d750f12fdf711U, 0xf9fee37f050af201U, 0x105051d0903950cU, 0x3fafb122008f289U,
  0xfe20e80b00117f08U, 0x7ff17f2fd060a02U, 0x2a37cdfd2d365831U, 0xfcf5d7f9fa8a199fU,
  0x811ad538d60f03b8U, 0x2aa2f3ffea0402U, 0xe3633be0fdc21f4U, 0xf881043028043bd5U,
  0x0U, 0x0U, 0x0U, 0x0U,
  0x0U, 0xffffffff00000000U, 0x100000000U, 0xffffffffU,
  0xb3fffffe59U, 0x224fffffb68U, 0x1fdffffffb9U, 0xfffffd730000027bU,
  0xfffffcf5ffffff0aU, 0x5dd0000004aU, 0xfffffff3000000beU, 0xfffffeb20000033dU,
  0x100000000U, 0x300000002U, 0x500000004U, 0x700000006U,
  0x900000008U, 0xb0000000aU, 0xd0000000cU, 0xf0000000eU,
  0x1100000010U, 0x1300000012U, 0x1500000014U, 0x1700000016U,
  0x1900000018U, 0x1b0000001aU, 0x1d0000001cU, 0x1f0000001eU,
  0xf0f1ff04ffeb0728U, 0xfce424f7f6ece2fcU, 0xe2f3fc2d7fe181feU, 0x81b40b0be1018181U,
  0xf922030bfc2d01e3U, 0x781d0f9170f0277U, 0xffba1802f182f67aU, 0x59175120ca22106U,
  0x7fbd8179a90d76f8U, 0x6c72128182e1713bU, 0x27f6744fc7ffd81U, 0xfbfa815b7f7f009cU,
  0xe2f0f8e60df9000cU, 0x1daf7fcf80cfd00U, 0xfb00e17fd1f309feU, 0x119f08f5fbfb134eU,
  0xdd0f0a281112fff8U, 0x2c2f7fd08fcf5e2U, 0xfffffff6fffffffeU, 0x0U,
  0x600000052U, 0xb4ffffffefU, 0xfffffffdfffffffaU, 0x500000003U,
  0xffffffeb00000009U, 0x1100000951U, 0x2ff406fdccf225fcU, 0x1502fef324fd8110U,
  0xe0fa09e8ef8105e7U, 0xb1e2d9282b187815U, 0xf406f4f081091e35U, 0xe80319b1fbb72fe6U,
  0x20101b1cee1af708U, 0xbd5935f018398101U, 0xc9f1fd1dca088110U, 0xbee500090408afb4U,
  0x581f33361147fa23U, 0x13c9f37ff308dae9U, 0x7a0301307fca18bdU, 0x2ab9d3e72ec15bfcU,
  0x516ef281df5c1c61U, 0xfcdb55fc1c62271aU, 0xc2acba1bf60af3U, 0x7f10f3cab3f4280eU,
  0xefd42acad8ea23eeU, 0xf217814840bcf12aU, 0x9a3f51dce50581fcU, 0xe724e7135c04e0c6U,
  0xc82228b05817481cU, 0x31cafb1a0a10277fU, 0x69116e7d8131d0ecU, 0x24f71a4511162f0bU,
  0xefdf87f914e6e7e5U, 0xd2c90ac81e50f00U, 0x1de5f916f98b0681U, 0x161b8e7d482fa05U,
  0xc2af51b1581f944U, 0xea131404eb8afd07U, 0x2d000000b8eU, 0xfffffeea00000831U,
  0x82a00000d55U, 0x1a500000cceU, 0xf5400000948U, 0x43b00000d06U,
  0x572fffffd50U, 0x405000007ffU, 0xbaed0de3391927e7U, 0xf3dbd681104afc04U,
  0xeb3414d8adce05f4U, 0x2ba703da34ffcd19U, 0xeeba031cc7f0dff8U, 0xdf29d6140712df0aU,
  0x57f0eb3e4f31604U, 0xf8e931290ae8e825U, 0xf92ffafcffd111c9U, 0xaacd5cfa810a1516U,
  0xff4f6dbef17e711U, 0xf003e0fa22f80ef9U, 0x830411c2090adcb9U, 0x50f62904d3be0681U,
  0xacc1f67603f80ac6U, 0xfb0c1bdc573df6bdU, 0x180cc7182438089bU, 0x3ce2c5dad53dde43U,
  0xde1fd9b0b40541faU, 0xc0bf81bf35e559f0U, 0xcdd31fcec4f9023dU, 0x3881ee23084f1c73U,
  0xd901e3d8fa04e036U, 0x420ae802d80118efU, 0x3711b500fa5d1304U, 0xe035feebf7440313U,
  0x55f0e881bbebe9d9U, 0xe88c99c95e14151fU, 0xbd29d3adabbffde3U, 0xc527cd1b22f2ba02U,
  0xc90fed480611ecf4U, 0xfffc25111381b208U, 0x3355f00ae52ad229U, 0x7f2ef3f2c56cf753U,
  0xf4cd13a6d9f3cb02U, 0x4fcbfa9bb031f216U, 0x182110eed1b5ecfaU, 0xc512d50cfa4a02ddU,
  0x210981d40109e500U, 0xf3141dc2edeabc4dU, 0x124728bc38170e7fU, 0xe05736e4e1b7f9c9U,
  0xe720f3e92cdd0fe9U, 0xf1e503d424f81c50U, 0x3853f5f2cba8e4f3U, 0x8126c10c086922daU,
  0xa29bfec1211ead8U, 0xe03921d61ae9f625U, 0x812a75fa10aa53e1U, 0xf743d8e7360f060dU,
  0xf30cd5dfeb33d2e0U, 0xefe8f2e1fd391816U, 0xfeba0629f74af981U, 0xfabeb62f0165f313U,
  0xebfbaed1014a1aa7U, 0xb4d8ca0afc272db5U, 0xf0a620f788627f15U, 0xf7eaf4051534c3d3U,
  0x8e6f7d612db11aeU, 0xd2eaf0f8b0ef1936U, 0xb770b0b19bf2be9U, 0x2ca41c59e7aaa101U,
  0xeb81ccd92812dbf8U, 0xe929ddddfbf03cfeU, 0xd4eb01d7080ef506U, 0x111328ea2011e721U,
  0x7cc806b3e3eaed24U, 0x1181f60c201deaeeU, 0xe904fbda30ee292cU, 0x50188f1e7f18f1a9U,
  0x4ee0bdffae12b0fU, 0x701e9ed19f506faU, 0x81adbc0731e04ed5U, 0x1227e233af0d4af1U,
  0xfa2c0bdcdef817e5U, 0xffc03003ff5da23U, 0xbbf3baf7fbf6fee3U, 0x5fe10fd00d13c10cU,
  0x2fb420071a0620e8U, 0x686810a01753a8dU, 0x25009dfd1901e801U, 0xfbd1127fbfefd8ecU,
  0xf4dff1f0e73304d6U, 0xfb03dae80901ff2dU, 0xb2121f04cce32aacU, 0xe9dc34c6ddfd0f2aU,
  0x400a8dc881349df4U, 0x16bfde5edb15401aU, 0x817301c06c1756ceU, 0x32bc4edcd7def78fU,
  0xdca1f4e3f1e62248U, 0xeaefa5e8180c3908U, 0xe2252217d7001ae9U, 0xcdf216fdff19f208U,
  0xda0935ed23b5ec42U, 0xcaecf9812800c401U, 0x63f0b00f20b05e3U, 0xe532ff7f19f9e40cU,
  0xceabbdae9be0701U, 0x2800181c39ef20f7U, 0xd303cce0fbc040e7U, 0x3624a9097b1cdfcbU,
  0x4ea1d9dc2ab46f6U, 0x2181c51344f0e125U, 0xccd1d90060093aedU, 0xaec5d637f10c8212U,
  0xa181ade417fffce9U, 0xce01e9e2350ee30bU, 0x25ff1dd8e88104d8U, 0xdffff0ec083917caU,
  0x7cdf3f01bff03f0U, 0x72c3a070a010015U, 0xae4e2390a002527U, 0x2bfc29faf722f4e2U,
  0x9462f1b581cd30e6U, 0xd7620ae204157011U, 0xf920e6dcedc3fc7fU, 0x43e39f800b02fe5U,
  0x29ef222c14e9ea58U, 0x54360803f4e4ec1fU, 0xfc1c341d7b2232cfU, 0x7fc86d50f7059fe5U,
  0x10e436cdc0fa0ed6U, 0x18e8e92615f90411U, 0x36eacceb1781cbccU, 0x6e1ffb9fb5ae995U,
  0xf8c7f3d9e0bd5cc8U, 0x52694acacd1ce22U, 0xfffffceb0000084dU, 0xfffffbc0ffffff0cU,
  0x78c000004abU, 0x1270000172eU, 0xa300000162fU, 0x83c000005beU,
  0xfffffe16fffffd89U, 0x5800000d19U, 0xffffff2900002301U, 0xaccfffff561U,
  0x23e0000030aU, 0xb300000098U, 0x15b700000182U, 0xfffffc2b00000797U,
  0xfff773a4ffffff35U, 0xa5100000389U, 0xd15dd200f3ae9fcU, 0x1108b5ef0ac6dafcU,
  0xfcff0105defcfd00U, 0xf92145fff3da5104U, 0x21f7c5334b37c3afU, 0x51ec9dc5ed9eb31dU,
  0x37163734cbe5d32fU, 0x2a0758d4c1ce5f37U, 0xc6e01c3812d3deU, 0x4dc5aee8cbceea1eU,
  0x2d114141d9c0b8e7U, 0x51f13ac7d8e8c731U, 0x1118ce453f53e0deU, 0x35f8b5d32cecb913U,
  0x302c302bcae6e10aU, 0x3afe4ffde7ad352cU, 0x7fe1817f7f7f8181U, 0x7fa2828feb818166U,
  0x7f70757a819d8d7fU, 0x7fac7f938c817f7fU, 0x2e81b833784489b5U, 0x7b81819781ade853U,
  0x6761606f978181b7U, 0x70af438181ab245dU, 0x1c0be72f3225e1dfU, 0x3a0dd7ea2020cf1cU,
  0x3f3b3c32e5f0e70dU, 0x3bda2606efc8e237U, 0x7ee1b3664f518bb1U, 0x55b3b6a7ece5bb7fU,
  0x7b7f7f7fa2cf9e72U, 0x738135a7bca34c5eU, 0x449bd1274f3f9eccU, 0x54aca5818b0d102fU,
  0x547f404eacd9acc8U, 0x3e92479f84af5b34U, 0x136a000009deU, 0xfffff9f5fffff8a6U,
  0x19bdfffff827U, 0xfffffa1e00000ba9U, 0xc58ffffeef8U, 0xc0a00000b62U,
  0x134000001b0U, 0xfffffcf400000debU, 0x822fffff94dU, 0x102e0000013cU,
  0xfffffb47fffff7f1U, 0xfffffb61fffff862U, 0xffffee3afffff955U, 0x7e2000001b6U,
  0xf31U, 0xfffffe2b00000732U, 0xbc275b1abdc6f7efU, 0x42d492f37f26f2dcU,
  0x19f10b269ff80ad5U, 0x275571146390aa0dU, 0x7f25535bdffc45daU, 0x5519fde18a11fa1fU,
  0xe3825653af9ff00U, 0x6523ad3743de19f5U, 0x6c21f5bea25fef4U, 0xf6d5f0dd01015081U,
  0xdbdfae9ae3300b1aU, 0xb5508bbb7f60565U, 0xdb90ee3513e7e10fU, 0x573d09e950061229U,
  0x26ba00597f110204U, 0x25081cd0d72c0f0cU, 0x102494e30a6cc81cU, 0x2a6ad40681e211c7U,
  0xae4db99f6e5a309U, 0x123f0c7d37b7c41dU, 0x1dc31b1ed6ecc61eU, 0xfb815cf5f0abc116U,
  0xae13d8084ee3009dU, 0x26d9f4742bc7ff0bU, 0xd16f31645f417abU, 0x601738645fd9edf1U,
  0xe81dfb297cddc0d7U, 0xbc87912c9fbd8111U, 0xf6fa10370fe8191cU, 0x9b8ffc41c46f119U,
  0x23dc0505bcf42f16U, 0x1747f87fec1bf630U, 0x21df197f102bcf2fU, 0xf0e682150b094b8eU,
  0x2205164fc9b0fb21U, 0xece2313094fc8bdeU, 0x93430f5a2197f24U, 0xc605f8054f3ef68eU,
  0x3dbe486f0c0ffd83U, 0xe46914c5edec4ec6U, 0xc17fd3409cec2a22U, 0x1d10c98f1590f90U,
  0xfeffe9d459ea6702U, 0x29d6c3f562e0f621U, 0x87f1c48f5349ff0U, 0x413060030d8323cU,
  0xff072efc251bb1c5U, 0xf2b535f414e60c0fU, 0xefad806febf3677U, 0x1cc42e03e6bfba24U,
  0xeb42f20f02dd297fU, 0xc212d3a1b8c913e5U, 0xbd95bf37c0287a98U, 0xf7697bef7fe1271aU,
  0xa640c0e088caffd7U, 0x19349ef57e094754U, 0xe8fd301314c639e4U, 0x297f2dea183aeaf5U,
  0xf83d18c61df43701U, 0x35123febffead8feU, 0xeee9482d4ee35e7cU, 0xc40bd0450ff0217fU,
  0xba831e947e98eb38U, 0x35e10a09e0f66ab7U, 0xc53098fc370a0a2dU, 0xedc1fd36bd7ffd31U,
  0x9b2125dbf51eb219U, 0x261a32a3ae1a1d2bU, 0xfd1dee02cf091a00U, 0x7ff22c4b03134001U,
  0x17ac410bc0f2251dU, 0xfc15231116142f34U, 0x377f13be47efead3U, 0x23212fdbeeb0e416U,
  0x2230d32b9e9f7c0U, 0x637e7f4a45af571U, 0x18fac6ec13151cb0U, 0x1beac217480ecbd7U,
  0xf720b0d539192f9cU, 0x18ae2618e6087f70U, 0xe0bef70efa1613ceU, 0x6e81bb26061ed013U,
  0xe1ab3baf273100b9U, 0xce0be7dd051a06baU, 0x6f4db36028d4c756U, 0xccc0060b0df17d5bU,
  0x83d0a2a9afe1d81U, 0x194ce9a8213541b4U, 0x940d3db23ac0981U, 0xe1d407f940c826bbU,
  0xed9f204b1f302165U, 0x3238f5ebf8f00732U, 0x520ffa2cbdf79f1cU, 0xc077fb1c2b09af7aU,
  0xce86cdaa813823b2U, 0x1158c420fac6a164U, 0xdfeb130a2aee81e0U, 0xe6ff0813ee02e50dU,
  0xe6ecfce9f4080805U, 0x10a010ff4020f13U, 0x18ec81a71d161834U, 0x10f20105605fdf7U,
  0xf444ebd7f8d2fcdfU, 0x24f8d572cddb1de6U, 0xc5e5e9f7e0072313U, 0xf5263ff350157c11U,
  0xfd7fc2c3aed10120U, 0xdbafccf51713fec4U, 0x5dc29f8ceef53e1U, 0xde610f12e011707U,
  0x800fcf88102f8efU, 0xfae02f92ffbc40cU, 0xf7077fe8f61222f3U, 0x2a3de6fcfe070aceU,
  0xe42102041c17f21fU, 0x16e60cef1806e8fbU, 0x45cab3815905fe2cU, 0xf8fd2ee7f92483aaU,
  0xeaf004f0e10af5a8U, 0xfff5dff7be0be2d3U, 0x2f6fb0a0621aae9U, 0xdb0400dc01f3e8dfU,
  0x7cc66c62fd7f26e8U, 0x201b06e4fb17e7U, 0xd8fbfeafcb5c551eU, 0xe0efdcadfddbda34U,
  0x1d40ff655dc810aU, 0x690eee0460f6d913U, 0x277fe0fa3ff6dd29U, 0xf1d413108be4fe13U,
  0xfbc51d1006fe1347U, 0x111f2f4a71514deU, 0xe4fe81183cecbcf8U, 0xd9df4c1324f80431U,
  0x11ca1dffc51d0316U, 0x30ddbfaa4301102U, 0x11f2f511047f160aU, 0x3170607f8fff900U,
  0x60d09ee2bfa950bU, 0xfedd0904f801e7f5U, 0xee813219ee21eaf4U, 0x1321e61218fc13efU,
  0xce111080705eb20U, 0xf7eb1220f4f41302U, 0x330e2cbff681ed16U, 0xf8d7f9f0f32d04d7U,
  0x87d788bfdb04b6e8U, 0x43f7f1d7ee2f0e42U, 0x4314717fb106ba34U, 0x7f1e8ccde41c17f2U,
  0x5d6e43fe00fe629U, 0x212f227868b6d915U, 0xa19e093f020f02fbU, 0x190ef5257ff669eaU,
  0x3429181301fc1567U, 0xf0ae143311033b04U, 0xcfc45f01f04dc8d9U, 0xe8dfdc1708e4ef2aU,
  0xedee92e15124cddU, 0x1103fe811a23b5faU, 0xbec40e4147f9cce2U, 0x8182c01e22702ddeU,
  0x32f620fddc1d1e28U, 0xf12f1409bb150e0bU, 0xc21a341803d3f5bcU, 0x8ff071201030923U,
  0xe71cea0d1401d629U, 0xf0f60719e7ed7f1cU, 0x92f622e5c2dd7fbaU, 0xdab3291e15fd1f67U,
  0xf7bdd7a4f9134916U, 0xe6618dee2b5ec295U, 0x12ee080ee3da10e4U, 0x1eaf500170810eaU,
  0xacfccac805f48102U, 0x430324f60914173aU, 0xf5e5b5ee21080428U, 0xfa367f24f6c6f56cU,
  0xd70f01fcfeeef911U, 0xea13c6fbe46cf4ffU, 0x40ebde0ff235fcebU, 0xd1d5e902a2b485e2U,
  0x681ff2b3c3fcae9U, 0x4f80140b01df359U, 0xddca337fd3e9add3U, 0xc003e1e3cd47260U,
  0xdbfeeeb7c600f1e6U, 0xd2def4f2d8edfa17U, 0xc9dd01371cf7d705U, 0xfbc6f91567fe5410U,
  0xe425cc0581e42e1bU, 0xd6e31fb6f8f0ba04U, 0xffffffffU, 0x0U,
  0x0U, 0x0U, 0xffffffffU, 0x0U,
  0x100000000U, 0x0U, 0x0U, 0x0U,
  0x0U, 0x100000000U, 0xfffff9e40000029bU, 0xffffff1500000152U,
  0xfffffc7c00000341U, 0x28d00000673U, 0x20ffffff49aU, 0xfffffbdc000001d8U,
  0xfffff601fffffc2eU, 0x424fffff131U, 0x22dfffffab7U, 0xfffffaaffffff3c6U,
  0x6730000018fU, 0xfffff816fffff79eU, 0x1900000018U, 0x1b0000001aU,
  0x1d0000001cU, 0x1f0000001eU, 0x2100000020U, 0x2300000022U,
  0x2500000024U, 0x2700000026U, 0x2900000028U, 0x2b0000002aU,
  0x2d0000002cU, 0x2f0000002eU, 0xfc06ec16f2f6f80aU, 0x8faf72ffc1112faU,
  0xddfa09fb0bf4fbfbU, 0x10ea11c6017f2500U, 0xe706285b81c9810dU, 0x8735097feb29f022U,
  0x226fffde802f100U, 0x19f4fdccfe11eef6U, 0xe2eb0a1cfe02e5feU, 0xfd1d16b6f0fa8112U,
  0xf9d3ed34f4f7ee91U, 0x366f5519e0ffea08U, 0x7f817f8dc2c42a81U, 0x967f3d8157817d7fU,
  0x7f00818281817f4dU, 0x1af0847fcbe61f0bU, 0x7fd210acebd60c13U, 0x33da0702e1eae7f2U,
  0xfb1701fcee0bc108U, 0xeeec1822f9f6dbe9U, 0xfad73b340616f10dU, 0x1de4192781e214e3U,
  0xfc1681c61bd7151fU, 0xce81a599dbcbe881U, 0x5fee5141ffc221aU, 0x31eafb5104f1e9fcU,
  0xe36081202000910U, 0x1c9000000a4U, 0x130000000baU, 0x5affffffd4U,
  0xfffffe7800000146U, 0x1e7000000eeU, 0x8b000002cbU, 0xffffff820000027bU,
  0x27f00000396U, 0x5000000019U, 0xfffffc43fffffc43U, 0x6dffffffbdU,
  0x259fffffed8U, 0xe8e7f806f9791acbU, 0x26d4ebfb7f0506f9U, 0x21e7e7c4e3d61526U,
  0x380bfd2bfa0e4f7fU, 0xe372f94b06c7f6d9U, 0xd805071d043d0f1eU, 0xe05ce2fee9e4e329U,
  0xffcf019e837f5fcU, 0x17017f360b1810f8U, 0xe1e007e77ff7b711U, 0xc22f2e1424e109cdU,
  0xed51f8f29ec62875U, 0x8381bcd8a25a089eU, 0xee68e8ba871d0d21U, 0xb7be74d8caf5b0c5U,
  0xded7fd0e813a33e9U, 0x1e9fe0cd154112eU, 0x3b6ff7f015dd0c05U, 0xf3d1fbfa0b25fcedU,
  0xee025e31f9e15504U, 0x821197fdae71727U, 0x7bbb7f4a6a0fc71U, 0xdb9def9e781d405U,
  0xd6fc0b2e8c97ea5eU, 0xe6dda02129e43726U, 0x3d9010d2ebe71f81U, 0x2f21b7fa0b0cd44bU,
  0x4d16ef03d5deb103U, 0x9b2cf83b3dd27fd0U, 0x56f7dbec0b7b1a11U, 0x14ebcffb257fc809U,
  0x15b83e7f0abfe8d8U, 0xcc11e0c302d418b3U, 0x342f34e5b9303c07U, 0x261c56df3b7f102fU,
  0xfdee31267c54f139U, 0xb51506ecba1407aaU, 0xffc30c20eb8fbe6U, 0xefd8dc2a910a7f22U,
  0xd8eefde32afac9dcU, 0x8130273b0ed408fcU, 0xd8f22414d2be4442U, 0xd3e24f11fedc4807U,
  0xc7fd21c00dbec6bU, 0xf328d6f5ebd621feU, 0x480dcb0816dd040eU, 0x803eed40c7fe7e5U,
  0x15cc04e71ee0d3f9U, 0x8fed4d59d7fc2adfU, 0x3af402217f18f4cdU, 0xfe23eae6e3bb96c3U,
  0x92281e4f2feda16U, 0x6e713cab9dc0c36U, 0x8d42b12dd2231f2U, 0xc41a38440e112ce3U,
  0xb5143ac103037f15U, 0xf108d3b617213bf1U, 0x5f7f20f83de8085aU, 0xdda9a9cad70afafdU,
  0x1ddec524ecf9e4d0U, 0xa3f39dfed90c3bd0U, 0x4d19d03337330c7fU, 0x1aead3f3bbd346f9U,
  0xe298cfeaf769e4c7U, 0xc6a0312473b81ea5U, 0x9859f45eaef92d7fU, 0xde1a7f63c2f828e6U,
  0x18bf13619581629U, 0xb1609fbfde44ee9U, 0xad933c1ecc8c1e2U, 0xac2f1ab67ff6261cU,
  0x6cdb1b1109e7c2fdU, 0xffffe9d4fffff88cU, 0x747fffffac5U, 0x410000280bU,
  0x2cbffffffdc1U, 0xfffffe0500001bb3U, 0xffffd9f200001671U, 0x110700001c31U,
  0xfffffb81fffff8cdU, 0x114000000495U, 0x189100000566U, 0x148cfffffa38U,
  0xffffff63fffff490U, 0xd0000000cU, 0xf0000000eU, 0x1100000010U,
  0x1300000012U, 0x1500000014U, 0x1700000016U, 0x36fdf594eef1eb09U,
  0x8162bf2506fc93fcU, 0x8f754f3e81d4bd66U, 0xe7145412b9f5fbfdU, 0xa9f105f132cd81a8U,
  0x2881acee9762b641U, 0x64d8dc5c367a81a8U, 0xca81fb7fd273d70bU, 0x3d3a8e7f598108deU,
  0xf712124ce8f813f9U, 0xe52e97ec23aef503U, 0x7f1be6ae725ddc81U, 0xfaf081fad8aa01f1U,
  0xa12a05f04fU, 0xf03000004a1U, 0x2000001077U, 0xffffff0e000011a3U,
  0xfffffd65fffffd2dU, 0x4c400000ef5U, 0xdd0bd44f00000d8cU, 0xaff20127e17fa5d4U,
  0xc800107511899715U, 0xfcb9973b98813331U, 0xa8bd657f4de475e3U, 0xe8ede1b787c57fb7U,
  0xd3ef7f10968c328cU, 0x3e00d40fe40319f2U, 0x6a5cfd63097ff635U, 0xd2bef57fe4facfa9U,
  0xfc39233a3d0424faU, 0x8de154af39047f1dU, 0xd07f1d27d903676aU, 0x3750b0fb004298f2U,
  0x65121c67d6eadf7fU, 0x681f88674b20068U, 0x6293e4d8bf0cd0e5U, 0xd4f494a0fb7f2681U,
  0x1e3c6d9b5905U, 0x145a00002004U, 0xfffff19c00002de7U, 0xfffffcfcfffff5dfU,
  0xfffff9f4fffffdceU, 0x27170000013aU, 0xfffff247U, 0x200000001U,
  0x400000003U, 0x600000005U, 0x800000007U, 0xa00000009U,
  0xbU, 0x200000001U, 0x400000003U, 0x600000005U,
  0x800000007U, 0xa00000009U, 0xc0000000bU, 0xe0000000dU,
  0x100000000fU, 0x1200000011U, 0x1400000013U, 0x1600000015U,
  0xeffede4600000017U, 0x6eea27e60610441aU, 0x5e3adbd0e4e34481U, 0x361db42e31f1221dU,
  0xccfce1021cdabed1U, 0xfdef95acd8140e04U, 0xfe2a10e800d83305U, 0xf1241fde18bdfb10U,
  0x6a02f3ecf22c02caU, 0x21ebf6230fd7c0daU, 0xfaead7072dcec7d8U, 0xe464cabce115db7fU,
  0x33b80a52c4c22308U, 0xf46cf5daf7094849U, 0x19a638e6edfffdf1U, 0xf60b16f364e0aa2dU,
  0xf500b4181c32cfe1U, 0x7fe8b6c1cc5905ecU, 0x9d13bdb08ff2d01U, 0x13fb0507c11af7f6U,
  0xd0ef0eec0d0921e8U, 0xdefce731db09f00dU, 0xea1ede0519f1e4ecU, 0x9ce13af6ed311d81U,
  0x28c441f0e3e834d8U, 0x34eb25f301250f21U, 0xff812ff3809baddU, 0xe8baf604c4d68149U,
  0xbe240bf1fe3e00ceU, 0xb70f11e6c5e9021bU, 0x4ad0f202f8f13902U, 0x3ee40fd0dd9a0ee7U,
  0x3581641dfdb476afU, 0xc7f8d2d8b13d2229U, 0xcd3ef040e4149d23U, 0xda1dc6bfe60f402fU,
  0x94f494d6a6b3fea5U, 0xc61b13dac2d2ee1eU, 0xd68ee8a816dc50feU, 0x23002ff7cd95d5f3U,
  0xb927e3044481f9e7U, 0x2779259c05520efbU, 0x1636141af1efdbb8U, 0xd6071c1630aca4f4U,
  0xf30b32f9e5da02cdU, 0x3fd3a9f00df9f833U, 0xb3c7cd107fead4beU, 0xf8e4e9ce022e7a22U,
  0xf4d5c78e48c908bdU, 0x81b94eb6c825dc35U, 0x610fd0e10d20d53cU, 0x312b43ad6514d8c2U,
  0xc973035ce6f52c36U, 0x1c9210f0f18a0612U, 0x8fbf72cbfc72c1bU, 0xf10437a1b3c601e0U,
  0x2517370cf5e2e9f4U, 0xeb89e4d3451173cU, 0x32d1ab40a85c6332U, 0x81ba0fe7e0e7dbefU,
  0xfdf5d6fae6c03bffU, 0xa7fc55cde6090719U, 0xfe2bef230828e1e8U, 0xed1647d10c03f903U,
  0x9fa0fc8f1f07ff1U, 0x5f4182d31051518U, 0xd3e90e08ddf31aecU, 0xcafbeee27fffcf37U,
  0xf1083af30eeff4eeU, 0x23b12306102bd517U, 0xd8b0f498fb370c2fU, 0xa90636279935f337U,
  0x6f1e0ef2f9058b6eU, 0xcadc50b77fcb58e7U, 0xb5cfe20656c13529U, 0x24ac98fb7923e32cU,
  0xb9413c37302ee5d0U, 0x61ff38dc9e121efU, 0xbfed125d150616acU, 0x334e39cde59f9830U,
  0xf5ce06692230ecd6U, 0xde33eaf2fbd9f812U, 0x9fafbda134cd0ccU, 0x20a8dd81eaa90819U,
  0x16ce260f230b3cb9U, 0xdbfd0101050dfdf9U, 0xefe50aec1515f8ebU, 0x160e0b36d01cf2e6U,
  0xbceddde826100503U, 0xadd65209df190c81U, 0xf3d81fe4f2ca29e3U, 0x6261b141004f6f2U,
  0xf4011704e3eef60aU, 0xcad7d22bccedf4e9U, 0xba0702d5f6f8f800U, 0xe11befd8f2f3e110U,
  0x19f2c3da34967fcfU, 0xd541dc81dc0923f3U, 0x2d28ec44d02cf438U, 0xcd5a2e47f41b4b15U,
  0x341a33ffaec4fe11U, 0x3818bf853dcc0933U, 0xc907c4df0a223cecU, 0x173c2bfa17cecc31U,
  0xdef953404de9cb18U, 0xb50ae0d3fc20dfe8U, 0xd314ca3410fa3fd8U, 0xa320634d72fd6e7U,
  0x17f2a43581dd2c00U, 0x9d32fee56981f3a3U, 0xf3b6fffb412df611U, 0x2e0bf3e0f5f92845U,
  0x1fe6b1ed183b02d6U, 0x45e1fb071aef05c1U, 0x54b91bc11c00dd1cU, 0x11b9cda1db09d0e3U,
  0xa16318ef15747ffeU, 0x528d41b7cb0e6a5U, 0x141eef0c15e0e023U, 0xb2b0af7f40c0fdeU,
  0xd6444317174d0cf2U, 0x2df632bf110b718U, 0x19303431d91a223cU, 0x46ddbdc2d6c9f4d4U,
  0xefda28ce0d7fccc5U, 0x94c7e2c89e203627U, 0x1f160b115ccd36b7U, 0x19ebe7ed1102d5e9U,
  0x5e62d3d0cf3fbf0U, 0xdeada27901290a23U, 0xe301072ca4473219U, 0xb6e5a0cf81d41d10U,
  0xd43f0cd736fe44f0U, 0xd31dd9c40b0f4301U, 0x51ecff2b1d114decU, 0x1b3fe016fee5d515U,
  0xeef6d1ded9d5d3d3U, 0x110dd9c3b4f3fe7fU, 0xe3e80934e3ed3105U, 0xce3013d17be26ebU,
  0xf012fb1cfccb11e3U, 0x2634f0e310e20cd8U, 0x22d4e38125f18b1eU, 0x22d2020a96e51ccU,
  0x43443e160a12a70aU, 0x1db8007f4aae78e0U, 0xa421f4c335c4a0fdU, 0xd4d4acec2af4f4d9U,
  0x3c24ee92cb689203U, 0x1503fef01507421cU, 0x262005181bfdedf0U, 0xf4f41c1805fef127U,
  0xecfa04eff100f4faU, 0x14d7c735d5e9e70bU, 0xf9e3d0f87ff7d6d2U, 0xeaf702daed554006U,
  0x3ad524345fcf53bcU, 0xe84c691409d10cc9U, 0x37eecfe2c6fee209U, 0xd3065120f5e4e4d5U,
  0xe2469729002508f1U, 0xa1e581e5d53b2689U, 0xb05f421f921f2c1U, 0x705294ae11d20d7U,
  0x241140151bea8331U, 0xe1ebf1dc40c67f34U, 0x202be50bcfb10c1fU, 0x405cf51f3cece525U,
  0xe5f391dbe50dec01U, 0x25f5f4e0fe20290aU, 0x13267ff1dfd82933U, 0x1e0af70cc366f5fbU,
  0x1ce4082c0a56efe0U, 0xf5f0d8f300e2f2fcU, 0xf44705ec33d03a0fU, 0x404f34f7a6f9faf5U,
  0xc2b6d02807fa0d12U, 0x7f4908f807cb5b3bU, 0xad0a3199df36e0f9U, 0xb05911a5d33eeccaU,
  0xcae3ef720ed2fbf4U, 0x15ccfa212f12f4a5U, 0xfac219eb2611620cU, 0x843d90204ea3cf9U,
  0xe659ebc0fbe98101U, 0x2cbf04c5bc41fbU, 0x1f3844e31f41c5d3U, 0x241eceefff82844U,
  0x24e52e233beb05f8U, 0xf0dcd910f716f8dbU, 0xe86582f1f70af3d3U, 0x30d1faefdf812441U,
  0x94d849bdd84a0237U, 0xa3e736a11ac1023cU, 0x117f07dd0f0bcdcdU, 0xbd65947064eeed9U,
  0x43901c3bafb1414U, 0x17e6e8cc4a01361fU, 0x2d34e227d2d4d2e2U, 0xf4472906f919dabcU,
  0x22e625ff212f3a17U, 0x3fdf8129dd2d1a08U, 0xcfd1f21dfc0bed1dU, 0xe9d5d9dfbf0510f8U,
  0x7c4ce3694206e8b9U, 0xef6f028243fe9e7U, 0x2d9e13ffbfd225c5U, 0x7ffabf4b0803986bU,
  0x260f9db93c3f99a7U, 0x408c0e8a647f53cU, 0x29fcbf1815fb3414U, 0x1c2719db815209d1U,
  0xfe05b5f60f12ce1bU, 0xcf0fd5ebe61ecc0cU, 0xf130036026d4d9e9U, 0xc0d1f1da30c3cb37U,
  0xeddec20526fb1b07U, 0x192ff71c2af3f210U, 0xf814fc3cd6f8f7d8U, 0xc47f10f2eaf346deU,
  0x9d8cfbbe8ff0963U, 0xcae217f0e82321faU, 0xe2edbb51f6fae72fU, 0x21e8e6265226ecbeU,
  0xf8ba30dd0ee158efU, 0xfb5cd3c0f6f24fc1U, 0x4df6d4ad1ff6a67bU, 0xf02e9db81164d01U,
  0x8817303d0e39aed3U, 0x193137151107dafcU, 0x824991f0b73b0d7U, 0x1f7f61d70654b6c8U,
  0x5b0e86fedfe52405U, 0x29d40c2aded3272bU, 0xc7fda1516c15d2fU, 0xd610e50aecb6c562U,
  0x9de82618d504121bU, 0xfeef1e1d3d2b20f0U, 0xca3a1101feef292cU, 0xd8f402f6da3738eaU,
  0xe2ea6b0f21d6f300U, 0x257f4fc41b33ece1U, 0x8403ddab5ea6bd4U, 0x252bbac519702cd1U,
  0xf4454ee7df35f6afU, 0xab130cd605b9e905U, 0x421700fe1141f838U, 0x4d903f315fa3526U,
  0x231b092d30fb1cddU, 0x80a954eff10ccffU, 0x20dbcbed4c37bf00U, 0x190deff5e0245133U,
  0xaa2801397f0867b6U, 0xa87028147fc540daU, 0xe8e426fde20ce4f7U, 0x16acd1b6e417bf44U,
  0xc2b09d173b3ac6e8U, 0x50d530d81f31383bU, 0x2902c0134c4598bbU, 0xf3d43f39fa221f0aU,
  0x6c42cd4ec022a97U, 0x64bff41e35d1f522U, 0xdad2cdafe71fd20aU, 0xb0c42061813ff420U,
  0xf42a583aeae6ad09U, 0x34f918fccfda2decU, 0xe8d90c81f62df5c4U, 0x1200ed05ce02bbc5U,
  0x10b0b011f72fd524U, 0xe3de22cbc6f41f1dU, 0x2a15a19aed243ce7U, 0x28d728d4c8d8f7a2U,
  0xfbcf02fd39c4d209U, 0x24f4ceeff1c5cc27U, 0xfce30515f481db0eU, 0xcef9f01bd06c47f7U,
  0x3ee607c17ae819d9U, 0x1e4c262e17449522U, 0x290e1ae31039eec0U, 0xe81516fdebe61fe1U,
  0xe3e3f50881274761U, 0x21ed01f8aebdf403U, 0xf5b37f0bd10c2313U, 0xef3140ce57203ba9U,
  0xf74a47efff592e6aU, 0x63c311dc97924d02U, 0xa17f913416bd7a8U, 0xfe293ed0e5dc0318U,
  0x3c1db1017f6U, 0xfffffa490000050fU, 0x12900000a1dU, 0xc0200000103U,
  0x61ffffeba7U, 0xb93000011a0U, 0x6950000114dU, 0x1f4000009c9U,
  0x2138fffffca1U, 0x97800000658U, 0x206000009e0U, 0xfffffbfb00000e0bU,
  0x1e2000022d0U, 0x1059fffffc32U, 0x3ed00000e2cU, 0x381ffffff3bU,
  0xbecfffff3bfU, 0xfffff9b100000987U, 0x2af00001247U, 0x1c40000169dU,
  0x493fffffe6eU, 0xfffff2e300000a65U, 0xfffff94300001bc5U, 0xfffff14efffffe0fU,
  0xcceU,
};


ai_handle g_network_1_weights_table[1 + 2] = {
  AI_HANDLE_PTR(AI_MAGIC_MARKER),
  AI_HANDLE_PTR(s_network_1_weights_array_u64),
  AI_HANDLE_PTR(AI_MAGIC_MARKER),
};

