/**
  ******************************************************************************
  * @file    network_2_data_params.c
  * @author  AST Embedded Analytics Research Platform
  * @date    Wed Jul 17 17:15:19 2024
  * @brief   AI Tool Automatic Code Generator for Embedded NN computing
  ******************************************************************************
  * Copyright (c) 2024 STMicroelectronics.
  * All rights reserved.
  *
  * This software is licensed under terms that can be found in the LICENSE file
  * in the root directory of this software component.
  * If no LICENSE file comes with this software, it is provided AS-IS.
  ******************************************************************************
  */

#include "network_2_data_params.h"


/**  Activations Section  ****************************************************/
ai_handle g_network_2_activations_table[1 + 2] = {
  AI_HANDLE_PTR(AI_MAGIC_MARKER),
  AI_HANDLE_PTR(NULL),
  AI_HANDLE_PTR(AI_MAGIC_MARKER),
};




/**  Weights Section  ********************************************************/
AI_ALIGNED(32)
const ai_u64 s_network_2_weights_array_u64[22868] = {
  0x14da0911ffffedb6U, 0xe3f12900340d152cU, 0x5051d43b3d91005U, 0x2f010be002db121aU,
  0xff1e0504d8fd16d9U, 0x2626c9eb2a1bd9f6U, 0x8d2e9ae0af62804U, 0xae17754776563458U,
  0x2df6353781b5164cU, 0x523aa6bbf2be104aU, 0x1b5436fdcaee19b1U, 0x1f5f90ce6e4a8cd0U,
  0xc1f5f5c0fdec4d2eU, 0xbe164d394e5f2546U, 0x28e726dda3cf1b58U, 0x3c5081e702cc0045U,
  0x5292bffd6f40705U, 0x44f2cf1372f94dfU, 0x5ec6ff18e5e65333U, 0xdfd424ff330f1027U,
  0x14205c5fbfbe0915U, 0x2d2e16d3e5c83730U, 0x122f1e0cb72522c5U, 0x5337c8d7343befc9U,
  0x3781bdb2ddd44037U, 0x81207f267f6b787cU, 0x7f537f0082817e7cU, 0x7f7ff8819681747fU,
  0x7e7f7f6a81717a81U, 0x7f7fc7817f7fd98eU, 0xccc18b81a0ab7f7fU, 0x89667036687f7f7fU,
  0x6a3d2d8199b57f7fU, 0x7663ce8879b24c7dU, 0x7f5c7641ae6b678fU, 0x37d7faa5e63ce9fU,
  0x6ee11619938e5d66U, 0x3d5f4f000091a14U, 0xe0c4f2403d30f25U, 0xe390ee2fbe23123U,
  0x32182217d51b2febU, 0x4d1bf8d4232718baU, 0x7fa2baf3c4e1172eU, 0xc80d078108365943U,
  0x567b7c90fdb2684cU, 0x676c55a69cb17f4cU, 0x6f57547fa07f7f99U, 0x7c540da2385f7f81U,
  0xae81b6819c4a66U, 0xba7f1da404465f47U, 0x4a7f2ea7fad97c34U, 0x6e373c9c7fda5346U,
  0x78485060c0775c83U, 0xe5168bb4f346fb8U, 0xa65a5813745U, 0xe970000117cU,
  0xffffeddefffff3deU, 0xffffda7fffffefedU, 0x260fffffd9eU, 0xffffdcb7ffffde99U,
  0xffffe42100001fb1U, 0xbbfffffe0adU, 0x13e400000504U, 0xffffe186ffffd858U,
  0xfffff4eeffffce3fU, 0xbf4ffffe9c6U, 0x21b0ffffffc8U, 0xfffff53c000001f7U,
  0x2bb8ffffb79aU, 0xffffeffafffff32dU, 0xffffd7a4000008d4U, 0xffffe784fffff42fU,
  0x1b5dffffb9a0U, 0xffffcf33000006b7U, 0x2289fffff1dfU, 0xfffff956fffffef2U,
  0xfffff2daffffdf57U, 0x473fffff901U, 0x2081175e00002edaU, 0xeef2191fea2108f7U,
  0xc807e44c1dd5c712U, 0xeae0eb097afe27a3U, 0x2f2df44abef1ba10U, 0x3e091efef2d4f806U,
  0x1fce1424fc372206U, 0xef21ef26f10201cbU, 0xe2da2d14de06077dU, 0xdde503cb47fda418U,
  0xf508e70f17d75127U, 0x63180d7f2abd29caU, 0xfceed81b1deb422cU, 0x18550b25012330fbU,
  0xda3881a648e25517U, 0xba0aef59aa324cf7U, 0x1339b2f4180b104cU, 0x2d2dcfeeed28261dU,
  0x4c1cfe320507e3f7U, 0xbad304d1b4009d14U, 0x1a20f5231b128419U, 0xb75aeef641c8fc3aU,
  0x3011f2ef0fafe70dU, 0xa81538e5457ff923U, 0x41de329d3cdd05b1U, 0x24f0dd1fbe1e5baU,
  0x297fe0008bfdf954U, 0x23971074e51c59e8U, 0x3ccb224a22bee9fcU, 0x1a11d20059bd9134U,
  0x2edea7e1f2fc29d7U, 0x12f40eeb150ee3f0U, 0xfcbd532c5260241U, 0xf9f426eef707f34dU,
  0x14b6f242cce9191bU, 0x2b2212e6f1ec021fU, 0x2ed1f2de31d8d17fU, 0xf01c11151523dc14U,
  0x2eae1a0a0e2f4ad3U, 0xfa1cfa1bc30d0304U, 0x99813534df263e3aU, 0xe0bad712dddc1bd3U,
  0xe0c719f7fa164cdbU, 0xa5ccf4fb3e3bd202U, 0x2190cded6f70d1fU, 0x3c11ac103e55adfdU,
  0x42f38147d1dbeac9U, 0xef5c3a11d70221c0U, 0xbebf4c4e1d422f3U, 0x2dc846e201cce3c3U,
  0x1f0fccdff944e4f0U, 0xed1007ff2ef95cb1U, 0xb8865347d2cdeec5U, 0xa67f15c71fb0fcbbU,
  0x2be216225c0d7e1fU, 0xde4407dee31cd9e7U, 0xd1bd4ce423ebafd4U, 0x122b0bd90101e37fU,
  0x331ef315f50b08fcU, 0x1241fd04f6d4ee04U, 0xd843fee1c3c69818U, 0xf2e2390a2cc47fdcU,
  0xd7182ef1f8e229ceU, 0xe8fbc63e28def461U, 0x96df35243bf6ebe7U, 0xce14f8f3f2aa99f9U,
  0xa7f5430b1ba1d0fcU, 0xf8b9b9d512eb24f7U, 0x2903d10ecc9ec2cfU, 0x50dd2a3f1dcb4fe1U,
  0x3a47cee038d7031dU, 0xe44835f910d02ff0U, 0xdc07c4f0cc81f1c1U, 0x25c7ccffae10000cU,
  0xc22e5de08dbf966U, 0x4031d6184d010528U, 0x5fad39f7e1b3327fU, 0x95de2d1e52fcf214U,
  0xcee32debacd72bb2U, 0x8fce30afd44b96fU, 0x1f4ec220ddcdf9daU, 0xe6ed1be5b3e4fdfaU,
  0x4333e61a053bbd03U, 0xc310cd04f6d9ead5U, 0xf50af416c4a57f22U, 0x23dd2bb9d3020210U,
  0xfcf939ea051f7f93U, 0xebd0e700281a2919U, 0xa321eb5fa2d24f4U, 0xc7de3bf9f3bc16f3U,
  0xf62bcdfa42d0e0fcU, 0xcc0dfc1c330614ceU, 0x205233f20e536f5U, 0xff0737e21ded447fU,
  0xdbf1b0d121cba053U, 0xf106f62cfffbe111U, 0x250dd2da42d0162bU, 0x9f2f109f5d7ebb7U,
  0xe318120a0bee3f25U, 0xfa14081206e009aaU, 0x800d931fdd4322cU, 0x32430cc423c90706U,
  0x2f13dad4f9fd81e9U, 0x5f32ff81a1f01f6U, 0xff26d3c8b8d9dab4U, 0x1ec0e0021a15e505U,
  0xff0817e8238103e9U, 0x1de8f004030c19a8U, 0x53014ad43ffe00dU, 0x86675ad59fefb7f1U,
  0x1d5de684211032ffU, 0xda53d4f4c702178fU, 0x1dcdef010f07b4d5U, 0x790c03bbf6833a19U,
  0x508dbc630eded7fU, 0x22016f647e7bed5U, 0xe9e4e8ece2e910f0U, 0xcec5175d002d2b5cU,
  0xd1c93e0d26e0812fU, 0x2eee10f7e3fd351eU, 0xcc073014f010011eU, 0x3e9fcc0f122448aU,
  0x38acdd272404f9f7U, 0xb0f3f905def334acU, 0xf097b9f213f52b23U, 0x4c2cd615f9fece7fU,
  0x34c73d173d290000U, 0x24e21c163645f6a6U, 0x319a9dd1f3381dd2U, 0x52def21150e00077U,
  0xf3f2a3384042d798U, 0x81ffc81e9cc3b8cU, 0x18ee15fba2d58223U, 0x685f412927fcb01bU,
  0xa88198033129b4b2U, 0xc54a0c49d2ef0e37U, 0xc3f9fe99d7fa123dU, 0x4b11e011cf9a2e84U,
  0x3ce1bcc35bc0cc9U, 0x811c19f520125916U, 0x229b21f8cd06e635U, 0xff17d5fae2ede7eaU,
  0x1031d03701d4f425U, 0x75ccbbc60cdbb421U, 0xe80fe33716a20ad4U, 0xf6a84bcac3d1d7d4U,
  0xcc2af120cd243c97U, 0x305aca19f5be0fcbU, 0xefed38fef6fb1c7fU, 0xe105ef0a190efcb5U,
  0x3f3846103d1ef820U, 0x41092a30b9275fc2U, 0x60fd6e514c3e11eU, 0x3e1dc42dc64932U,
  0xea81a22aeb24cbdcU, 0xb9cb1743fbfce717U, 0xd502e6a034a5fdf7U, 0xf492c83c0026e55aU,
  0x8e99fb24bb01a7caU, 0xd6c5fcf3e86bf0d2U, 0x818e8935bb456dd8U, 0xae46fece460901fbU,
  0xfd260c264270e8fbU, 0x7ff8d2a6ff23a544U, 0xf3a0fbe256085c26U, 0xf756e65c0df1fa3eU,
  0x3e6803d8990e1edeU, 0xf80cf61f5d2a81efU, 0xa49f0df2d1601efU, 0x1efad107f8340ebbU,
  0x811697eada159a2bU, 0x10244ccef5e94310U, 0x539d9d500232613U, 0xd90a07f10add3728U,
  0xf1e1300224c90dc8U, 0xffd505303e43cd86U, 0xcf5f020f32340f2U, 0x1907e6c9f827f03cU,
  0x6f351ed3c325b9faU, 0xeac4228125e31506U, 0x940edfcfe217e0d9U, 0x3f44a1f319f5e6d5U,
  0xb5f3c6ff01e9031cU, 0xd1045981f92dd3d1U, 0x38e11d1afef7c6d7U, 0xf3e503cf5921e3e9U,
  0x453823dadb1e0702U, 0x1fbed3f6024e2bf7U, 0x25edccf6e2c3f339U, 0xddcc808303e8a8eU,
  0x4bdf2548ee7f0962U, 0xad45252a2c1849caU, 0x6f1f6e266ba1a17U, 0xff1d14e937bfb81bU,
  0x1504edf00beb391cU, 0x570e0c01d8debf0aU, 0xf503d2f13dc829f9U, 0x2722e8597ff13c39U,
  0xa914cf33334f5d3U, 0xa913bee8e8f5303eU, 0xcfd4b3f60e2d0a14U, 0x4aabb93ada3e40bfU,
  0xddf5ebb07f18b9cdU, 0xef02f653045bfc26U, 0xff21f23ee8adf045U, 0x711a581313010adaU,
  0xb5e6d9fde414b2baU, 0x3affff360ce9c3f2U, 0x4e1870ffe71b25a7U, 0x297fd6ffec0bf918U,
  0xffe71106c9265124U, 0xf6f204d9228120e6U, 0xf81ad909f714f21cU, 0xbf18071b22f4b1deU,
  0xd3de27e2ec18f31fU, 0xeee7fdcc2c301330U, 0x190fdd450ce826f0U, 0x7f2be0a02026c7d1U,
  0x326293f2715fd2fU, 0x9727c3ebcee607d1U, 0x223f2f838de5326U, 0xb2d8e109d5118cf4U,
  0xf70dc3e40bd708f8U, 0x3024e612fad806dbU, 0x132bd6f1f0d6da27U, 0x1ef3338c5429be0U,
  0xd0f7ff8ecbd0717U, 0x41f308da03cfee2fU, 0xcec2cfd290631ebU, 0x2202120325fadc06U,
  0x7d8f4e93c2826d0U, 0x34f60ad00a1b08fdU, 0xe8f007240cdd510bU, 0xede191625c9dfeeU,
  0x1637dc02bff3167fU, 0x49bd14fb28eff035U, 0xb6e7d7db131fdf01U, 0xb0293810e1b07a5U,
  0xd0dcf3c01083043dU, 0xf3d5c0f4cdb046fcU, 0xd5bb7537d406280fU, 0xc329fdde3edb9434U,
  0x51209b6f14adf1eU, 0xcbc827252a1b5ed1U, 0x3cc51411020f1c20U, 0xd8fffef2dfe2812dU,
  0x69f1d0adbeaf130U, 0x33ee34c5c71f0620U, 0xc5197f43d0ecfefaU, 0x181d11182fb912feU,
  0x6d8bafe08eb18d4U, 0xba1d1ac2de38cc3bU, 0x8ae30856c12e2dfcU, 0x84653b339f26d608U,
  0x361a43dbcf400d2cU, 0x50426cac6f9077bU, 0x7facf597ece878c4U, 0x201b0f5ff17621bU,
  0xcbc83e24a9f290c5U, 0x7f5b1014d0ed1941U, 0xefc143d9eba61558U, 0x5244faadcd256ecU,
  0xf2fdb903f10f2154U, 0x4dda10eddc2e02d1U, 0xe2ecbadb250ae8e2U, 0x3d013f59f96a7f26U,
  0xff1dd0b9aaf24836U, 0x153f22223eeed0a6U, 0x34d0fac2572e9f01U, 0x1422d3453398e5b5U,
  0x4b07f3eb25f79960U, 0xdf00314393e0ab7U, 0x201e3d22294b1cddU, 0xc417ed2e43370403U,
  0xebe108cacdd5ea30U, 0xd5081432cc587f45U, 0x13ce01f4b4de5520U, 0xc1e5220c5541e105U,
  0xcf4300213df61309U, 0xe7f182fcda1826dcU, 0xcd064ac8e7fb2c00U, 0xd9f5ef7ff1d2d21fU,
  0x12ee02c8ec04cafcU, 0xc8dd1dbeafec8399U, 0x1b1fcc9adddf03f9U, 0xda51bab1e200f3bfU,
  0xecf00ed9c30bfe21U, 0xa77f19fee91af7c4U, 0x44fa0f229c03bc51U, 0x15e992d81e7f390aU,
  0xf503e1263ba2baecU, 0x12e5df1bdfe6c375U, 0xea7602fa1c5f08efU, 0x46e3ef24d1ffc346U,
  0xd4f2e7ebb8cf150eU, 0xcf48040015f11bcbU, 0xba0ad21f2f5fdcf3U, 0x56fd41f5f4e7d91aU,
  0xe0ff26f410f52930U, 0xf0beede43f22a597U, 0x5c03ffe145bc3681U, 0xe16ebeb14d8fb04U,
  0xf0001ae9117fee41U, 0xf73518bdd8993c5bU, 0x105ced40bff3d8d5U, 0xc8de9fb4d1fe12e4U,
  0x8d4da8250abe1f1cU, 0xbebbcf13071afadcU, 0x1011eac90d0de7beU, 0x1fb8cef04cece23U,
  0xe522e88dfe112523U, 0x7f114dce33db2efdU, 0x31e6f3d8f2111411U, 0x270634f8f007f82bU,
  0xe402bfd7ea590646U, 0x4fdfef2b6bc810bU, 0x6f03ec16b4f429f4U, 0xcd2919fa3a240ff7U,
  0xe0391f0327b135f6U, 0x95480d1fbe240732U, 0x132c2afc3f41ae0cU, 0x4a0f450811daef18U,
  0xded419d3102d2c40U, 0x19c33b29e023bd81U, 0x162ce41532f905d0U, 0x16fae50afcf674eaU,
  0x4cfbdfa2a21f621U, 0xedf6fa120316ea00U, 0x39d67fcd1dcfdd01U, 0x2908f800e0d31445U,
  0x4ec2daff20c2f70aU, 0xf15f1072eedf302U, 0xedf517c4d8c20f1fU, 0xd74305e9d7691e1eU,
  0xfd31dcd531eb0f09U, 0x1a178103ed01322cU, 0xf41cf5e7fbfc25eaU, 0x803e14827f1d7cfU,
  0xbe37d5fff60fe508U, 0xeb0e378de74d1f0bU, 0xf36933ddc8641414U, 0x407fc84815e5133aU,
  0x3c8eca705901135U, 0xcdf1caf6e94aeeeaU, 0x55e9bb60eb2e06dfU, 0x812e12e3df3c13f8U,
  0xfb0915b2cd24fc2dU, 0xb0eee2e1dd062418U, 0x2ae71214cbbef033U, 0xa11d930e001508e0U,
  0x1004213612f602c4U, 0x14d7021879f5f927U, 0x81fb00c61436fd1cU, 0xea01d1efe907eff8U,
  0xc3f3fbf0d6f600faU, 0xeae2aa151367dbfeU, 0x30dae4e3e6a87fdaU, 0xb0e3d6e0f923d3f7U,
  0xe8d2f5e7c9d1f101U, 0x610d2907d22724f8U, 0xdffc20fd86d4df69U, 0x6d518c016f00affU,
  0x351ad3e90003d801U, 0xf0fdd9aafe01490eU, 0xe97f03a1063de5deU, 0x20b2f02fe1eb2922U,
  0x4f218104de33704U, 0xf100c70504f24cf9U, 0x165b0fdc08f7ee52U, 0x1df60326f0000adaU,
  0xdb02f7d61a010ed4U, 0x4f109e6f7810afcU, 0xee3c4aecdcd90b8bU, 0xa281dd11207bd10U,
  0x264f63c34307d5f8U, 0xe322bbd72cf21b4cU, 0x2df3ea45e081f913U, 0xfdfb8adcc112f838U,
  0x9c000913f5f028cdU, 0x55045318fef30820U, 0xfce8db0511270509U, 0x38e3f9d87e2f7fcfU,
  0x11d80e35cdb9f5ddU, 0xf0ec0dff12f540f7U, 0x5b16e6e422a70a45U, 0x1ea38da30a1d23deU,
  0xf11cf0e5e6eb2cb3U, 0x13bf1528fafef7efU, 0xc5ef058125505111U, 0x31371cddebfacbd6U,
  0x2a1e250602e8c9eeU, 0x1bf708f50ceff1eaU, 0x60f0bfcf981fe09U, 0xc634dd07fa4cfd25U,
  0xfe20d0deee4280bU, 0xa00ffff04f106ecU, 0x82b050702fd07f1U, 0xe8c7f617fec7f7e6U,
  0xfc051a4ee8d7e8ffU, 0xe8d8cacf260afd10U, 0xe721f2b2ebf70302U, 0x7117ffe04de2205U,
  0x140422c407ed1712U, 0xda090b27d464b4adU, 0x2426c5f1e0d560d6U, 0xe61f1613cf1712aeU,
  0x81afcddb2852bfefU, 0xeef540ff033d3f84U, 0x306affec02f41dedU, 0x7ff11c0eef381f75U,
  0xe8df14070fee0be5U, 0x1442ee16f18213c9U, 0x5abe3daf2ee772aU, 0x455fe772be0ee83U,
  0x12130afb070019b9U, 0xf906fe09fb00fc09U, 0x7fecf2080b0cffe2U, 0x90af5e6fdfa121eU,
  0x6e6f20ffffdfa10U, 0xf3ecfd00ed1ff30bU, 0xf242eff0dd10fe1fU, 0x60fffa1a148f3e3cU,
  0x14e8ef159ce1ffffU, 0xf5e32326f5107f00U, 0x192829e747fe23e6U, 0xb8f40500e4046900U,
  0xfa1d05f810e3effdU, 0xd4ee00fa10d305f8U, 0x1616d4f3e9fef74dU, 0x6efe09810b0035eaU,
  0xd1d7ddebf00d0929U, 0xe7feff06f7e1fee3U, 0x312cd5019ae30cf7U, 0xdae138fc32bfea1dU,
  0xb4bbfb202d1bef15U, 0xdd1403f8fe0edf03U, 0xe23beff8fd0d1810U, 0x37f09e902e1db35U,
  0xdf32f24f2f6fc16U, 0x3fb1d050e02f707U, 0xf926fbff12cb0012U, 0xff2ff5f2037fe9f1U,
  0xd9e9ee152d0cee06U, 0xf8ff01011605f5e9U, 0xf6e4eb0e102408efU, 0x2fd31f0605f91a39U,
  0xbe25e6f70119dd1aU, 0xff0e2d2f0f0cdcf8U, 0x4cc5df4d08da07e9U, 0x812b160b110ae7eaU,
  0x22e62b9efae60dc1U, 0x331f313e9221719U, 0x1424d63cebecf100U, 0xf8221cf57f54f31fU,
  0x1ae40c111dfd03f1U, 0xd4f19b002900fde6U, 0xfe3e5cf2fa00020dU, 0x2cc743e28115d748U,
  0xcc9e81de2f5edc7U, 0xe52bf74b0cf14b08U, 0x3f3d6e3a3ac5edaU, 0xe3b00be08ced12b8U,
  0x4712a71de02a0d26U, 0x220572ec05bc0a33U, 0xf0ec50eef11b1f7fU, 0x22dcfcf7a50f1b01U,
  0x5a0f003b0bb3e7d7U, 0x92aff061af5bf4aU, 0xdb3aa306c3360bbaU, 0xa213a6e6f0fff9afU,
  0xfb034ff01a4d21e0U, 0x3481eafbeabdf503U, 0xbfeff4fd972501cdU, 0x32010adf9f08bffaU,
  0xfcf7fd0ad521d5eaU, 0xfffc0a00f3051706U, 0x7fff0efe0805e207U, 0xe3dd0134ff15faf4U,
  0x1518f80709f0fce0U, 0x17d80bfb06d30802U, 0xb5c201c043fdfdfdU, 0xbe7faaf132d70cdfU,
  0xf003c5190058e4efU, 0xacee08e5be872c3eU, 0xf4016d0ccb0ce9faU, 0x38dec3f4cfbc99faU,
  0xd9d5051713df1408U, 0xb62581fc1831e9deU, 0x25072c08f2f9efc5U, 0xe00503fdbd1bf710U,
  0x9b0cd5fd3e46292bU, 0x41f728faee1c00f6U, 0xd34072ce7ebdf28U, 0xf9192cee0adcf2f2U,
  0xf8fa08cc1bc4e901U, 0x84725e3fd7ffcfcU, 0xfbfe0c0feffd08fdU, 0x170335e213e5a9f8U,
  0xf6bece8127e4e2ebU, 0xc2b3fecb66b410c4U, 0xf5e0cfaf14eabc1fU, 0xcfd406beece612ffU,
  0x9c590aea05e247e5U, 0x2bbde954efb81010U, 0x4fe3dce3bda1213U, 0x33b1ebc9f8e318d6U,
  0x2f44fedff01f0341U, 0x48d6e5bb1d32fccdU, 0xac554c94f77f2b04U, 0x17c1f5df28bee2e1U,
  0xb071fead4dff3e3U, 0xf5fe42dbc0f7d00cU, 0x3fedbfeff471a2dU, 0xfb0c16f901065ee1U,
  0xd9bcfc0fe5e2f80dU, 0x1041b0a49e4f481U, 0x34caf6f3370ce907U, 0xf562bf3d1f25b41fU,
  0xe6e6e517acd6f4c8U, 0xf32373e906da213dU, 0xee7fe5f64645452eU, 0x13ddd45933c92d08U,
  0xb9fbc9d704280befU, 0xe15d81516c18f8beU, 0x1a16c3f5407100fcU, 0x2039ffed07dcde09U,
  0x2cdbf34cc78498f5U, 0xc6faf211dc5e4cdaU, 0xd818fd0584f04605U, 0x1c169111191c20f6U,
  0xd82d3ee724f322d3U, 0x14163c69fdeeb728U, 0xf1c90c200c0c1dedU, 0xccf1fdd3c828e606U,
  0xcd365836810702c4U, 0xb01507f106020ca4U, 0xeb3e0d4f1311cbcbU, 0x1c1c3fd6b6121a1eU,
  0xb3ffe7570952aa16U, 0x6f00f1bf16e1ae81U, 0xfd531c2a2eebddfaU, 0xf23e3dce0dc519f2U,
  0x111c2c277f65091dU, 0xf4023044ec030511U, 0x41fb6f25e505f2f5U, 0xe200da2c2403c715U,
  0x1d1ee50933323800U, 0x4794fd2244e232fbU, 0x7fd6c84319d8ff22U, 0xc1cd09e10910330cU,
  0xf2422de6ff41123bU, 0x3eb94c2ee6d6ce26U, 0x2611e12fddf32721U, 0xcf9d44c311f0730U,
  0x7f811d353ef0c396U, 0x5cf3095b0aefbf28U, 0x16f8e7200bed0ac5U, 0xa1c236de092d07fdU,
  0xd0e000d1d63efec5U, 0xbed83bf8dbc1da59U, 0x2eae020206313603U, 0xbb47daabdc003711U,
  0xebbcb65881f50930U, 0xc5f2e5a3e840723eU, 0xecc6a0a5911e9261U, 0xd802efef0beefedbU,
  0xe0b1f91da3628eeU, 0xfaa44be270a11ed0U, 0xfa4004f20ffa0c08U, 0xde1781210704f013U,
  0x14e9f4dbf714df14U, 0x1625ed0b31f60954U, 0xf406ea05810cce13U, 0x21bdc3140c3b12d2U,
  0x36e5f5f438d3be07U, 0xf82ff312f0fbfcc9U, 0x5c73df6U, 0xffffffffU,
  0x0U, 0x1U, 0x0U, 0x0U,
  0x0U, 0xffffffff00000000U, 0x0U, 0x0U,
  0x1U, 0x100000001U, 0x0U, 0x1ffffffffU,
  0x0U, 0x100000000U, 0x0U, 0x100000000U,
  0x0U, 0x0U, 0x0U, 0x0U,
  0x1ffffffffU, 0x1U, 0xfffffa7800000000U, 0xfffffc58fffffa58U,
  0x5670000091dU, 0xfffff918ffffffa1U, 0xfffff7a9fffff4ceU, 0xffffebfdffffe37aU,
  0xfffffced000000ebU, 0xfffffca8fffffe17U, 0x174dffffebc1U, 0xffffffa400000686U,
  0x3bc000008b3U, 0xfffff31a00000022U, 0xfffff037ffffffbfU, 0xfffffde600000317U,
  0x62d000002bcU, 0xfffff678fffffdfbU, 0xffffea73fffffd0cU, 0xfffff983ffffe853U,
  0x167ffffe382U, 0xfffffcc4fffffb6bU, 0xfffff6780000001bU, 0x470000066aU,
  0x6fa000005c3U, 0x3b200000ad0U, 0x30fffff4e1U, 0x3200000031U,
  0x3400000033U, 0x3600000035U, 0x3800000037U, 0x3a00000039U,
  0x3c0000003bU, 0x3e0000003dU, 0x400000003fU, 0x4200000041U,
  0x4400000043U, 0x4600000045U, 0x4800000047U, 0x4a00000049U,
  0x4c0000004bU, 0x4e0000004dU, 0x500000004fU, 0x5200000051U,
  0x5400000053U, 0x5600000055U, 0x5800000057U, 0x5a00000059U,
  0x5c0000005bU, 0x5e0000005dU, 0xe92e1df60000005fU, 0xe7ea04e1e4fffbdaU,
  0xf5eef1f5010211f7U, 0xfb07eb0afbf50e03U, 0xf6edfd08f8017ffcU, 0xf2e80ceafb06f4f9U,
  0x8191ba810be501ffU, 0x3d220c9481f7cb0eU, 0xaaefbbfe21c1ff29U, 0xdb161f0ffdacf422U,
  0xc1fd1a44f8d28813U, 0x810a7e04fee2bd7fU, 0xebf5f2f0cc5e811bU, 0xe9fffbea53100b14U,
  0x5fc3302f401edfdU, 0xf7eef3040d01f803U, 0xf71afed60ee7dcedU, 0xf2ec0125fafb0304U,
  0x6dfecce0ffdde9f8U, 0x8181100ffe2de881U, 0xf9b01f05131067e5U, 0x1b5009fb98057a0bU,
  0x5341c1c977f84f6U, 0xe28eaa1ac27050fU, 0xea81a1172e0ec840U, 0x7c62597f257f812bU,
  0x2d7f81546d55167fU, 0x814c7f7fe1810b7fU, 0x7f7e4a86db28727fU, 0x7c3e81e4ce818187U,
  0xb81404f6ba7f5c81U, 0xfff581f1563ac51aU, 0xbe891fe817f8103U, 0x3381200a7fe78117U,
  0x938181817f8d1d2fU, 0xf39e57fdccffa1fU, 0x25d6062516dbe41dU, 0xead7130afe1fcae9U,
  0xffdfd14f7f01de0U, 0x1e1df8e4f4091503U, 0x82503dcf830de00U, 0xfaf510f802200a17U,
  0xfb037f7b170df01aU, 0xf220f802435c8b57U, 0x7f0fb681131df9acU, 0xce293e85fdfaf922U,
  0x34d241cdf61c2f47U, 0x77ff30c8131b9a0U, 0x201a171981e94515U, 0xfe0ff0f9c93df42cU,
  0xe09d816f2f1fadaU, 0x5c20bec0ceae803U, 0xf1c7b82d28c7040fU, 0xf2fa11ff2be6ecf8U,
  0x30617270d19U, 0xffffff650000006bU, 0xcb00000265U, 0x3250000015cU,
  0xfffffffb00000130U, 0xffffffe6ffffff7cU, 0x9400000025U, 0xf0ffffffe4U,
  0x332000000a0U, 0xffffffd8000004f9U, 0xfffffd07000000ceU, 0xfffffd63ffffff99U,
  0xfffffff4ffffffc3U, 0xffffff5affffff67U, 0xfffffeb7000001b8U, 0x18effffffc6U,
  0xfffffd67ffffffa4U, 0x20300000047U, 0xfffffff600000009U, 0x125fffffebeU,
  0xfffffff40000026fU, 0x47900000020U, 0xd2fffffff2U, 0xfffffff7000000fbU,
  0x61cdc5cbffffffcfU, 0x4b7bf3681c8f532U, 0xdbf47d6ccacf01eU, 0xf33ab281002f4e3U,
  0x68ec18c62b68db35U, 0xd1afd01bf1c38e8U, 0x740b0803216130faU, 0x41fea9f5dd387f49U,
  0xe228e01db139371cU, 0x4730bee82ef70756U, 0x1127256e631edfdU, 0xee52263224276619U,
  0x81ed0e6fd6ba0a01U, 0x95a5e28efd311e4U, 0x1f26dedf67f5695dU, 0xfb6c1548563e4700U,
  0x230010d561e7e533U, 0x273ff12a52d2d23dU, 0x111af97ffe9edba8U, 0xefeef53409eab20cU,
  0x41a83d08220308b1U, 0xeacacbd20113fff0U, 0xc3f70807ea083503U, 0x1826db0c055be218U,
  0xe5eadd31fbced3ceU, 0xa81581d0b65c7fbfU, 0x3ac0b14d7f6e0daU, 0xf5083ebce13016d8U,
  0xd630efede3b2b5b1U, 0xb42f07b7c06455c8U, 0x1408f1f9f2d319d7U, 0xd2f4e8e7e5139418U,
  0xe3eaf62219e704d0U, 0x27f11dffcf61f42U, 0xd319190a16cc0113U, 0xc2230324dd62e420U,
  0xe923f706d40afef8U, 0xeaf82d93e73dd7ceU, 0xbbdb45fb22a710ccU, 0x24e84da009f3047fU,
  0xf13d6d533d2080cU, 0xe005a00536c903a0U, 0xdcffec05b517a70dU, 0xef3628f1d00f03fcU,
  0xd37feff9f642dc04U, 0x439f9e4b7f7c7feU, 0x2ad8d3ffd8dafa02U, 0x191600ccce01fff2U,
  0x15f0f91529c3f00aU, 0x35e91a2f501dc0e5U, 0xf019ef2011e00f9dU, 0x40ee1b5d40f83cd1U,
  0xcdbe6e56009151bU, 0x5ab82313e6d0cb20U, 0x1ec46608f3247f1fU, 0xe4e5b51c2a162bfcU,
  0xe3bc191ea402b8faU, 0xd6b2dbb7cacd9bf0U, 0xa4321b35b1bbe7f2U, 0x2ff61f815cf0c3ebU,
  0xe7f2f7a7f8d222b4U, 0x9db33e9edf7c4e4U, 0x4be4ca8126d8f2edU, 0xfedbc91af72af6ddU,
  0xdd0daffff61bf60bU, 0xffe507f32c15c8c1U, 0xf231d83b3eed1a00U, 0x333bb3cb59081824U,
  0xfd1fb0fdf9c8e8c7U, 0x67ca0922e01314e8U, 0x8ed081c1e9d5140bU, 0xeed0dc1ae9eeea05U,
  0xfa0f001917a5fdf9U, 0x21c40321252a53e6U, 0x18ee3310e5f7fa21U, 0xf0137feff81be822U,
  0xeee6e509e3eafd19U, 0xf50608f109d53e07U, 0x3236d033fdee0503U, 0xd67dfcbfcaca63cU,
  0x57fa7fd8ec0fe8cfU, 0x46e939f81d5bdceeU, 0xf11262fdf628d312U, 0xea1720b5d50988e1U,
  0x3ae4520ee6f0f3d3U, 0x3bf27f12e5fab70eU, 0xc6f726c20a039d27U, 0xba14330ba2f1abfcU,
  0xa0a45c5d4f80fabU, 0x1649dbb979d3fc27U, 0xf8092117150224deU, 0xf33ffd1411fe4419U,
  0x7fea109b0a3ff970U, 0x26f9194eedda0d33U, 0xb24174d22e82211U, 0xe8171b119318ec22U,
  0xe90d492002371e11U, 0xf6da480c1cf4f3f3U, 0xde871b7db6eae6f6U, 0xb4d8a97fec4bdbf2U,
  0x485ef1f2f7c04fb8U, 0xd20a2392a5be104cU, 0x28fdf1fdce1491a8U, 0xc3de147802c5560eU,
  0x81101a42192c0a15U, 0x1838f0f23be8faeeU, 0x3bedbff801fce6c0U, 0x27080d2dd5d8a3beU,
  0xf0ff0b0aef3fc532U, 0xe0fceb0ce40a0409U, 0x706051b06068b13U, 0xeed2f819931a971cU,
  0x1fe20bdc81dcfa04U, 0x2642f69d1dd9dd08U, 0x7ed60ff708f6f5f4U, 0x1e0200e3d41a2428U,
  0xa49f3f413c15402aU, 0x7df26f22dcf23e9U, 0xab0518271dffed0fU, 0x38ea150c0c34237fU,
  0xe3db12c1f01853d2U, 0x7f4e08a630bef810U, 0xf41469003d8fc2d5U, 0x1a390cd5bedff7dcU,
  0xeddfc0c8e63c17e5U, 0x240035c0051813e8U, 0xea1719ab19201219U, 0xb161fcb16dc12daU,
  0xb1ebe87f17f8da20U, 0xfef023dde131e42dU, 0x1febdf01ff28f019U, 0x90f05031e011fd1U,
  0xd7fbfae41aef24edU, 0xd9eabcad2ae33daaU, 0xc6fddf00cf1cff10U, 0x221f36e9102915e5U,
  0x15daf2e6ef0603ccU, 0xc23ed118f2a007fU, 0x51022208a4172236U, 0xe7152e02210cbd08U,
  0xe71ff559203e147fU, 0x341f45310dbd1b02U, 0xbf371fe701d6e02cU, 0x1035e34bfdfe09ffU,
  0x35ed14d4d5fd0531U, 0x21d01f1b02d5ca03U, 0x85107f3baedd81bU, 0xfd2cf3b110c5b6a9U,
  0x1010e228e3ac76c3U, 0x7f071abad70381d1U, 0xcd04184920f56157U, 0xdbfdccc726cfe6ebU,
  0xf47f9be4f4ce14abU, 0x1f5c13f11da742dcU, 0x1c1dde3d2c2ef3e8U, 0x3bfc091245050448U,
  0xf1b3fd1ff4cbe9bcU, 0xe3e70322da0bdbd9U, 0x22ca7ff1e2bc10d8U, 0xf9fbcdd724d8fdecU,
  0x51fdf9d0090102dcU, 0x36fb651006eaf627U, 0x8a3dd293022dfeaU, 0xfa9b2c35c5d00eebU,
  0x8aeef662e15d8bfU, 0x2fdc81deefedbf9U, 0xfddb3ed4f7e181eaU, 0xdf42cda2fcc05f9U,
  0xe607ea020e740bfdU, 0x120e4be4c717bb0dU, 0xa1ddda7f5fdcca29U, 0x2bddff11acedcf11U,
  0x13f0bb09d9c351d8U, 0xd7e444f8cf0cba0eU, 0x81027b7e1d512711U, 0xd99a2700fcebd5daU,
  0x31072b2386fbd5bcU, 0x8be4d154d69ddff9U, 0x469e8e7d5b93eb6U, 0x658825df0fddac38U,
  0x500efe08b4ec25c2U, 0x1100e0e90af35828U, 0xdd08e531812c09feU, 0x1d4d81f3ddbf61cU,
  0xe8a22f1adff9e204U, 0x9e0049c410105eaU, 0xe1d118040fcfe80dU, 0xd5fef8fb2098e8baU,
  0xe22d00c4d1fc3dU, 0x12f4b5993ad325acU, 0x31341de81afc7fceU, 0x30dd65cc170bcb0bU,
  0xa0af1db18fa43b4U, 0x5bc7ff0aedfa4f1dU, 0xae0981165833d718U, 0x79d2e620ff140e12U,
  0xe99b9be3ed6ab421U, 0xe8b0c3eaee07f40bU, 0x301a080fe7d11523U, 0x4fd31ffbe1b1fc5cU,
  0x825191ed50f035eU, 0xe0f7c801953ad8c7U, 0xc6e3adc7cce8b9eeU, 0x4f4a01c666f2a481U,
  0x7f3c30f229d7fb55U, 0xeda1c422a5201c36U, 0xd63e1ff08e1dfe10U, 0x15d91710e7e2d34cU,
  0xeed51146e9c9ee04U, 0x2dcff1c28c1d4b17U, 0xc20ccaae332190aU, 0xe9c817e4e6f6f5f3U,
  0xd656b47f1a1e0b75U, 0xe40a02e2e9d0dcd8U, 0x2cc8d1bcc300e7deU, 0x2a11e3fcf104b6b0U,
  0x50bb86025e9000cU, 0x5e20d53c3d42207U, 0xb962dbf7f6dcd69dU, 0xe3f0d177d3c6dfdeU,
  0xfbcadddfe6d5ce95U, 0xbdaeb0fb1dc51b14U, 0xefdbea07c30a257fU, 0xcd23dbe1d017e09dU,
  0xaa82a0da718abeaU, 0xe8090803b68eb96dU, 0xbac8f82e8100df3dU, 0x1af719eae6330c1bU,
  0xf2432a1adee516ecU, 0x1e237f0231342abeU, 0x342f6b4106311dbU, 0xd5f9eadb1aed2a26U,
  0xd164f15e0ec5f801U, 0x3415491b01c35af8U, 0xeb0bcdc8fc2d000fU, 0x63fe0adf1cddce53U,
  0xa33d7f2000511808U, 0x33ca090519740c2fU, 0xdeeaf500175f3445U, 0xf5b6dff98f2c4a34U,
  0xd66b8241c9253ef5U, 0x247f36c1da2ed80fU, 0xf8dde60f65072cceU, 0x27f1e6bd347814e8U,
  0xd919411240e6d504U, 0x8624a43c64fbf021U, 0x3f66d7cc673cdc58U, 0x5f3530a1f4b82b2aU,
  0xf11ed6d2fd8f07c5U, 0xdc18ddb917102ae0U, 0x11bbdcd3462b00e5U, 0xb5a2b213f805bf81U,
  0x21cae323456081fU, 0xdad928eaf057f301U, 0xf4de3f3bf8cfcafeU, 0x2c105bd2ed7fff37U,
  0xe4e2d00de20a1737U, 0xe92d05f8fd3621f7U, 0x38f341e516f4f8f1U, 0xb7b20bc7621d5cddU,
  0x9205cbc3384bef70U, 0x131ccd19fe3eeec0U, 0x1fde9cedf80e1d1aU, 0x7fea1a201bba5cc2U,
  0x1604e4bc4a2c204cU, 0x53cb4fdecd07fe60U, 0x3df42fda46d8fdfdU, 0xff100b9ad404b452U,
  0xf20dee81dbeff320U, 0xbd8421124bb1edbU, 0xc47f423000670aefU, 0xc7b843ad5d04075aU,
  0x45e0a90e050d14c3U, 0x9ed467d61dae320bU, 0x9e155e491ac61936U, 0x23173716190140ebU,
  0x10d2bc3c34bafe98U, 0xd3fdf764ee1170f0U, 0xe3c8020fdfbcd3f5U, 0xdcc8e314bcecffaaU,
  0xbe2eddaf6c308b4U, 0x592609ef81cd09eeU, 0xc0251b3e98fada2U, 0xe4e3b602324639daU,
  0x91a12d1ff90b11daU, 0x17b80a1bfd1a021cU, 0xc109ed1fe111217fU, 0xd2103308e030041aU,
  0x2320c39dbc6U, 0xffffe5dbffffbf10U, 0x2067fffffc54U, 0x3b4300000314U,
  0xfffff92100000bc2U, 0x321600003495U, 0xffffe95f00001a49U, 0xfffffdfbfffffc2dU,
  0x2b35ffffd094U, 0x1df4ffffffb5U, 0x1262ffffe0e6U, 0x1669fffff413U,
  0x1c1bffffc44dU, 0x76500000521U, 0x1d40000025abU, 0xcba00004fceU,
  0xfdc00002a86U, 0x94b000027b5U, 0x1f6e00003ce4U, 0xffffd72800003c54U,
  0xffffedb2ffffd778U, 0xffffefdd00004709U, 0x3faefffffd60U, 0x3ecafffff3b7U,
  0x18fffffc0dU, 0x1a00000019U, 0x1c0000001bU, 0x1e0000001dU,
  0x200000001fU, 0x2200000021U, 0x2400000023U, 0x2600000025U,
  0x2800000027U, 0x2a00000029U, 0x2c0000002bU, 0x2e0000002dU,
  0xf84e24ea0000002fU, 0xe0150d0bff0f0303U, 0xe6fdde19d9e01001U, 0x391fcdd0fc71420cU,
  0x3deff5ed45337b05U, 0xb181fe7fcbd3017fU, 0x3ca4a1211397fb9U, 0xd8ffff040ae1fbecU,
  0xcd13e40801ddcc14U, 0xf650e9ed047f0ffeU, 0x171011cb057fdce1U, 0xa5f04a220ad06aecU,
  0x7fae0bb7dd14e508U, 0x3c147fce819b819aU, 0x475bea21ed817faaU, 0xcd9c7f1c2c7f6a7fU,
  0x36811ded39b5d8b0U, 0x81f3111ef1f640e1U, 0xfb3ff945d34110bdU, 0x180f0e20fe500623U,
  0xf4d23204030ffcfaU, 0x3c7f7e7fe720f5dfU, 0x7f16a57fd3c80881U, 0x4f127ff97f0ff8e6U,
  0xda11151481d8f31aU, 0xf10040a40ac11d9U, 0xc4d71bef131913fbU, 0x66fbb7d13b1U,
  0xc71000001b1U, 0xf1cfffff8c2U, 0x5550000044dU, 0x23effffffe2U,
  0x102000000deU, 0x5e8fffffdd2U, 0x451fffffb56U, 0xfffffba5000004f0U,
  0x5ee00000194U, 0x3a9000014a2U, 0xfffff9f5fffffcf4U, 0xfecd81bb00000165U,
  0x370c0e14131df5a2U, 0xfe61d1118f289fcU, 0x154464cf64f23ebbU, 0x87b97fd616c3e4bbU,
  0xf3438cf5303d01eeU, 0x8cbae2c5a917c0abU, 0x56a04481b5dedecU, 0xe5dbe4b6c10d16b3U,
  0xf7c72e2ad57f1214U, 0xf7083af634f30a25U, 0x2ade327fe65e5923U, 0x1b0ef9e7f93fea09U,
  0xd635011638da684cU, 0x5a06e0bb7505cb99U, 0xf7effa3c24cb7f1cU, 0xe458d7f9a7ec3cf7U,
  0x183a75cbed0fdf7fU, 0x30ece5cc58d02341U, 0x2d16cd00bce9d8f1U, 0xbcd871dedd055d7fU,
  0x1ee736275a2ef228U, 0xa8575ce621f43c02U, 0xfba2edcf6b7e481U, 0x53f1ed0c2904b62cU,
  0xda0dfd7f036d38fcU, 0xfc3eee0020381701U, 0xf5a5913a45fce0fbU, 0x9153a1f7183ff705U,
  0x117f231e03eeaf10U, 0xc5909cbc56ec1e1bU, 0xeef34221e9ee3a6aU, 0xd2167e57ffb2d09U,
  0x750ef512161c11edU, 0xcfca0e2de2d6fae9U, 0x7fe11b1125d4b7ffU, 0x1509ddc51025aa54U,
  0xdad962eb3af03fdaU, 0x67fbc000204e112U, 0xf64a104ad0e0cec0U, 0x7ff645faded0e30aU,
  0xee181a0efb57d118U, 0x1391822de4deed1U, 0x81bda8baf8e5f6d1U, 0xdfbe021214106cf9U,
  0x23f6560611f00c37U, 0xa1d47fd3cfcf037U, 0x1fd5175b7f01fef2U, 0x7fef25d127d113f3U,
  0x2f86c3c647ef2828U, 0x29418332c7d029fbU, 0x71254b59fb24a8baU, 0x151bc15fd61dd115U,
  0x73c57735dd04f9d7U, 0xd2737306d8127ffbU, 0x354f9f7d119198bU, 0x6207f5c3606ee98U,
  0x99223e542dc977e5U, 0x5e3bc0ddb7f045bU, 0xe2cfccd1d94d599cU, 0x3cd4e3ca954bd1ddU,
  0x6866a3172402674eU, 0x52127fd4e6f3e5e1U, 0x3d00d9401f02c505U, 0x23b723fd7fd8250aU,
  0x1c3e09f81fd6f412U, 0x41bef0679bbaf6aU, 0x5017251ed6137fc0U, 0xd428cffd1b1c42U,
  0xf4c702a1efce1835U, 0x411b0811177f89d4U, 0xb3fe4690c91846aU, 0x29d3c9dcb925U,
  0x148d000019efU, 0xffffed7effffdcebU, 0xffffe095ffffc350U, 0xffffddf400000ab2U,
  0xffffff6dfffffa6eU, 0x1005000014b2U, 0x1537ffffe229U, 0x1b13ffffd00cU,
  0xffffe197ffffd676U, 0x3e0000002d9U, 0xffffe237ffffe351U, 0x1e41U,
  0x200000001U, 0x400000003U, 0x600000005U, 0x800000007U,
  0xa00000009U, 0xc0000000bU, 0xe0000000dU, 0x100000000fU,
  0x1200000011U, 0x1400000013U, 0x1600000015U, 0x17U,
  0x200000001U, 0x400000003U, 0x600000005U, 0x800000007U,
  0xa00000009U, 0xc0000000bU, 0xe0000000dU, 0x100000000fU,
  0x1200000011U, 0x1400000013U, 0x1600000015U, 0x1800000017U,
  0x1a00000019U, 0x1c0000001bU, 0x1e0000001dU, 0x200000001fU,
  0x2200000021U, 0x2400000023U, 0x2600000025U, 0x2800000027U,
  0x2a00000029U, 0x2c0000002bU, 0x2e0000002dU, 0x30cb1ee80000002fU,
  0xf2abfaedf9220bf2U, 0x28ef1fc2f1fc1af9U, 0xcc16c6fcfa3fd39dU, 0x1afe0d07f80b1636U,
  0x14ff70d0dbe25e8U, 0xdaf4fa08edf430ebU, 0xf2dc08d77ff906d3U, 0xc44819ec050de405U,
  0x3f9070f2b0acaa6U, 0x58f4224216e00830U, 0xcdc609e0ece0ad1eU, 0xe2213fefd5fcccf9U,
  0xce4420060ed271edU, 0x68ed181e75efecdaU, 0xab13db0002ef10ecU, 0x1c18fae32b132300U,
  0xd2fecde619d813f8U, 0x2a4e7e11219373aU, 0x41d6e2191314afe6U, 0xf4da3e3381fefbe7U,
  0x21300e360c34fa2eU, 0xf5bee625f208d7e4U, 0xe7be6ebaedc6d076U, 0xffebb5f4201bcb0dU,
  0xd833f864af46015fU, 0x1311f5ddf619e4dfU, 0x1413191f19d8ce7fU, 0xccd0fd9e3e5dbefU,
  0xf58f1c5cd6321763U, 0x4c2e4124755b2b8U, 0x18c1fd0508dcf88fU, 0xd9aa2e4134ec143dU,
  0x609521a151e2b27U, 0x5d11e6fd5217fcfaU, 0xc514fb00f8a9391fU, 0x4a07280c040c03a3U,
  0xfa1713cde41aed0bU, 0xf7f300257fbb102bU, 0xaad7f22336e5b6fcU, 0x1995cc12b4f1e912U,
  0xf5111ae115dd1c3aU, 0x42041da9fb200fd6U, 0xccf6bfdbc1f5f3b0U, 0xa3a60429cfe0f6bfU,
  0xaced36e7fa2bf0dfU, 0x12a9c3c640263de9U, 0xcdf5f50a3247cce9U, 0x4cbe2b644510f3bdU,
  0x62e252b2729a4f9U, 0xeeae3d5d81ce80eU, 0xe8e53bcdeb041dd0U, 0x3207e1c739cc44f0U,
  0xd2c60cfafd06e305U, 0xe17fcffdf8344db6U, 0x17f3d9c1391a1dc1U, 0xa2036dddd2fde47U,
  0xac6560ef633f5eaU, 0xf4ef12d10fca21eeU, 0x1c2daecaa48ebf2U, 0x4dedcfb8c7194104U,
  0xcd216cee120140eU, 0x4fdcfae3230dfcf8U, 0x26e1f9faf50c2a25U, 0x10e5ec1f102d10d9U,
  0x1e29eb08c3d8fa27U, 0x17090fd9e381079fU, 0xafbf9091cf62112U, 0xfc0038131117d101U,
  0xfc051ee42ff421e1U, 0x100cfbd831fbf8e1U, 0xad9fb1c29e7ef2bU, 0x90717de03e9f3f3U,
  0x7a2bf2538e30216U, 0x8103880bba025236U, 0x612a03aaf1bdbe11U, 0xddc5da484718ec6cU,
  0x3f0071037dcf04cU, 0xd8fe313ae80eedfcU, 0x16951d3a04c9e84cU, 0x2514fbe729aa3810U,
  0x316f16171528d9d6U, 0xc55eeaff05f61a52U, 0x21e2e7fddb291d19U, 0x220113389dfefe47U,
  0xd20c4f3302fb2dU, 0x13383021f8f0a8ffU, 0xbe12403ef70f024eU, 0xff06e91b0bfb152cU,
  0xe39f63c1d25f1eaU, 0x8e0b4f62e0927dfU, 0x17fef1aee0df5fcU, 0x900f0d81920f9dbU,
  0xfbe9e91dd6eaf9c4U, 0x7b6fe4dfc0733daU, 0xfffefdbe9da13e5U, 0x3481e3f6f2f02ae8U,
  0x6916e52e1bfefeeaU, 0xda9ed1b40a7dfc20U, 0x5f6d723d5d7fadeU, 0x5415eee21f9c0f0dU,
  0xb4e65002c9cbe308U, 0x1a58ff74d9e745c5U, 0xfebab312f9d870dbU, 0x2104200fd16add9U,
  0xe1313afb25120358U, 0x2d3c250a2f10d8e9U, 0x2d38efdc04d1bad5U, 0xdf3fde7ec21029bU,
  0xf1d624b1e58e19b0U, 0x1a32db0846edffd6U, 0x41e50dc3f9e53969U, 0x1ee1170f1c5b66f3U,
  0xfabed0da042c2417U, 0x87e44462fb6170bU, 0x3524eef1f6defcf0U, 0x2deb2df1d33206d2U,
  0xebb2b2f6efeb9004U, 0xc9fe6b469414b4ecU, 0x553f7f5237c1ae18U, 0xee18e5fd2eef0932U,
  0x2b2616ee51d4f557U, 0x2a26017fbef8fa15U, 0x25f39a0b05d009adU, 0x130cf043e70c35f2U,
  0xd6403431b49951efU, 0xf317060a131ecd1eU, 0xd36da0102c9e3ecU, 0xf3110f26e3442d1aU,
  0xff15fbd81a1e022dU, 0xf6f419f425fee90bU, 0xe091e15fbf3bb3eU, 0xc4d9dce2f9ef2710U,
  0xec3a230cf20b04ffU, 0xbef9e015d71ee1ddU, 0x339e31312ee1c05U, 0xfb12fabdee09ffe1U,
  0xff2c1247fd33e110U, 0xe33112ef100ab903U, 0xf0511ebe0fa02ddU, 0x20d1c308fd04f9eaU,
  0xdfce36da0c2d7f16U, 0x6f8c2fd2dfdebe6U, 0xf104fe141cd10c2aU, 0x4f05ce9c031a01d7U,
  0x10a05f08bfbbfb8U, 0xc3251d1cfd0af5e6U, 0xdb645607e84a03e3U, 0x1fb4b839e3e0da6bU,
  0x3f59d2a7369ac9bcU, 0x50ff7fc1bff81cfU, 0xe11001d71f2837eaU, 0x2fe528ac37fdafU,
  0xfbab3c2264f96f7aU, 0xfbcc26d5df013a20U, 0xeed6fff1b6da112aU, 0x55f5f6b1f913fb0eU,
  0xf09cce444d3ce9f6U, 0x3e77fa3041934dbU, 0x94df64da157370cU, 0xdc202b5214fe1bbfU,
  0xd2331cc91917adf9U, 0x333f191b4dcd4af2U, 0x1418c805d1f2f9fbU, 0x51120bb15bd05049U,
  0xfc3802d1d8120f15U, 0xae08dd321afcfd6aU, 0xbc19adff5a2be625U, 0xdcf9c63945e7423aU,
  0xe908eb02e6e618f3U, 0xa0e0c2be80a03f2U, 0x18cad7f01ff2fde3U, 0x1519cae5dcf209e1U,
  0xebdbf8122dd40ef7U, 0x211cd37ffd12f9f9U, 0xdbf61319f6f1e2e3U, 0xf7e2c8d5070d0905U,
  0x14fa011a391217U, 0x71be42a4cfacbffU, 0x2f1c9f848d4eb17U, 0x2bff0ffb4ed932ddU,
  0xf0e921081c03eddfU, 0xe322d92003e1ecf7U, 0xf0f0312fa140f39U, 0x26f1eb00160efbf0U,
  0xf111e70ff7e3f318U, 0xf213df1223d609f8U, 0x3bfc0113f0da01f3U, 0xe1331740f30ff7ebU,
  0xe0eef00ee5dde4f2U, 0x3ea0a1cda372fecU, 0x20d6ac3cf10efb7fU, 0xe13ed3137cd921f9U,
  0x2724ccdd2f3dad44U, 0x20f51a67b107b837U, 0xedffc17f2b120dfaU, 0x4ecd172623a625c9U,
  0x170c1415fdb60023U, 0xd5abbbe1f21cf715U, 0x1cf308e8d3fb9cedU, 0xfaf2ff0bc90b0af1U,
  0x181f18e3e128000dU, 0x22e906dd01365509U, 0xe4a11a0fa10013fdU, 0x2d1c081af8233b01U,
  0xec1d1f16f5b73d24U, 0x6a211add5d19f31fU, 0x19d03125f431bc05U, 0xf123285412e1d22eU,
  0x2dae10f47e5f80fU, 0xcfb5aa07e3322021U, 0x32e455d80c41c03dU, 0xf44e641ddc15e9dfU,
  0xe47fe52d101aedccU, 0xf163465c1f35115U, 0xb82ce8d9eaa8e80cU, 0xebfb1af45b29b5f9U,
  0x2009e80f2acee92aU, 0xe82de852f5080914U, 0xddd1db29edebd0f5U, 0x3dddf4010368280dU,
  0x21f10e2e2d3d3351U, 0xa4c92bf13411e7ddU, 0x3caced0d159bba19U, 0x78e33aeee309c5c3U,
  0xdd54133ce54784ecU, 0xd0224d685bb7264aU, 0xd9b7257fa0e08d1aU, 0x1bf39c02b4f02d53U,
  0x2fe3190a022ff714U, 0x1fe3eb05fee70d10U, 0x53812c7ff160f17U, 0xe4da1efed814ebe7U,
  0x14f138180914050eU, 0x524e639dcbdfdc9U, 0xa433eb1cdcdfc8d7U, 0x10d8e1c00631e7e2U,
  0x5f1e9cd0de07f04U, 0xe3d6f1bc25e611d7U, 0x10d0f2e25230f0e4U, 0xcaab1ff101d6ffe4U,
  0x3ee2002e08f11214U, 0x13217d6cfe7e242U, 0xa3d7360bd9010a09U, 0x73531ed36f8f023U,
  0x806cf187f5b13d8U, 0xdaa9e50e56ff181aU, 0x580f16fa1741f7f4U, 0x19fb1f05b2172532U,
  0xfeec1a1e5acb0cccU, 0x48e4ef2ce1e2e04eU, 0x28cfd410e1df3922U, 0xc048ed11470d2050U,
  0x1bd5c5e5c92c8101U, 0xbb3fcfd1a47634d3U, 0xbbe9c0f10c0aef06U, 0x370d3ed80a9d3b35U,
  0xd220ac501e3635daU, 0x1527f4f6cf2f19b8U, 0x9933263fe1c6e2dbU, 0xec030adac8e50803U,
  0x331b2d004beed8d2U, 0xacf904d810d3aef4U, 0x3cc5fdb7ac09f90dU, 0xc31b240ff3f3d713U,
  0xaff95d8e6070dfbU, 0x50deeb0939e6c5f1U, 0xf23fba93d09cb46U, 0x27b91728f3e6b709U,
  0x24b5edd751c706e4U, 0x8ce0b01920142efU, 0xe00df0db04e492adU, 0xc5d17fd90ff0c4f2U,
  0xe21d1f63682217e0U, 0x4ce075f0f10823faU, 0x51cc1cf6d3b6c209U, 0x16f508390ef1cc33U,
  0xfa07552c3b8aeddaU, 0xf8050bf2fad5dfa0U, 0xe94c05f3e32105e5U, 0xd77f1214ab3add41U,
  0x1b2b47f8f7cae4d7U, 0xf021e1f8f5e3c4d3U, 0x1c1e1c15050c0205U, 0x1afa11f5e505ee2fU,
  0x100be318f0ecec1eU, 0xebfef239eecde9e3U, 0xf7f010060404fdf8U, 0xe4da0fe30df626e3U,
  0xf303110fe11c1e0eU, 0x253e220711f611eeU, 0xc40af0ce3bf2ee0cU, 0xe4cdc8fafb1b1c10U,
  0xec02cae3351821fcU, 0xfb12f1fc0710fbecU, 0x187f1e0921f3dbddU, 0xefeb0ee0f234eceaU,
  0xffe80937dfd2cad0U, 0x10b916141b0922ddU, 0x16d0ea12eef9d302U, 0xf9ee25f9eb241c08U,
  0x210cd30d560b1e04U, 0x15dac92b15ebca42U, 0xe2fc17d4f4b82bd8U, 0x2f91de4c07d431d6U,
  0x3023f7253318daecU, 0x150fe1fe0c120704U, 0xe910bb2f0d24cce9U, 0x25ea0aaa26102dceU,
  0xd315da417f0efdf7U, 0x48f434e5f7f638f8U, 0xe20809e60ed2d429U, 0xe921cdf3dec90cbbU,
  0xf37f3920c8ef55ddU, 0x1fe32b7aff27a1fdU, 0x293ae52448316121U, 0xe72f9cb4cf1f554bU,
  0x5f70390fbbf16f9U, 0xfa11eaff04dbaff0U, 0xfd2855e8f4059c37U, 0xec2feb021119fdefU,
  0x33e803eb431756e6U, 0xfb19ed64f029de36U, 0xac9dbe3f23b200cU, 0xeae3192fd8210fd3U,
  0xe3cb0eee3f4de9f8U, 0x7e41930c0e5c80fU, 0xd27f03d6ea180812U, 0xcaf4f423fd40f1feU,
  0x2f3052011ad50e07U, 0xe0709d3db00f8deU, 0xea11e01210e5dbbdU, 0xedd905d132f826d2U,
  0xe71202fcf6e3f81eU, 0x18cb07f41afe1844U, 0x92ee0506dff6f5e5U, 0x2d01e9fe0ee61808U,
  0x18e6cdc407b8c31cU, 0xe0af6d7cecbca03U, 0xb1ed06a30eb2e551U, 0x5ef03ad423ec0405U,
  0xd813f417e5813c0fU, 0xed6e10de7fb13f1U, 0x23fdb4fefd10eae9U, 0x20db0b09beab02d6U,
  0xe40f19b0f81518a8U, 0x281f4339f52f2bd2U, 0x14e517d5d8c504e9U, 0xc946e4cf05281523U,
  0xe7fcc7eb223decf3U, 0xf52108fad5ea3cf2U, 0x1128c209240cd725U, 0xfde43a0e0f1adaddU,
  0xd504c4d703cf2115U, 0xf235062d2245edf7U, 0x3210f0d248f1f0e4U, 0x9f4e2f7df1adedcU,
  0x810b262714d9fd2aU, 0x3b041209fceeea14U, 0xc8cc0df22deffd07U, 0xba3005fed80ff1fcU,
  0xd4a8de168b223a09U, 0xb305ac38d02fcf06U, 0x9c2c504f72dd035U, 0x1a15e63bdcea3a06U,
  0x6130edf75d315926U, 0xf3ace8d7d412fce3U, 0x7e32cfd4611bdb5U, 0xdc1207a90a01d7f8U,
  0xb1041d521930e515U, 0x21da1cf7360321b0U, 0x188103dedbd900f2U, 0x607e8f70432fce8U,
  0xe4021bfdfa11fde4U, 0x19d7eae3fcfbeb0cU, 0x3eebe3f7e80a1a11U, 0xe33efce5000f42f9U,
  0xcde3f8e40312141eU, 0xf301aa1613201eeeU, 0x3907f447e906c2d9U, 0xfbec264b95ebdccdU,
  0xeffa12fcc70b1a1aU, 0x33fdfbf1f1687fe2U, 0xcaf90eeb0bdbd927U, 0x455313ea1c620b04U,
  0xea250aee0dddf5bdU, 0xe0093638176ed104U, 0x7100ce7eac41b3f8U, 0xce07edf224d3cdfaU,
  0x1bed0600f7fdfe7fU, 0x3fe5eb28074c3c2cU, 0x5d51e143ff30d828U, 0x8d75d3132272101U,
  0xefec00d805e44422U, 0x23cff83fe9e9384bU, 0xe301d418cc40e321U, 0xd2e9e42d161a36c3U,
  0xfa0706d25845d222U, 0xf50ed954dbd8c20cU, 0xd54b1d01f0f61af4U, 0xf7cf4d450ce0d6ccU,
  0xf6f24120190af0f5U, 0x1948fc52e4e5f04fU, 0xc9febef2b9e05e1cU, 0x6bbec8051be1f031U,
  0x50410dc0c038a436U, 0x9fb69dd848b9a1e6U, 0xe77f270d3355228dU, 0x20a624d0c98d1ed6U,
  0x9c53214bd12fba1bU, 0x5e9e2e53429b436U, 0x2cdaf06cb8f2b7a8U, 0xe340b42ccdf6e0b1U,
  0xec4beb2e084f0028U, 0xf8c0eee1eb04dd9eU, 0xe3200ad4f9011792U, 0x81fa31d3ce4db7d4U,
  0xeed94affa9202205U, 0xf2d5d8ea44db2bc6U, 0xd9efbc1f3abdd4d0U, 0xfd22a1d4ecfb29d1U,
  0x700bf92f1806d3e9U, 0x1a0f1444d262cf1fU, 0xc7eb212b811f4a15U, 0x71f0bf4fe02192dU,
  0xe14009f0010bfcfcU, 0x1b0515140ac13af5U, 0xd5361618f203f22cU, 0x3f05e9191eecf84cU,
  0x2216f3f8f945f5e6U, 0xf2e13ed16081817U, 0xe4c4ddf9041bf6aeU, 0x2b04a8c6d9ef361cU,
  0xc81d25e8440330ecU, 0x49250cec19db1db9U, 0xe7681def30ce18daU, 0x14bf0301ff48c1bbU,
  0x7d736fece09baf1U, 0xd6dddd14f08100deU, 0x26f109263bc4a714U, 0xf1271ce51b5ce535U,
  0xf80d130c12ca1d13U, 0x3bec2bf80af9e139U, 0xe4d60d074bcaeb46U, 0x1de3e83ef7e514eeU,
  0x1fe9f36ee16f7cdU, 0xb8e5fc011f1ad9f8U, 0xe20ada2c14a91c3dU, 0x7e323d502b919ecU,
  0xa9ac1bde3e23bb0bU, 0xcdc1c003e4475c13U, 0xa60d7942be916ddU, 0x8102f3ceee4fded8U,
  0xef92fdd0e4e7351cU, 0xf59b17b3050d90e4U, 0xf6ad183b8be80a06U, 0xd609f5d2ea38f0fbU,
  0xfbf9f8e7b01dc920U, 0x1a0ceedcc903d3f9U, 0xf4c802e6d729e412U, 0xb4ff212fcee122fU,
  0xed25f7f4f9097f31U, 0xdddf13e8b00c0ed8U, 0x2e1f309f4fd45fdU, 0x1416ebf6d1f7faf4U,
  0xf4eaf50b0fe9032aU, 0x2fe1135f9271cfaU, 0xbc3df2f0e60ae70fU, 0x32e3240412efc61eU,
  0x232a2dcadf19cfc6U, 0xefdc140f0fdc08U, 0x15f6fe2a1621ba47U, 0x1af50e21f7e2a5b9U,
  0xcf007fddefc121bU, 0x2b4d276dce0ebe1U, 0xe00f9121545eedeU, 0xf2132539fc20267fU,
  0xce49f1f11f341755U, 0x1a000af0e9fbe000U, 0x56072fe10a2707c2U, 0x46f41af801e272f7U,
  0x19f21cb6a81ffb2dU, 0xef97f142c95c954cU, 0x7c37e4fc4d24fb4dU, 0x6a98f932e8425e15U,
  0x3044032a9cc41435U, 0xffc0f2fcb807c6d1U, 0x2d23bfba29e8dbe3U, 0xcd383622080a17e4U,
  0xead80a2cf4632dfcU, 0x7f02260b0be800e9U, 0x1ef0f1a1105d413U, 0xa81c5d51f031a12U,
  0x7020a3ce00b48ba3U, 0xd2be23edb1db015fU, 0xbd59dd30d2a4faffU, 0x55b1d0b6df620a15U,
  0xe6081bf643bf0ec0U, 0x2b5e4da4acbb22eU, 0xa2ef32e13f7cb8cU, 0xe354d2eece13b6acU,
  0xb60c672108f514eeU, 0x65e00cc334bbcb0aU, 0xf89b2ce7cdd3f306U, 0x3afad047bcceddb0U,
  0xbeacf3ed06c00b01U, 0x562efd3d2eeef5ffU, 0x20fa0b27cdc0e5d7U, 0xf3003243cf4bffdbU,
  0x2ac45f084c09ba1dU, 0xddf225f00fea16edU, 0xecee0448ddafa6efU, 0x36910eb6ae049090U,
  0xa14e4806e841c9f4U, 0x8186dbc90dc75cf9U, 0xc9d1b31cffd8c8ffU, 0xe400b8f90f0f2beeU,
  0xf15f1604fee1d531U, 0xfa37ef40d333d91fU, 0xe5e53beef2d30307U, 0x3605c8cd0a0505U,
  0xdc1a7be926cb052eU, 0xe6f7e416251f2c52U, 0xe8fb472fd4dba524U, 0x6cd01d01fb1cb90fU,
  0xfd7f040413f80c30U, 0xdbd22ce41eb62f1fU, 0xc6f6c6e7fff7dbb4U, 0xc8087ffedee42907U,
  0xf410b01fabcb4115U, 0xa4ea2cb5bbb044abU, 0xeb10befb520e40f9U, 0x5b4c2d3cc9a6054eU,
  0xc49eebae245717cfU, 0x9fb430c1e368817U, 0xecc1eec431b1b9f2U, 0xf70b385516fd3309U,
  0x23054123fa0b1dd9U, 0xcee2f8011c13e8f6U, 0xbf1b2d1bc74af521U, 0x5df7327fbff0c1eaU,
  0xce672a296496ccfdU, 0xc51e1ae9c142b938U, 0x313d22fa0625f0f7U, 0x3b5611ce0adccb3dU,
  0xbe187b05249ce1faU, 0xebc5e506ee3bfb02U, 0xf13f0004c7ed0fedU, 0xe326ef0ada092bf3U,
  0x2c2c9207e4dfe3cfU, 0x56e6db240103ea0eU, 0x9314e5faa5c3dbdcU, 0x2a23ec7f0cfd0418U,
  0x87e510fb51ea2e1cU, 0x104526040688e1c7U, 0x880355dd0600ee3dU, 0xfbf2fce0caf6beeeU,
  0xc0171adc21842e23U, 0xc9af0606f61a2c34U, 0x3d0ad50d0509ae0cU, 0x13ff0de389142bd1U,
  0xcce333052617e8bdU, 0x26e439492a2c35e5U, 0xc0e3cf2d37a9b5d2U, 0xeec1b3a0bfc26eaU,
  0xb7edf90a95d82f45U, 0xf8f2fd421e02ebd1U, 0x651fdcf40fe2d25dU, 0x9eeee2ef427e7d3U,
  0xf7ee173bc2fa075eU, 0xe5f3fa0bd647e750U, 0xf7b7d9fedbf0edadU, 0x429d11471ff9b9d0U,
  0xb0736f9da08ef25U, 0xf0bd2d027a52e36U, 0xcf20facab916d63fU, 0xcc26ea11ffe10c81U,
  0xce28ba5dd9f6f111U, 0x733215ff1f11ebbcU, 0xbb0ccd14b3f2ece1U, 0x5b12facedf5c2104U,
  0xdfdce5f500e254d1U, 0x2108ece9fde118f9U, 0x12c5f503f8d4dad0U, 0xec2353f3ee09da0dU,
  0xe9eb3b032643f6d0U, 0x1ff0391024afe709U, 0x2f0f3adace812f3dU, 0xbe18251ecd53e414U,
  0x3fea08ed5e12df14U, 0xb7f5f017e1d74b2bU, 0x1f1e0152af5ebd5U, 0xf44c11723e301fbU,
  0xf00cfa37142ffeU, 0xc81618dd1cf510f8U, 0x27d4f6573cedc448U, 0x73836ad382ce09b2U,
  0xe00b20234e9b0306U, 0x1a274a7f343e455dU, 0xc7b20e43d6e8ae65U, 0xe2b0e0d45585349U,
  0xb5f0e55b1a2ef836U, 0x3d2f3e0dc04cf0e0U, 0xfe3fdaeec8101750U, 0xe5e927d00c2f1d97U,
  0xf8360750e6de1c54U, 0x11badb9f33180f39U, 0x2abe01dfc210a62bU, 0xef21fbe5f7f20ae9U,
  0x31e945979f3181dfU, 0xeb0ad1f5f0e0ebc1U, 0x13436c813a43bcbU, 0xecffcbb9b9f1aae5U,
  0xd31c0d37f937ee1dU, 0x4e62f339f626c7eaU, 0xf2f80d37bff82c01U, 0xedd0d2309062decU,
  0xba07b918ee56fcd3U, 0x1314e3e572101becU, 0x183215f7eff4d919U, 0xfe2e023a143630feU,
  0xf4cbf3d1f8c5eaf4U, 0xfa723dfcb04fd08U, 0xaab25a3b81cd212dU, 0x391d376fe9161516U,
  0xe910a2a1fcd1d0aU, 0x92bfe4322f7cad0U, 0xee24aa62ca1dc530U, 0xeaf3181cf3cbfd04U,
  0xebd4d70bf210ffdeU, 0xce51251c513a09a9U, 0x5f02a43ee3ee2a81U, 0x15d1fb143a0c2082U,
  0xf5e4214de01fe8c9U, 0x27da313f25ebe10eU, 0xa49b1f68dfda0732U, 0x13e08bc5d7a42fe7U,
  0x4d5e5614195f1e20U, 0x483a02d0303f3ff8U, 0xf3dd6032537f6e3cU, 0xc5c5389eddd002ffU,
  0x40ffd69ff1fba27U, 0xfb1516e125cab1d3U, 0xde233a1bed0a4ceeU, 0xf5de3a772af80ae4U,
  0xa06dfc3f90f1bebU, 0xf5e4f9c3e8dfa417U, 0xbbfcf630081296e0U, 0xf0dfd0b5fa0d8b9U,
  0x12ff0c1903d51d01U, 0x201f1534df05e9f6U, 0x81abcf5ef140a05U, 0x1e38f6490308f6fcU,
  0xc2f0eaf8fe1132d2U, 0xdcc28111100cf512U, 0x39e80228e1ebb711U, 0x1a3fe060b8fad5d2U,
  0xec261b0ac503c7daU, 0x1fe80e2adaff3503U, 0xcdc6e51ab4d7df73U, 0xe5fb37222cb31322U,
  0xb9d105f03a1a3ec2U, 0xf9edc2efbeeae71bU, 0x3af0f1cc2f0afc25U, 0x1922cecdff291d00U,
  0x1d0f03173211fdfdU, 0xeacad1ed0e0135e7U, 0x735942f6fb37982cU, 0x617c717de72eec1U,
  0x2e0cc4017b7064cU, 0xf3c97c1beff24cf6U, 0xfeacbf0ef1d5cb38U, 0xbf2bf5df7fd74974U,
  0xff2cddf3f554edbeU, 0x55e4adf63e0427ebU, 0xf80ff812993c4101U, 0x1ff4e3c9f2093a07U,
  0xedf7efe8c5eee2ecU, 0x2fbfe3f210164d2bU, 0xd12d0eeaee03cedeU, 0x1f402b0681323607U,
  0x50f00ce010d638efU, 0xede060cb1b0fd7d5U, 0xecf000e2e2cae61fU, 0xba8e613e70b0313U,
  0x6e1e0163537c110U, 0x18174cbcd32104d3U, 0x14f1e70b062a30ebU, 0xe1f4fa05120f45a3U,
  0xd6e0be20da1bf7f7U, 0xcede09eff31fd404U, 0xa430acf3dda63edU, 0x2134f6c6940443d7U,
  0xfbf019c51dc9fd7fU, 0x19db0a04d240f7a3U, 0x9fe5251cfc0804c4U, 0xbdb163f4f20d1c41U,
  0xc007bd44065c2a2fU, 0xd1191919e3febc32U, 0xde3933212fd6d44eU, 0x48ebd0647f1af400U,
  0xe8c5d6ca240665dcU, 0xded52804c6d3ee5fU, 0xf3eee4aa107cfe32U, 0xf9f528ebcadc15e1U,
  0xf2dfa3dd10f5f7f3U, 0x1c3434dfc1dce2c7U, 0xdf432c070bc3fee4U, 0xe5f8ecfe19e2fd58U,
  0xbf000ce6e10cc334U, 0x607d801bf00d80eU, 0xe7de060ca1c4e4f5U, 0xf636d4110de913f3U,
  0xf81b4905d4c01d09U, 0x6d41400d7081cf1U, 0xdbecbf0c44f41323U, 0xad6e11a0f2c0004U,
  0x94b2ff3b2f41b13U, 0xd50612816fa22808U, 0xd1c0ded6fb2af3e2U, 0x1fde1914eedf2168U,
  0xf8f5d112fa1805fdU, 0x110f1aeffc021110U, 0xfb07170bf90be73eU, 0xf622c90321fbf90eU,
  0xeaed02ed07df2c1dU, 0xcab7f8efd8efff15U, 0xc1232d8fefcacf5U, 0x2d100ee1f7fa03f3U,
  0xca43da2a36f31014U, 0x3d1e1c7f05ec1955U, 0xc90af003fcf4dc00U, 0xd3ef1a921b00263dU,
  0xea684fc37b92860dU, 0xf1f803e1f7fdc008U, 0x1fdeeaf4c0cfe2a5U, 0xe5623b54b65cf9e9U,
  0xf33c19234336e012U, 0x329ae4c90123fcd6U, 0x29e1e40f000e5d14U, 0x9ae7171c19c82181U,
  0xee1765f1e82cf7d7U, 0xf053cfc4b4fefbeeU, 0x19bd984c2636d75cU, 0x314314d3101e0cbaU,
  0x24ce5cc0e92681ddU, 0xfcd905013834ee54U, 0x49c8cbf1102fba02U, 0x12d23c46d9f8dc21U,
  0x401157e95eece636U, 0x2da1f1df05287b0dU, 0xf2fac3acf6798a4cU, 0xdbbc429a1ff3a10U,
  0x2a04078af0fab0c4U, 0x98a1ae98a2f0d9c5U, 0xcbf90b3b0963f1e1U, 0x42d32b063ff0b728U,
  0xbfad22be440f826U, 0x47164e1df6e5bf0dU, 0xddea0c0f5020f21cU, 0x1acfe20e00d7cdbdU,
  0x19e5f2d8f5e04607U, 0xbfe8e6d7dca512dbU, 0xdaf8e252f5ebd3baU, 0x2b03fbc92727eaf7U,
  0xe2f6fc3e05352521U, 0x5ce2d0076f001737U, 0x81e2ebd6f0f813d3U, 0xc9e614d72d1ad504U,
  0xeced19dc0f3d29bdU, 0x1ef31eddf02421cbU, 0xc14e51ec62124dcU, 0xec32bfe433caf6ddU,
  0x10de02c6d50905f3U, 0xee5e272325d927e6U, 0x4728c7f6fb3414feU, 0x710b1a26a83e49f1U,
  0xeff1d0024cace739U, 0xd9fb7fe6ef07daf9U, 0xe9ed7713b415efe8U, 0x82411e5eae81a4fU,
  0x1c330b2f23132a10U, 0x3d1e06f4393ef33bU, 0x14ea340a044a09f4U, 0x23bf31da0dfcd71eU,
  0xaffd44208120cfbU, 0xd604fcec12e10a0cU, 0x13dd213bf91c0e01U, 0xf3ec13e6120e7ff4U,
  0xd0f8ead1012a11e6U, 0xdef370cf512eaf8U, 0xe9bb07ff00f0ecf5U, 0xfdf7ecbb24d920ffU,
  0x1f22042e120cd738U, 0x50d33e402fde20fU, 0xdfffef0070eeb3cU, 0xfb211437d8d1baf3U,
  0xf13c133826151529U, 0xf6b7ed16ef190dc6U, 0xeb06f5d845fedcc0U, 0xca0634f57f162306U,
  0xcdd3cac0c11250fU, 0x5ce40cfe221afe12U, 0xc8cbcfff12f1e60cU, 0x3eef881ced4e78bU,
  0x9636f4f8a26b1fdbU, 0xed01fe0ccf0ba81fU, 0xda17e437e7e7c924U, 0x1427c9e8f2c7bcbdU,
  0xe452002013511e2bU, 0xc9c302d5fd1112f0U, 0xdee8d2ae3fad0adeU, 0xdfd73072c723c2f2U,
  0xcef94de3200a430dU, 0x2c0c46be2812df46U, 0xded3f02bbba9d422U, 0xe6223ce0d9cbbeb2U,
  0xcdb22b9c486478efU, 0x2ef7e2671cfdc21aU, 0xf407e7cf09a455feU, 0xbf8113f9d9d809aeU,
  0xfa673fd6c904b6fdU, 0x25d2b5f538f85611U, 0x43c474016d48e89U, 0x61f0f408a07a03fdU,
  0xb138bcfcef973041U, 0x33a05ce44ee0241bU, 0x9bf521b12ee413caU, 0xf70a201df1d65417U,
  0xcb0717054efb0c09U, 0xa1a4a2d2a2acadfU, 0xe70ded21ffefff14U, 0xd9ebfb1834031adbU,
  0xeeeffc0ed8f90607U, 0xd6e408f8fb04030aU, 0x20e2fbe4fd312637U, 0x1363fb2a82151f0fU,
  0x33e7a9011be3e73fU, 0xe71bd381e11dc4cfU, 0xf21a0e121afef2e3U, 0xb56b02f70dcdfa07U,
  0xc8af42fda1340315U, 0x27fca28c8a400d0U, 0xf7a1e4e63f5717fcU, 0xe538d826ae07b60eU,
  0x7e52f31ee61111eeU, 0x63c41b4a35c1c948U, 0x96848bf6dcd933caU, 0x40fef43ddf22d5d3U,
  0xee0e0219021d14cfU, 0x37bfd6cd25ded3b2U, 0xaae4dcd9dd2edb06U, 0xc70edc5ee702e508U,
  0xd6c1df400536e9edU, 0xe01bf3c9dcdb3711U, 0xe105fa42d142f335U, 0xe872fded070707e7U,
  0xe31534fb16fbeae5U, 0xd9f4062ef42a2969U, 0xd604e012ce11cfbdU, 0xf6c5e8c1d5041ceaU,
  0xc400ffacdeae3459U, 0xb1fc1af515e688f0U, 0x27437ffbd7ee01c4U, 0x9c1723e3e4fd002dU,
  0x16fbb15f113ec09U, 0x30af3353709e9aaU, 0xc50aff014bf8f1f6U, 0x76d9e427dcd1e5ddU,
  0x2fe51adbe5d1efbcU, 0xe6c0d1cf1325f527U, 0xee0169641fb2ce7U, 0x137f0759d06ef423U,
  0x29f8f9620ae61d5dU, 0x27e44add06e42254U, 0xf8c721fec3c7ea10U, 0xbdf51e5de4cdfd29U,
  0xe9361efad3013fceU, 0x5d28e6f11f570bacU, 0xf61fb0201c1213e9U, 0xfe0290081bce18cU,
  0x2b2048241d38b6aeU, 0xd2e7ffdbf536cbf7U, 0x15001df5fbe0f0b2U, 0x4a1e4e9d5f8cf23U,
  0xf2d30f2911df1b27U, 0x18ba0efc2d04e9f5U, 0xc603fee0eaea0613U, 0x14f105f9151447c4U,
  0xf1070d0c08f417ddU, 0xf4f4fbff0a080a08U, 0x171af90ae404f9daU, 0xfaf9f3fcf3f9f910U,
  0x5de1ce5fe0dfcf9U, 0xdb0dbe01391c0c08U, 0xe1e3c21a08d1d1f0U, 0xf7ede512e5f31a26U,
  0x217fe8d527fae723U, 0x43a9361f3b0612ddU, 0xefd9c1f00eeee722U, 0xe20e392904e53e24U,
  0x16311009b2bbd0cbU, 0xecf3e0dcf72becb6U, 0xf3fb8061334be35U, 0x284021dc1511d973U,
  0xe287c1f2120f1203U, 0x243c33aef14ee3d3U, 0xf62c7fd1e612e8caU, 0xf9034f230409083fU,
  0xd5051c5ae328dc9fU, 0x2b106d26bb07d9ccU, 0xde1e12afa003507U, 0xf60ff1eb172bed01U,
  0xf5f70905e82bc515U, 0x27e344dd23f8d0d4U, 0x92d27c2f9402339U, 0x9910e618ad32f952U,
  0xff41f335e7d70c0bU, 0xeb7285ca0ced708U, 0xcefcb930eec12d3cU, 0x26dd2cdfd73cc0e8U,
  0x161b27e0c6f3ea81U, 0x6413c321fa0b93c9U, 0x15123fcee053abdU, 0x36ecc625e43cd8a4U,
  0xc5e113230ff52de5U, 0xff452afde421f0f7U, 0x131201ed38040dd0U, 0x3e8dae9e5f823d7U,
  0x100f21ff44faf0d4U, 0xe129d1301dd5e21bU, 0xe9291037a50bb8f8U, 0xf1bea1ce064c03e3U,
  0xda1cd4e443cf147fU, 0xcbc70fdf5ae72164U, 0xf4e0ce93d4f4e905U, 0x2fa2b102bf70957U,
  0x3701fba504e0dd34U, 0x2f0351ce221b3417U, 0x2f9e9bd10dbe80fU, 0x81f3d801e5a5fdf7U,
  0xb21b0aecebec09fdU, 0xd9f8b135af3003f9U, 0x2141441beacdc1e0U, 0xfb63e443f9ebdaf1U,
  0x1b2d32cb0f23f5d5U, 0x15ee1adff006f41dU, 0x44d2bbeee02fe1f3U, 0xfb2ac81717eff2e8U,
  0xc7d8fa0ad9181810U, 0x16e5e5f408f2fa20U, 0x47ece963edfcdb22U, 0x3f62c803dc2950f5U,
  0x9352c25041b110fU, 0xfcadb9031c0c2dd2U, 0xf03c4dc2d92ad309U, 0xee4abdcdd909f7f6U,
  0xc16f0c1e3f13df2U, 0xbf3bffe10cbe5d40U, 0x40f8106603ff728U, 0x2ef10ec640c1821U,
  0x91623f0fa1809dcU, 0xf80aeff311ed14d9U, 0xe5e8061b2d221dfdU, 0x29f43203feffffffU,
  0xef0ff3e7f900d7f5U, 0x15fe1ae71c080707U, 0xee13d41104e821ebU, 0xd1812d2515ec1cdeU,
  0xc5b402fc43c8c9e9U, 0xdd4fef71918e8cdU, 0xc3cb3d48f005c820U, 0x1861f922e604f0e5U,
  0xeace42bf1f1817ccU, 0x69a5f104e5a7c52cU, 0xf948d713d73d2ac9U, 0x3e2f4bfe0254e839U,
  0x430b21444e20bc21U, 0x5daf150638f03abaU, 0xc20e8e1f8fc9cbeU, 0x2fe0d3b3a820f0aaU,
  0xc429f447f047dee1U, 0xeecd356982def6bbU, 0x35e5d87f220fd626U, 0xc3f9fb0738bd56fbU,
  0x341112f2f8f5e908U, 0x18fe10f913270eceU, 0xc5e204e80e2c171dU, 0xe5fbff02f9011a11U,
  0xf8fcd51e3633f628U, 0x3eec125e01d1602U, 0x19f0f81110edd7bdU, 0xe4eb36ef14080bc4U,
  0xebef4c230f0613f1U, 0x2bf80bf312437faaU, 0x23e0fde1f0050733U, 0xc3479e24155bfa2eU,
  0x33f4ad6fa5e7a748U, 0x2a062513ce6de421U, 0xcef02b2392dfea12U, 0xd71ad6bf45111a23U,
  0x44e1edfb49ac59e9U, 0x2ac92ceb13baef63U, 0xddc947bfee411b4aU, 0xf57f21f70506f1d6U,
  0x3f1a32d7fd7145ccU, 0xf625f7d8d6b4f6fdU, 0xeb52ebcaf4be5003U, 0xdf2ddae4f05fafe8U,
  0xcdf501f5fb4437b9U, 0xfc7e45fdff6e038U, 0x15431441812d18bdU, 0x1316defd2027d026U,
  0x12d60af04c2bda26U, 0x626f07e31fb311cU, 0x105df60e1e8cfc6U, 0x1ed0281b0412d9f3U,
  0x1a09f2271523c520U, 0xe0fe410ac418e2d8U, 0xd9c0bd0a3128d613U, 0xe81e14ea01bf17b3U,
  0x20305d70eeaf2eaU, 0xf072bf3012d03eeU, 0xe9dedf240beaf9e4U, 0xd4191d2809def00cU,
  0x1e1422f125dae91bU, 0xca22dc2a01140123U, 0x1afb20310cdfed04U, 0xfbf52334140ad0f7U,
  0x8107de40fbbd8d05U, 0xc86d39d613f1372fU, 0xad90eeefbeba562U, 0x2421151327f850efU,
  0xecfb24fa523107f9U, 0x2d3c5e8f5aa1f30U, 0x7fb10d8d9020529U, 0x32220a152034d8abU,
  0xfa1a3f27fb1cff40U, 0xd2f9ada71b104aecU, 0xb29d22be403b015U, 0xe9d5e2c6ab52fbceU,
  0x52f0e5ba19e27fd8U, 0x1a9cdd380ad938d7U, 0x1628e02da730b1f9U, 0xf011d4083fb37abbU,
  0x6000eda16f716ddU, 0xde1e932326df08fdU, 0x61914e837f5ed2fU, 0xe6dadad5e4da2beeU,
  0x29212606e9e9dfd7U, 0xe9d0fcfa0af50afdU, 0xe9eec05b1004ceb6U, 0xf3cc3414cc0cbea7U,
  0x23e51bfff1cd6701U, 0x21b20259f5dbebeeU, 0x350513e7f7e7f8ffU, 0xf30907b62cfdd481U,
  0xf02527bd020ef602U, 0x31e35ac121d1f1ecU, 0x24dcf5d4294627d1U, 0xf7f4321ff0dcf4fcU,
  0xc9c1afec16482f03U, 0xc0de760d61f0e02U, 0xe951c60c738e2ab0U, 0xfe77e901b4532c02U,
  0xfc1a1508b6a5050eU, 0x5df3228bb76b1ec1U, 0xcea3eaf9b2ef8138U, 0xb0acebe066ae67fU,
  0x520cd50c60cf51eU, 0x93d4d32e517eac3U, 0xe91a1642bd6a0b07U, 0x59c948db1113fa21U,
  0xd05d95040e9f525U, 0x29f0de8b464bee1dU, 0xdef13510a30228b1U, 0x836d2fd6bad7cb7U,
  0x45b91bc2f70114efU, 0x54c4b8ea03d0127fU, 0xb51324a3b6e576e3U, 0xc1210060541f4eaU,
  0xc20af1c5d2dccfaaU, 0xcc18ffce1142efcdU, 0x2df8f9360a36f2e8U, 0x10d3e2f4c5f12110U,
  0xbffe2d12ef6da1bU, 0xeee8f712df1ad2faU, 0xc70cd05634d1d997U, 0xd50f5f941128ddf8U,
  0x6d7f9137fddf014U, 0x7802f3a028e8bc07U, 0x7823ca9dfda0a7c9U, 0xec1222054ae7d6acU,
  0xfcf71bd2f4edfff3U, 0xdeef0510f2001eecU, 0xfb0315e8e4eb0bf9U, 0xf5f516f02e13dbe8U,
  0x18f906e3eaf8fa0bU, 0xbd01e1541afdf51cU, 0x7fc00a450faec390U, 0x230d292cf62de2f9U,
  0xe3cf242adcf0000fU, 0xed3d4cdcd9f53741U, 0x28f72319a4cb9e1aU, 0x115f80426d84b09U,
  0xee420134236d0fe1U, 0xfc5ef25b6ce10dfU, 0x1949e72253614a02U, 0x5efff29c42e5e0efU,
  0x47812a151be8f32fU, 0xf9e408de0cd6d6fdU, 0xf207d3dd0df5e0a1U, 0x3db3dbdf22f06e81U,
  0xbec523251af80011U, 0x31173b312af7c92dU, 0x96aacd404246ed3dU, 0xba34012a1d9649f7U,
  0xffd3e5cef301f9daU, 0xf80508a2f3181523U, 0x15e10ec804fcbfe0U, 0xdee304fd133112dcU,
  0x6ff8dcea042d5fecU, 0xb9bcf503c626da38U, 0x25415a32fcafe7baU, 0x60dc3ae4213c301aU,
  0xfe922318fea600f5U, 0x111d20e9bbc61556U, 0x3e227338d3d793a5U, 0xded7e31d32d72881U,
  0x25052bce2725c90cU, 0x18ceda06dfddd138U, 0xc712e71803e3f412U, 0xdcf94efc1f0e0edaU,
  0xb21f51807de0ddeU, 0x8183eb1cff29f0f8U, 0xf054ebe52af02200U, 0x8eafb26fddfc8daU,
  0xb604fec0c4d6eb26U, 0x5472b241f040d36U, 0xa4f81a1cd7e9f3e7U, 0xe811c6e2ce134c45U,
  0xe0e0f31efd1e351bU, 0x142cc4feded85111U, 0xf8d92801d4e915U, 0x1917dcf116f72ff4U,
  0xd412eb1d23fc02dbU, 0xf9ccd05665320c28U, 0x197f1b1bc9ff83e8U, 0x61ce017df51fef6U,
  0xcb15c00325040b22U, 0xf2e23024e6150612U, 0x38f618eae34f0653U, 0xffffff8009141bf5U,
  0xfffff815fffffe87U, 0xfffff7bd00002178U, 0xffffea69fffff9b7U, 0x1ca00000bf6U,
  0xfffff1ecffffeffbU, 0x3cfffffac9U, 0xffffffbafffff86bU, 0xa7effffe9feU,
  0xffffd6d0ffffeb87U, 0xffffecc6000021d7U, 0x53f00001356U, 0xfffffd84000002baU,
  0xffffe8b1000023c0U, 0xfffff76a0000112dU, 0x248c00001703U, 0x294fffff82bU,
  0x23c700001b6eU, 0xffffeefbffffe90fU, 0x89800003368U, 0xfffff158ffffe358U,
  0x2c4500002cccU, 0x3eaffffff38U, 0x193700002449U, 0xfffff04900001a63U,
  0x7a2ffffe31eU, 0x19defffff855U, 0x2ab00000d10U, 0x1a3bffffd927U,
  0xfffff5e70000035fU, 0xffffe9faffffff34U, 0x1dda0000076aU, 0x2fbd00000a90U,
  0x105ffffff9beU, 0x29efffff1d5U, 0x7480000061cU, 0xffffe1c200000c87U,
  0xfb300000fc6U, 0x3a6fffff365U, 0xffffff1c00000be9U, 0x2bff00001a3fU,
  0xffffe2ddffffef22U, 0x2a46ffffed04U, 0xf24000002aeU, 0xffffe13a00000bd2U,
  0x293a00000f65U, 0xfdd000014a0U, 0xffffeb0efffffeeaU, 0x2e1bfb2400001cb4U,
  0xe1ff4e34ffd5eaf1U, 0x62fc5ebcddf00fbU, 0x3dcfe4c7f9e008ddU, 0xcd16d2044ee54230U,
  0x16ccb9ecea0925dfU, 0x41da2d08d41ab1e6U, 0x63263ddbc9da421fU, 0x251eccdbdd18e034U,
  0x301004311dfee7f1U, 0xf9ebd6d83d2f3758U, 0xd321a1fdf1158c5U, 0x4b3dde51da3a41d8U,
  0xc539794330bfc3b0U, 0xd16795f599cc4cf1U, 0x79a99d9fd7bc15c1U, 0xcdfea7287f04674aU,
  0x5cb9a6cbc3e32bb9U, 0x5e9c4e3b904d8bddU, 0x73627fb4c3a07f30U, 0x5f648f9eb14afa5bU,
  0x6742415e5326d0d5U, 0x90ab9b64c447f7fU, 0xa7595f57c3346ab1U, 0x2b47d741815e4ac2U,
  0xc42c531428b8a5bdU, 0xd24abbf7b5d139fdU, 0x4bbdc1b9e7cf29d7U, 0xbff7c32746fa3e26U,
  0x4bc3d7e2d20111c0U, 0x2eb54f3dbd48abe8U, 0x5e4f69c2bfd3392aU, 0x4f58d7cfb2540a5bU,
  0x7f4d41545322d9e6U, 0x3209c8ab28336e7bU, 0xc33a524ed13b4bc0U, 0x4641cc40b04622d8U,
  0xc91d404225a5f8beU, 0xc844a1dabdaf2223U, 0x41bdbeb7ced7b4c9U, 0xaaedc5e04ccf6945U,
  0x1eb7b0e7c3e558cbU, 0x35c0314ba0292710U, 0x623d209da0daf941U, 0x3024a3f1d024a949U,
  0x2f243a4f49341cb4U, 0x3bd2b4e6492c1820U, 0x653d403fb30954cfU, 0x7f7fa37ff34d6bb0U,
  0x817f7f7f6e818181U, 0x817f819a8181734bU, 0x7f8181818d818d81U, 0x81a381b972937f7fU,
  0x7f81818181817f81U, 0x7f81747f817f0e3dU, 0x7f7f17818181ee7fU, 0x7f7f81f0816e967fU,
  0x5c7f7f7f7f7f358cU, 0x619281817f736842U, 0xa7f737f816c7e81U, 0x686abb60f57f7f81U,
  0x9c71474a559b90aeU, 0x8f599caba3ba724fU, 0x659cb695a696af97U, 0xa4a2b2d267875453U,
  0x5a9fc586a3b43a91U, 0x61827f73a459f738U, 0x4d611da78fbad65aU, 0x6e5b91f6b37faa68U,
  0x436d6c626d55289bU, 0x73c1959a5178785fU, 0xdb6b7f66a47f7f98U, 0x3639d1201a5b37abU,
  0xcb3627333cb9ddbbU, 0xbe27c0d4d5ba473eU, 0x13bdddf3b7e5bdccU, 0xccf1cdd5f4c52942U,
  0x28d8f7d7c5b633d6U, 0x21d8334ae0243b2bU, 0x2822d6aed9e5d43bU, 0x1e1ffa3ce018c742U,
  0x15154b313e4729c8U, 0x61dfc2f73a4af9cdU, 0x7f1e581cc0151beeU, 0x6d60815d152e4eccU,
  0xa47e445c7fa3b79eU, 0xa442b481b8bd727fU, 0x4a9bcfd081a28187U, 0xad998383018f485cU,
  0x5295cd968f9a3a97U, 0x6fe56768a37a7f7fU, 0xfa5baeb096c28a78U, 0x5a35947fb5758150U,
  0x16447c4e63787f81U, 0x7f8194b06b7fffdbU, 0x59407c3c8c7c3fb5U, 0x4e42ae477b355c83U,
  0xba6532367bb6d1daU, 0xd139c7b6cbdd7f73U, 0x4cc7e4e38aaea093U, 0xd381b4811d812742U,
  0x42b8c1a9b89e17a5U, 0x64d55461a9475457U, 0x1657b9c6aadb8b53U, 0x4f33994fdc75843fU,
  0x66f53395f525993U, 0x5d94aac936620005U, 0x2448642ab46f39a3U, 0xfffff8336f1f15b7U,
  0xffffecf70000105fU, 0x10e8ffffe61dU, 0x21b900001478U, 0xffffd7a8ffffecc7U,
  0xffffeb90ffffdffbU, 0xffffdc0d00000d64U, 0xc9fffffc8c2U, 0x187a00000457U,
  0xfffffcf800000d7aU, 0x16df000025baU, 0x113500001696U, 0xb81000025b7U,
  0x8fb0000360aU, 0xfffff6bfffffe7d3U, 0x2339ffffbbc4U, 0x2330ffffe7b2U,
  0x149d0000556aU, 0x93a00000cd9U, 0x2609ffffdc20U, 0x958000017c4U,
  0x13ae0000216bU, 0xffffebf8ffffe985U, 0xffffda31fffffa43U, 0xfffff74a00002a81U,
  0x41affffec07U, 0xffffef74fffff4afU, 0xd7700000287U, 0x4c2100000411U,
  0xfffff801fffffa55U, 0xfffffa8afffff13dU, 0xfffff52000000b4cU, 0xfffff7e400001327U,
  0xfffff1b400000b21U, 0xc28fffffe9fU, 0xffffeea7ffffeb86U, 0xfffff8bffffff923U,
  0xffffd03dfffff9beU, 0xfffff536fffff0b1U, 0xfffff7d4ffffec85U, 0x22a6ffffe669U,
  0x1a5000001a3U, 0x22f2fffff87dU, 0xfffff78affffe98bU, 0xfffff9ff0000075cU,
  0xffffe510ffffe66dU, 0x715fffff5d9U, 0xfffffef1fffff1b6U, 0x75a1106fffffdebU,
  0xfac5431e40b3132fU, 0xc73709782cee9c02U, 0xeb0d21ed99dae045U, 0x31e3292bdb97fe1eU,
  0xdcdf5dea1148bc06U, 0x17c314a632176827U, 0xc1b1ed3865e1a0bU, 0xf146e5c7dffb0f2bU,
  0xbb0020db230652f8U, 0xd025b210e8250402U, 0xd2397fe625042153U, 0x7f267214d3baf24fU,
  0x641aad17d6540a4aU, 0x24d000e620eb5be7U, 0x41ecd16bdf059f61U, 0x1f150aed2c16ffffU,
  0x9edd172ed6ef23afU, 0x2ebf11060dd1afd5U, 0x2ef3efef2ca4fda8U, 0xa00938de9531a506U,
  0xf42dd659e5edcb1dU, 0xa93cdb211654a4f6U, 0xd5cc6516f27249d4U, 0xa3e845f6b93e1fe1U,
  0xf0b2280affb23fe0U, 0x813674f49c16f83aU, 0x520fcbd006fce1d1U, 0x1c1ced4bddd8132bU,
  0xdd4c117101bf11ddU, 0xf11958e163d70801U, 0x9d25e107e0d7fad0U, 0xe8f80ce4fe1e9208U,
  0x4209f314ab02c2efU, 0xdcdc0dc9ccc73716U, 0xe926d3171a39fab0U, 0x8259124507d765d1U,
  0xfa0a0216ea13a5b5U, 0xe8083444e4b83040U, 0x191c1a169c32dee5U, 0xe0050d3829551428U,
  0x7fd2e5ff15e0cf2fU, 0x427b0f29cf51eeffU, 0x63fa8b71958d186U, 0x2d00e3e4051b1cceU,
  0x2a1b1701ece1c3fdU, 0xfbf0fafaede26310U, 0x10dbed36fcdac02eU, 0xb47fbdd0f155fe25U,
  0x15eaebf32d14ccfaU, 0x1c5eadce9144a11U, 0x4cc71e1eaa783422U, 0x24f7d13bf323e81dU,
  0x285f1ff3dad2e3ddU, 0x3d09d018ee0120d3U, 0x7a1d8e00cdf2c3eU, 0xcff93e02f60df22cU,
  0x10fe40b8f3fde6a1U, 0x17011c1ce025062fU, 0xedf5f0013326d03eU, 0x2700fb2b25f5f4eaU,
  0x34e913eee33a07ceU, 0x5d15413e1d213caU, 0xfa090e0b10cc212cU, 0xe6221e39dbe9ee24U,
  0x4b3535011fc6fe4aU, 0x170efd29e7f3ec12U, 0xce1a4b0fc61afd2aU, 0x31ed7f270fdaf4ceU,
  0xb0e3fcd131eef5e6U, 0x4121b0a03271807U, 0x180613cc110ce30bU, 0xff4ae9f719ca4321U,
  0x5d310becf4bf54d0U, 0x270b0b0ff93c1ed2U, 0xd7422a251203e747U, 0xd8cb2b0d6798ceceU,
  0x441aeee91f1fdd08U, 0xeef603c7f8d40e74U, 0xacfe603c52cde68U, 0xd16ad10bfe9432b4U,
  0xa9feb7703467cedaU, 0xc84636e77f15f9c7U, 0x1797c23bfe07cd22U, 0xdb1a41d4fc07ec47U,
  0x43a5feeba71aea31U, 0x205e55e1d00e8628U, 0x6dfc05ae7f222909U, 0xe7d82bf0d1e10b8cU,
  0xeae42617000f2e51U, 0x90cfc4ed80cf014U, 0xc3e4bff5ee39e10fU, 0x1eedd3e503e9f824U,
  0x1cdde93811061fceU, 0xb322d0112f593f23U, 0xf4ddcaa4001cec93U, 0x44d07f902f41767U,
  0xb083a60dfe14552dU, 0xd0aba012873215baU, 0xc42c9d8f15a97dc1U, 0xaad9c4815622350fU,
  0xe6f1e84aff45152eU, 0xd4253de6b1b6dfadU, 0xda68141c2c0c3e23U, 0x66e50f0a3af4191aU,
  0xb8fba1f2e33237dbU, 0xf1472b3555a5fd18U, 0x1e083d02244a51acU, 0xf936dbc7cd11074fU,
  0x3bc35de21db43e17U, 0xab9b6eb2e5de73cU, 0xf23f98e83a9f17daU, 0x65cfd77f091aa1e4U,
  0x1ca0af9a7fcf6d7U, 0x33e7e6f5240905f4U, 0xcbadfa0bf20909ddU, 0x74ff8c1fdfed1e5U,
  0x9005e02ffb34cdc9U, 0x19a9a3e33c2cfb06U, 0xefab064ff525cbbaU, 0xb8f2e7df03049912U,
  0x41e1fa03b75459e9U, 0xbdf63c0c2f0f10f1U, 0x3911325919f6f169U, 0xf901f7ba28fa1d59U,
  0x3da4b02e7143417U, 0x24cdb3d5fbffe114U, 0x4922032207cb20b9U, 0xf3fa91b147e50a10U,
  0x7f31182dbbf6c871U, 0xc220f3f40cfc2207U, 0x135936f8cdf720e1U, 0x381f932260f2d31U,
  0xe50debb52634c65dU, 0x7d9feef0c51e3d2U, 0xfac3fabc28ad45eaU, 0xf214d7fefb2822d1U,
  0xd016e12b4943d320U, 0xb5f04f4b672d13d2U, 0xf9fe37143c8720a9U, 0x3224481f074ad060U,
  0xe9ee3d0314efea28U, 0xf724e8f86035f4d3U, 0xfc2df61228ee05f9U, 0xdae391e724ffc3c8U,
  0x323b29032aeb00dbU, 0x6c25e1f3425e30dbU, 0xbdf7e362b09cf251U, 0x151fe752de9bf291U,
  0x590308de97002ce8U, 0x5dfc11208c9e1eaU, 0xd800133dce027f91U, 0xf115f6d90031de99U,
  0x12fa574d05105754U, 0x9fdd0fb04a612c4U, 0xd34ee129231bdca8U, 0xc3dae22ad415f7f0U,
  0x13e049f657c33abeU, 0x26cceae1f1cbf622U, 0xf9cfd5f309b7dc1aU, 0x5c51090347811bebU,
  0xbe0935faba2023edU, 0xc1d646a6bc0cffdeU, 0xefc8425f20dfac3fU, 0xf9dab8d0072a2e1bU,
  0xb2ee8e172303fe62U, 0xf4f10d2d32d21ee6U, 0xdf093a1e4c47b0d3U, 0xba1d1fd91bb732deU,
  0xfce81ff1332f41dU, 0x8e0afcfdfd8f1c0U, 0xf3fdedd820ea200eU, 0x120a5c42dee1e0U,
  0x391cda1d912c0530U, 0x6ae0b1ed43e1005U, 0x3ca8141e1bc20032U, 0xd3d5dedf2229a50fU,
  0xf7fa09360e01f846U, 0x1be6e2231bb32a01U, 0xbe1cdf2791be1f54U, 0xcbbc2709f043f6d2U,
  0xdf99afe505e23024U, 0x1bf60f0e3314e42aU, 0x2438ab3de9d72b7fU, 0x2bbf030f10d3f5ebU,
  0x161a37f20825ddedU, 0xfc0af9fb24cf2bf3U, 0xa4c8fecc1a1b1e05U, 0x150f3aeecdbd29e5U,
  0x24240342b009232dU, 0x17f732d2040235d9U, 0xf7a01d1e1af32cc7U, 0x81c622f7d6a3e6b4U,
  0xfcbbf5fad204f216U, 0xce121011f0ef1bfcU, 0x1e08f939e2d70229U, 0x22fc4acb1fcbd533U,
  0x29d803c746ded7a9U, 0xd505ca03ef13f30bU, 0xf035e84430ecd303U, 0x25dd8136dd1449f9U,
  0x1f635435cf51302U, 0xe10a1f580533050cU, 0xe3cf2deaf2d9d6d3U, 0xdd8f6e900f40002U,
  0x240f00e7f3060821U, 0x2807e9160117f2ddU, 0x39e6e71abeba05efU, 0xf208dd1f18e5e520U,
  0xfef0dfd6d9fedcd3U, 0x19eae42bf5e3ff21U, 0xd236290d0f0318ecU, 0x93428ed0dfaf024U,
  0xf9f2e87f04f70ff0U, 0x26e9dac2e3f6ebe4U, 0xc08fccf1710d80cU, 0x2cf343cd02052ddeU,
  0x276412e6011105feU, 0x5e6f0c1a0df0434U, 0xd7be0e43143918c9U, 0xd7e96c2bfdffeaa4U,
  0xa6dd74230cdf53eU, 0xe6d8a8d30c21010bU, 0xaf32bf047fc728d9U, 0x6abc1db0f271434U,
  0xbb3ca35467f407f4U, 0xc90819f2b43d281fU, 0xf60edf0a2fe345bU, 0xdf2f0247103f3113U,
  0x321bc7016815e6dcU, 0xaa03fbc6040c0843U, 0xa6d7ccf4b11ce281U, 0x18fe1a290b1ad701U,
  0x5b62082ae7f406dcU, 0x37dbee194402f7f6U, 0xdbfbf259ddffd64aU, 0xdfc2e3f7e3ccd327U,
  0xdf1ae523ab4abe24U, 0x40210fe125e4eb0fU, 0xe9d1170e2b36fc16U, 0xbc1ef71cc3d81fe4U,
  0x11a9f9dff0a92aecU, 0xd14042de1f94151U, 0xd941e3dd08f73144U, 0xf9f40832c81c0d0aU,
  0xb7dce61ca74f32fcU, 0x1d028107ac0de811U, 0xd0e6faf9d8e40711U, 0xc1d42c00ef14c6bbU,
  0xe42c46f0ffe7cbaaU, 0x34f9a34505daf0f0U, 0x10e53e02e2dae21bU, 0xf01f2df4dbd20112U,
  0xf5e807dfe4007ff4U, 0xb27312802ddfbf4U, 0xeb013a02152bf6ccU, 0x26f4de41ad01fc18U,
  0x10a7e5f6f2fce703U, 0xefae41bfdfebcff1U, 0xddd90601ea0429e9U, 0xc9e6bc2ed8e6294aU,
  0xd8c1e2feb006e239U, 0xf70dc0d90a2c181dU, 0xdc02306db1aeb47U, 0x81f4dc2f4ef5edd2U,
  0xbd0a54dadbf5113cU, 0x2334261923220dfcU, 0x53efb3ffd8fc928dU, 0x31e6af3d89dd1cfcU,
  0xcf02bad459e1ed21U, 0xf400b41621d0af04U, 0x64fcf1011d63040U, 0x554bbce8b8c6d109U,
  0xd79b2af40608aa54U, 0x57e78825d72254f8U, 0xc15cd0a50b2e34eU, 0x1a872058104df7a4U,
  0xee12332e9fb9cc2eU, 0xfbcb52e32dfa1408U, 0x4f10103724fd81d5U, 0xf60728fffafe50e0U,
  0x20ac18c00bde0ccdU, 0x3fe2dd280ddfe3dcU, 0xf27fcafbfdc0fa25U, 0x82b0f23ae48205aU,
  0x3531cf6e2df751fcU, 0xf40ac9340ed940dfU, 0xfec42a55f5ef9129U, 0x5a03f0bcf5f12f24U,
  0xc20ecd6e7260805U, 0x3d7d7a61419cf11U, 0x11ff165019e11842U, 0x9ccdc310332120dU,
  0xe92ae6ea11e2b799U, 0x35edf9d727e5d1feU, 0xd88d1bd956d00d11U, 0x4e538ed6f947eb51U,
  0x15bacdb3d90744b7U, 0x9f83443f821e4ffU, 0xf1f5ce2c14f31527U, 0xea31accae62b0581U,
  0xaf72424044143d3U, 0x229b06db0d20cec8U, 0x75322a0b18a70608U, 0x263a0e7f18fb41c3U,
  0x55440802d1ed395aU, 0x9a67271ca81024e1U, 0x15f0eefeca04ecbaU, 0x1bf1a444f7dc6bd8U,
  0xf9f68cc42a3020b7U, 0x1341bc0211e22248U, 0xdd94b612c419e005U, 0x4301e5f2ce0902b0U,
  0x37c43e34291a3058U, 0x23afe9d31ee0be00U, 0x40feb2c6e3b92a03U, 0xbf0f0b0f1f2be120U,
  0x323917232924b5e2U, 0x3ae24716534dbdfU, 0xede9ff37b3ec821bU, 0x81fd125412ded6U,
  0x8bd2112024ef9e05U, 0x18db3fdff5a206daU, 0xd7b25cc101cde638U, 0x6e494070917c232U,
  0x2ee30032f022c610U, 0xae0ac0e40217d837U, 0xc2ea08ecfb2243feU, 0x502237ff110edadfU,
  0xfbd109de81e14e69U, 0x347d8f80afcd124U, 0xffa5e7e80c101bb7U, 0xc39e7eba06102deU,
  0xd921be2aedfcdedaU, 0xcadc1429b9d5e50eU, 0xade06a2bafb25e0U, 0xf9d95e20ec30081fU,
  0x203c09124b321f09U, 0x2d0140f1d1ffbb68U, 0xbe2f920500fefc75U, 0xfe812d91ad180bceU,
  0xe4396b660fcfd15aU, 0x4d28ede867ef25f7U, 0xe307b3963b2029a7U, 0xff2d1d0e663ae447U,
  0xff2c0c5318d10a59U, 0x6a41d813eed7e7a3U, 0x20e61d61e4e00f04U, 0xb1f019f3fcc64330U,
  0xe811490d230f16f7U, 0xdbd645e8e50d39e2U, 0xc0f8456c30d48c14U, 0x10bba05c9d21ef1U,
  0x42cfba41b5e21f36U, 0x619a504f4c7d203U, 0xebd92f81f9e2e0cdU, 0xd50ea710f227da8bU,
  0xec384e14d0eb0a08U, 0xffd820fdda50e3f7U, 0x13e90d00c6263f98U, 0x6d0a14451425d6ecU,
  0x1441c5baf4ea21dcU, 0xeff442e307d1cdacU, 0xfb48f9ca2daf071dU, 0x552a61ed93677a2aU,
  0x273b75274f164304U, 0xca001bc849c0afafU, 0x6ba2eb666206bfecU, 0x4f53f3d1e342b47U,
  0x3ddfe8d381ab1f25U, 0x8f9fcfe32ce1c31U, 0x3d6647fdb03b34e4U, 0xf70bc519f9f579b3U,
  0x13fcf8d448f5ebf1U, 0xf0fef7471bdff27fU, 0xfffac3122bef27ebU, 0x44229301614edf4U,
  0xf861f1671346ece7U, 0xc811f90f4a171712U, 0xcaec04120913060aU, 0x2ff25916c916b7d4U,
  0x2bfefb1c1b123a3bU, 0x9a1ff3df39f03ef6U, 0xe8fdd2e422f1d2f9U, 0x15e2cc9746041fdfU,
  0xccb07757c37f1f22U, 0x4de3b50c2d4a644bU, 0xc82a25d16d22e0cdU, 0xb6aafee839361738U,
  0x548f103034ea3840U, 0xb546ff1cd714442eU, 0xe4eeb1d1010e093bU, 0x37b50ec1cde4a559U,
  0xd8e1ecede2e4cf29U, 0x5c19bc85ef15edfeU, 0xf2bfaafe1ecef6aeU, 0xefefc8d03cda18f0U,
  0x37fae2f809dde01fU, 0x7fc00bbbf00d4713U, 0x13e4e8f12551050cU, 0x1e074502103406edU,
  0x9a011f0806f825d2U, 0xf1163523cefe2105U, 0xff05c3e0102ef1faU, 0xfeead315121002bdU,
  0x16dc76f227d5f626U, 0x12e3dd4158e602c6U, 0xe24e121238fb28edU, 0xef1525ccc2fa0007U,
  0x5418c6212020f11fU, 0x1407e00edee5e564U, 0x19391850d71505c9U, 0x8e92cd4e0d5e5b1U,
  0x1820ea30c8000e63U, 0x36f1e2ca25c5250dU, 0x6e5d0dd08f83a1aU, 0xcc0f13dcda41ed12U,
  0xda15c94742eae04cU, 0x68f0eeac0f060815U, 0x13be04d381d8132eU, 0x3528501ceafa3b08U,
  0x47d2c0dfc2fb1931U, 0x17372d31c33811e6U, 0xccefdaed02f07f91U, 0xd9e2fdf4e942fe05U,
  0xbe2eed0eedff35f8U, 0x19d9e7fb23ffedd1U, 0x411628f0084f4018U, 0xef1aa4221139ea45U,
  0x1226263619360f10U, 0xf2ebffe717ef08c4U, 0x10df3be1fcfd08e1U, 0xe5f6fee1ece72d38U,
  0x6f402a000aafcae2U, 0xbe2afde3ea556aedU, 0xf82e183b4361b818U, 0xeafe094736384f3dU,
  0xf25907ffe83912d4U, 0xe51f110125e214d8U, 0xf008f505d8231e31U, 0xce4105de9cdc1d18U,
  0xeefe118df1d406f3U, 0x35f821cc067fde21U, 0xcc32153023100a43U, 0x49c0d0f90c120e49U,
  0x41befb0a00b946caU, 0x3405d0075103c2feU, 0x14220eba1ad5dce1U, 0xc10704bd262ef939U,
  0xab18b0e1ce9810ffU, 0x3afc3607ced39cf6U, 0x26daf313a5034cd5U, 0x45d05009497fb7cdU,
  0x220185e3d0da141eU, 0x2d0fd5bf2052b400U, 0x25d835e8ece50cc5U, 0x2dfafb9acd0fde1cU,
  0x2de9b9142ad72042U, 0x3c0fd3f9091fe918U, 0x1c00812b660fe41fU, 0xf3b3ad01df015d7U,
  0x1b313442c12c4404U, 0x2855ebfd0226e911U, 0xd11218e81ffe21c0U, 0xecfefa0bf8142abdU,
  0xefdede8f307f5e1U, 0xd42b34c1d511ba07U, 0xeb4dfccd1d45b209U, 0x272306cbd7f52b16U,
  0xe7fb032b1705dd16U, 0x300e14cf1d50db45U, 0x2008ed1ef1edffc7U, 0xd7fae3643ff0e1ebU,
  0x4bf604172213da0fU, 0x294375dfe525e22eU, 0xcaeced149d13fdb1U, 0x3930b3cadbf0d569U,
  0xeffb2c811ec8d4c9U, 0x430306a7f8fd102bU, 0x1beaeeebc2fc2314U, 0x1f2b56b62c081031U,
  0x1a57140d45f40b14U, 0x21eb563a0dce3549U, 0xd2f9bbe439d42f7fU, 0xb3dc4fe8dcf9f31dU,
  0xd9d1f4fdf607d9d9U, 0xad9dedddc5de203U, 0xd412062bfa3745dfU, 0xe3c6da09b12c17d9U,
  0xf6fb161a0d1d4dd6U, 0x13cfe912012a2ad0U, 0x2930f21ec00ce8cbU, 0xf0c34d02f9e81f66U,
  0xb4bcee1e137f0fd8U, 0xfca1ce215f645ccU, 0x9558dfedd7e29bd7U, 0x5ac44a4502150524U,
  0x70351cf1ac69af7U, 0xfd2e14e40340586U, 0x873fe42710a81b91U, 0xcedf382e34f3cfffU,
  0x270c169deec556f6U, 0xe139b3a8ced3a36U, 0xf308c7263c0e1c4aU, 0xd60adce234ca53e8U,
  0x12161e180909b730U, 0xe11bc3157f2c275dU, 0x180bfe8d0501e840U, 0x141029e4054afddfU,
  0x16b0e3fc2ff06cfeU, 0x27b64ec0c1503cebU, 0xdbb9d445f3ee1311U, 0xf90d2b103bb60405U,
  0xd0123985bfa6a668U, 0x3d001a9f7340d3fU, 0x1568069e5de710f4U, 0xc6f0dc11f5d7bb64U,
  0x9a4bfee9f49c0a25U, 0x8147d9b303e60111U, 0xe1e92b8f133f0db4U, 0xf70f8a20453395ddU,
  0x26092a3d1d220936U, 0x20210601c0d8236cU, 0xed0900f319eb0fcbU, 0x9b326ff9caf3faeeU,
  0x1cb40108e019022dU, 0x44fe25b6f5b7dfeaU, 0x19060d190222c916U, 0xf8e823fbdece00baU,
  0x1b2fc32d3beb03e6U, 0xf007f314f61bc8f3U, 0xd4f0090bc35e1bf4U, 0x600f384cd43ef133U,
  0xf1be01dd301b7e8U, 0xff033c7ee65382cU, 0xca10450017cdfb2fU, 0xfb3c81fb32c3cfb6U,
  0xf10722ef37dfe3deU, 0x29dbf4e916c7e405U, 0xf30e0b36d1413852U, 0x5be2c344fbd4eafcU,
  0x9727d90113171099U, 0x3ff11d310f4608efU, 0xd19711d9d5c1340dU, 0xf7f8b22c024703d3U,
  0x75cbe2f71ee9d93fU, 0x23f2e91c06b0708U, 0x257fdc0902cef651U, 0xff023b6fc9605719U,
  0x299af7e45421d2cdU, 0xad9396e2b90791c7U, 0x6bf030124d3da3e2U, 0xf2f32dff24b1f5c6U,
  0x111f2e2b5f7f1212U, 0x7ee60b1b25e031feU, 0x91543bd71d2bf6d3U, 0x70064202e3bec407U,
  0xfce3fb7fe11efd6U, 0x35f0e8de19d3fa19U, 0x1134fb04df503415U, 0x130232124cc81dd7U,
  0xc2fc007708ebd1dcU, 0x4837c3ab57a4a112U, 0x183bf91d4d5661ddU, 0x53ff6f0d0d090960U,
  0x1a0b54012011adb6U, 0xd9dbe4e9263bba22U, 0xd181b6f6e6dfe60bU, 0xc19439e6070a14caU,
  0xb42eeaccbce2e442U, 0x14bf3afd43db35efU, 0xceb51631c5f3be52U, 0xf3c8031d9103cb1aU,
  0xdeff0bcee7012899U, 0x22281c0e3cc4174dU, 0x4f9180c1f0ef7cfU, 0xfbd2672d5b3ee2b6U,
  0xe434fa0bf316ffeaU, 0x22ddf424d2f2df30U, 0x5fbe8031e21dbe9U, 0x26ee1b252eeed3f9U,
  0x2721f63a2ccfd5e0U, 0xb8e43eef0e39edf9U, 0x82ff4170c15e01dU, 0x3f3e5dd2103e7f1U,
  0x81273ddc52ee22e5U, 0x40c31525ddfe380cU, 0x100f0f2af3d4de43U, 0x4aec3438fcfa0e1eU,
  0x2a103abdda08b9d8U, 0xfaa8fd123b4a9c46U, 0x11f4600ddbed18ebU, 0xab57fdabc3628c3U,
  0xd22214d81b0a30ddU, 0x4dc952e0741e506U, 0x3d23eb14f8d6c74fU, 0xf7e9450c0cbee33cU,
  0x1fea1bf026d72317U, 0xec5e1f70343b0f04U, 0xfe3fe71d5ce62000U, 0x1fe2100204e7d8fbU,
  0xb4d433e0128c0865U, 0xe71a33c2fbcec91aU, 0x193df349c45fc504U, 0x3a1e14ef1d1b5cf5U,
  0xbe7fcf58232607a2U, 0xb7aaae3ca8f22229U, 0x34ce16d9b8f30f0aU, 0xcbebceeccce1092bU,
  0x58f6f3d2f0f227cdU, 0x45e45430212d1303U, 0xdd2030e300e605c6U, 0xdf1cfbbdeb06f7fcU,
  0xed7100f3d8d94ef2U, 0x5b01be6020abf44U, 0x2de61aeccbf64481U, 0xf823fc1007e60ae5U,
  0xd912b5eafb0113c2U, 0x100cf02ffead29faU, 0xf6c1e800fb012b2aU, 0xda15da18d00cdb0eU,
  0xd3d7d1ec53fbd641U, 0xd1f861f10be13308U, 0xd9d0dd3a171decf5U, 0x351308f7ef112e1dU,
  0xeb38ca35ef261bc9U, 0x831221e00c2d605U, 0x59fbfce8d841e5ddU, 0x1f2f050cde1afea6U,
  0xf13a11027f3adf19U, 0xf6350fe3b7e2fa23U, 0x4c06e73b2cdb08U, 0x22f4f81819f04c00U,
  0x2c104fd310f9f3d4U, 0xfcf3f0c3e202f4ceU, 0x1417e6e9ec160cb4U, 0xffb40ee5f327103eU,
  0xddeb051b1af819feU, 0xf92f13e4b41a3a14U, 0x1817fcab56b918ccU, 0x32f95ab31000d1U,
  0x25f5f9e2fe200dc7U, 0x8103e54f11d7e2eeU, 0xd5efe54342fdd5d8U, 0xfb03fd17efd715c4U,
  0x12e305fe5afc103aU, 0xdc078f093701efe7U, 0xff0cef0d0e02dba0U, 0x110af80d1ed2df0aU,
  0x2231dae2dbcdcd10U, 0x23206defd603f13dU, 0xe10ae63d20360bf6U, 0xcd926b525f50936U,
  0xd839f3d22dec5a3bU, 0x44021cf2071226f1U, 0x5ee1efeefd2f7e5U, 0x2cf7f4dc39fbacf3U,
  0xdbdf1b0dd220fd13U, 0xcd7f272e162812d4U, 0xedc4e701070ed9dfU, 0xcd3cf7bce6dafd10U,
  0xbcd00618f8d8d11bU, 0x152839ce1130f45aU, 0xe41a0f07252f0aa2U, 0x4e4b0eac135def8U,
  0xbc24fafee21c3322U, 0x23eb18b1ec06f12cU, 0x500da9c5a1dfc0fbU, 0xde2b361ede2635e9U,
  0xf3087fbe432af2efU, 0x26fd3017ff18bcbaU, 0xee6b50307091819U, 0x5607e8c7b446f371U,
  0xd6ece70d1b11d420U, 0x16f236de002ecc97U, 0x46e5e634faf2f820U, 0xfa040be53be000eaU,
  0x2bf7193613df0cd3U, 0xcf15021a50cc0be7U, 0xbe91ce881e126f7U, 0xcacdf6150bdfebecU,
  0x25070bfaf4cbe630U, 0xed2b59cddbb22438U, 0xf64d2d1933cde502U, 0x102101d804153cd4U,
  0xa9bbd2edc4ef1fa1U, 0x14d6fd2138d74a90U, 0x3302090a7f309724U, 0xb2172a03e6e9e0eaU,
  0x62233c4152239dbeU, 0xe8f1f012ecf8d65aU, 0xd0cffff237092602U, 0x8c1c5506eac1cb41U,
  0xeac8b977f127a2aeU, 0x71fb131c04f2510dU, 0x38b70f1b92901b03U, 0xe3d560d518cfebe3U,
  0xfa0c1f13f5143294U, 0x1d3ef92adeed231aU, 0x2128201afa11be25U, 0xfd0813fcec0f0136U,
  0x23b50bf6e0cf012dU, 0xe1ee23c607e6de03U, 0x200124d715380826U, 0x2ea7f1bd310eb17U,
  0x284cffcf0bf7331cU, 0x29d1e106d0111ef8U, 0x2110ff1f00e21ae6U, 0xccf21d115ef18d0U,
  0xcaf0b902e8f71f0eU, 0xf5071c1f1c2fc1edU, 0x7fe11552cbf81d07U, 0x1cf5e8d773e3ddedU,
  0x502dc0a15abfd17U, 0xf3d359091ce525ffU, 0xed18e405dee91915U, 0xef6412624e8f820U,
  0x46fcf3fa092beb08U, 0x191916faf332c820U, 0xf2cb0410dff405d3U, 0x2ac6b138dc010702U,
  0xd3fc3cd613fa9ee8U, 0x4bb94a01cdcc5a99U, 0xe7e8d6d1ce41a6dbU, 0xfbf41e3bf408bb9aU,
  0xfe34e764e710debaU, 0x781e15b4e3ae223U, 0xe214f440a879e70fU, 0x362ac554fd4636b9U,
  0x2c6610de60b0f1fU, 0x261448175348ebeaU, 0xdfbb1465e2f1e063U, 0xf50c0cfe020301d5U,
  0x2f0aae0fe05ef20U, 0x806411181d405e9U, 0x330415ee18231c17U, 0x350515f4f5fe010aU,
  0xfbebf336254b1de6U, 0xf30b2cbf16141c10U, 0x2101fb19060dece7U, 0xeb252ecf175cbb18U,
  0x2fa711b15fce3daU, 0xffc94f5125cdff04U, 0xda2716dbf9c3ed2eU, 0xe717c9ec310a0af8U,
  0x42d119ff472fcaf6U, 0x5ac6090c1701240aU, 0xdb16e4b0dd1a291fU, 0x1c40232208e9ef05U,
  0xacdde1d042017d7U, 0xee0698feb61bf7edU, 0x30500b09cbed260fU, 0x7fdbd4423ffc2bfdU,
  0xab111430dae2f6fbU, 0xd614232c3b0f3129U, 0x2bc1eb302f020bdcU, 0x160150080de1eb07U,
  0xd5f7131206116deaU, 0xf0e0932ddebefe6U, 0xe9ce1474921ad5f6U, 0xa997120e0cedda1eU,
  0x592bfbc181c31406U, 0xe65daaf60cf2ac1dU, 0xff1bc528eafeecdcU, 0x14d3e8bb0bdec530U,
  0xf5ccf32b020228fcU, 0xaf0ed22c822cd0cU, 0xb757f425dcb422e0U, 0xdbfc2943dccb53aaU,
  0xf011d82af62f3d1cU, 0xa7151e03e5c6e81bU, 0xf2fc1a141822e8efU, 0x31decbdcdc0720e5U,
  0xf6f9210a1cf211fbU, 0xdbc2210814dc1ceeU, 0xd0fc1f10cff2e181U, 0x4f21351ae8c336daU,
  0xf11107eee412d3d6U, 0xcf0dfef1d45eec02U, 0x1adf0c142ecaf8d4U, 0xf8fd643b22fdceedU,
  0x16ec413af8ddbe2dU, 0x1c11f32e0fefefe9U, 0x6e0a3f180af2f31cU, 0x8def13d2e1b2433U,
  0xbfef610eaebd3f6U, 0xce93b4cdacfb4c8U, 0x25d114c8ec113921U, 0x231c52ec62ebfbdbU,
  0xfe3ae0eecd4cf20eU, 0x75fa19c9f20afd3aU, 0x217f4c1be31932dcU, 0xe9060230222e2a02U,
  0x27ed2fe708e56ebeU, 0xa15b2ee8add2b5e1U, 0x6c1c0af03608e831U, 0x14fafe052009f510U,
  0x66e80adf3181e76cU, 0xe6d81bbca7d845ffU, 0xcdfb00360925ecc5U, 0x1229b7eec3066e39U,
  0xf93d55bed5e73254U, 0x660509eb2fb659feU, 0x2cd1621d26e051d3U, 0xf6fe2330b0946699U,
  0x3f1cf2105d01617U, 0x2f231adfd623df23U, 0xe0ea13ebf556070eU, 0x2b522422defc0aeeU,
  0xf7e0e9013f173a65U, 0xd30b17fcdbf9d7e2U, 0x2d02f0b73290248U, 0xcbe3814dc6201f07U,
  0x301704cef504b3f9U, 0xc115ef034f11ec02U, 0x2a45bf104bfa2c30U, 0xbf4238243d21e8ffU,
  0xade0e05d4241dd1U, 0x44de371fe64f450cU, 0xd73f4e20abd6fbdcU, 0xea100a0431fe2a07U,
  0xff2ff1c7bdfc2b52U, 0x311bbd46182c32fcU, 0x61c1e116071d29e1U, 0xf2fd7f1cd221de26U,
  0x1d11dee50a08fd1bU, 0xf91ee0ddf30cd9e5U, 0x9461821f4e4c4f3U, 0x92b02151b22b126U,
  0x50c649481418f00fU, 0x2e554cf36132140eU, 0xffa238dd3bb8ed21U, 0x81e1bb3475deddf3U,
  0xea0994e24fc81fcbU, 0xf9669cd413ec09fbU, 0x19c2e81f57e8021dU, 0x1b49fd1cd63b204eU,
  0xe0e43fcaafbd3edU, 0x3639fe1840cfcbe9U, 0xe4308cfb39f4bcd8U, 0x1d0df0e4d01520f0U,
  0xb811e3f7c5c50430U, 0x14b90899eacedef2U, 0xef79bcd2fd2be1aU, 0x293ace11f0cebed3U,
  0x8106e1b1582894daU, 0xec5f2b01cfdeff0eU, 0xf44cf824f81dce61U, 0xdac8092efe01b0c0U,
  0x22fc01064db3d3deU, 0x1b506a6bf83a3c29U, 0x22be15dae3eefd4aU, 0x32a3ff006f454c8U,
  0x56e40cde0a6c76f9U, 0x361deaf3fa2eba14U, 0xefee54d1fff81d9dU, 0x3d53f61bcb4515abU,
  0x2fe1f30fdb1cd974U, 0xcacdb40cce90824U, 0x2e9c47e5affcead3U, 0x1cf0e7dec57f5b25U,
  0xce0e1dfb0d08d11dU, 0xc53b03d92839db06U, 0x33be0ea19c6dafdU, 0xe9445627251bbdc9U,
  0x4b103b13bef3f349U, 0xdc2e06062242fc67U, 0xb01326edf3280707U, 0x40c22f0becc7f0f3U,
  0x6d9f25719da42caU, 0x1de715050728fe13U, 0x9bbf99defaea7d96U, 0x15d57f08ff5504dfU,
  0x81dfedfaddcf1b3eU, 0xc9dcfaccf50b0de0U, 0xdf11f007fee80bdfU, 0xf43226f1da0cedd2U,
  0xcb9f00ddd009decU, 0x3af62e36dd195d26U, 0xdc9ed4fc21053c23U, 0xdb0ae954043aedd7U,
  0x22080cc5294f0724U, 0x1403d53ac4dddaeeU, 0x562ef8afef0214efU, 0x2ffade058bbb364aU,
  0xfe13b67f5ddc3903U, 0xa5b6f71dbc45f709U, 0xf807fc14bfd0f3e4U, 0xbd10e73ae710ec01U,
  0x15252129d430332eU, 0xf128fe10b5fb1f0fU, 0xa6f015b05be0d1dU, 0xba2919d0ec092fd9U,
  0x203800ed1f43f453U, 0x81f550941bd223deU, 0xbe4170aa132b4fcU, 0xf86bd2d13524e842U,
  0x31d7ae27fcd8f4caU, 0xdab6a8062e0db8f6U, 0xc1d27c9b51c015cU, 0x36d1ff29edd8f318U,
  0xa122091cdcc92fe8U, 0xd0ca2dffffc9d204U, 0xd13c3f1b023811bU, 0xf237f8c0f721005fU,
  0x9eee3f611f7f8fbU, 0xdd21f9e8f81dfee8U, 0xae0deb1fdff512caU, 0xfb0519d80636d6efU,
  0xd90324f4fedef402U, 0x11fc1dc5dee7380aU, 0x21d016eedad6300fU, 0xda13ff3d0bb8c9dfU,
  0xffc64af3ebdbf1feU, 0x52fd23d20ce909e0U, 0x421f93dce17072dU, 0xd20bd6a50005fe56U,
  0x57e3e10ee200ee4eU, 0xeb2850062a2106feU, 0xcba442e92e4a1e31U, 0xf952f5811e3fb7e6U,
  0x22b092936f851f4U, 0x1b244a0cf11758ccU, 0x2543395e0318e800U, 0xfc5504bd05cf1fbdU,
  0x35cd0ff0b201e7c4U, 0x10ca14053ce4f145U, 0xe90ebb0a1ff2326U, 0xd80a1dcae3f93809U,
  0xe302a2f40d11f6fcU, 0x4fb55807ceead5eaU, 0xafbffc0411e2fadfU, 0xfcc0381fed3ac512U,
  0xfbdd04cbff412fdU, 0x2c224a7f06e9f8d1U, 0x29bbfaec05ffc6e2U, 0x3828bfb13aa7e5baU,
  0x16c9f8d50596fc1cU, 0xed1bb12bf234d314U, 0x3005d7c525e240f0U, 0xe80483dd0731e106U,
  0x121f13b9aa21f1f5U, 0xf6b12627043bf62fU, 0xffca1d17e64af4ffU, 0x23100b0f1d264b2eU,
  0xf2238ee157fbc642U, 0xd0e7fdcd9a5690a8U, 0x344df7fc3d65cU, 0x1b0ac4edf6c42bdbU,
  0x41f095d7e75d450aU, 0x6ef918ea4d28a8ceU, 0xbc51092181021935U, 0x23eb32d84a1de70dU,
  0x4002751a1383502U, 0x55f2ae5dd6050903U, 0xe2abcfb5d940d637U, 0x47ccd1dbfc1805ecU,
  0xd463b012119fc08U, 0xe8ebbe290a9c45dfU, 0x24b6332401c261c0U, 0x1e022d25521820e1U,
  0xdecbe6bb312fdfdcU, 0xeb04acb30c1ac3e8U, 0x2d7f47e203ef02ceU, 0x3bf7ddebf94afff8U,
  0xfbf8054af32dd118U, 0xd707e05ba2db1fbbU, 0xffb503462b04a62eU, 0xcca540f0e5293018U,
  0x41ff9b8bee11055U, 0x192007ea05eb2821U, 0x3016e5e9f91bf4U, 0x27dab926f940fafaU,
  0x3b5316501449d70fU, 0x71ae8c30ff7c2e7U, 0xa6c917333beada38U, 0x540c0ee4d731bf72U,
  0xc7fc22602fdbe4bU, 0xa1f310d3f9480feaU, 0xf4d8be0e1621d24dU, 0x1a215c05e48a46c0U,
  0x8c0318f62f0fdb38U, 0x24f6f11a0722f914U, 0x7df370527cb5f15U, 0xc1d4f9182507023eU,
  0x50f5e1ccfd26f991U, 0x106f0613ece4b837U, 0xe435ddf7b6af4359U, 0xe31e7f1bbc26cc06U,
  0x2839272e19f2e5e1U, 0x505c20709ffffb3U, 0xd6314045f112d708U, 0xeef3d61547d5f0b9U,
  0xe7dfb20787245312U, 0x4f1b0a2dc53ad414U, 0x17341affdd4014f6U, 0xa00f20cfe5213c3U,
  0xdde824e9160a9e04U, 0xc8ebb932160b071dU, 0x3518ee16f81e10a9U, 0x102d13d70ee4bfceU,
  0x347ec31aff83130dU, 0xd4b1251800ccd4f3U, 0x38de01fb5d01cd81U, 0x40c52fe7ea63f9U,
  0x3b303c862117faeeU, 0x35dc22d5e63b13bbU, 0xfc41ef170fe921a4U, 0x16e5ede9de322cd8U,
  0xe21341ebc21db90bU, 0x7f261d082e8ff3faU, 0x92080d06f88361ffU, 0xefe60b20030120fcU,
  0xb329e2c12e1ee32U, 0xedcce30b102010U, 0x250d22ebcdf8c7eaU, 0x3e2910932a7f6b0U,
  0x26fcdd021904f9fdU, 0x5c35020020cd12ecU, 0xdd8f510dd0e1702U, 0xdde5092ccef1fc56U,
  0x354b10e5c233e104U, 0xb7e811f6f8fc130fU, 0x4615410afcdb461cU, 0xdfc108052c0ffaf8U,
  0x290f00fb32e5219cU, 0x6f219201c3927efU, 0x1522010b2824ebb4U, 0x2eeb290eda2acf10U,
  0xf7b7812474c61ae2U, 0xbc01c129205e31b8U, 0x30ab03e0e620f12cU, 0xef31d72ef616152dU,
  0xb9e8ef2c08c41495U, 0x41f8e4c7f5e414eeU, 0xf0341d09d76ad0f7U, 0x1ae440d0e6c2f504U,
  0x54261ffdf944c36dU, 0xf6d9edece4010134U, 0xe74c1a18f21b1724U, 0xe07bd0c241f16a6U,
  0xe9172aa0dcf10a37U, 0x3f0c1dd5f1022308U, 0xd57f0a0f21af4bf2U, 0x19dee810fd3dfa0aU,
  0xfd4422c63605182cU, 0x345adc251227ef0cU, 0x1cbe19c623f93aedU, 0xd4d647ec3001fe31U,
  0xdc15234e4e2c35ceU, 0x1ee103130910e81fU, 0xf881021fcb5b180bU, 0xfff18320232dc4faU,
  0xedf8bc333df1cd04U, 0xbfc1450513fb4ad8U, 0x11bffbec35322d5dU, 0xd227a120fd1d4056U,
  0x52fe14e5fa363d04U, 0x1e3f25f4fdd5e0aaU, 0x28043221ef010611U, 0xfdaae02f4eb2314U,
  0xc7f1eede0f034f9U, 0xe7f9e9d9dd0805daU, 0xf0e920f0e31834fbU, 0x25372ad50af91e0aU,
  0x2ac7f024f723e207U, 0xdd17fcf8f11cfe2cU, 0xeecdd0d70df60745U, 0xbd1428e91c1fb5daU,
  0xe7dcfcfbdcbf34d8U, 0x19f9e808262de74fU, 0xd0b9c911d9f1f588U, 0xe62428c0c5dddcb7U,
  0x1ea7ee3e2df8e5fbU, 0x1c5b2ac545810303U, 0xf0e1d72a34651eecU, 0xdff1900444d988ffU,
  0xcc14e2b00df1f432U, 0xe502eae7dbed42cfU, 0x1741ece28dfd53ceU, 0x7fed10f924fb29feU,
  0x31fcbc08ec31c8e3U, 0xfbddf79922ab1042U, 0xf4f5c522b5d2c739U, 0xf3e415e7f1b4f5d1U,
  0xd1e3ac1718120026U, 0xf50b250128151f01U, 0xc75ad5f7a9e63522U, 0xee2efcdf22e8fce6U,
  0x902d1ee1cf9c544U, 0x66edccfae2c3c62aU, 0xe7e3f40aab21afbeU, 0xfaf64de52512f351U,
  0x2cff28f114d6d62fU, 0xf717f3f6e709c914U, 0x929bc81c31a0ee2U, 0x19e021d1dffa34c7U,
  0xcb59dadbfdfc0d02U, 0xf760f607b43f0907U, 0xf38bd9172dd9d21fU, 0xeef13dfff2d9f401U,
  0x13f49616f5df02faU, 0x152852d7ae21f3eeU, 0x1f9dcd231f0d4e1U, 0x6db5e3dd04ee12U,
  0xe59e1befbf06c23dU, 0xf6f93a840fc004a1U, 0x150f2d1a143efaa7U, 0x2503c5e21831211eU,
  0xdd0c176ab8f4de20U, 0xf9287f16cecc48U, 0x33110c50dab1b23U, 0xb5e624b4110f3efbU,
  0x93bb9fdd60aeb2fU, 0xf6eb1ffa031e42fcU, 0xeb26fbcf32e1fe16U, 0x1822db0fd6f037faU,
  0xd1f8f7ba86b0e02fU, 0xe52fd6e1d30a6001U, 0xacf5df8e35c2fcfU, 0xe734277fa3ee47d5U,
  0xe101bedc31f737b0U, 0x3325e0c5d7d903b5U, 0x6053091ce5ee5010U, 0xca232fe9ca23cfe3U,
  0xcefb2bfcf73dfd2eU, 0x1917ee12f330d31bU, 0xcc1df313c6a91942U, 0xe40b1b20361e0b49U,
  0x1600f4003c6886ffU, 0x39bf2b22f4fd28d1U, 0x24f8082aef81b9c0U, 0xe5e351e83bcbdf21U,
  0xb0404725f72118e3U, 0x9ede1640da1d31e4U, 0xf8f7ff0f6d0110b5U, 0x21433032f5c6048dU,
  0x8ebc7f1ed15dc37U, 0xaee14a5814a8e3caU, 0x39ede80ae4dd2403U, 0x20ef3023e0f7dfb6U,
  0xe3f0c31e39f37fbcU, 0xf7ec0e0aebf3a4e5U, 0xea47f7ab2545d921U, 0xbd260b179b195e1aU,
  0x21ece10e316174eU, 0x32dfdf20222c7bd1U, 0x1c24480c2c63f11cU, 0xf7f9152ee42cc512U,
  0x1f041319dc14d302U, 0xe4c5f304bce0de1bU, 0xf8bcc6c3cc11e4c8U, 0xcc3cf0ffe816161aU,
  0xf0a300a3b0d1a1bU, 0x1ceff00de32efaf5U, 0x5de108b6e0050a1fU, 0xe64d1cff3a23241bU,
  0xa61af0d8453f0410U, 0xfb0fd8f5eed5fa18U, 0xb7ae1b080fd8d80aU, 0xe0e4ebe91a160801U,
  0xee2332f118dde7c8U, 0xcbdb0df681fd0cfaU, 0x558275e29ec112dU, 0x506d5e4f1160d0eU,
  0xce000eda2dff7f12U, 0x704b40d151711e3U, 0x49e7eae4e4151302U, 0xed06ca0e2c000db9U,
  0xcf3422f344ea120fU, 0x120bf7cee5fac6fcU, 0xea0d1429f8fa0c12U, 0xc00dede90007d410U,
  0x35f8121cf500ece9U, 0xe02c012f30f2116U, 0x5e80c0bff1003ecU, 0xd828129ed50503d2U,
  0x3b791df9f82e1e1fU, 0xc8bb2c14441eb447U, 0x1dc141118347f5dU, 0x1c960d2c5116dbd5U,
  0xe22de1b39cdde01cU, 0x1b32a9e1ea4f0bd2U, 0xb3c1cfbd50e34bf9U, 0x1cef1bd6a08c44ecU,
  0xecdd267ba309568cU, 0x1f4fe1eae1eee3e5U, 0xc78b16eb14c4e317U, 0xc9f2110ce74cd4eaU,
  0x18cd2bff17f2ca32U, 0x70dc919370c60caU, 0x82fea401b0204ccU, 0x3416fe281dbaedfeU,
  0xf01a052ce24fe8c3U, 0xb9dc0cd10809ef1aU, 0xef1f222b041bb017U, 0xfc3781dae9fd1a2bU,
  0xe31afff107eaf1d6U, 0xcfd10fd2f1cb2e9U, 0xe0f31410f821d81bU, 0x9dd43e7191f08e4U,
  0x1c3e45d70031f1fbU, 0xf5631df7b8b0d255U, 0x9ef732c1d8175111U, 0x1ee3e2e4eb05efefU,
  0x53ad30ec619299eU, 0xf1d717f1f817f8f8U, 0x21e3451ac7dc26caU, 0xe70f01f01915ed02U,
  0xe3413a0ef61bb5f0U, 0x23412af9fcbdeaeeU, 0x28e8d60c9af87fceU, 0x25db15350f4f2316U,
  0xc9173a31f2e5d5fcU, 0xe000ee0b19b421beU, 0x21ed2c40cfbddcf1U, 0x2af51f34bfc4edU,
  0x11d80411111fdf49U, 0xbed3058108f6f8ecU, 0x233209db3306319eU, 0xdf503da1714662bU,
  0x1d09c7aa09cee9f7U, 0xd133d9334235edffU, 0x20ebc0dbc5f45de6U, 0x2dd0dc81d3001b08U,
  0x462b4aed0821cc4aU, 0xe225c40cce55fa23U, 0xf0f4dd0d08c9f422U, 0xce0b20f1fc42ed2dU,
  0xef05fcf21808e6c1U, 0xfbe04ad321140606U, 0xe706f6ffdef9f129U, 0xdfe32dcb0e15e203U,
  0xc04efe815e42a03U, 0x2c21e1bbde11fb00U, 0xfdf63e9dbef15824U, 0xf9390bc0f8050ae8U,
  0xcee3d9f708edaf2aU, 0xf42d7f03f5382b11U, 0xe9f232d63a27f9e1U, 0xba031fde263ffd19U,
  0xfa0fb9336b2e1717U, 0xe7db0e19dac0161bU, 0x1edf30d01e80806U, 0xc005043eccc6182fU,
  0xfffcf2af10f8c951U, 0x35f9d323081cd31cU, 0xd4fa4bdd12d0f2ddU, 0x2201270329bdbb7aU,
  0xf7f4cc04059f49d9U, 0x23aa441fdff90ce6U, 0xf858d11fd21e7f09U, 0xc5cbcbe8e1c216faU,
  0xead1da4b20ddb2cU, 0xf8ebb7fccdee1a05U, 0xfbf0fe2336786215U, 0x1ee9733acd1ae429U,
  0x86f1bf38466113ecU, 0xc0e70c19eebb39f7U, 0x2739d808ea1dc2b1U, 0x739252825ad0225U,
  0xabd3f7edfdf81c04U, 0x160515ee2737e003U, 0xc0312f9edefeef2U, 0xedabc14de1d0dd2U,
  0xf209091834fdedeaU, 0xdd63d0518fc2721U, 0x927c6e8cdd3f516U, 0xfefdec5b18ffe20aU,
  0x23287fd21303cec0U, 0x22f004ea0d0318feU, 0xfec2dfc45e91406U, 0x57dd0bbb1603eff4U,
  0xeffef1edd518e625U, 0xdcef3904112a810fU, 0x1c2ec7c307dc11cdU, 0xececcdfbe24acf1cU,
  0x9c00d5fcfadc19e4U, 0xcfbd2e1d280e2117U, 0x2c0ee6e8271eb60fU, 0xe3ffc211f235ea13U,
  0xdab8edf231270524U, 0x32282faae4c80303U, 0x1dc6d8ccf3b52ab8U, 0xb72f03dad303ebcdU,
  0x14d293e7348c422dU, 0x9f4c3ba0eed29d0U, 0xebd51e17fc40f0d2U, 0xd4e51a0409ade9bcU,
  0x47a909f82a19fc0dU, 0x1fe8c3ffe40d09f6U, 0xf0fffdffffe926c7U, 0xeaf90ce51703fd08U,
  0x36d02215f5b9e8feU, 0x4509ec7f75221be2U, 0xfef210c3f018fa20U, 0xd2091bdb4320eb08U,
  0xebf5480b00f0e618U, 0xe11210d8fe3c01f4U, 0xd1ceed110214f9deU, 0xeb28022935f8c6ffU,
  0x62150142ccdbb452U, 0xe5e527cf16ab31ffU, 0x1d32d09dea01b2b1U, 0xb30d8130c1f02a1bU,
  0xf6509ac653f4d7e1U, 0x4314cbed1a1910e5U, 0xec6dcd8ff2f3aeaU, 0x36d6043af7221704U,
  0x5037e2fdbc39f214U, 0x18e2d6ba33f9bb01U, 0x20152f1816d2162cU, 0xf9d624b13f160822U,
  0xbd24fdfef2fa080bU, 0xeca7111cd06544d1U, 0x7b4b452933f3fb4aU, 0x3df12434e37f174fU,
  0xd7aa31a40cb54c3aU, 0xd81a4d2c5431c10cU, 0xc8a1e6fc18101b16U, 0x5c2030f7e209cff2U,
  0x4dfeee0be5c9eec0U, 0x3aa2e32230d40adfU, 0x3fdcedece6ff15ffU, 0x172a4fe20e14ce00U,
  0x28340ded36a808deU, 0x1e7b813ed52ce81dU, 0xe9592a064004fc0bU, 0x32d10be02b192c0eU,
  0x412feae495fc04d2U, 0x2d582dd8b66f12cdU, 0xef5e86f32e0a0b0bU, 0xf5f01e1fbf1615ebU,
  0x171a060dfad4df0dU, 0x2c2ff8fa0b09ad04U, 0xd34bc8e253bdf55eU, 0x15d0d2162f04b70aU,
  0x7f09f3f3f9fa2833U, 0xe1c00ff3e22df316U, 0x7be037eb0418eddeU, 0xd1e1b1903e540eaU,
  0xd4d8f921c427f3feU, 0x3c183f18e9fadf24U, 0xf00154d38e5fe3eU, 0xfcd7a4c5c3d80438U,
  0x2ed0ede5181cfb30U, 0x2649020add23f3feU, 0x3af10407af35441bU, 0x1c5044b122322128U,
  0x16ffa9ac5b15fa11U, 0xcb03a90dd4150f02U, 0xca92fd22dd616bbU, 0xd3da183df9f22211U,
  0xdf03eaf90bf98d40U, 0xbc5214010cf2e906U, 0x1da5139cb1033081U, 0x400ade0a0c06dcd9U,
  0x21fc57dfcf49092aU, 0xff3adb2540fd15cfU, 0xd4fa1afbdee731d8U, 0x22bdd813e80d21e8U,
  0x1fae90c1817f03cU, 0xa3e8f2291afaf013U, 0xcd0136f210fcf42cU, 0xcdf87f030bdc3911U,
  0x320d1ce005fc0e20U, 0xfc1cedbce1efa905U, 0xf2e90eb20617dbf4U, 0x1a81f86202b00fc1U,
  0xaee0cebff2f292cU, 0xcf75033720232717U, 0x15116253154705b3U, 0x2f2abfceb7430046U,
  0x86ff0faf3eb548eU, 0x61ee4855e04f61bU, 0x2d22fb0aa5cc36c8U, 0x14924214f5052d3dU,
  0xe106db14d329f401U, 0xee36d8c4cee8ed10U, 0xa8202f251808e4U, 0xff8a09fd473cebedU,
  0x30e3c1b24259d0cU, 0xf7d01c243519310aU, 0xafbc01b5f8f49f2fU, 0x84016514ed07f504U,
  0xe53f4cfb1ae9d8b9U, 0xef18cef841f33f29U, 0xd8e7eb04f82bf10eU, 0xecdcbf7fef9cf90fU,
  0x3b091408bf0d64a6U, 0xeecd0c2b97f298d2U, 0x8edb6e9f8cebf15U, 0xbafc252562eeef1bU,
  0x3615362f1b7fc409U, 0xf402ec2efdf6e243U, 0xfee1343b17d6e401U, 0xd7fef7013c0827U,
  0xefffece1d9e32efbU, 0x9ddf2e1f23b3d6f5U, 0x1bc0d1fbd632d942U, 0x28070b4db9e90c59U,
  0xc2336101430fcbd3U, 0xf1ed01d70fc20200U, 0x612c6efff125c15U, 0xbbac40dbe9282643U,
  0xc4fa1d25b3cb3922U, 0x12ab30c25673f020U, 0xfd1355dfceff0235U, 0xf22f102eed50ea3eU,
  0x2290dbc725fce624U, 0x710e1ade4c7d807U, 0xd00305d5cd29eb81U, 0x40efe4ea0029bc59U,
  0xd802c35b6bee1911U, 0xc73d21cdd7381541U, 0xffd1bb4613e7ff22U, 0x7115e59380f14f8U,
  0x1bfacef3e01005e2U, 0xd0d8c20e22b00944U, 0xbe0dd838dcd6c1ebU, 0x1d2e1df7cf985b1fU,
  0xf526eadacbdae44fU, 0xf916f0be361d39dfU, 0xbca1f0fece4f80cU, 0xd912d0f3e045d6f6U,
  0x180aea24eb08421aU, 0x3117ea19e614e3cdU, 0xe0d051f42ccbf9f9U, 0xf51235e8edaf0981U,
  0x11f61308ff1d3ac8U, 0x1115f6005649f3fbU, 0xff052e1103d8e0f4U, 0xd181af70cf4e102U,
  0x2ddce608dafff8f8U, 0xff143ee7dcf6211dU, 0xf1f407d6e00a14deU, 0x1416d525f3f2ec09U,
  0x1cc5fd1411d0e907U, 0xf31ddb29e4fbf5f4U, 0x2ae2efd6f852162aU, 0xde67ddd30d0d7f10U,
  0x34f06d1bc11fc40U, 0x5b114281e9d4cef2U, 0xb86800f936fbf5c2U, 0x1c3d55fb26c4b632U,
  0x472d9721f542e73aU, 0x16148d55a025db0aU, 0xed0414f51493fdb0U, 0x2323e5cdfbe247c1U,
  0xbd15f1eafac3c8deU, 0x93bd2cf6333f24fdU, 0xfe31fcc04bea4b47U, 0xcbeee7f6ea35c837U,
  0xf92e0bf5e8bcddd2U, 0x1a1a13ef0e2de0f4U, 0xbf06cac5e32e2704U, 0xedd001053d3d27f4U,
  0xf0e007fa164b10efU, 0x5ae4ec2ff21b05e6U, 0xf42012d407f205ffU, 0x56d510cc1bfe12efU,
  0xebedf2f0d510182cU, 0xe211020029fbe612U, 0xf1d6de207f1de7acU, 0x570bc832020fe72eU,
  0xe5c6a9b508f7c112U, 0xfe01b6ec22ed08f1U, 0x3220bce5b4df15f7U, 0x1630f3390a2529c0U,
  0xe5b213fc22530503U, 0xfa67e2d011dff3c7U, 0xef1f38a1ba7f7d7U, 0xdd0723e93005e0e0U,
  0x32f1feededb9de01U, 0x99e3ce2139c7c6dbU, 0x2cdad681bf21f5bbU, 0xf2ee1b08fe52edc9U,
  0x1dd1d523d973b608U, 0xeae5662f81f54115U, 0x1d4224e8202bf408U, 0x221cbff424dd764U,
  0xe00dbae61bc4fff6U, 0x239b115d0430c6c5U, 0xbd3ebbcf8f013ffU, 0xd4b6fd13eef1e4a2U,
  0xadb415e8440b00d8U, 0xdec242e8aeb8fc50U, 0xf610035cd209012bU, 0x1d0c23f81a2efcfaU,
  0xf905fb530925f82bU, 0xf015fcfdffa2fc17U, 0x1e4609fb130b2708U, 0x20efc40e10fc12e7U,
  0xdb04be0feae0e5c5U, 0x18c2f40a3fe706bdU, 0x1ee71d270c113235U, 0xd1151df2f0da3106U,
  0xfc09fef401b1f3f0U, 0x121c151f02141a17U, 0xb5f8040b2a81dfcfU, 0x2e37a91438efc0ffU,
  0xf121c4e7fd322603U, 0x2eb004d2ec11b0cbU, 0x131febed31bbebe4U, 0xedbaf4d82f09c8c8U,
  0xbcfe02bd0d01fe37U, 0xe827fd22d8b7fc22U, 0xf2a623efe5b617d5U, 0x2853fb16217fbccfU,
  0x3ff7d03de9232600U, 0xf49d5f24ff0fbacfU, 0x1abbfe58f5f0272dU, 0xdcd236bac3fde410U,
  0xff362226a628c4deU, 0x7f1ceef910e9d90cU, 0xf7052b19e3fb0b20U, 0xf72de0e0d31e4d12U,
  0xf610c1e316203536U, 0x3b0e0e0e04f5df24U, 0xe80921b91300d322U, 0x8a400f429dae803U,
  0x362d15f8470201f1U, 0xfb15ef9518d20220U, 0x15e51bfd4519de04U, 0xc340ea2eff3b25c0U,
  0x2cf3ebed0c95df0fU, 0xf301191b3823010dU, 0xe3f35d4eff99eee8U, 0x3241302e7b51a0fU,
  0x22a0f0eaf8e834e8U, 0xcabf00f4fbfba241U, 0x433901d71727eb23U, 0xc82e3c01a24801edU,
  0x7f22ba6216e5352eU, 0x57e0281b1dd1d5f8U, 0x1c2aea2c1ae2dd56U, 0xf30bc51ffe10c311U,
  0x18c501ef23d01fU, 0xe34ffff9c7fefc08U, 0xfc24eecaca81fbdcU, 0x130d052c020bac59U,
  0x27c40b1537e6f819U, 0xbe0375f60d0d113fU, 0x1deef0f0c513d7abU, 0xf30c333de1ef0fc6U,
  0x41ff4f3dbebed30U, 0x1aab231beee0f11cU, 0x2929ed1a0cc0482cU, 0xc820e7103cdf1925U,
  0xa0325f10aedf21aU, 0xece116f514d22e16U, 0x381df0de0ffd4a3U, 0xea02df204703c80dU,
  0xe15fe2120e83007U, 0x40e2cc442ae31222U, 0xed0713d225252ce1U, 0x232433dc11240fbeU,
  0xe9dce6e40a13fb25U, 0x4ff436d41fe4ff07U, 0x3e5361e4820b5dfU, 0xe9ff0604d8181313U,
  0xfbf40a15ff00e225U, 0x6fff8f91fcd1707U, 0x6170c0917edff0bU, 0x10f51719ed09000aU,
  0x11001601fefb040cU, 0x210aeaf834e502efU, 0xfd08f731d2ec0306U, 0xf2fd03fb03fd1d0cU,
  0xf378f8100b11f8fdU, 0xdf08e6de11f23908U, 0x10feb0d07e2a0eeU, 0x252e7b0eecfe8100U,
  0xdaf4ccf7031d0b5bU, 0xb8167f8205ea68feU, 0xffbc09eb69d423e8U, 0x2808c87907e80133U,
  0xac24ff88da05dd26U, 0xfa2014d51d8ff309U, 0xdd9cd634c40a159eU, 0xa0eddeeaf3afd75U,
  0xc9e2f04e080bdf0aU, 0xc1f06e38f9d630f1U, 0x1d1f9ccedf28f65U, 0x1bb05e1bd3f022b5U,
  0xe06d502f3e320e8U, 0xf61de7e83304280aU, 0x3124063afb0500edU, 0xa2ced40ed1c0f1d3U,
  0x14e0001a34e1e6cbU, 0x1fc3f4e56adb3125U, 0x2f13eac52a1ccbc4U, 0xd431417fd3fee338U,
  0xc6c0de030c0b31ebU, 0xef2301e8f0fbc720U, 0x5884df16fdfad4d6U, 0x460cd54c26d1e8f0U,
  0x93f1f6d8be04ed09U, 0x19d013012fb5f8c0U, 0x29eaf6e317f00dcfU, 0x2ae2d6da15e714eeU,
  0xefecdbeb3e25ad15U, 0xffccf321d0ca23b7U, 0xd8f057eb14e18e09U, 0x343192b10401a0daU,
  0xbc81bfbba067fe6U, 0x131afb24eb45e513U, 0xbdec4329d52ed8ffU, 0x92062317fd1c07c6U,
  0xeed0442c350adecbU, 0xe081dd3327eb631bU, 0xedebfad90111f503U, 0x25bcd62d4efca9a3U,
  0x520e6028f100eafdU, 0xf918f2ddfcb706f6U, 0xe5d7d31ce03100deU, 0x19fb1f46faa4e8fcU,
  0xde0afbd70309ff9cU, 0xd30d2b356b244b09U, 0x1e40e4603fda2c09U, 0x34aed203c62a37f7U,
  0xedf3bf4d798a8e7U, 0xf6f381412bee4bd6U, 0xe7ca33002bd14532U, 0xc728fde2e504e306U,
  0xcc03adaeefcf4c8U, 0xf7f41896ad1e1642U, 0x5475f6225fef8d8U, 0x4adbc0ee0a0b05daU,
  0x904f7f796ee20edU, 0x10b062df238fb3eU, 0xec4a81ffeaf3e10dU, 0xfce5f8eeca98f4d6U,
  0xbaa431abaf9f8faU, 0xe8cbdf01180bf414U, 0xb9d03fc29e20c02U, 0xde1007d2d7ea08faU,
  0x262710f081c7f911U, 0x279f2408d2f30bU, 0xed41edbc09d5dd89U, 0xdcddf9333a001912U,
  0x5cead845ebf2200aU, 0x251d3c1f30e605d6U, 0xceaf3e2f6f4ded8U, 0x3cac15c5fe043c3fU,
  0xe94863dd9be21b07U, 0x6e2e0ac7d2eba5e0U, 0xef23f3c0d3f22c07U, 0xe0d0ca0b06bcfec2U,
  0x19d8b6e9a037def3U, 0x11bc331bb11ce628U, 0x4ef045038118d7e0U, 0x5ef7b0ab3bfaca09U,
  0x13072ef3e6023df8U, 0x29111dfbe8f1f30fU, 0xe113bd070710f211U, 0x2008f928fc1d0754U,
  0xd2301defced0ffbbU, 0xffc349eb0481e7baU, 0xdbf727d0ecddace7U, 0xf3e6982f30e62c0fU,
  0xcef6df27ce1cb6c5U, 0x2f9e11370d25e005U, 0xc5df2d29a1d82f3fU, 0x52ad6d14f35aaf7U,
  0x4598e409ba07443aU, 0xdb30c1e1f5ac225U, 0x8d5e43f56179df6U, 0xf2e1301ae7ed1ec2U,
  0x9c50be50ef5f00bU, 0xfe8104010cff1cffU, 0xefe3cf15f2fdf5eaU, 0x252b201d16d60a34U,
  0xe51607d81fe20e11U, 0x24ffefebde0efffdU, 0xf12be0e1480631fcU, 0xfbce5304f0102b1dU,
  0x13fce4c7ecd42120U, 0xd538f8fb39f000eeU, 0xf8f4fad20e22e7dbU, 0x36f81322d4e40de3U,
  0xf4ffe331fec90a02U, 0x2f5d70710fcaa2aU, 0xf4df35e2cfdcfaf0U, 0x30e32e17dcced21dU,
  0xd723c2ee21ee072fU, 0xf508110cd32e1b0aU, 0xeef9f22616d50319U, 0xe61c08fed9102226U,
  0xf8c9cffd13e42d7fU, 0xf1fb2ff8ea5d0b01U, 0x2b1810f726cecc38U, 0xcdd5a5b03d50df5U,
  0x17f5e61e1fcfd8feU, 0xaee7661be2268d0bU, 0x12ee0a37be3e1f29U, 0xbf08bedef32b0a43U,
  0xbbff178ca3c4020bU, 0xd6073aa34d0cfae2U, 0x147f0e0f05e939eeU, 0xa7d3f7c35955e3c6U,
  0x9bfbc70c0e2221dbU, 0x7e12432cf00bbfbU, 0x1405f409cddfd30bU, 0x26d80a0a0720f117U,
  0xc5e91e2acf00f814U, 0x102dfafae6cdfffcU, 0xf933fe0c020934f7U, 0xf320fe0e260f32f5U,
  0xf31af1f1020824efU, 0xe41518eb1e272ed9U, 0x20ec21d1cfaf5f2U, 0x16e520e7f6f5220bU,
  0xd7eeb4e5211101efU, 0xb314e134fd0fe0f7U, 0xdee1a327f6adf581U, 0xf80e33cf02242b02U,
  0x603ff2bd31b1ac3U, 0xeec24be649f52e0bU, 0xbbc40a91ff813b33U, 0x13f5b6ddef0816ebU,
  0xf302fb3610e345fdU, 0x2ce34b5e9d810d9U, 0xe5d040eddc050723U, 0xadd53e8fcbdc0e7U,
  0xe906375611fd11eaU, 0xf330161919ef232cU, 0x3426ff2ff6013709U, 0x81dd0f1d252031ffU,
  0xdc20fe172203e204U, 0xb41a0e041c012e37U, 0xe604d8f41113a51bU, 0x21faf8efdac4db29U,
  0x709d7e941e60c18U, 0xe6ded1f8fb261225U, 0xe11cffc122fb2dbcU, 0xfc51f3f920f923cbU,
  0xf4fcd9261ff4fbf3U, 0x22dcd81a1226c609U, 0xe8fc08f2e9200235U, 0x723e91d19e7db18U,
  0xd91119bc3100e81aU, 0xcc79061d81c0c23aU, 0xf686cdeecf4b1007U, 0xf4ea2cfdc50eb8f7U,
  0x461756f9d91bd08dU, 0xfaf1c54adbf8e8eeU, 0x103ed1b2430dbbfU, 0x80b8bfecce50ae6U,
  0xfc371238e2e2d421U, 0x19364115d7d420f2U, 0x203fc9ea91304eeU, 0x61a1efb8e6b011edU,
  0x293ef31746e8d937U, 0xf249f418ba07f565U, 0xee0f0721f50e0954U, 0x9ec606d31cbd9de2U,
  0xd14f0075b0020d9U, 0x81ef08c01b100100U, 0xdaa7e672f3d8580dU, 0xcb38da4eb011c9dcU,
  0xf9de2a0edb13ecf2U, 0x7ff3a8d1c214f0c1U, 0xfb1bc7e98ac22046U, 0x90918830fdbcf21U,
  0x9fe50400f3190912U, 0xd9f54ef8572e1df7U, 0xf3fafadcfa7f3ee8U, 0xfcbff21c577d4d8U,
  0x43c9fce70704ebbbU, 0x14e2fadad90a14c5U, 0xe2d3fd51243c6fbU, 0xc0ebfed18b1ed18U,
  0xbef00def12133dd3U, 0xe023ef2028e648eaU, 0x21a5f9c1b60a17e4U, 0xe17f304fe1e1649U,
  0x26f5bfdb2301eb22U, 0xdea0170c50b49d32U, 0x20b4d8f2004b0d0fU, 0xd9f4ddfbef09f316U,
  0xf1ff210cf1eb1d1dU, 0x1f12a7540c210ad3U, 0x4bfb26ee61183c41U, 0xd1f2370df715e3c5U,
  0xe1b0cdf21223d653U, 0x4fe21fe3f027c025U, 0xf3322d042c2f8118U, 0xfca2ef771b6eff0U,
  0xf10e1006f1f9f1e3U, 0x81b2cfbe60c1925U, 0xe4481c180a181f23U, 0x132adc14ec3c0216U,
  0xde35f0f8c7b705f7U, 0xe93518b20e0f14f8U, 0x240cd51ccb07f228U, 0xe2d749e8441be5e6U,
  0xc7f3b1d137e422efU, 0xc505eefec0ed0223U, 0xad3f131f1457fb8U, 0x13bf313ff42f5cdcU,
  0xfc393423e712b8ebU, 0x88e94e59ed384d3dU, 0xef913d31246db59U, 0x843e1e2d0556345U,
  0xeeef18b0dd02f402U, 0xf0c32b8115c6d2bfU, 0x3a09d436c1faeb4dU, 0xd6f81e08e05c0be7U,
  0x2908a2eb30231ccfU, 0x233fdeb00d002cfcU, 0x26050000400f0f0fU, 0xd6bc045731e8ff88U,
  0x4a10b7eefedf222cU, 0xf307fd3b4d1a1d7fU, 0x33fbdc62b61e2c00U, 0x1ef751f9d81cee33U,
  0x29bdf80ee62efec3U, 0x4f3ab6d2291710daU, 0x1b05c1294433ea0cU, 0xda0720f3e4fdd53bU,
  0xb5efc3cd08ef1512U, 0xf516ee2ee5d026e8U, 0xdb0f56ace609b83dU, 0xef06fee915b118f8U,
  0x19ad1b032cddeaf8U, 0x5eed3f27f05c30fU, 0x60ae0222ae6fbf0U, 0xdf0cd90e35d9f3f2U,
  0x2b02300ae508241aU, 0x91bfcdbf528050cU, 0xaf7150f2534ea2bU, 0xd31115db04e4eb0bU,
  0x12ebdcfce7f01f34U, 0xf140150205b11206U, 0xe329fdf60bfadb01U, 0xcafa36dfefe3160dU,
  0x1cefc1cb00f00f24U, 0xea8131c663dd26efU, 0xdf80f3d181be41aU, 0x26f24bf7e207f70aU,
  0x23e943e5e117d0e4U, 0x27ebf6eefa58f3d2U, 0x112f2a1f2de50fdaU, 0x1937ec20c933faf2U,
  0xffd229d8f4c4100bU, 0x153e183ffd39e4d3U, 0xbd244002eae3cbd5U, 0x2e1e38882314e5d0U,
  0xa228cb14eb39d2d3U, 0xbe3307c7f629ffdfU, 0xe62110c0edc4dce0U, 0xe001f009e70aca1aU,
  0x3c4ee41418e40e35U, 0xe8e3fd8137f13c06U, 0x4673210cfbf94b28U, 0xafec68fdeeeb051bU,
  0xffe22de3244f55f0U, 0x68de2ee0c37be027U, 0xd3ecca44c5ed3c3fU, 0xdbd1fb2efc51f50cU,
  0xdf24140d5f2b3d09U, 0xbd412017c781f028U, 0x91c82ce1d315ca1dU, 0x1810e7f60fc33d28U,
  0xd11df4c4ebe7c136U, 0xebf72aecfdf22bf1U, 0xc88e45083dd23f89U, 0xdfee0dd0050e1737U,
  0xf3e5bf9c19c7c1ffU, 0x8efda330ae71a04U, 0xd02afae7915cd1bdU, 0x1e40354028cdb3U,
  0xf5e3e4d1fbf60720U, 0x22f913e6dd3a18feU, 0xdd1217c818090de0U, 0x4f5d50e0af102c4U,
  0xda162af9161c0dcbU, 0xfcc2a1ce9f5fb13U, 0xf30318edebee1fe7U, 0x10c0a0df423ee4fU,
  0x260a7f1ee41a15c9U, 0x15e0feee062410f3U, 0xfb07e2130d17fa22U, 0xe4d80312e7e2f5e8U,
  0x12090702f83741e5U, 0x1ac63b2981fa0603U, 0x21a02fbb30ee01fU, 0xb03ff16ff140cdcU,
  0xc501f90aec18e307U, 0xdfd9f1fbdeffe317U, 0xfd05f00ee910192cU, 0x12fff8fe1815fcebU,
  0x112415ccfd2cfe15U, 0x18f7b6dff81e1102U, 0x92c0ff5e70508f4U, 0xcdc205d4e4d9e5faU,
  0x3536d5d7f6ea092eU, 0xbfc301bb7112f3bbU, 0x2d0e6393031fdfcU, 0xd00020c4f6dfe01bU,
  0x44aefaf9cffa2120U, 0x5cebc061631f5f9U, 0x51305fc53de815cbU, 0xc65df5c0dcd9cd03U,
  0xdf1caf2c6d93024U, 0x3b5f130442160a1fU, 0x83c71d95e1378123U, 0x55fc1716080c00e6U,
  0xc3d723fce100f015U, 0x20bfedb20f4aa29U, 0xcba7e4f9fc38ff90U, 0x1dee11bbc0841909U,
  0x1c4cf11308e10e7fU, 0xe7e348f7e60a0b30U, 0xfdead942b607e925U, 0x102595cff5e3d13aU,
  0x26179733e6fe0050U, 0x1ff23def5e51c3dU, 0xc7ff10a1260dc9f7U, 0xde2407f510cdcbf6U,
  0x212afbedece7fdd8U, 0xe50801013a1800d7U, 0xe9330a7f0016eb26U, 0x2e10fbe1fc11081cU,
  0x22f5352da207156cU, 0xf53210fef20035fbU, 0xec0e140902e0f026U, 0xf900cd30e9fe0dceU,
  0xc00fd1e30dfc291bU, 0xba314a1815f7e90fU, 0xf7c94ecd69002b13U, 0xa1402b90ef83724U,
  0xb810cbd81c98a8f7U, 0x15494cd16481d7c3U, 0xeb4a1ac9d0ce4ed0U, 0x2910d116ad0bcdf0U,
  0x5fcdf75b00f53ccbU, 0x15c6c615c53beb11U, 0x35f9164b94240dc6U, 0x998961d09fa08c5U,
  0x28124e38fc030e0fU, 0xe91608fdbb941545U, 0xdcccf101f5fd09c8U, 0x4ec9e3eb17e11ef4U,
  0x35100121ccf53505U, 0x310df2f0c1ecf5f1U, 0xdbd2eabf01e9e3eeU, 0xe7fffdfede8f13eU,
  0xeef081cff035c07U, 0xe710421ecebdda45U, 0x6e71563adf4bc2aU, 0xc892822c0afb183dU,
  0x235563fffee8df08U, 0xc700499be9033714U, 0xe60cd0ed40a401dU, 0xda2e0b47f5b81af9U,
  0x11dff30ae4c72a8bU, 0xedd4e413e3e121fdU, 0xdbf346ccd627baefU, 0x2b4844e9c9c1d800U,
  0x5acb2037fbf11c23U, 0x1838170095b3fb41U, 0xe5e42fecf404f81eU, 0x31f9442156ff35e5U,
  0x7f510b0c0c16ede3U, 0xfcc2cee72afe3dcfU, 0x173a0d1aca3a140dU, 0x2f8f4dbe11161824U,
  0xc63440c152b0b05U, 0x17d82ccf29e0f002U, 0x88dd12bdda12decbU, 0xede6f45519bbfbe4U,
  0x76caf8d61bd819b9U, 0x37e0f615143217fcU, 0xeb17310ee1fe0dc3U, 0x1e1bdc8d21d31105U,
  0xdb18e307db0b3ce1U, 0x55ec16d51f2533beU, 0xdb0fdb7f283a2744U, 0xf91e12d5cf1a681fU,
  0xfe09fcbe162ae00bU, 0x82ef8d3c436ed02U, 0x130403d7160713f7U, 0xdadc18edee0cced0U,
  0xfa2f2c1b0f05d4ffU, 0x1e0e3630cdd6dedbU, 0xf4e10e023800f9e9U, 0xfe2bedcdddd9d8f7U,
  0xdbc605d1c3e7f33eU, 0x2ad530d8f30ceb20U, 0xd5041fc0072fe612U, 0xbc3db8e8f4fa7fe1U,
  0xc7b5e615ec10c3f5U, 0xef040f2430f953b8U, 0xff03211c40c61e20U, 0xe8181411f41b312cU,
  0xbe1bf90f041ff2c2U, 0x29cdf01a260a2918U, 0xecf807a20bf4c404U, 0xf0feb726dc0deb17U,
  0x28e7d60cdffa31ffU, 0x21da0c19c62e14cdU, 0x8d27f502bbef720U, 0xe7101438cde4e1ecU,
  0xe0052a0ffe07fdd3U, 0x9ec2c10f5e4eb07U, 0xe8ed2d35227fc8f5U, 0xd0f24053e0a2211U,
  0xa18050b2cddee26U, 0xec1e0be0f0f50015U, 0xeb05eebb09d403f6U, 0x1cf412feeb1023fdU,
  0x3d0beaeaf9f0ea0aU, 0x730e4ec0c25f7fcU, 0x12e9d84c191ed2ddU, 0xf3f5ad19151bffc3U,
  0x18cfdcf9e72b2d08U, 0xbb2b5401d263005U, 0x9117feba6c842f0U, 0x10f5f5ed070a15d2U,
  0xe5e5f014f42e0bffU, 0xe605d3de1b4e0d03U, 0xfc03221afbcb1204U, 0xfe2bf4e5f100fa3eU,
  0xf01120300fe091eU, 0xe0f80a15071008edU, 0xe101cf2bfff4ff36U, 0x1302f9f1bdf9e9f5U,
  0x372cf403a82a2735U, 0xf4f4fe24d7e52e30U, 0xce687f67c8bcfffaU, 0x3fed3b3915ebdcdfU,
  0xd95c105c1f2be06U, 0xab03e336dde00013U, 0xf5111ef127c03ebfU, 0x91d82cd4d1052502U,
  0x2f5d53cf56da120cU, 0x616161c2f094ad1U, 0xfc29b8cf972a5b2eU, 0x5100df8cd391610U,
