/**
  ******************************************************************************
  * @file    network_1_data_params.c
  * @author  AST Embedded Analytics Research Platform
  * @date    Sat Jul 20 11:26:47 2024
  * @brief   AI Tool Automatic Code Generator for Embedded NN computing
  ******************************************************************************
  * Copyright (c) 2024 STMicroelectronics.
  * All rights reserved.
  *
  * This software is licensed under terms that can be found in the LICENSE file
  * in the root directory of this software component.
  * If no LICENSE file comes with this software, it is provided AS-IS.
  ******************************************************************************
  */

#include "network_1_data_params.h"


/**  Activations Section  ****************************************************/
ai_handle g_network_1_activations_table[1 + 2] = {
  AI_HANDLE_PTR(AI_MAGIC_MARKER),
  AI_HANDLE_PTR(NULL),
  AI_HANDLE_PTR(AI_MAGIC_MARKER),
};




/**  Weights Section  ********************************************************/
AI_ALIGNED(32)
const ai_u64 s_network_1_weights_array_u64[1197] = {
  0x12070d0b11010df8U, 0xffecd800e5eaee04U, 0xc381c1e4cae8fee3U, 0xdd0c091b3de6b0e5U,
  0xf160e14ddbc0801U, 0xf0e803c281e406cdU, 0xf9e401d63913eb1eU, 0xe8341ae058f3be2bU,
  0x5d02a865ff921ef1U, 0xf59667f29d01f107U, 0x32084742ce22f77fU, 0x3a663617511e0d7fU,
  0x4f1d4a3641295b17U, 0xcbf8d3d3042dfe3dU, 0x32352407b9e60cb8U, 0x3f1218374c4e7f59U,
  0x20045021416a520bU, 0xd9deef0c172e0602U, 0x686b3f4b490803fbU, 0xe3b5a581c2bda74bU,
  0xc434fcad55f203ffU, 0x5b16826f13c64605U, 0x5bf55f8853f2181U, 0x153107be221fc035U,
  0x6741f5c5f9fdf4f6U, 0x38d781cd02000533U, 0xe8abcc030c062442U, 0x3014e5a1aa013243U,
  0x21d78183f5345b21U, 0xf0b0abef143a2c45U, 0xc13515bd32223e1cU, 0x75fc8e790fd7290dU,
  0xf1d142fd9576ff81U, 0xcdecf7bb54f9bf43U, 0xd111c9c9e3819affU, 0x4232116edf800dcU,
  0x2634f9130f10f5e6U, 0xfa110c0f1e27fbe0U, 0xfbfc747f42e0dcU, 0xefeb474c308e82bcU,
  0x1ae5e601b7bee4efU, 0x415d510bfd090805U, 0xdbc313292d46706bU, 0x34c6b8a8b69181f2U,
  0xe23b020e6c2d2965U, 0x6fe4174011f32325U, 0x44177540f5160e10U, 0x3ff6d11f0fd24d7fU,
  0xe7866b07905c1a9eU, 0x9b631c82780b817cU, 0xffdfef45eed64ffcU, 0xc3e3f283ced29fd3U,
  0xf6d481dfa681c7d7U, 0x12f10cccd6fdd0d5U, 0x3a312f59521b312eU, 0xa6c68781e1c2b721U,
  0x8252f041019dca6U, 0xfcb003f58106172bU, 0x691c212ad631dcf9U, 0xe9ea3a075b5b4d6cU,
  0xdfe7edbc3eecff47U, 0x5377f78bd9aa80aU, 0xfbe9ee02fc080202U, 0x928b457366ec2207U,
  0xf2e1b1e0eb93c0d0U, 0xb781d1d2daf30de6U, 0xdbfd343622e0a5f3U, 0x3728cbf9cdd6e5e4U,
  0x1db02536cd143eccU, 0xe42f24a22d308135U, 0x13b3230c902b06U, 0x11e1a6145269edddU,
  0xc488257f7cc3abdcU, 0xa82a6e6fd6c0f503U, 0xf3c63affe11204d8U, 0xc269f0d93e10c423U,
  0x7fe4c256ffd13be6U, 0xbda3b304bf40dbafU, 0x8197284640171c11U, 0xdf4f6a610b1601a9U,
  0xd1e26fffdfaf1e4U, 0x65810000a289U, 0xfffe91c6000052caU, 0xfffffa38ffff3091U,
  0x1bb400003635U, 0x223cffffff96U, 0xeb00003104U, 0xfffe9fc6fffffe9aU,
  0x15a5e00004eadU, 0xffff4a0bfffffd7eU, 0x10225ffffff8eU, 0xffffff91000023bcU,
  0x1240000279fU, 0xfafa0ef80af60df1U, 0xfe1a0007ff2f0304U, 0xd0d061d110f09ffU,
  0x7f628373744ce3eU, 0x1c0d83deeb7101f9U, 0xab2fb03d23e0ffdU, 0xe9fe323726158b20U,
  0x19fe81cde557fafaU, 0xe8fef822cc2b0cfbU, 0xf69d2e0e68c77ff5U, 0x6a7b6bfff60a6800U,
  0xfcd3f203192ae205U, 0x59067f2300e55602U, 0x28fb168987050787U, 0xefb68b8cb77f81a6U,
  0xd17f7d2f9630f200U, 0xcc81d38181f18185U, 0x85cf87e08158dda3U, 0xf4bf28f43cd04df8U,
  0x4b495af604d551f0U, 0xf812e7e74a17f5f8U, 0x7ffe6e81d7813d81U, 0xe8e6529190810c82U,
  0xe67f8181354cc681U, 0xe34d5fae811008bfU, 0x8183f39a8ca9a681U, 0x814585d3dd34038cU,
  0xfffffb7e00000144U, 0xad0000042bU, 0xfffff88a000000f7U, 0xfffffd74fffffeddU,
  0xc70000063aU, 0x8c400000006U, 0x600000086fU, 0xffffff6d0000017aU,
  0x3c600000567U, 0x193fffff8a1U, 0x89b00000750U, 0x47e000000b5U,
  0x5dbc7fbbff15fc2bU, 0xfde32a0964fc0d2aU, 0xf2ff111cd3e5e59eU, 0xc47f5f9088d4174aU,
  0x4f19430b36013bb3U, 0x344ccad7cd4c1c9aU, 0x11e325307fe32dabU, 0xb81dcdf55feb31bfU,
  0x4046a3c7063002e7U, 0xa7f22df2f1c07f8U, 0xcce00eecdcf3732eU, 0x28a30fb4f3e7eddaU,
  0x241c0c4b4dc1c8ebU, 0xc6e51e5397f47fc4U, 0x9225b5018253816bU, 0x2439e3f645b12181U,
  0x88131c4e6de92253U, 0x406a5a592ff5de2bU, 0x1422d9e51fef2815U, 0x207f6fa33e80c05U,
  0x81ba1637ef2e3011U, 0x20ca919401a91b36U, 0x2d1d18bdd4c02ad4U, 0xb005f681009df2ecU,
  0x97acdfffdf0a0b2dU, 0x63ff3a8da7e95a7aU, 0xf4157f2c8c3455b3U, 0x412fd2fafae51b23U,
  0xfafb2081541fb501U, 0x4ee00005d10cc2b2U, 0x7f4dce2fc494071U, 0xd1034b6ff445c34eU,
  0x1d674584a07fe168U, 0xe8067fe733011417U, 0xdb056d3829f6e9e4U, 0xc10e1019b8a55e2U,
  0xbef7df022f111abeU, 0x9f1a0381a5e6dc27U, 0x9168580c5842fd8bU, 0x152ed1e6ee34fc52U,
  0x53541cee93644c6U, 0x2e48ac7ff6962ae5U, 0xeca3adacf83c7fa0U, 0xc8d044d387df8ab7U,
  0xddee911acb08d9fbU, 0xf6ce2ddb16d7e734U, 0xf2e6063308dff5f5U, 0x7f8fe934df2f2705U,
  0x1fdc71a7c480a8fU, 0x8fcfde1591dc04eeU, 0xc7c227fefd7f0b59U, 0xdc2951220ec42af1U,
  0xd470175ba51981dbU, 0xe610daf9ca05cf1dU, 0x631a1fe47fc40fd9U, 0x932c391d2ebc000dU,
  0x440b4b0ad6daf7e8U, 0x290816e9244ff802U, 0x7d5360af2fa7f09U, 0xf55df7a81218f6fcU,
  0x7f3e38fd037d471fU, 0x26700c3dfe0a199eU, 0xf5c3ea1d0dd80f0bU, 0xfebd11fb0c81f8f0U,
  0x12aae31de5e702b1U, 0xfae4c8a329e2a802U, 0xfb35aef950c5a255U, 0xef097fa4427ebef1U,
  0x534df019ee9d4f0U, 0xfaf32c81e4fa1453U, 0x14124ec21bf0e010U, 0xc0b1909c31326a8U,
  0xebb31b325b7090ccU, 0xde7fed1513ed9d4cU, 0xff3736fd4ae420f4U, 0x7fb0ee1e0221dfbU,
  0x1bfbfc8f5fdb2c0bU, 0x230639f5f4ee2681U, 0x14e60727f5d126ddU, 0x262efffbc93a2a22U,
  0xc2397f77345bd9fcU, 0x812df71c08dc27baU, 0x2a30cb282bcb0fffU, 0x1afdfde660051232U,
  0x631fc3fb81b5bbf5U, 0x3c08e8c54603c10cU, 0x204b20c22e1c2000U, 0xe2d51217b3631c13U,
  0x409a2c3650544e31U, 0x310c7ff93ce6d019U, 0x389ec535eb432aceU, 0xe2bbc4f313c8ce9eU,
  0xf6eb97fd7e81e1fU, 0xfc0fdbc6a1470bdcU, 0x291b1bdadff21c81U, 0x1543917422e834e8U,
  0x100000000U, 0x0U, 0x0U, 0x0U,
  0x0U, 0x0U, 0x100000000U, 0x0U,
  0xffffffff00000000U, 0xffffffffffffffffU, 0x1U, 0x100000000U,
  0x100000000U, 0xffffffffffffffffU, 0x0U, 0x100000000U,
  0x100000000U, 0x300000002U, 0x500000004U, 0x700000006U,
  0x900000008U, 0xb0000000aU, 0xd0000000cU, 0xf0000000eU,
  0x1100000010U, 0x1300000012U, 0x1500000014U, 0x1700000016U,
  0x1900000018U, 0x1b0000001aU, 0x1d0000001cU, 0x1f0000001eU,
  0x4f7d798f4cd0ed8U, 0xdd53de07fc7f501U, 0x206ffe3cad9f2ebU, 0x2024fff7f0e2308U,
  0x42707e6417fdc4dU, 0xd90a5794b90df6f3U, 0x1112f7b1cd15fff1U, 0x4d66dcffd97fce0fU,
  0xf40c2f0258541dc5U, 0xde888f3a7f38f7a6U, 0x3309d70090474dedU, 0x9bbbcff600efd881U,
  0xf003814bf2fbfc0cU, 0x3f03f0d619f71122U, 0x81f10006ee150708U, 0xc9270f0321fcd80cU,
  0x312dadc7f150aeeU, 0xf2d3ad0f506f5d8U, 0xc9ddfd15f50c1f02U, 0xfb1f420411e081e1U,
  0xfdad283a1fa681dcU, 0xf21c60e3243123e5U, 0x109a1bf31e2cfa51U, 0x2f4081e532ec2a00U,
  0xd81241dfef458120U, 0xd1d2cdcf00dafc01U, 0x447efbf0b07f7e24U, 0xc7ffa713f6dcbc67U,
  0xe0f71fea38128131U, 0xde1f279ceacddcd9U, 0x19e191b3eb6cbce2U, 0x81c97415fa282d36U,
  0xfffffea0000001bfU, 0x132ffffff8cU, 0x144000002ffU, 0xffffff6c000004fcU,
  0x16d000004b9U, 0x218000006f4U, 0x436000004caU, 0x17e00000274U,
  0x23f1410020a00f3U, 0x12020ebcfa071241U, 0x407f07df14f0ff72U, 0xf30700690e813439U,
  0xc12c8d9f3fb01d6U, 0x7060509fb211581U, 0x12dfcd3113f98105U, 0x23f5e74b00fbe7d7U,
  0x81c27f5bf6814881U, 0x817f812ee079814aU, 0x2e35c817f843419U, 0x1ecab0a301dede77U,
  0xceadbeeeffdf50aU, 0xe03021216fb0bc8U, 0x7b8bd5a05fe0606U, 0xf81ffb817f052310U,
  0x60c0a0d05f2080fU, 0x11e4033116011210U, 0xffffffff00000065U, 0xfffffcb200000c00U,
  0xfffffeb2fffffce8U, 0xedffffffd3U, 0x14cfffff5efU, 0x7100000005U,
  0x125cfffffeb1U, 0x233fffffb54U, 0xe5fa18f1172ff8e8U, 0xe72ae21ffdf4e422U,
  0xeeef0f16f8f80e28U, 0x12eef0f2814a55f2U, 0x17d767326933a9f1U, 0x3126364d2d2c0f25U,
  0xf6f51405da81abfbU, 0x1c8a6f41c07e50aU, 0xf6cd1e0c971c27f1U, 0xa6344331083efaf4U,
  0x87fcbe11503ff02U, 0xf503045ffcde0b2aU, 0x44d4fc5cc530f43cU, 0x1d5d81e41a021b3fU,
  0x3012daa111c0a14U, 0x210fd17151e26f0U, 0x1ac727d8b8bdc4e5U, 0xf9eff20881111721U,
  0x116d806fdf1f108U, 0xb1dee1e16f71eceU, 0xd7e21b07ff110e38U, 0x6fd23ed1002d012U,
  0x11f3572922a0e105U, 0x15d12d040428e97fU, 0xf38106cd1b02ffbcU, 0x4fee21d008fa0723U,
  0x16fef60af8253906U, 0xe19060c05092003U, 0xfc057fecef09f999U, 0xcf181061f41562c0U,
  0x9f8c5c5e2efe3feU, 0x2e2a0c6f211008e5U, 0xf0e31a1514fec61bU, 0xf2f4fc16e3e402d3U,
  0xf01d0cedfb03f2fcU, 0x1e502207f0a1a0cU, 0xe0ff10708090fd7U, 0xf311f213e027ece8U,
  0xeaf5334799da5318U, 0x7f7a0810ed1dd932U, 0xe9f63da52d1f2831U, 0x10e6ee810b2b1700U,
  0xeccfbd1311640225U, 0xfce31935df3183e5U, 0x1d0d4f27e093e2baU, 0x1906f7811673a6cbU,
  0xe008e9fefee30ff9U, 0x220e06161f0ac90dU, 0xbe3e2ceeaed6dc00U, 0x47e97f1608b2f320U,
  0xf4d9ddf83a14f9f7U, 0xf2eeebf9e2dfe7daU, 0xfe42173fd753c2eeU, 0xe97d181f0d0adb70U,
  0x1701eb6a81bf7646U, 0x6d30065bfd35effeU, 0xc8e929ebee2b1413U, 0x260ef3d8192d1ddcU,
  0xf01ae910f73081eaU, 0xfbd608fa0f0d23fdU, 0x92a403f7f1451c8U, 0xd8b822d6ebdb010cU,
  0x3fa010c0a0aff01U, 0x4ec1206fbfc11faU, 0xc905fdc1d5d5ffe3U, 0xeb20f50a181518f9U,
  0xfeff1513fc3bf5feU, 0xfc1f810cff0107f6U, 0x88186236cad60627U, 0x10e37f0be793d83fU,
  0xe324d74b2ee8110eU, 0x4f5f9f515e8feefU, 0xd2fe170bfc2381abU, 0xe8d8c6bd0aecefe7U,
  0x9be9d0fc0e060d0cU, 0xf308011026fdb308U, 0xc0f53f97e0e60256U, 0x5293b581212278b3U,
  0xe4e517cbecc2f8e9U, 0x1517f26340f80371U, 0x1ed534cefc1691f7U, 0xa1191d0461f5c4c9U,
  0x89f13f02dbd0fe81U, 0x52f2f3bce40853f1U, 0xeb7819d727bfe80fU, 0x7d15b6d718af03f8U,
  0x37f1f39b5f71607U, 0xbdfc6d92b022ad4U, 0x81eba7fa14befeebU, 0xbcf42ab5ca4c33e1U,
  0xd206be3017f2150dU, 0xe8bf17920c1ae02aU, 0x1233cdef3ae5ba1bU, 0x6430debcd1bc05fcU,
  0x1166eaf1f2aaf6feU, 0x13007fe30c121fc9U, 0x1b1d0237d722fcecU, 0x11b0209ed100216U,
  0xaf91001b2f6180eU, 0x7f1ef2fee10c11eaU, 0x4b5d65000516b27eU, 0xc6d03c9336ee3d8bU,
  0x6f70e19242413a2U, 0x345ebfbf681510fU, 0x6168b0b9cb9356dfU, 0xc5ea3581f22cfd59U,
  0x76ed07e3081427baU, 0x13132453f0310001U, 0xafee0520ab1230aU, 0x1d0e2fc0476ce428U,
  0x7f150f09efd5f10eU, 0x3e2ee0dceff1302U, 0xfd186dc32ed3b81cU, 0xf9b7d111f448147fU,
  0x16ff0cf1fc06090aU, 0xeae20b1413163817U, 0xdd01ef013cd701e4U, 0xee66e5eefe186fb7U,
  0x3981cefd353207ecU, 0x2c30e8a4a56f6a7U, 0xd00c2e16f54e9fa9U, 0xf4e2dcd5ac1999a6U,
  0xfa1d1df6fffb1c7fU, 0xe7f4f6210a6ecd2eU, 0x62120bbc3f11909U, 0xb3c7a715b1c3d6e0U,
  0xf2ef0cf9ef4e480fU, 0x152b7ff9130e1116U, 0x76000000481U, 0x250000001dU,
  0x3a800000153U, 0xfffffe78fffffb48U, 0x4d0fffffd11U, 0xfffffdf5000001acU,
  0xffffffda00000e4fU, 0xfffffe22fffffe7cU, 0x336000002daU, 0xfffffd53fffffad8U,
  0xfd0000087bU, 0xfffffc6900000024U, 0x6e000000026U, 0x1d5fffffbf2U,
  0xffffff8ffffffcf5U, 0xfffff678ffffff9eU, 0xe50d18f1ef2fde0dU, 0xf90a22c8e8040d19U,
  0x131b1a0f13ed1f20U, 0xdee61f0e1c1b00f3U, 0xba2341b5cf5dbc3aU, 0xce3241e6dbe60f40U,
  0x3f2e433225c23638U, 0xc0bf343e3d42fac9U, 0xc51239a8cc43db35U, 0xc12d252ae2d11b3fU,
  0x3c03322931ca133aU, 0xdbc52843342b02cfU, 0xc23f34b2cd48c82eU, 0xdf383eafcbe0b52eU,
  0x353f2f363bd34f36U, 0xc6d237133b3bc9ceU, 0x817f7f81817f817fU, 0x817f7f11818bc77fU,
  0x7f7f7f7f7f817f7fU, 0x81817f777f7f8781U, 0x9256689e9a62996dU, 0x877c487f9281406bU,
  0x6c4668636896347dU, 0xa3917d7f5f5badaeU, 0xd0322cbcd730ef2bU, 0xeb4321d7d3c9811aU,
  0x302e2a2a2dd43523U, 0xe1e326053129c7cdU, 0x9c6b59b0a147b75eU, 0xb4734f2b9090855aU,
  0x5a635860749d5b54U, 0xa5ab665c656181a2U, 0xa25142e8c133b64cU, 0xb96d2f6c9d9e0839U,
  0x43444b4452b42657U, 0xbdbe6a6746489dd6U, 0x833fffff20aU, 0xfb4fffff3d9U,
  0xffffea8c00000e52U, 0xbc4fffffad4U, 0x75ffffff34fU, 0x87e00001096U,
  0xfffff218fffff911U, 0xb13fffff726U, 0xfffff01cffffdf6fU, 0xfffff8a500000209U,
  0xfffff69cffffefe9U, 0xfffff764fffff8acU, 0x11a200000ce3U, 0xfffff33ffffff44dU,
  0xffffefeefffff7b6U, 0xa4400000edaU, 0xf1bdccde5f2b2ff0U, 0x40bd07d74c2e027fU,
  0x1026c7b814c608bfU, 0x5f12ed10f73938a2U, 0xc223e416f0de46eeU, 0xe2fbb6eb1eeef7b8U,
  0xce1714f047b258aeU, 0x728117be2613e5cfU, 0xecb0fe2e6e131acU, 0x10219df22be421e6U,
  0x1525f94daef1d10fU, 0xf2bd7f852cee53f1U, 0xde23fe07a5e62a1fU, 0x929b915db374c20U,
  0x7d80a15d6ddc8d0U, 0x49a8f9058511e981U, 0xa100f06fefc34f6U, 0x6ee7fad0b3c09e2U,
  0xdc0d3d05c829151eU, 0xf5f15e403f5d059U, 0x28d5dbf510f92350U, 0xeb06fbc20b3000f4U,
  0xcefd14eff45c0f13U, 0x37ed0e0f60812c41U, 0xf604b31681310010U, 0x9bf83f36ed15efb6U,
  0x1796c8ff1f4330f0U, 0x13232ecdbb272207U, 0xdd709ffed362091U, 0xd7c72c17eb0fdae9U,
  0xe410fded11dc811fU, 0x1cd9c74ea3bd491dU, 0x7b0941afb72dd8c5U, 0xb6f981ae31f94c01U,
  0xd4bdc21f7eaad115U, 0xaa3ca3047706f796U, 0x77cabfefc2108e0U, 0x16cc7ff5140cee76U,
  0x160ded5a47a3fbadU, 0x3e0922a5fffd9e27U, 0x812e3206090ad231U, 0xaa1a04c2c9a84616U,
  0xf12d054ff0f47831U, 0x9ea5257f052f59dU, 0xa907184a84e4348bU, 0x661181fdadef8354U,
  0xaffa13050a6222d4U, 0xf3330dcf06c1c2edU, 0x3820d7e509183502U, 0x21a9231fd00b2d1dU,
  0x1b19133281eaeef3U, 0x5117a1f05255f2faU, 0x2125231cfff11708U, 0x7fa4c2cef5fff497U,
  0x96015becde0f2ff5U, 0xa5e91ee1f58ae5a2U, 0xe30b39f689f0d795U, 0xd907e5407f1614e8U,
  0x15e33122dfeb3a0eU, 0xf0edd70603ef03fcU, 0xcd3f197fe239552bU, 0xdd56ede2424fedc7U,
  0xe8ff27530dd7d8c9U, 0x325a244b17faceceU, 0x266f26b74715ed1cU, 0xf4198bfb67d8e421U,
  0x13ff082b2f510b18U, 0xf5262f81df3fa0dfU, 0xee47e5e1fecbafe7U, 0x7f09f631596beaa8U,
  0x2110ba3afacb1135U, 0x70a2c4e045998e3U, 0xeb09082c2e15b4ccU, 0x332d450e7f943700U,
  0xf2fae3e5de15d9e5U, 0xf73ed4c4e7d9ff4dU, 0xebdffe0ba8048a08U, 0x6aa1cfb2029fc9d7U,
  0x7f0df6eae0560736U, 0x164c22f8a9720061U, 0x24dbf1cd06d0fae8U, 0xee4c3112e0f9169eU,
  0x1644f1f42e16060eU, 0x1c2ef535cecd3681U, 0xe9fa35eafd0a092fU, 0x341a6d2be9caf4f5U,
  0x62cf3ae07188101U, 0x16fffed950fa02beU, 0xfbeae19fa60ccf17U, 0xc6cd92f30e4ffceeU,
  0xf47f19d7e5acd8f9U, 0xa526002303e9e11aU, 0xfebcd6404afb9592U, 0xaccb788c2e21c2f8U,
  0x2a63cf01fca7c53eU, 0x113e81b1bd08090cU, 0xf33eba36ad27d2b4U, 0xf5d11d15a97f66fdU,
  0x43ce972bfd49c4bdU, 0x2b49cc85e21bcacbU, 0xede007fd0090b8edU, 0x253c557ec3ec4ed1U,
  0xe5e9ee000efd2aecU, 0x81b04ff121e32f3bU, 0xf8c8330bcafa86b8U, 0xf903e8e1fa14abdbU,
  0x3410c9f7abf5de7fU, 0xc7041b3bb5d0efe3U, 0xcef77fb3c2c73f8cU, 0xc396d6e9d6b4bffbU,
  0x301ccfe1e8e4b566U, 0xf3e2a3f2d5aeffbbU, 0xe62222147ffdfa05U, 0x24b5210b08d6c10dU,
  0x10020bf8cc18cc00U, 0x19049edf0305cdfbU, 0x6260322111cb03a3U, 0xcf201309b1e1f190U,
  0xd00120290abc147fU, 0xdf06fddaf7c3a986U, 0xf6f1b2fa2012f2ecU, 0x47652830e3eea3e1U,
  0xf0d3142227e50a94U, 0x7fd31242c814ff67U, 0x309beed5d0fd8efU, 0x322aef384b131afbU,
  0x7f51ef1ae81b9f48U, 0x37580b229576ffe1U, 0x1e0860b5e518fbecU, 0xc34e0ee940c11a14U,
  0x6ce4d60cbc0ca675U, 0xfe81f412b7381dc2U, 0xef62df6c6632866U, 0xd3190c14c6d0fa7fU,
  0x401542d9e717f125U, 0x1c07baff3d29220eU, 0xbd21eecf1a07b6edU, 0xdd4be011ccd55abaU,
  0x5c0d942925107f04U, 0x3ce7082ccd46dac0U, 0x31e15a14241c1525U, 0xf50e1a0758f325fdU,
  0xcb1936df4b16d303U, 0xd125d52e7f8c1906U, 0xeae281da0e4aef10U, 0x1f09e0012f8dddecU,
  0x4365978ff715dea7U, 0x36fcc02fc9553aa8U, 0xaa671f05ea1b2f52U, 0xe27f1e5cf38a333fU,
  0xfb9e2459692fe9dcU, 0x266c2868d12b91a1U, 0x150c04ddee0a8132U, 0x37f6e438160e574dU,
  0x26142627b1c3db27U, 0xe415eb0412542005U, 0x12ef9a165c44f1ebU, 0x168ff9a3c2d04c3eU,
  0x70551b63a8b8ec2dU, 0xb77fd5fed033d35cU, 0x5edb32f912280abcU, 0xe5eac569cee1f9acU,
  0xf3e981c7db101aacU, 0x5d0faf31c5fc0038U, 0xf71e22c91e83db20U, 0x2f436c60bd2ddecU,
  0x17c8e00bd9074124U, 0xab4dd07f2908e1c2U, 0x4229450d10ebe1feU, 0xdf3237f92cfe0915U,
  0x3a29c7e7d6f2df7fU, 0xc83be7cfb7e9e985U, 0xd5294e7febdc4efcU, 0x2825b63d00fc2125U,
  0xb913262509e2fdf4U, 0xf8f8fa2a2fb2cfe0U, 0x2f0ae7b53fdead01U, 0xc82b0a0c81e124f6U,
  0x1e07eb6413f3853dU, 0xb7c5ce4f1f0006d4U, 0x23df1dfb34ca18dfU, 0x2a083cc20ce57fdaU,
  0xcff609afed0fb807U, 0x24ddd11fd3df41edU, 0x3a22f91c270de60bU, 0x316681daef10f30bU,
  0xced64551f54436b4U, 0x9a1ef8e136d7d90aU, 0xd4b69a0308cd3861U, 0x411b1b27e800fd7aU,
  0xdb257fdd24c5ee9fU, 0x54c9f7e47fd557a2U, 0x0U, 0x0U,
  0x0U, 0x0U, 0x0U, 0x100000000U,
  0x0U, 0x0U, 0x0U, 0x0U,
  0x0U, 0x0U, 0xffffffffU, 0x1U,
  0x100000000U, 0xffffffff00000002U, 0xffffffffU, 0x1U,
  0x0U, 0xfffffffffffffffeU, 0xffffffff00000002U, 0x1ffffffffU,
  0xfffffffe00000000U, 0x0U, 0x1900000018U, 0x1b0000001aU,
  0x1d0000001cU, 0x1f0000001eU, 0x2100000020U, 0x2300000022U,
  0x2500000024U, 0x2700000026U, 0x2900000028U, 0x2b0000002aU,
  0x2d0000002cU, 0x2f0000002eU, 0x6b7ceefed01c6e8U, 0xec3632f63efe7fd4U,
  0x1c29dcc202022afcU, 0x2fb40fab46bb3481U, 0x6ce2d908d29db52aU, 0xfe110aec3f211b83U,
  0x5637c90681e7d5efU, 0xd4e33e085011f0e2U, 0xdf3befbd16273cf2U, 0x1bd2aacfc7c93128U,
  0x2a44d5d52721310fU, 0xded6601026dd8128U, 0xe43a81192423b6f2U, 0x30fff023e4ed47d3U,
  0x47fee739bbef10bcU, 0x32e9b7a681e89e4cU, 0xec134e2d310c9dc5U, 0x175709b75efaedcfU,
  0xa6fcb3e4a4b45a1fU, 0xee2790310ddab381U, 0x671e16e5a0a86812U, 0xaec87fec1d07010dU,
  0xb103eeda28c2400cU, 0xf705e6fb102a2de2U, 0xad0c5efe152bfddfU, 0xb8dde3bc5fa7dec6U,
  0xf77f4c224fa1e1ddU, 0x581d4c73b009ce5U, 0xcd07fdf71ae1202fU, 0xd9efd810c5efcfaeU,
  0xb60a87ad3c6ebf8eU, 0x34bac17b837ff21cU, 0x27a53109a2064fb1U, 0x3929d5e2d8130222U,
  0xf808022e8159bae2U, 0xfcf4c7ce03efe200U, 0xd4d53f00f2253aadU, 0xcac08ee3f3ae9abeU,
  0xd87f5fdb7b1aae19U, 0xf75ce50a0cc3c0e7U, 0xc881db3b34ea19fcU, 0x30c4508911d9894cU,
  0x921dfc9de928b8fcU, 0xac3a0188e7f681edU, 0xbf415b14fedeff4U, 0x50fa7f0bcaf8b79fU,
  0x4910ceff15d1edc2U, 0x42d2284ae602dd9eU, 0xcba8d5a0d21e0448U, 0xf9324a18e7817f33U,
  0x4c3eeb40e33e1a5U, 0xf5292dee64400afU, 0xf2f9d03013ca11dbU, 0xfa0581faff9eb30cU,
  0x1c0da14c30e5c75bU, 0x61cd02d0c81cd23U, 0x29276573fdf1f906U, 0xf6b62ffee7142345U,
  0xd6ea0ce82f20e43aU, 0x4c0d209c47fd8c6U, 0x33dd3217dc03a37fU, 0x7823e3e1dbe22bc4U,
  0xaf52b9c8e30fe619U, 0x229fe111e01dda2aU, 0xd3000dfa34c40f02U, 0xfac2fd9d815fecd8U,
  0xe7073fee2a1eff4eU, 0xe7baafe881cde0faU, 0x24eef205af56ed0dU, 0xdde52765ead42d3fU,
  0xd7b4baf6815adbc1U, 0x272bd5f025f4bee2U, 0x4f300000a51U, 0x40300000b2bU,
  0xaf5000001ecU, 0x66b00000376U, 0xbc900001aaaU, 0xbe500000210U,
  0x34000005faU, 0x35600000a02U, 0x74c00001279U, 0x7c400000669U,
  0xf77000004b1U, 0xbe600000846U, 0x49f201b4fb0e000fU, 0xcbe4f91be8cd08d2U,
  0x2000dd40426fb06U, 0x5620077f0eee5ce7U, 0x812a0d1af5ba81f6U, 0xe07fec0a27c7f6d4U,
  0xdff5fed0ca04dc05U, 0xe720f2ef3a1e007fU, 0xff33fae01719fd23U, 0x1c07f2a5097fb630U,
  0x3537ffff3bb5f1baU, 0xfbde8111cc7f287fU, 0x817f993a5db1ee81U, 0x57227f81817f7616U,
  0xb1a75551818f9ab6U, 0xa01e7fec81d77f40U, 0xcead1413ff12f637U, 0xdad2224baaf04acdU,
  0xc0f107f50717ca0dU, 0x1e2efae711d8006aU, 0x11cf5eb2223172eU, 0xc11beee116dfda9eU,
  0x6a813124354e0d32U, 0x7fdc2c7f67e381cdU, 0x5ff61ff7d2070b41U, 0xd22c0320ced90289U,
  0x1afff10d31ff0b04U, 0x121000003f9U, 0x5c8ffffffb3U, 0xffffff7500000892U,
  0x5e6fffff520U, 0x4400000186U, 0x3f400000f5aU, 0xfffffa830000030bU,
  0x4a4fffffee6U, 0xc45ffffffb9U, 0x10bffffff4dU, 0x46fffffdc1U,
  0xffffffd3000000faU, 0x100000000U, 0x300000002U, 0x500000004U,
  0x700000006U, 0x900000008U, 0xb0000000aU, 0xd0000000cU,
  0xf0000000eU, 0x1100000010U, 0x1300000012U, 0x1500000014U,
  0x1700000016U, 0x59ec92b285c0f26U, 0x5634c1dd127f30dcU, 0x321405b507f9f300U,
  0x21c405770430d7d4U, 0x7f4c9a0aeaa3325aU, 0xfecbf8b1c30709dcU, 0x29f806f51715401cU,
  0x33e6412d00e10bf4U, 0xd7d9e9bfe929ccf1U, 0x37f9bb00e8fee6c1U, 0x15dcf23619f90dc9U,
  0x1f4f81e865e005f2U, 0x27d33d07d0ace764U, 0xf5810907cc000233U, 0x2cff0214ce2fefe9U,
  0xefcaf63cee18ef09U, 0x4a2dc9feea9bed1aU, 0xa5c60902d3abfa1aU, 0xead5c445afc23257U,
  0x81090773fee06bdcU, 0x6a26fdfdb115dde5U, 0x2eecc926e4bff1fcU, 0xf50fda20f9be22f7U,
  0x900e2cf41cbf09eU, 0x193eeaca2524ff45U, 0xd4f2a11cd6d0edd1U, 0x1ffcc5fa242f08c4U,
  0x66b341ee1037cc23U, 0xec58d479b07f24adU, 0x291a2dce00fffd15U, 0xce30451c7b3c3f39U,
  0x29fe382a24f0fcc9U, 0xdef149f9f2f9a935U, 0x2afedf16edb881c5U, 0xe7eb10f4cfdb1218U,
  0xcf0e6f40dc4e2b6U, 0x4f4fee040b355ae2U, 0xae383f0801df1ddbU, 0x402c23cafab017d3U,
  0xea03f2027f55ff4fU, 0xee0e9ff000fec2f3U, 0xd3d7050e1dfc42eeU, 0x7a850016c82ec526U,
  0x45a1d7cad8e3eee2U, 0x692a65b07fdf0a17U, 0xd825b32ce0c7efe7U, 0x1fdee4c2c6c2b436U,
  0x95c8ede9d8d5c9f0U, 0x3714113ef4b9e648U, 0x3b3fa20ae70fd70fU, 0xf2200cf02d07cff2U,
  0x269bc129e8d338f6U, 0x1b51817046a15bd4U, 0x6229289116faf0dfU, 0x4c506d00af45828U,
  0xfdead30e5009f8f8U, 0xae7eb14562ef0f3U, 0x6de4fbcdae991924U, 0xda01152c451a7f22U,
  0xc8eb52e965afc9feU, 0x1deb10b1420305bfU, 0xfc1ad0acfcf0021dU, 0xbca95b47d531bd21U,
  0x43170db2ea002743U, 0x80bbb140117ec97U, 0x1470c9f87f010306U, 0x4f61f04f60b1548U,
  0x23fe02021616fbdfU, 0xa08eee7f0e4e614U, 0x13f365f06336177fU, 0x1d1b010cfddbe5c6U,
  0x1e06f6fb1a16561eU, 0xe27a2a38a823f67aU, 0xec472394f8eee237U, 0x24ff34074c40c8e4U,
  0xfef10d1d0a153df8U, 0xef27d3124ecd1222U, 0xdad17fc2ee351033U, 0x1e000bde20f80b2cU,
  0xb9c61f01f219d0d3U, 0xf3f83c56d5a9c481U, 0xe5f50c041afc0befU, 0xfe11db345b14150bU,
  0xfee102bbd3dd0ce9U, 0xfdb23c04d5f78ff8U, 0xbbf5a5f4c8a8b92fU, 0xf33c1fe1357ec4d5U,
  0x51f18e1781120f9fU, 0x3901deebc502078fU, 0xf028e4cb0ccf92f8U, 0x5410e509422e14fbU,
  0x810350e2f3ef21c5U, 0x66cbfe24e2ffddcdU, 0x35fe09e51d1c1f3fU, 0xf1fab5ccdb04ed21U,
  0x821c13d3b52be84aU, 0xd8dcfe15fdedfdf4U, 0xe0112c11d432fa1eU, 0xe5c91740e444e726U,
  0x5ef9ec16c0b2e8f1U, 0xf013432b19330995U, 0x307fd01032e3a3acU, 0xbaf05e80c020624U,
  0xfcfedd37f717fadfU, 0x150817260f2a04c6U, 0xdc8647ee7fff2b10U, 0x213ca32356fb0fe6U,
  0xf6ea08d4dc0272bcU, 0x380afbe768e1a334U, 0xd0eef2b351f466ceU, 0x1d0281eb032ec31fU,
  0xfeeefc26fffc71e2U, 0x3719ed08f9d33d35U, 0x330707e002060f1eU, 0xc6cec28e125151eU,
  0xde1404dcd540430bU, 0x431666c6e7c92becU, 0xd494df2f64303613U, 0x1a329bd13e813749U,
  0x4de7c81f62f1ffdU, 0x37815d01e738060aU, 0xa331df409b7c462U, 0x16fff703943dd5aeU,
  0xf0d93b0ff42f5afdU, 0x1bf3d39c6bcc3cb3U, 0x2c34d8be440b032aU, 0x26eb07f8f82feafbU,
  0xa6231b5cf1cbc11dU, 0x2519f3ca1dc3d21cU, 0x26862b11021381f6U, 0xdf5ac1d372837feU,
  0x352b11afdc0802f7U, 0xcd72d10dbfc2b04U, 0x32f72b2f2bf203f2U, 0x80f022029011615U,
  0x3008eef709f6e975U, 0xf30056ccfb0b8eb8U, 0xa5d8e8164f0bff7fU, 0x310b2ea11624fc9U,
  0xedf71fe64df61d14U, 0x1d0c2ceee47f10f4U, 0xe5e5df07fdfe3102U, 0x31cf0fd7d31f349eU,
  0xac3ea15f2f8010fU, 0x48f22e02f8ef21fcU, 0xdd11fdd02fca02aaU, 0xae3e025293000d2U,
  0xd12e01aef100c05U, 0xfff5df18dab68116U, 0xd7d5fbfa0eec150bU, 0x650ffe28292ee402U,
  0x2ec2d243e3c65127U, 0x4d297f010cf0f79fU, 0xecd2f9fbdc1623ffU, 0xfa15fb313fcc0abfU,
  0x350112d0f803dde9U, 0x7f44b0881224122U, 0xe23fd900db0bd1a3U, 0x14fec5edea42c9dcU,
  0xecd4e926aa081fd3U, 0x2d18ebc9f9d5f9f2U, 0xeb0bf6f2b10edf07U, 0xe17b6853707f558U,
  0x23e6fa3eda297fU, 0xc23225d626d200f0U, 0xffe3100af707d502U, 0xf8d8f6fa1006f808U,
  0xdcea15b3df0fe12aU, 0x8c60411df21bdc0U, 0x46f6f00938c41e2eU, 0x34ebc111d754053cU,
  0x2b58111af1ee00fdU, 0x11f047d9003081afU, 0xfbe5ab21b8dbfeedU, 0x3b3b0e40fa04bde9U,
  0xe3434f3ebe0bbebU, 0x1a2cdd5c35251629U, 0xfd030504120b0a17U, 0xefe7e20e0ff981f3U,
  0xa8e40bf6dc121b14U, 0xf8f821fe1226eff5U, 0xea0e0312de08efefU, 0xf21dffd2051aeccaU,
  0xf6fcfae31a810b18U, 0x2211ef031fc50e23U, 0x1405aaedecc9f3e3U, 0xf01b26e015f73714U,
  0x71ef40129b8f522U, 0x3dbac0200f102603U, 0x4cfa13e8dfab1df8U, 0xfc1a1510210b16b9U,
  0xcbf0fa2765d9dd81U, 0xc9350e3c4714ff46U, 0x7110c4460dcd02cdU, 0xace5b3e2cf26f046U,
  0xd57fa8e4d5f445e2U, 0x242b2407d354bc40U, 0xfdb9b94da38b97bdU, 0x32150cd90b2dd6d3U,
  0x9e21e51bdf11cbe3U, 0x944ddf0121d008dU, 0x63eade0224133e20U, 0x3f7fa373f8fa28cbU,
  0x1928e90749ede20fU, 0xdcdf24d3e65b0423U, 0x19101adfc210ac14U, 0xf151aa11fc3ae1fbU,
  0x7f2fd5efa83bd362U, 0x26efc8c0bded9a90U, 0xea32ebdd6addf674U, 0xeffa2d2114c3f235U,
  0x7f33c1de19ea0ad4U, 0xcd640d07e21138f7U, 0xbf400d82dc6eeddU, 0x1427eefed0d826daU,
  0x6a5d143a2cf912d8U, 0x2806dd104581b115U, 0x124efd3b03e5bf01U, 0xbd124b52d6021a7U,
  0xf7caf956ec1e2e0aU, 0xb0d9a6e9d2d31003U, 0xe4040adef7f3f4e0U, 0xeffde8ddfdc70118U,
  0x1b10212206e618ecU, 0x234402de1ce5e2d1U, 0xbdd2d164de4f02fcU, 0x3edbba1700f45078U,
  0x7fe75ad2d41bd429U, 0xdef9e3ea0dcdcd81U, 0xd641c919f9591a4bU, 0xf23a49e312b000b8U,
  0xecdc157ffa371fffU, 0xe51af5f7d63c4ddfU, 0x2b1b35e9fe762319U, 0xfae6d2f20e1df525U,
  0xeefcf109fbf8dd0cU, 0x28fa0f1cf610e2d2U, 0xeeb05a2627581505U, 0x74981322c1c08aaU,
  0xf0c515c60f3d5a24U, 0xafbbf42081e0b248U, 0x1cc137facf0bea8eU, 0x49f85ef424290217U,
  0x38bfe11bf2dbf909U, 0x351fa65648f64330U, 0x3f553ed70318ed17U, 0xed4e142d81f1c1b1U,
  0xdfa8db547c08aa0dU, 0xf4b64d3c5c06bcecU, 0x15fa0bfbe8212f31U, 0x1d0de4254d3bcbefU,
  0x81beb3a3404ed3aU, 0xc2644766d5eec040U, 0xf9e6d845b5f244abU, 0x148836b4fbf2f9feU,
  0xfa87eff10703def6U, 0x27f481e0fecbf502U, 0xedf221cbe0d403bcU, 0xfdd93512e41e0aabU,
  0x180364dc52b6e206U, 0xde04ddd6db0adaf1U, 0x81bb4117f4181e02U, 0x2ea809d17ed507c3U,
  0x1947e1df410d153bU, 0xd293fb09362ebe78U, 0xb4d06b5525b4efe9U, 0xa8cb25ef172f7fdcU,
  0xa0d0133fd29f6e7U, 0x221aedf6f2f1071cU, 0xcf507b5eef50600U, 0xf238e53249d930d3U,
  0x200e430c0b0f2afaU, 0x3ac13e33f3262535U, 0xff98e606764ef5e9U, 0x27f1f51ae1f8d7e3U,
  0xfd03f57f021b640dU, 0x3e4accb3cef1d3edU, 0xeb2bde1706bdf8bbU, 0xf6815c21934aee62U,
  0x20cd47e2e0fcf1abU, 0xa5a0b2814dc09d4U, 0xe60714e3164ff367U, 0xfe1f0a10fe1e0a20U,
  0x2b37014dd3fa033dU, 0x29f7fc3eec024002U, 0x35e1e2e3f4d2e8f2U, 0xe1e6dd3e390e45d4U,
  0x1c7ff2cb45fec8f9U, 0xbce0000001fU, 0x102afffff52dU, 0x1aa7fffff72eU,
  0x153300000fc5U, 0x120b000001f0U, 0xfffff499fffffa57U, 0x11b000013e7U,
  0xfffffd9500002275U, 0xfffffd6400001e9bU, 0x202afffffa93U, 0x348fffffe58U,
  0x615000000d4U, 0x95b0000064cU, 0xb9600001162U, 0x14500001095U,
  0x90e000009e5U, 0xfffff8e400000d2eU, 0xeb00001496U, 0x1d00000dc1U,
  0x127fffffd00U, 0xfffff6bbffffff36U, 0x103d000015a0U, 0xfffffd82000002afU,
  0x1fbfffffe31U,
};


ai_handle g_network_1_weights_table[1 + 2] = {
  AI_HANDLE_PTR(AI_MAGIC_MARKER),
  AI_HANDLE_PTR(s_network_1_weights_array_u64),
  AI_HANDLE_PTR(AI_MAGIC_MARKER),
};

