/**
  ******************************************************************************
  * @file    network_2_data_params.c
  * @author  AST Embedded Analytics Research Platform
  * @date    Sat Jul 20 11:27:04 2024
  * @brief   AI Tool Automatic Code Generator for Embedded NN computing
  ******************************************************************************
  * Copyright (c) 2024 STMicroelectronics.
  * All rights reserved.
  *
  * This software is licensed under terms that can be found in the LICENSE file
  * in the root directory of this software component.
  * If no LICENSE file comes with this software, it is provided AS-IS.
  ******************************************************************************
  */

#include "network_2_data_params.h"


/**  Activations Section  ****************************************************/
ai_handle g_network_2_activations_table[1 + 2] = {
  AI_HANDLE_PTR(AI_MAGIC_MARKER),
  AI_HANDLE_PTR(NULL),
  AI_HANDLE_PTR(AI_MAGIC_MARKER),
};




/**  Weights Section  ********************************************************/
AI_ALIGNED(32)
const ai_u64 s_network_2_weights_array_u64[28806] = {
  0xc60e0e262edb1530U, 0x442513a82802b4f0U, 0x690ce8f8fd0dba2bU, 0x40175f13bd5c0321U,
  0x20e7c62630ff1c25U, 0xef50b32ec047fcdU, 0x1ee042b0ade4633U, 0xc3442cd5faaee6c7U,
  0xc11f00d3d1810cebU, 0xd3f523dfd4342badU, 0xf2c12ca5b50cb152U, 0x2a22af841004025U,
  0x412f20fd3641afc9U, 0xb1fb1a7f94cbdf17U, 0x2eccef9ec1d41f0U, 0xc143ed171cb9471bU,
  0xc922251e27902540U, 0xe62611e3e45b5afcU, 0xcb4ff13ff24f442U, 0x4212678121189ee8U,
  0x1e161df612e9b937U, 0x42f947e31807cd46U, 0xedf9ece237e7e828U, 0xea20ec06050bc8a6U,
  0xe92c6ce2fd19fc20U, 0x6034fc043d13e1edU, 0x7370de53ee70c64U, 0xfb0cf305f81500f6U,
  0x550afa1c2f2daad1U, 0x4fe8b6ec7fd22a2dU, 0xec469608f82cb90cU, 0x12b93af8e2330be6U,
  0xdb81f90e114b16e8U, 0xeead2c18fe22010cU, 0xaff4eef1070fe020U, 0x1de2e6060c05ef0eU,
  0xa7b644e8b498e2aeU, 0x49d82d9cc10cff3fU, 0xc0065e0f29e6e481U, 0x2e6f9507cd019cb0U,
  0xd60235b259f0dd18U, 0xefba81a4a3a4101bU, 0x162f470fc4f4a4c4U, 0xdab536c36fe256b1U,
  0xebe5f73d390910a9U, 0xdaec104cd8147e0U, 0x2118334e030f1d3dU, 0xc750cd04eaf753f6U,
  0x4431d61844e1f11aU, 0xad22183407ea3eb1U, 0xb7120518fb2d983fU, 0xe2584def0f158baU,
  0x2b125ad1e008f6c3U, 0xf9f20eda3ad98133U, 0x3663cde5acfc0688U, 0xeef532eb15172a6aU,
  0x4b102dea121d512eU, 0x112f06e0f93150fcU, 0x1461901ed03d95aU, 0x24e56fdbe17fc01fU,
  0x51f0ac22742ae10U, 0xa2effb28d3de0cb4U, 0x1b0dfaefceef09e8U, 0x3a5681f9023803b6U,
  0xe837d51f23acfe0fU, 0xe252fcf1ba1b30d2U, 0x8fe6e71dd72de512U, 0x33fea2170bcfdacdU,
  0x26033f6e226c4fbU, 0x2618e0aeeafecf11U, 0xfa269afb0f7f86d9U, 0xa9fecdfcefd6b727U,
  0xfbea228107fa00U, 0xfbb63de31345020aU, 0x1e482336f4facf13U, 0x23f7fe271a1df81dU,
  0x1540fa081c21dbf2U, 0x1018cd37fb0bda38U, 0xd64ca2cbfaf512a8U, 0xe19f34306881efd7U,
  0x45434f23bedfb209U, 0xdeafee6c4b4cfeefU, 0xb63eb35bb631e7b5U, 0xa3ed9d1174896aaU,
  0x10331d4af51f24b2U, 0xc7f6237f0de943b9U, 0x17d45d41dceeced9U, 0x7760d011c10517a0U,
  0x180ad0535ff14acfU, 0xa40c15d5e2ccb9f0U, 0xc44ae12cdefcd852U, 0xeddb0327cf4f0bf9U,
  0x29f1eecc45e9bcecU, 0xe310cfe2875ce591U, 0x2c0603282504a881U, 0x15d2314c162969c8U,
  0x13ed3ae9eaab9b45U, 0x94aade70ef4bc35U, 0xe1e6eadbffd19e81U, 0x2c52a9cbbf2c2437U,
  0x27bc18cfe606e2d0U, 0x70ee0bd792293609U, 0xe0408706b23d264U, 0xe3cedcdbbf38ea6aU,
  0xb9bbbef98eeffb25U, 0xc607eae60819e420U, 0xf70b612bf9f4ef34U, 0xf8a50781cea82139U,
  0x14030c29122723fdU, 0xf4060eb855ebc2eaU, 0x4e033b11c0b505f6U, 0x60fd224c19470da5U,
  0xed0a8104e9264804U, 0xee3f08e61adb30b4U, 0xc6ed34a6a9edd4f4U, 0xe5e0d5a0f612e7f6U,
  0xd70ecfea17f6c8eaU, 0x10f1ec0ce6e2ed39U, 0x41d310e6e6d2c715U, 0xdcefd9e7e0e7fe81U,
  0xc605130b9e3721d4U, 0xd91909fefccc15bdU, 0xc9400925f1a41e0cU, 0xcf202cf0d8140705U,
  0x24eae28619f3d67fU, 0xfbc600d0f90231d9U, 0x34125c6e72f0612U, 0x261dc334f31a0ec5U,
  0xb5fea7c40008aacbU, 0xbe4eea0216a223ecU, 0x389215126f50381U, 0xffca02b7f1ca61bfU,
  0xf3d6fc0af1feffe5U, 0xc722db59101d7f5bU, 0x1c290d08efd721U, 0xb2ce20b0bcd43eaU,
  0xc472a1e0f18e285U, 0xe9f511dcf911c407U, 0x520ab93329c702c5U, 0x19320a33030feddeU,
  0xedc51306ea25d3eeU, 0xf03ef11f7fa06feU, 0x21f0a38041ccd81U, 0x26fcf6d914c6ab36U,
  0x5f23baebdee2c67dU, 0x71f2cd6ee1681c0U, 0xf213b9f31fe79a36U, 0x6028004102b80bf5U,
  0xfed51feeff1aac18U, 0xf3eee60634c60c5bU, 0x44d44fed8114ef3cU, 0x4b26e3002d4b5bf1U,
  0xbc19dae4cfec52c9U, 0xc7f647023be51adeU, 0x6aa35fce1fa60af8U, 0xc1bedc9db113bf3U,
  0x81c132740ef09d33U, 0xf7d3182510aad3f0U, 0xf13030a0f12d888U, 0x1342e1454f05edc0U,
  0xa5f20df117e61f34U, 0x3fcd979fcd10f6fdU, 0xf01607afb1eb0bafU, 0x5b2d447fe10202efU,
  0x271e1111560938d7U, 0x19e43bf1ff20f6fcU, 0xfb0a0e192af13405U, 0xe60be9e62cff0d38U,
  0x21e8623f1948eb99U, 0x4ee3edad44fd17c9U, 0xf1eb0b4a0b0cef3aU, 0xb0f652dc085e0676U,
  0x4af6df3c31d3e2f9U, 0x365607e27f188d2dU, 0xf025e43a32df670eU, 0x8a00ed090cb4d202U,
  0x6bcd00e73ec8afe8U, 0x13f4f7059a135f9dU, 0xfe24ff442e1f4f06U, 0xdacacd16e4fa7ff3U,
  0x292bc9efe44b1022U, 0xd5f8330640ed3315U, 0xc2f1f1ecdfcb1b67U, 0xe6cc062becbd397fU,
  0xf1ea073cd60c14eaU, 0xd6fde445f80c2725U, 0xd20442b9cffdb150U, 0x190d5fc210c3c005U,
  0x4f2a1d6465930d1dU, 0x1b15f3132927da57U, 0x4deb9e83bfdc423U, 0x2dd5007f0308ad96U,
  0x480cd70a00f71299U, 0x224be8a8fee1e623U, 0x2c253fa2d69de9b2U, 0x5e3dd917beecefa7U,
  0x31fae8f90cedffdeU, 0xf4187f0c0b07d137U, 0xb9fed92bd3e03aefU, 0xffcf1af153df6333U,
  0xe80bd164ce7fdbfaU, 0xded43f8c120f206U, 0x69f71715f2b82dU, 0xa2c7ad543353a9d9U,
  0x170ccfd1819e372U, 0xb9c8f01ee181ebabU, 0xb73be8d2ec0db93aU, 0xea19f8451dec14ddU,
  0xea00e1db371a110dU, 0x1bc8a6c2d23febfcU, 0x49f4385ef40e2a52U, 0xf9d7ac2019f6f7adU,
  0xe6e2d036d5329331U, 0x7511c31eebf0f0a8U, 0xc3b6efdedb06d7d1U, 0xf0c4f61341c77f2fU,
  0x7f47c4dbc00a448fU, 0xf2f71afe18dc411cU, 0x135723c51f0cee1dU, 0x39b1b5fcd02d0a92U,
  0xc2dc243bea3e18f2U, 0xa72638b4c0f72bd2U, 0x52292ca6f09d8109U, 0x1949172ae8e6b039U,
  0x1bd3ba964ad20da6U, 0xd3b228cb0fd12353U, 0xf5a945e4478eb8efU, 0x1dda62fb0b4520b7U,
  0xf409cd180631bd94U, 0xdecdf214f390edcbU, 0x530fc7aee4dfe0f2U, 0x55e8a91e01493b32U,
  0xfb41b17f45f66ee6U, 0xae5ea80fe1031ddaU, 0xf43218eaddee3500U, 0x1fc70afcdf21090cU,
  0xff342c0bfcecee4eU, 0xe0ea2ddce10481e4U, 0x19efe5f5e4f8fad0U, 0xc5e6f2cbd449bee1U,
  0x70e93ce9d55dafe8U, 0xd2efe6f2cf1eb406U, 0x2724d98cd6e2c7deU, 0x46033a5b60f0ff09U,
  0x37b9ebd221d7e72bU, 0xcc1a7fc528f84190U, 0x3f0bffbce9cc0c02U, 0x5d01a8b50636e020U,
  0xf67f12ec073e34c2U, 0x40f9cfea1a050733U, 0x48e4a2e1b8c106c2U, 0xfed48a0143039d5bU,
  0xcc8118be1be2f3b5U, 0x707032214ff794cU, 0xd616e0c3d029c9dfU, 0xe92211e3ab4a0847U,
  0xf3ef5104cff1b00U, 0xd61d2702f6b13ec8U, 0x23f2ba2d24f3859cU, 0xf6f52f49bdb3089bU,
  0x3b1117f0153f813bU, 0xf918af1ee9981f17U, 0xe7282837e29c1ad6U, 0x12de10b036e3b33cU,
  0xcf05d939f90f1f56U, 0x3d01420511fe14U, 0xfaeff2d2f811d5deU, 0x7251032dfd53028U,
  0x3d93a18e7073a0cU, 0x3c0b7fa9ae3b690aU, 0x38c8d765475b295dU, 0x173329df74df17f2U,
  0xd7ed150b9f301649U, 0xe2b23a1507f2ecefU, 0xe64e10e64a42f7f3U, 0xc0f932e17fc307ffU,
  0xdf819d2fd232dbdcU, 0x203bc5ea2a0e5713U, 0x25eba4152fdafb21U, 0x5039aa46fd2cedc0U,
  0xb1c51208ea3b18e5U, 0xb0fbd0e55d0f22b7U, 0xfbff0324f4532910U, 0xc72de0f219f71113U,
  0xf4414aa134161bedU, 0xadf840f0271be61dU, 0x6b1efef52512de7fU, 0xb3dbe7e1e042114fU,
  0x1ad000003a1U, 0x70b00000d68U, 0xffffffe0fffffed4U, 0xffffff31000010b8U,
  0x9cd000005d4U, 0x5d500000d1bU, 0x11f9000008caU, 0x56e00001019U,
  0xdd7000011eaU, 0x4e000000868U, 0x11a30000071eU, 0x46f0000005aU,
  0xf28fffffe18U, 0xfffffdb900000ac7U, 0x156e000000c5U, 0x6610000071fU,
  0xd900000e65U, 0x78900001089U, 0x9450000102eU, 0x51f0000128eU,
  0xec100000f02U, 0x10f20000065bU, 0x45600000a15U, 0x1a6ffffff27U,
  0xcf0a1cddf904fb81U, 0xbf0200317fa0d81U, 0x3408f200e3150604U, 0xefe10c03d903f206U,
  0x94e8ddec05ed27ffU, 0xe309041108050e06U, 0xae7f376d81fbf149U, 0x7f81cfdef80a7fc6U,
  0xc12e3f04b0407f07U, 0xed3e7ffd47e01950U, 0x2802dc8bde477f32U, 0x4e27d2f6fff02cd4U,
  0xc5220dfbf6fecbfeU, 0x340e0600f5000a13U, 0xc5cb05e081f824fcU, 0xcd1a0f46d0ffbc02U,
  0xa023def1ff73cf2U, 0x461edef3e3fb1719U, 0x992c0cf75b480868U, 0xca6e7ff4c781e3b4U,
  0x813011f89c85f4fdU, 0x1b7f09db407f3601U, 0xbc84040701120f7fU, 0x1c26f5b72e7f3e0eU,
  0xac817f7f433d1e12U, 0x720caae7609c47fU, 0xb97f5dec4843a581U, 0x598ca9517fff7f7fU,
  0x817fcb7f9b2e109dU, 0x7f7f81ddcfcd3354U, 0x81f21630e58181d9U, 0xe182a1f0b372e325U,
  0x135f8115d845d0d6U, 0xd0bfea473c8cbb69U, 0xa2fd3c09461025c5U, 0x5325b77fe0caf381U,
  0x607f5d809013d23U, 0x6ec0804d5f7111cU, 0xdac4eefdd6ed0621U, 0xf918fc210a1ee91bU,
  0xdfeb2c0019f90d37U, 0xfb0dfb0bc12efbfbU, 0x8fcf14e615d664fcU, 0xcb70327f7feac554U,
  0xde5c31ca9681d857U, 0x7fddddb624f70b0eU, 0xff196dfc818118cbU, 0x1237af004516812fU,
  0x401eec1081bd7efU, 0x3fdea12d11311efU, 0xc642e57ffc211157U, 0xcafb0381eae9e826U,
  0xc2fd81fb36f500f6U, 0xe0fc5ef7ffee812U, 0x83efffffe52U, 0xfffffe9000000003U,
  0xfffff271fffffcc1U, 0x1ee1fffffdf1U, 0xfffffe9ffffffdfbU, 0xfffffa780000007dU,
  0xffffffe3000000a5U, 0x2300000094U, 0xffffff97fffffe7aU, 0x255c000003a2U,
  0xfffffe5effffff25U, 0x2059ffffee40U, 0xfffffa9dfffffa0bU, 0xfffff5f8fffffef8U,
  0xffffff50ffffffe2U, 0xceefffffe5cU, 0xffffff82ffffff83U, 0x28d0000020dU,
  0xfffffc5100000174U, 0x2517ffffffb3U, 0xfffffd40ffffffc5U, 0x45afffffed8U,
  0x1c2cffffffa4U, 0xfffff5f7fffff0bdU, 0x1900000018U, 0x1b0000001aU,
  0x1d0000001cU, 0x1f0000001eU, 0x2100000020U, 0x2300000022U,
  0x2500000024U, 0x2700000026U, 0x2900000028U, 0x2b0000002aU,
  0x2d0000002cU, 0x2f0000002eU, 0x30023a44a46acfb2U, 0x21fb477aa91d40aU,
  0x9dba0af1147feb1bU, 0x919eb3401eb81a6U, 0x962ca33703edcd19U, 0xdc423fa687f10133U,
  0x1fbd01e097c681c2U, 0x18d82034fb30e4d2U, 0x10d3da3f3d9330dU, 0xf37f31b7f76b5e5U,
  0xe9d1f3f7cb16c3U, 0x2c1646ee21e31a0eU, 0x5fe047bf1be8c2e0U, 0xe90ef754e40fbda8U,
  0xc3b2c7efbf147f3dU, 0xd4b78b012f071f48U, 0x19e596e062fde5e8U, 0x7f1717e0d67b94f3U,
  0xee3d491581a93a5cU, 0xe398133fbd331f5cU, 0x2fb9fdd7007ef1caU, 0x14f4150c7f0d53c4U,
  0xebddd15bed1804e8U, 0xffe24e1f6de27feU, 0x4d2b38aeb55d205eU, 0xcc14bafc7dfbc022U,
  0xa3d7ae4e7f28b686U, 0x10b0bfd24b04b34U, 0xc013610a7f23c8cdU, 0x47334287d79f7306U,
  0xfbd51a5db2c17f09U, 0xfe06ce1dcd0c0317U, 0xe105fd320b451812U, 0xd209e20de41e0ee5U,
  0xe22d344519301ec7U, 0xb58cc8103d23ef7fU, 0xf12716eb210718bbU, 0xc163fafe11fa1429U,
  0xeace81fdea180419U, 0x61392f1ee107f2c1U, 0x545051ddd32dc7fU, 0xeb00bb16161a6feaU,
  0xc8cedffea9681a1U, 0xa4004c003200e1cdU, 0xf0e700f6e468c217U, 0xbf250e17813c1383U,
  0x19c3461f07f7b6d7U, 0xf70f9401c5fab946U, 0x1ee75dac0ef51fe3U, 0x47078142f7321531U,
  0x3fefe4cf263e6deeU, 0xd51bcf41dd19fa07U, 0x95dfea10ed5b55bfU, 0x3f0319017f0541f9U,
  0xa73bfabfc921c705U, 0x9bf405f623f5fa66U, 0x70b4a42378113d3U, 0xa521839073512ebU,
  0x1527fd17f74de9f1U, 0xe3ceab7f4626aeeeU, 0xdc06d5c4c6d1f54fU, 0x7fc13ffd0516d29aU,
  0x384c3f183bb8a9e3U, 0x4523d292e03862cU, 0x27e7db98f1cd0c81U, 0x35fc3804f912fffbU,
  0x26b429c3b1c001beU, 0x27d4e3ef81e11bb6U, 0xd3e104c8d01f00d2U, 0x2926e49d17e04230U,
  0xee2597da5fcc0803U, 0xdd34495c430681ffU, 0xe780000036dU, 0xffffffc200000d23U,
  0x11a200000ad9U, 0xfffffc5d00000329U, 0xffffffa200000250U, 0x4d40000037eU,
  0x5bb00000d51U, 0x9840000097eU, 0xfffffafb0000019dU, 0x891000008ddU,
  0x4a000000563U, 0xffffffde0000086dU, 0xd701f8dd9930111bU, 0xfc2cf7d019201667U,
  0x5b05da3b0ef173f6U, 0x7521817ffae17f4eU, 0x16f2c781067f15e9U, 0x7f1d9bcf25e67f81U,
  0x109edc3aac61e2aU, 0x9e2b1ae58a070adcU, 0xa0ab0d9cc373e34U, 0x4f09fbfc817f5109U,
  0xf611eb16e30b7f7fU, 0x223981d1b8e06b2cU, 0x7fb45a3595db110cU, 0x2781f97181f56fceU,
  0x207f438172bc63d8U, 0x497f11d09899720dU, 0x7f7778fbccfd2601U, 0xd345a26b197f60afU,
  0xf71e130aaa312b48U, 0xf8060401b8b1f501U, 0xffadbcf81f21cffU, 0x2a6625eef8b4427fU,
  0xedf07f0e0d84e3e2U, 0x392c8f36590bfd2bU, 0xb390604e6f6482bU, 0x261ad6042ae50bf8U,
  0xee1cff663f1150c6U, 0xffffd024fffffd1aU, 0x3a0700000962U, 0xffffffc8000002c0U,
  0xffffed230000000fU, 0xfffff53dfffffe36U, 0x237c000002b3U, 0xfffffa0f00000361U,
  0xfffffa1bfffff36bU, 0xfffff6da000017a6U, 0xfffff89cfffffd0bU, 0x425f00000826U,
  0xfffff531ffffe421U, 0x100000000U, 0x300000002U, 0x500000004U,
  0x700000006U, 0x900000008U, 0xb0000000aU, 0xd0000000cU,
  0xf0000000eU, 0x1100000010U, 0x1300000012U, 0x1500000014U,
  0x1700000016U, 0x100000000U, 0x300000002U, 0x500000004U,
  0x700000006U, 0x900000008U, 0xb0000000aU, 0xd0000000cU,
  0xf0000000eU, 0x1100000010U, 0x1300000012U, 0x1500000014U,
  0x1700000016U, 0x1900000018U, 0x1b0000001aU, 0x1d0000001cU,
  0x1f0000001eU, 0x2100000020U, 0x2300000022U, 0x2500000024U,
  0x2700000026U, 0x2900000028U, 0x2b0000002aU, 0x2d0000002cU,
  0x2f0000002eU, 0x1a013aeb60b024eaU, 0x110c619612471b07U, 0xb32d862e15fbd7bdU,
  0x703f1712d7a6c8b6U, 0xc619f9c1f589102bU, 0x51ae54947115640U, 0x24fbbffcd9de17e0U,
  0xf96af618e0e0c9f8U, 0xfe9be5e7b8dbc3fbU, 0x95102226e5e4ab03U, 0xae7fc9e0002d0d33U,
  0xbcbb003e052603d6U, 0x11cd3eee5f522edU, 0xf5d6f3bde54b26c9U, 0xcfac7d04fb6e90aU,
  0x28fa05bacef9bd07U, 0x350bf6b2fe004c03U, 0xbc1df0e000ec4705U, 0x7f2be1ec2514f80eU,
  0x120ac9e51e1007d3U, 0x2643c315ed35b50eU, 0x19f0f00b2018cdc4U, 0x291ee3c7f6efee09U,
  0xf7513915e30bb908U, 0x97fd50222c6f5e3U, 0x2409decac80bf60aU, 0xe0ecfded3143ddddU,
  0xffefefb933f94f29U, 0x183b04ddcc28ee0dU, 0xd8fe1411c600e1e4U, 0xd447aea33fc7e923U,
  0x77bf8f2fefa73f5U, 0xdabeade180e1c1eU, 0xc5371e6a20ec36f3U, 0x31270c5bc12d02feU,
  0xb09f9be711428ec2U, 0x15b05cf9fdd03300U, 0xd06123e9c6051fceU, 0xf52e30640cfab2e7U,
  0xfad33d74781c34acU, 0x35c2f151b08660fU, 0xfa2397130b0c1a06U, 0xce3d74e329d49381U,
  0xde141634ce18f4d7U, 0xd81f33e9d24c5a71U, 0xa9064811aad3b830U, 0x9be14bf43d2df5fcU,
  0xd9bb781a9eff6feaU, 0x24cd18429d301b20U, 0xd037ee81c2072aeeU, 0x9a16eb4287c84a61U,
  0x75151a0ad25d3388U, 0xd9f8005deb3b36c3U, 0xece738fadfa3221cU, 0x37ec3a5e5139ead8U,
  0xcf3edb5bc45c16aU, 0x2b036107a802b283U, 0xa8d412273eedbfc9U, 0xee47cb03059ab420U,
  0xc9f70af599004977U, 0x4ce2fcdcbbe11b2dU, 0x3213f8e0f00dfc02U, 0x23ecadef3fc4c11U,
  0x181317fad308d734U, 0x2f2f11df0a172413U, 0xe7e106c1fa01081dU, 0xd9f6fac60a1df607U,
  0x52e09051d1b0605U, 0x1811e1120906ffcbU, 0x204f1bf9f5ef81a3U, 0xf5fef80fee09e0fbU,
  0xe0ea1efd06033300U, 0xd8ffe827f647e3c6U, 0xcf03db20160d2aU, 0xf80322c003142224U,
  0x53e29211d1d171eU, 0x705c98912111816U, 0xa11fc2c0602ead9U, 0xc81b81dbc03419fcU,
  0x3fe8e7cf292b382aU, 0x97b5ee1f01210f30U, 0xd3c5ba31ad142306U, 0x3e70610ec15ee41U,
  0xd9c8ef290529d206U, 0xe9091cf0d71c3023U, 0x161d3bca9e1150ceU, 0xc9071a7f22edc4fcU,
  0xe6e7040c7caeddddU, 0x262302083b3c25dcU, 0x2501db0eec21f2caU, 0xeef7cddc38f25645U,
  0x28fd546dae04315U, 0x3439dcc0e60d180dU, 0x89d9c7070cc01021U, 0xe1dff732102d04dfU,
  0x1ee5120b3ce46333U, 0x3494291a06f941f6U, 0xe9e745c02efce73bU, 0x1453e51937bac925U,
  0xdf0743b30bff363aU, 0x114fb950ed2216fbU, 0xbaf731e781a215e9U, 0xe14f1949d7221dedU,
  0xe3e02ae70d0ffc01U, 0x29e30a04b2fafd04U, 0xf2024e0affe8df1bU, 0x11050b1ec714eb18U,
  0xb9c1210e0d1733edU, 0x201540f0ab2704feU, 0xdaf901141901fdf9U, 0x2ef0e6eadd00e631U,
  0xff40e20413c426fcU, 0x1718e1cbf0010e00U, 0x1e1d1007e1ebd41dU, 0x51e0bfae2dc01e7U,
  0xfbff6610e5f017d7U, 0xf03ad4b61dc5fb24U, 0x39080b15f7dfcffcU, 0x1528edf705fdcd65U,
  0xf6f2137ff2e93193U, 0xe64db90ee01eedc6U, 0x7ffd28ee1d04f195U, 0x27182d0c9c2327e2U,
  0xfbe6c60f55064e37U, 0xbe9ed4e8f51b0e21U, 0x3d05e2f4d36426d1U, 0x3718fd01e50f2607U,
  0x1ed063be9161b32U, 0x3f21cfd00de5cf2cU, 0xecd10bd6eb15f908U, 0xf6f466eb0ad8d1e9U,
  0xd2d9102f4b24e1f8U, 0xd9ce1fcb05c606feU, 0x47e60025f1dfe143U, 0x1fd47caf04d6d6bdU,
  0xe8c4ddf931e4fe90U, 0xf0e3e5db262b5617U, 0xece2e623c3eafd48U, 0x1240f527f8fffe15U,
  0x17f1b9c7e4170e10U, 0xcfff8107d5e21df2U, 0x15460df9bfc5d120U, 0x2890233ff57d0cdU,
  0xdf590c23e2ad32a2U, 0xb01cddff7fead8b6U, 0xedc1032121b50eefU, 0xf2f51a2e303eefecU,
  0xea2b0a56f6f13e40U, 0xa1f3e104db19cea9U, 0xaf1c0a34c828c016U, 0xa47bdf1e6d30324U,
  0x2e3add1f5b2bbd7U, 0xd9fed8e4fdecc639U, 0x1028762d10dbd907U, 0x62eff207e4187c07U,
  0x8503c5c71050dbdfU, 0xcf0d318140b819f6U, 0xaed42941f3b015f9U, 0xb07ec38fa1eccc4U,
  0x473fcef625fc1cdfU, 0xe8d84eccc438062fU, 0x3a03a249f3f1f1f5U, 0xff171aea08fe1535U,
  0xe18073c00191c31U, 0xd917fb21e22c46f3U, 0xf30cf203cb21f7f9U, 0xbf70c3f30064c27U,
  0x1233d30f07292b49U, 0x2807151123f81ef1U, 0xf0ed08010febe810U, 0x14d413180704f816U,
  0xf90eee10ea42ebeeU, 0xfdeaf52633161a1fU, 0xfc0b080cdf033119U, 0x13e527eb0632f6eeU,
  0x100bfbebd30e00fdU, 0x170918140f0ef21dU, 0xe1cbc9e2f323f0e0U, 0xe4cf7fe236eb14c0U,
  0xc052fd3dae6e1fbU, 0x66e2351ebcad601dU, 0x1068a63ff2e00e1fU, 0x25042912f1fd090fU,
  0xcbecf66dae7c0f0cU, 0xf5497becee9862ceU, 0x16fe14c72929b253U, 0xc2c31b5dec24ca2fU,
  0xf8ddec0e1501e742U, 0xe410f057e2f8d181U, 0x356ae4176cf69c86U, 0x1cd1f589fdee0d18U,
  0x374713b7f338fdfaU, 0xdb0f4b1514eef4f0U, 0xf0e434c6dec7d7f4U, 0x80002110ae70204U,
  0xf6ed04f8edf4e9d0U, 0x182b07281fd8e031U, 0xd11cd1d9f516e332U, 0xe71408e51dfdf3e6U,
  0x19c4f133f90d0914U, 0x4539390501e72f1fU, 0xe7100a00ed18ed16U, 0xf001cf0423068104U,
  0x9baf6e9db081e04U, 0x25e21ce9f9fafffbU, 0xcdea1bc8df0d3006U, 0xeed0e61b0afff6fdU,
  0xc701170bf30204f8U, 0xd2f83dd9ecfef5d8U, 0xf604fef5000105f2U, 0xceecc08fbdbf603U,
  0xe915270e21ec1403U, 0xcd013fc1df8dacaU, 0x6b0fe41160f3802U, 0x47fcf0f08cbf5faU,
  0xd7daf602062e1312U, 0xa50846bc050a4a1eU, 0x98d3d370f442d11aU, 0xf20e5617e109d509U,
  0x18dce4010416260aU, 0xd5082fb224e8f254U, 0x520ddb0405e74ceaU, 0x7f9c4cc3c1f0b08U,
  0xf6201cfe2611d216U, 0xfddbf8194111cd00U, 0x233d1bf0bcfd39d8U, 0x3e2167f1e07f4feU,
  0xcdc833fc1c05e6feU, 0x22ec1119d03aa303U, 0x2350be88a4355ffU, 0xf047e1d12dea4f6eU,
  0x1c30dd20dfee25f0U, 0x304b295d11120b01U, 0xf331f2c8122e0428U, 0x26e02e2718ba9912U,
  0xeafdd4de49d43600U, 0x55f10b0afc052305U, 0xaf422312f0e381a6U, 0x748e92c940acb0eU,
  0xcc9af909d80bf929U, 0x5935263dd2472fb9U, 0xc9fa861ef6fdc2c2U, 0x52b3e26b3d65e1eU,
  0xde1cda6c3b0428ebU, 0x21740c4f8fa1ee9U, 0xfaa6fcf606dd1a6aU, 0x703afbd0d7e1fdf4U,
  0x1a2822cd08d8104cU, 0x43bacf330f370d02U, 0x91f31648e0e481b5U, 0x1a783206a408dc01U,
  0xc4be37c925ffe728U, 0xc645192cf10c0204U, 0xd5f5e81e21b39428U, 0xa6ecd929d2d8edf6U,
  0xcd0ffe2f09440a0cU, 0x1841eef5d30ef903U, 0x492336f67f22fbb3U, 0xeb025fede9260babU,
  0xffdff3dacf17c319U, 0xfb17cb1c1deedee7U, 0xdb1114fcafb81752U, 0xf3f5d4d2d8f4de1aU,
  0x2014edced2ccde13U, 0xd2ea16fd26dfe4ceU, 0x19fc161d2fdfc8e4U, 0x1a300023f8f01dfcU,
  0xd0f5d0e90220e317U, 0xf801d710e7bfe2f4U, 0x42e3fae1f010143aU, 0x18db28f8cff9dcf7U,
  0xea0668390bd10804U, 0x291349dd0912ccf3U, 0xfcdd24043cc635U, 0xeb7f39c20a204edaU,
  0x1c0dfcf9f753cbfeU, 0x85d3669e0d2efe5U, 0xea33e80d06f622b4U, 0x1de6e3cdef271ec7U,
  0xb0e70d1cfb6f4dd9U, 0x502e12347a07a25U, 0xfae13c083e2fdc0eU, 0xc64be5f23ad4eb71U,
  0x7fedf562efe27613U, 0xf672b7c53bcb7dd5U, 0xc7de5fcdfdafb015U, 0x34de0d5d3300fde2U,
  0x8cb106e86adf27d8U, 0xf0f807284ce0190eU, 0xf0e203f0d7112812U, 0x27dde3d7dcc8fee9U,
  0xf4240d22d4fa182cU, 0xec1f1311e61520f0U, 0xe4cd2ae1b1f7f153U, 0xf4bf0afc1504fa03U,
  0x32480be7f7e9eb0aU, 0x2ae818bad30651f6U, 0xe0efc309fb1281f4U, 0xeae9df70c10d04cfU,
  0x3f61bf6d9f71544U, 0xf30b40f4df2006d6U, 0xf00cfb14ee0dfa2aU, 0xf4010bf4e41ff80cU,
  0xf7e2f12148e434d6U, 0x1e21fbac070110e1U, 0xbec13cd111e00c8U, 0x271919ecc3cff517U,
  0xfc81cfddd8df0f11U, 0x40effcefffc61df6U, 0xfc12e7a5e7e5cbd8U, 0xced2ee0d790b0ba8U,
  0x1c551313f20428ebU, 0x1303d4a443f7e8c0U, 0x3001090f230cb783U, 0x1662bbf9d9323efdU,
  0x6358efd310b6cf32U, 0x5bd422bfedf30eacU, 0x602e2fbf143d83cU, 0xdafade030906f804U,
  0xf0edf0c191f2807U, 0x10dbeddd2a1ce2d4U, 0x176ee806be0a81e6U, 0x3bef819eae1b7e2U,
  0xed225afa0acff5feU, 0xe0391df2b70f07e3U, 0xdfec1e18fd28eb03U, 0xd83301ecee14f2feU,
  0x12fbd80211dd3ed8U, 0xfded06bcf2fb27e8U, 0x2faf11eaec15e1deU, 0x917feddb63df73dU,
  0xf0bcd30f06f90d07U, 0x4ee81704ff81faf3U, 0x15e82f26052a20cfU, 0xcf30600e2a1f05f7U,
  0xf0fb0444f41607caU, 0xe3dbe0bd09f106d8U, 0x82bdf410ed2dd13U, 0x1d0deecff6faf3b3U,
  0x1417ee191cf0fd4cU, 0xda0713f3c02d10fcU, 0xfb292621f5350411U, 0xd9d7000dc40dfe21U,
  0x20d301d41103efccU, 0x1908ff03d9e6be25U, 0xf0fd81c1dc2bfe0bU, 0x170a0fd50f0f2e0aU,
  0x1a1a05ea141ec13aU, 0xd70935e9e23af5e9U, 0xd5d126390a16e333U, 0x261e21eef81c03f9U,
  0x6dfd011f016180aU, 0x2ef0f62c08f5f226U, 0x1104f4c8f1101c14U, 0xf1fe1cea0310151eU,
  0x2be9f3e0e604f002U, 0xff2190113e0f8ecU, 0xfdc281befe2b0921U, 0xe5e20f1d2be9d6f3U,
  0x32fb33e61c34c116U, 0xfdd932e508ca6210U, 0x1e9a1de99d4703ccU, 0x6605f0322aae0a4dU,
  0xca20b151408ccd7U, 0x2e0c42f7e537f6e7U, 0xccaf8109e5fe2615U, 0xb53008cae03f5ec2U,
  0x43ded00c1432c27U, 0x34020d011f1ee82fU, 0xe3f4f82df4f3efd3U, 0xc114ea37adfef830U,
  0xd3c7ed2bc2293bedU, 0xaa16c119cdefee1dU, 0xadd471ab2e73a10U, 0x78f3cd81d5c810dcU,
  0xf0b20be2b132cf29U, 0x1dcb0d17731b1953U, 0xc7c502b21d47d251U, 0xe277f34aea1c272bU,
  0x5bfd5bee39f20511U, 0x707e923f5111424U, 0xae0a11093012aaffU, 0x1544eb2bc4ff253dU,
  0xb10d3d0e3b5515faU, 0xe81edb0a111ddae8U, 0xf4c9ec8efd16050eU, 0xeedff5f839d945faU,
  0x1f0815f9130819dcU, 0xf313f29a227f3fe5U, 0xf70bf945324f7dc0U, 0x1429fab41a18f8e5U,
  0xd2fa1d08e002fcffU, 0x160719e0e926d868U, 0xa7d617582adceac9U, 0xe427fc37e62ce309U,
  0x16c95f3cf5e0c2dfU, 0xfbfe5e1bca126228U, 0x64f9212c65c42109U, 0x2e25e6fea813d005U,
  0xe8350d66c711feedU, 0xc40b2c292015c63eU, 0xc51fec9434184c5aU, 0xcfeab30aa828964aU,
  0xeebc17eeccd4910bU, 0x53cf12317f15d401U, 0x93f62fd1d22bde1dU, 0xd94a2dd21fb2fe4bU,
  0xab99e6ecca4edaa7U, 0x1be71a295a385415U, 0xf9c7da500a20e2feU, 0xf149ce30c5fc1ed8U,
  0xee0f2201e6c2ff2cU, 0xcb1f0c590a16320dU, 0x10f01903f334f12fU, 0xdf30feecc60df312U,
  0xfbca183bbe0e2cc1U, 0x16ebf0d613ce4b02U, 0x1fe1d6dd082d1453U, 0x373bd4170c7f17ebU,
  0xf01beb19062ff722U, 0x2d282cf029f204dbU, 0x88107e62f34fc01U, 0xd400f1331cd215f3U,
  0xf4a8e80bfcdfd2faU, 0x2628c1d51301212bU, 0xfa08ecb706203701U, 0xe5e6cb06dc2833f0U,
  0x1920f1f7ec11210aU, 0xe9c70c29e4fe27e1U, 0xbfdd9c5addbdeb19U, 0xe2ee111fb1f4f622U,
  0xc692d72cfe1f28ecU, 0x1625effc15f827e5U, 0xfe15c3dd20c61143U, 0xce352a433112f200U,
  0xffd51131082dd6f2U, 0xfa05d5f000ee0818U, 0xcbc90c0a1dd0ffdaU, 0x72dd7ee432efbe2U,
  0xd78463b30361581U, 0xca27dc06b832e523U, 0xf32a1b1af5fecf08U, 0xdfba1cba26af05U,
  0xe8fb16da1e25ae44U, 0x366d10803c045efU, 0x6fcf7d909d9cb3aU, 0x10e7eec63517010cU,
  0xfed7c508d828bf09U, 0x41edbddb0d44ad04U, 0xd8df12e535f89331U, 0xd710f3d41acf31f7U,
  0xb1d7eafb18e751e8U, 0x14dc061944fae105U, 0x5aff7e522c2144e6U, 0x216ec51aedab7f10U,
  0xd3d6bcec2023b9e8U, 0x27eefa1d2a17381aU, 0x24d104e5fbf7fb01U, 0x16d344530d1910efU,
  0xdee0be9fc15b217U, 0x16df2e0afcf8051cU, 0xfae2e1f7c8e50ffeU, 0xfcffebe426150789U,
  0x72f3f1e423405eaU, 0x8104ead1f95c06c0U, 0xf0ecebdcf02704eeU, 0x34deb7fab5212bceU,
  0xf71708da4e2ff163U, 0xd905f3a7f6f7e5d3U, 0x1e3139d1131abe1bU, 0x1b0df29607e6f3d9U,
  0xf728be41030ea91dU, 0x72faea2f1bd50e08U, 0xf11f02e1093334ffU, 0x590edff432bbd435U,
  0x3a07db34db81443bU, 0xe6b93b1afe261133U, 0x3c5c52f199dc8d5U, 0x351c053dd77dec0eU,
  0xa59c0dd5f365d3e9U, 0xdef9240aecfe3ae0U, 0xcbd40c0e0a3db9c4U, 0xee21f22c0afaf0e5U,
  0xea0025ca31de13f3U, 0xd60103e41ff8200dU, 0x1c20d4530be7e514U, 0x13ddd517d6ecfdd6U,
  0x18d28203dcffc021U, 0x701de14190ae6d6U, 0x40ccd2051a2be50bU, 0x1ba3097feecfcdU,
  0x232a3a11e411fb44U, 0xfd13d21208e7ded6U, 0x3b2c9c2c1b635c28U, 0x114a41bb94da330bU,
  0xdea032c121b681eU, 0x17ebacec8d01ea93U, 0x77edfe461bc1bfdU, 0x5c34f42ae621ec32U,
  0x4435fa302ee7d738U, 0x8bfd131a0017ebe6U, 0x44ef253636e3fe81U, 0x240d300706181c3bU,
  0xf607cf2616f1cf39U, 0xe528d0e02412ebfeU, 0xf1dbed03de1a021bU, 0xe902190d19c10e18U,
  0x28f406e3cce7ee05U, 0x934ca0900f6180bU, 0xe8e40b0421dcfe36U, 0xfacf02fdd8eef1e2U,
  0x51e5f89500fee812U, 0x14df1a38320431cfU, 0xde8c25a04f2f0fcU, 0xdd1ebf11d381ea72U,
  0x132bf3d1e504befaU, 0xebf805fe3d0913e5U, 0xfcb203f5edffd3f1U, 0xf4ee07123c1b2026U,
  0xe616190af5e502c4U, 0xa91efec3efddcd09U, 0x140807361306c323U, 0x81360a3215fffb0aU,
  0x130ef911f2f43ef5U, 0xef5d80a0ff2e1f1U, 0x4f32d9081d1c370bU, 0x1e210029f8220cf5U,
  0xf1c6c4f1f931d7e3U, 0xc41f171017e7db2bU, 0xf62dd4292ff32b36U, 0xc70d0df611150025U,
  0x360a1511bdc9d4d3U, 0xe03fd53aec350de9U, 0xa031b1e48fc0e10U, 0x81269dff230ce7c3U,
  0x1b1408def23b174cU, 0xf128e905fadfff0aU, 0xd5f45a03eff1eadbU, 0x53f5830cb4cdb13U,
  0xb418a608f4e83de7U, 0x16fd2617d40eff01U, 0xfdf20e12e2e5f7a9U, 0xf006f113f420f221U,
  0xf0e6d2e628e316ecU, 0xac301053e0e0bfbU, 0x271ae2ccc71c0733U, 0xe5ec24e2dfecf4cdU,
  0x287f17c8d7262629U, 0x5e01642f73318f3U, 0xedfbb2e5eefa34feU, 0xce023921f3efc3deU,
  0x1722e727a2b424e6U, 0xe1e019d509f91e0bU, 0xcdeb03110822dcc3U, 0x8bf9241ccac9d6f9U,
  0x1f2f42ef16ad2a0eU, 0xd6c17aeee3119eeU, 0xed5715f1ed08bfe1U, 0xd81ecbf3045a0605U,
  0x36dbb20cda04ff03U, 0xd7cf123ef909021fU, 0xd8c4e27fefd6efe0U, 0x55dce127b924e067U,
  0xc8c703d20e73e12fU, 0xcde52a13ecf6e2edU, 0xcd1913d94408ef2dU, 0xa8e1070b19f9c7a0U,
  0x2fcfb60f11ac55dU, 0x1d28f91c133c1814U, 0xbfdfc9f6c6f0dee1U, 0x1517e707de15030cU,
  0xeee2e6f60b0801f7U, 0x26e017272507de23U, 0x19fa12fbf209a2d0U, 0x26fce51beee6041dU,
  0xc5ff7f0004342202U, 0xf910dc39b90811f7U, 0x1d1ff7100004d2d9U, 0xd01c18f8f9aec9eeU,
  0xf718d1f5022efffdU, 0xf011faf0c6d71b20U, 0x101b2704fcf5261aU, 0x39c10d0bf704f71dU,
  0x1ad804cafcfdbef2U, 0x44d1dd513e2c7baU, 0x2fc8c7fe22f8e9c4U, 0x120ade8107ca162aU,
  0x110a17e40721ae07U, 0xfd5f9f90613eeecU, 0xf1eedf613e00a0aU, 0xfda060e0219eebfU,
  0xfeded32cf4f8ea08U, 0x7f62eecfddaefdfU, 0xb1ce7032b11f200U, 0xd213ddeff5283329U,
  0xfc0b28c7503719f3U, 0xd4f481d3fd3f0407U, 0xf8f8e2e4ed45eb14U, 0x12d4d1caeb252de2U,
  0x4df22f2a24f7e119U, 0xe9146d3219e27900U, 0x14bfedfd34f3fec5U, 0xf9d77f7b1412f5d8U,
  0x6f9e0111c14ffbaU, 0xe22312e9ffcae13fU, 0xd56c4e6e109d3e9U, 0x2448b5470b3457b3U,
  0x2eeb4d68141e46aaU, 0xca22fbe0321551b5U, 0xabeb33dced3e3f53U, 0xcfb7490a651ff6b5U,
  0x1abb1c323d250cceU, 0xfdd5e502591a1207U, 0xe5d92d00f710f923U, 0x480a3b0e03b9fceaU,
  0xe8353123f70c2317U, 0x1d4b13db18e4dafeU, 0x970172ef9bd2e15U, 0xad1ed217410cc35eU,
  0x8fe261027d55122U, 0x2cf2cd3935b2e5f7U, 0xf01225fba08115ecU, 0x14c394d0c52bbf68U,
  0x98b040db4733c4c6U, 0xe11ff60fe69c4201U, 0xece2dbdc6d11b4f4U, 0xf6bde7f88189e7ddU,
  0xcc4a3536f8099952U, 0xafcc631843ef5c5U, 0xc8df5cf5ded709beU, 0x1b7ceabdadebe4f8U,
  0x4af6c0b313acd3daU, 0xfafa11f256eae62aU, 0x1e4cf51be1d200ddU, 0x3541f400e43ffb2cU,
  0xccb2ef0ef8461ddbU, 0xf4e5f5fdfc020cf6U, 0x27fe0a050b000e07U, 0xfb23ffea16052de6U,
  0xfbfe04f5dbefe02aU, 0xff11f2d2f9dcfb21U, 0x160329ece8ee0415U, 0xd8e1fad8e4f0e7f9U,
  0xc0f0c81dca5f803U, 0xcc2ff71e071847U, 0xe3dacd412dcbd2bfU, 0xf549127cf71236caU,
  0xc9ad061f9940df07U, 0xb08e1c42d2bec9bU, 0xdee776f12b76e6b8U, 0x29084d02e307cbf1U,
  0xfe2ce2b817d9efccU, 0x20d72218211b2029U, 0xf43dfae09e2c7fbdU, 0x6bcf0f180da31501U,
  0xdaeac508dad1f3f5U, 0x503c6490b101bU, 0xd00de6f708f5f406U, 0xd3f3c11324cbd0c7U,
  0x16ede5e0e3e4e8d8U, 0x2ff6f6dbd4d31823U, 0xe2f4cde2bbfc07f6U, 0xf3df1532e7cce6b9U,
  0xfed3e801cf26f4faU, 0x120551f3fa1e44feU, 0xdaff0045c9d1c517U, 0x371e201f3ae02426U,
  0x1610183df9fab4d0U, 0xd41cd4b233171c16U, 0xee187fd2c9e913eaU, 0xf0a707f01847e01dU,
  0xd7f11edf39fe6b16U, 0x50201e7f1190907U, 0xc40de013101c2708U, 0xfac63705d60c1e20U,
  0x4af3f111e9eb2c0eU, 0xef042201d21eeff8U, 0x1f23e80dffd5eec3U, 0xf21600eb2100df0fU,
  0xe402fb001719edbdU, 0xe1f581dc1c19e3f5U, 0xb2fa27d6c5fdfdfaU, 0x34e42df0fb0bf5c4U,
  0xd1d6f51e39211affU, 0x1eff39103be72421U, 0x30e92804aeac2324U, 0x1e06e24b1c043636U,
  0x1b1ef006d5e9f6f7U, 0x33314d55cc38f026U, 0x20c3dbf9d312ffe4U, 0xd6d534fbabe60fd5U,
  0xd5e100813422afc8U, 0x596e761c3b0ebcdfU, 0xfff0bb16eb352816U, 0x9d20b3b4e6a9f1f2U,
  0x5f075be7e231dd06U, 0xf4cf53d83b1b2e09U, 0xdf2a0206dff5ea0bU, 0xe1b40548e743ed62U,
  0x6f06dfd1df0c7900U, 0x1b0a2d34be0edac6U, 0x4f08ddf1dff3ead5U, 0x2f4bf9ed16dac5d6U,
  0x5e434cc1fc7e365U, 0x2eb5226d3d37fb04U, 0xb2b62848b7e12f81U, 0xc73c858d1d4c022U,
  0xd887e1cabb3bef2cU, 0xf032f4d5032d3b33U, 0x25f6d339f2c2e12fU, 0xed31fd39e81af1f1U,
  0x25ddeeeb1a3fd317U, 0x13c9eb0837d5251dU, 0x4ec4fac624152d09U, 0x132c44201e96f206U,
  0x26fab414e9bc55ddU, 0xf6ffceff2feeeb26U, 0x18cde02e2ca5efefU, 0x5295e01fd71138ecU,
  0x812029d0c0101521U, 0xeacb2704e3f553d5U, 0x613a540e29f3cb1bU, 0x261f471fea05157fU,
  0xeca9cb2e463928cbU, 0x3debe9d70bfcb7d9U, 0x380d31a925f16512U, 0xe2de3405a4c12415U,
  0x9d35fcf496f63bU, 0x225d3ffdb82d083aU, 0x28e9d5f32e1813dfU, 0x47207fb07ee48f6U,
  0xcab51ad0cc35c5dcU, 0xf6c326622a1707dfU, 0xf2cd2eab05eb11c8U, 0xdfe3c4e60dcedfceU,
  0x1027efee08c0eb50U, 0x2f28cb8b5ee81cc0U, 0xfbdd10ea99e8ec51U, 0xecc07fcaedc710adU,
  0xe83011c7d1e9f808U, 0x451104c53819def0U, 0xdf4e407a8eb0abbU, 0xcbde01b8ebd727d2U,
  0xf1d265faa489d0c5U, 0xa527310d0cf50cf8U, 0x11b3fd083ce10511U, 0x132cdd36dff30024U,
  0xdfb00e1ae53ee2a7U, 0x4f1b44dbd1cf310U, 0x13e5e7107f150210U, 0xb62ce51a041fdd23U,
  0xfcd70f49250913d5U, 0x15f614e90ac7f3f9U, 0x16c6fdf6f22242e7U, 0xa18fee4ea6d0ccdU,
  0xf9b9381ce71f16e0U, 0x8821415e04712d8U, 0x25eafc1ae2a35438U, 0x332ced48b9e82dccU,
  0x4f000aa01e1bf2c2U, 0xdef21c30d43117d0U, 0xf5f8a2e2257f5441U, 0xd845f1cddf10dae7U,
  0xd5f01fcfd0c715d8U, 0xb36fa122b1e0234U, 0xd5fce837b3d8bf1dU, 0x9dff1d33eb2cbd21U,
  0x358c21e3f3f824eaU, 0xf2df03fb1acc31e9U, 0xf8261205e725ccc1U, 0xf5e30efe0a0c0912U,
  0x31ee8d52fe0300cU, 0xdaebc3320f72b128U, 0x1c11fa0912142104U, 0xf903fb2a0d2419f6U,
  0x1bf51a041828ecf8U, 0xede8e8fed621f7f5U, 0x7fe9d7e67e2e38ebU, 0xf918f00a20161916U,
  0x45dcf5031ae2f700U, 0x3e060437bcefefccU, 0xda17eed715203a0eU, 0xc8f303f21a00d526U,
  0x2eddeff4dd061b19U, 0xe6233981ebf601eaU, 0xee28a50b10c20af8U, 0x5dfdf0fcf808f5ceU,
  0xd44803d10be91e42U, 0xefcb053d0f22d319U, 0xe7e90ffb10e6ffb9U, 0xede3302ad4f017ffU,
  0x21c51a10e9db36d8U, 0xfc1908fd03d91c21U, 0x70506b2b8e6c701U, 0xd3e0333afaf823e6U,
  0x2be11cc9120cfae6U, 0x18f503ff07060deeU, 0x19e81f43cee4dbeeU, 0x27e0fac84cf0b558U,
  0xba20c80ff3e4182fU, 0x4004ae1b5c2807b9U, 0xa01620c9dd1527e5U, 0x49810be81de0ae9dU,
  0xe22b70d1f8e84001U, 0xdfa34d823f53002U, 0xc607f9f2f40b0aa2U, 0xd1d8fb3b27e2ee13U,
  0x510ebf10ee841f4U, 0xd85119e9f0185f1fU, 0x412714fe0e3e28d0U, 0x16fcf906f239f307U,
  0x15f9da16f008e9e1U, 0xeced01e8131ee5f8U, 0xa9eee71efbeff8c7U, 0xe90418201bb88113U,
  0xe4b918fa4802e5f0U, 0xa1424f1c10eddf0U, 0xe81de90626f9e11cU, 0xf52601cd100317efU,
  0x92fd81fd8fd1e25U, 0x217edff0eeadd0fU, 0xe41c552ae2b3dd09U, 0x917d4f8e35ee9f8U,
  0xd1b30c09127d0c39U, 0x3cf9d1e21381079eU, 0x3b4542f2da5bf1daU, 0xee2e52f15ecacd79U,
  0xb6bc01401f1c0e90U, 0x45edefb434fef4a5U, 0xe3ac38f6d54138f7U, 0x22f976e5080ff6f5U,
  0xedfb0dec050140ebU, 0xedeec704e9d15744U, 0xba2204baa7344141U, 0x4d73aefc29eb042aU,
  0x3ea414e8f4f59ff9U, 0xa1f500f2df01cfbU, 0x2be42ae309e8d548U, 0x6509deb5b8f51a32U,
  0xd42f65d0f67f8cfaU, 0x2604f2f0e7075514U, 0x1fe4e7d5bf430813U, 0xe5eb1d2a03ed2b33U,
  0xdd1ecb60e432c4c1U, 0xeacf1527dd0ed532U, 0xfbb97fb3d711522aU, 0x1d0b2d25d40ae120U,
  0x2d130de8faccf9e1U, 0x10b21d0df0dfe56U, 0x39c5ecea3ecf2feeU, 0x2a1a13ca350dc9dfU,
  0xef8550ace1cede6U, 0xff0c3015e70b0609U, 0xa0f8f51d29e1e007U, 0xf1fc0d061022d167U,
  0xf91ef811cc3732f3U, 0xf3eaf80226e4fc03U, 0xdbf124c5f0cbefd7U, 0xe52cbceb0bccf755U,
  0x25c4ca1ffba97f1dU, 0x63a206ccd7deebbeU, 0xcbd542d302ecddd4U, 0x5cb1c736d76ec2dfU,
  0xbad0f29f09ce4a48U, 0x57dd92ef9214377eU, 0x509a0c3e8383827U, 0x4cf697a633a2ad0fU,
  0xf7ca7f10f7cb0149U, 0xf0213aff2ffcf9b9U, 0xc31924d4c6d0b39bU, 0x310d24b178fbd29fU,
  0xc7b1ef1fe3201f27U, 0x1828b549d51f3a11U, 0xd4358e8d4f0fa7fU, 0x1f55cbe9da87f64fU,
  0xce1ad62031010a27U, 0xad8c80f2ddffedaU, 0x2129d9fdc637d7e5U, 0x150c0da43fb622edU,
  0x2f06f8e2e5e0fe1eU, 0xf8f90311eb1123c8U, 0xb6e0e81f0306432aU, 0xb90b3f0b467ffb1dU,
  0xbb30c0f40351f0c6U, 0xd5952cf9ec0bce36U, 0xe73e2c5c941817e3U, 0x8abb2ff81a12fee1U,
  0xe9e4c44cbe199b32U, 0x1c4aedf8ce302b0aU, 0xd8f3354bf3f8f620U, 0x4ca2aec01c42a17U,
  0x5f6cc2cb1f1dc33U, 0x1ef106f908f209efU, 0x427fb075b1605f2U, 0x24f9c433bc4db571U,
  0xda9b9d9f2db1705U, 0x32e020147fd3d618U, 0x39125e35dc1af64dU, 0xd14d69e1b2d7544eU,
  0xf94ace1ecdfbc998U, 0x36b6f0230113ee23U, 0xf4d509f41202e7fdU, 0x5f5eff436b9da1eU,
  0xe51344efd3e6b6f5U, 0xde0bac2401f31e0dU, 0xccec192c12bd1c31U, 0xe09fc00d00bf353U,
  0xdb3041271e1516b7U, 0xd5d411c0c8fdd8f3U, 0xe4cec3031305f43cU, 0x3f318b4c8117ffeU,
  0x1e1605123d4823c1U, 0xcdeb31050435c327U, 0xa6f5f5281e37ce08U, 0xdac21416eb160002U,
  0x2ed2e0719ee02fcU, 0x314266e10321d5e0U, 0x8fdfb5310e205afU, 0xe13dd70f0a2a2ed7U,
  0xcac31339d819d925U, 0xa3e812fae81a0935U, 0xc46218ffbb193251U, 0xef281d26ce6bff0cU,
  0x1681a52b25250cddU, 0xec16ea14e81a0335U, 0xcd50718fae2032cU, 0x6081ff9e9df16edU,
  0xfbbcf3f3f21b160dU, 0xf7e4f0e8f4e0fd07U, 0x14fe02d6040a06ddU, 0xdf05eb1f36fc2c01U,
  0xfef62602051623eeU, 0xd9d31520f92febcfU, 0x300a420ac92606e8U, 0x5ce627f8811940e0U,
  0xe4dee79b0a300b48U, 0xfae20110f82e01eeU, 0xd8f4f4ea0cfeeed7U, 0x2d8fc1a18e5071cU,
  0xce161aef25f9ef1aU, 0xcaf9ea2ae8f7d304U, 0x60cffe913190610U, 0xf925d926f62709ffU,
  0xf91101eb1c0b2b0fU, 0xe8de17071a060e18U, 0xdaf3f8ebfc111aeaU, 0x1c041504fd3ffb05U,
  0xe181ba26fe3d02f3U, 0x839d9e90cf90d1aU, 0xce04eaedfeac36cdU, 0xca9c3306c628e60eU,
  0x324c10f1dd2824fcU, 0x2cf4e9c8160950eeU, 0x81b35f6283df2bfU, 0x108230efbff42baU,
  0xff24efcfc61fe7f7U, 0x1b4037d00103250eU, 0xbcb2d5fd3d34fbb0U, 0xd80501aa120100c0U,
  0x7fce3305d6c3ffd8U, 0xd5bdfd311708101eU, 0x20e0da1309ffc9abU, 0xe381a0019b3fa64U,
  0x2a3007aa0afe0915U, 0xf4ef811bf0d7cdcfU, 0x36352ff21ccd3e03U, 0x28de32ea1bd4e8f6U,
  0xdcbeaab2018aa50bU, 0xd9fac4db2ec8a6cbU, 0x2db91c00389ae6b4U, 0x3c2e0c4f3bb9dc4U,
  0xcd4440e3d9b6badaU, 0x97f118f01d3115e5U, 0x5160b2109f34ec4U, 0x28283f2f2e23f9e1U,
  0xea2e1e08114b19f7U, 0x29faf80fe2b344ebU, 0x191a48eed129d7cbU, 0xe624d62f7f2511dbU,
  0x54ea497c1b0e2146U, 0x1e013aeaf7f00fc7U, 0xded26d66062616acU, 0xbfeda3cd9dff201U,
  0xce1a01283b51e315U, 0x406f709f30109e3U, 0x509ffebe11af1fdU, 0x708e4fd1cf71717U,
  0xae8f900f3190b2dU, 0x121415f7cdfbee10U, 0xe3fe15e8ea030e17U, 0x2a14e9ed00a2fef2U,
  0x16eb1220ed81f101U, 0x2a00f2e6ffbe3503U, 0xf7dfdfe623b2dd01U, 0xdc0dea43eef005d9U,
  0xbd14e6f0e1f020bbU, 0x1ad905d6fd4d2800U, 0xfdf40c02df27fe3cU, 0xddaf8211e24eae0U,
  0xc616f2e457ecaef4U, 0x49e5de3225fed12aU, 0x29b7f0b21df60b3bU, 0xc2e9c3d7061f3a3eU,
  0xcda82eae612fb723U, 0x31bbffece0f31fe0U, 0xfa23c1cf9b4a0707U, 0xd3640c810af10c26U,
  0x29b98435c2ffa2aU, 0x1715d7105823c188U, 0xc8290e27b1d9155dU, 0xb13d152d6208d3faU,
  0xa99ad0fc38b7ff9U, 0xca5f20f3082817e1U, 0x124414d3cef0c935U, 0x1c1ac1e5fd0c0322U,
  0xf0fde0521b34e070U, 0x10bf1f20251c33U, 0xbcaf6513e5f83718U, 0x126fadb2a3bb61fU,
  0x18132f31fce8f503U, 0xf628d50cd9d5e13eU, 0x2ea0ef0e2ad06dcU, 0xf93637e1ded23259U,
  0x1cdd1efbcec42aa8U, 0xb7f1a82b56372021U, 0x1df63e10d70bf3d0U, 0x42afee5d5f2b9abU,
  0xd0e11449b1b00f9dU, 0x9137f114ff26de28U, 0xc322a5fef5a2b89eU, 0xae8ee22141199b0dU,
  0x2ce7379cebec6c81U, 0xfff305ee0ad90fe9U, 0xdfc7deeb1881dad2U, 0x4ad917e9cbbf2af6U,
  0x14def2ce002a1220U, 0x3cf601c62d2afa1bU, 0xde1a1f11c507dce2U, 0xf2e810b5ec32f3e9U,
  0x19072fb20800fdd9U, 0xa194d054337d770U, 0xdeefea52c9fce3ccU, 0xe3a63ee618fd000fU,
  0x31e1570dcc3b00dfU, 0xaad7f1bc1dc02bc5U, 0x49272fdbe21d22e2U, 0x1dd7341112fc2948U,
  0x5d8edf4eeec7d311U, 0xf7ad25a32be6d014U, 0x5dc1eabcaee7160aU, 0xb1f27d2dbca2608U,
  0x32f230b3fa001ff0U, 0x49f304efde1ae44dU, 0x120de3e113e0ca81U, 0xeef9d51c0200e7baU,
  0xb6bc4e1cdee0efebU, 0x3b40f4f2b5d724ddU, 0x2e152b96333035c9U, 0x2e40aefafffbf7f5U,
  0x1ffb015b1ab1b10fU, 0x27c2dc1a17cef2f4U, 0xbef7043ecefff60eU, 0xd6f1e5f50106fc30U,
  0x171ddc3de7222837U, 0x62aefdf128bd1881U, 0xab20f327f8ebe02bU, 0x1f1a2f5e9d0dfe03U,
  0xd6ea090545b15e4aU, 0xebde11e027e63ac5U, 0xe03465e40603f804U, 0xe311c80c0901461fU,
  0xf5d9e4f6071ef62cU, 0xacbdbe9f8e712caU, 0x4a342f9030f21f3U, 0xc6dce5bc1f365f0aU,
  0xdcd0c3f00f11f5c3U, 0xdad67fb0afe50522U, 0xfce634eccd614b9fU, 0x51cf39f1190a0aa2U,
  0xbbe4f92e38492268U, 0xeae82b2eb3ef2efaU, 0x337f13291d1ae0d0U, 0xd9eedff609391bceU,
  0x292ec36b0eb7ee2fU, 0xaf90726262bd450U, 0x76eb1dc9033bf11cU, 0xea17fff315f10204U,
  0xd834001dea0af810U, 0xd0f73e13050cd519U, 0xe6e0611bffdd07efU, 0xec848d2d904f210U,
  0xbcf9ec1727cf10c9U, 0x1f4ebddc63d0619U, 0x12c2f1fdda0141dbU, 0xdf03fe2006d2c503U,
  0xcff2be9f50cf1c5U, 0xf70ef7edfdec48edU, 0xc6560b13fb20d424U, 0xfe11d9fd1505e00dU,
  0xa06e5b0d11f2a1cU, 0x2dfe3041cf5fffaU, 0xd708f0fa0318e0d0U, 0x317097ff309c115U,
  0xeff21c0becfe0e1eU, 0xc437fb1b0df937aaU, 0x17e3cfd8132c1217U, 0x3b713eaf512f9efU,
  0xf9fbca2bee32edd4U, 0x25231af1ba1f192cU, 0x4d12dd70b49f709U, 0xf1854bc13f4c01bU,
  0x1ffbe5a9fff1d803U, 0x363409597f0eedbeU, 0x483331f72cdace8bU, 0x47fba505d8e4404fU,
  0xae450daed1a61b30U, 0x716050a21f20c1fU, 0x1be7d1d9f2d129feU, 0xc11fa18c607beefU,
  0x121809291ef1fbe8U, 0x1eeef60e0bf5e715U, 0xfd08d9e4f1c3f3fdU, 0xfe38ff21f8cce629U,
  0x91204f22efd0a54U, 0x906daf5131f02f4U, 0xe01a5aea09e2cddfU, 0x132a813bd2ffc856U,
  0xc6fc2e1859fafbf0U, 0xff4fe03b1f4f649U, 0xfd5c7e70a0c3f22U, 0x242eeecfba0819b6U,
  0x1e0528d0e836f7c3U, 0x2f3cefe8fd002817U, 0xf315eeec3b142314U, 0x2d41091460f4dc51U,
  0x34c7eadef5810bfcU, 0x130ffb0ee0822ce9U, 0x1c2240f523bcc9e7U, 0x12fd295dff2d33caU,
  0xf5210ac1eb1038c2U, 0xd24006252df909d7U, 0xfc4222a6e042e4d8U, 0xbe81fb18f9d207f1U,
  0x11bfd72ce9f40a2fU, 0x1f35420dd9e61c14U, 0x10521116f71bd6eaU, 0xbae9abb1f51360d4U,
  0x3efb52baac2dfcf6U, 0x50f003b80079f4f7U, 0xf2e9ffc70a622ad8U, 0xe71233ec20f415feU,
  0xfbc4dc611cbdbff7U, 0xffffff5100000b95U, 0x38a00000170U, 0x8ad00000831U,
  0xfffffa430000003fU, 0xfffff934fffff6c3U, 0x7bffffffd61U, 0xffffec79fffffeb9U,
  0x573000001e0U, 0xfffffcf000000256U, 0xb18fffff098U, 0x13ff000005faU,
  0xfffffc84fffffc2cU, 0xfba000005e3U, 0xfffff413fffffd9bU, 0xfffffcba0000070dU,
  0xffffeb39fffffdfbU, 0x19fbfffff8ccU, 0x82efffff999U, 0xfffff9d900000cf0U,
  0xfffff71efffffd0bU, 0xffffec31fffff81aU, 0xfffff93b000004d3U, 0x88800000cffU,
  0xfffff8edfffffe65U, 0xf700000b8aU, 0x15deffffec55U, 0x8c4ffffeddfU,
  0xfffffb7700001122U, 0xfc600000721U, 0x98800000de4U, 0x1f09fffffc55U,
  0xe9c000009f5U, 0xffffff45ffffeb01U, 0x17b80000057bU, 0xffffee90000013eeU,
  0x140dfffffb3aU, 0xb3d00000143U, 0x30dfffff261U, 0xfffff6b4ffffffe7U,
  0x10930000043aU, 0xffffebfe00001d1cU, 0xb4600000b1eU, 0x18c6fffff84eU,
  0x2eafffffc20U, 0xffffff7f00000d00U, 0x5c700000a0fU, 0xfffffe22fffff4a6U,
  0xfffffdf900000d8cU, 0xc82927dc15ccd3d7U, 0xe327fbd7deb6271eU, 0x38de1ed1da15001bU,
  0x2a1dcfed1ff8180fU, 0xe1144c5f2ffabdd8U, 0xe62f241900d4e8f7U, 0x2ee2efdf3adfe6fcU,
  0xce2d8dc0321e73aU, 0x38fad9bce908e9e7U, 0x7ec0ad6ec32c839U, 0xee19181221df30dfU,
  0xfe65c1e2e5c5dffeU, 0xbf4c4fac44abbab7U, 0xbf4a20cfc9844e3fU, 0x5fd030c3bd0e2243U,
  0x4a4681be492e3134U, 0xb8397f5e4b480db7U, 0xcf676f27cfb3bed3U, 0x50c4d2b446bfe3cfU,
  0x2bb7bbbb2b5dcb59U, 0x46c6b2ea813adfd6U, 0xf3d451c79f7fb96aU, 0xe8373a3b5dab4ec1U,
  0xe0449bbeb984bbc4U, 0xd23939c934cccec7U, 0xcd3121e3c9ad302fU, 0x49e331ffce162b28U,
  0x273fa0b4322b232eU, 0xc1384bf3393c76d3U, 0xd8465424c2d3c7ebU, 0x43b7d2c42ddcecdeU,
  0x27bdc2c8204bcc44U, 0x2dc1c12a9c47deb6U, 0xefe363d6ae7dde61U, 0xe92e2f4038be30cdU,
  0xd20ebbd0c099d8d3U, 0xaf3642c83db50bc5U, 0xbc5626b2c0a74542U, 0x330541a5b240373eU,
  0x3f34cfbe3e33aa37U, 0xbc3d217f4d21c7bdU, 0xbf42494cceb4c9e8U, 0xe1ded2c672be25d8U,
  0x2c08ccc231511750U, 0x57d6c2811e14b9e4U, 0xe8c509b7e323b630U, 0xc434443235c046b5U,
  0xdb7fabbfbdcab127U, 0x817f7f817f812e81U, 0x817f688281817f7fU, 0x7f257f81817f637fU,
  0x7f7fa2817f7fe77fU, 0x817f1f667f7f2a81U, 0x817f7f7e81818182U, 0xd68184817f814785U,
  0x7efd8181687f207fU, 0x7f8181ccd16381a5U, 0x9b816081814b815eU, 0x987f7f7f7f817f81U,
  0x882d818181818122U, 0xa76957975fa52b8aU, 0x9d435cb691a25d67U, 0x781d68df9c7c5b5dU,
  0x5576b09360703762U, 0xa166fce6615f7fa4U, 0xa267775f9ca29790U, 0xe7828f9449af2981U,
  0x78f68f9e55720a5fU, 0x598d9e38f17f8ca1U, 0x9fa07f959a4db17fU, 0xa67a666b62a051a7U,
  0xa4d7aaa397abbaf8U, 0xe22624ed34dd51e7U, 0xcc4131bdcdd4353cU, 0xa4039bfc1284336U,
  0x311ce6dc1e368137U, 0xd13dda412a3005d8U, 0xcd1d354ccad3d3d7U, 0xaed0d5d851d44fd6U,
  0x2852e3dd46434a20U, 0x2ec7da9641fdc1eeU, 0xddccf9cfe500d9efU, 0xce2a3d2826c526c5U,
  0xc34ccaddc7f4ba37U, 0xbe5c49a567b67fa4U, 0xa5437f8198bb5c6eU, 0x4b7f688791567f62U,
  0x555bfca65b75a775U, 0xac66961751663fb1U, 0x934a417f88ac9481U, 0x819981a45ba57f92U,
  0x7f7fb2a77f567f55U, 0x5993acc72b4281abU, 0x86923198c4eba42dU, 0x8177646e47ac58a7U,
  0x81e6b6ae98dfa27fU, 0xd44a3db852cf53a3U, 0xad127fb3a0d03e57U, 0x4a554ecda94e5f42U,
  0x3b5b04ab5c611555U, 0xd1459df4453a4dbcU, 0xa8454d56adbdaaabU, 0x9cad90b92ac14e8aU,
  0x7357b8bd643c4b46U, 0x33a5bb2244538c81U, 0x81ad4dadbcfdb957U, 0x96774f5d37c233b1U,
  0xafabdfc6b2edda56U, 0xfffff55100000e3cU, 0xffffe55000000b7dU, 0xffffdf040000176aU,
  0x16d0fffff739U, 0xffffeba7ffffe7feU, 0x179900001b40U, 0xffffebf500000f65U,
  0x1609fffff568U, 0xffffed16ffffe733U, 0x15e1fffff40eU, 0xffffe1d000001b37U,
  0xffffe67dfffff0adU, 0xae3ffffe97eU, 0xffffe5ecffffeec5U, 0xb9a00001ea0U,
  0xffffedc1fffff20dU, 0xffffed6700000f8fU, 0xfffff070ffffe48eU, 0xfffffd2dffffe4edU,
  0x98cffffe980U, 0x148f00000c3fU, 0x117300000dbaU, 0xffffeb4effffe123U,
  0x19c4fffff0eeU, 0xfffff20400001ef5U, 0xffffe01d000011baU, 0x120000000555U,
  0xcfa000016b3U, 0xfffff16dffffea4bU, 0xffffe238ffffe686U, 0x18e700000b1bU,
  0xffffe65dfffff7bdU, 0x13e900001294U, 0x596ffffe4cbU, 0xbd60000166eU,
  0xffffe6ae00001672U, 0x1db9ffffe495U, 0x2041fffff513U, 0xfffff61100001a6eU,
  0x16a3000015b5U, 0xfffff4ea00000ac1U, 0xffffe9c3000007f0U, 0xfffff098ffffea19U,
  0x868ffffed51U, 0x1584ffffef4fU, 0x178a000015daU, 0x1a4d000005deU,
  0x167bfffff3caU, 0xc0431c2f16664978U, 0xc120419c32a97f12U, 0x6a16fb43d29ba2b5U,
  0x4afdcc4ee8eb9e1aU, 0x2646a9b7cd0f281fU, 0x4adcd7ec14e46bcaU, 0x66081669301fbf9eU,
  0x96ffed60941841f8U, 0xe074fdb1df14de5U, 0x22e7d7b9c5502c93U, 0xb03d44290edc6d15U,
  0x25fd40497504d016U, 0xfe0a04320d07f3f7U, 0xa80fef06ff5820f7U, 0xf8f20aedee4a5a01U,
  0x7f04bc5807053308U, 0xef709d5ea431f38U, 0x3a471ccfe71c24edU, 0xde1fe0de231bad7U,
  0xb40616c4121b052fU, 0x1bf8da1112d720U, 0xf021e8933608e5ddU, 0x4c24faf1f63006ddU,
  0xbbe6d32d400b46dfU, 0xfeaea6231edc3c0bU, 0x38df43f2fb29e50eU, 0xaf3ec4b216d4f90dU,
  0x34d2364c6d2618c8U, 0x18301bf4f801f947U, 0xdcd81a8f7f07a52eU, 0x3f0f18e8abf1fe08U,
  0xce6fc22cb0bdfc4U, 0x1835cff8f11070f2U, 0xcfd418cae8bfd445U, 0x2102d815e00ae333U,
  0x2b15f503e935f235U, 0x712037416204ee35U, 0xd91942e14e81d2dcU, 0xe2f2e926bf30df16U,
  0xd3380c47fc0f1503U, 0x74a8fdf3d6fdd7daU, 0x40e0ed4e8faafffU, 0xdcaf7f41ad237d0U,
  0x32ecffb2dbc2f905U, 0xede5f1cc56bed809U, 0x58e037ea3d1402ddU, 0xeeb7e30cf4ede30dU,
  0xcecdc1c161214d6U, 0x5aaa05cd1fddc7beU, 0xee6e64a3cc7c0bbU, 0x4a612f702bb1120U,
  0x2c035a26ec071e01U, 0x24cd003144fb3b7fU, 0xebfd1b25e242ef0dU, 0xc125f0ea15ef24e1U,
  0x26140bd30d11e215U, 0xd12cfaf51dfe3ac0U, 0xd2420ffffc0c370eU, 0xfbec20e2fb4863fcU,
  0x3d37fc57e661dcdaU, 0xd7c9cbebdbf71e32U, 0x183cfaf6df091725U, 0xef0d7f11d1370109U,
  0xff54fe1707ece600U, 0xe5f6fde534ea06faU, 0xf6e1fde5f6ebb628U, 0x11d9da01f6ece3faU,
  0xf8e7f4da19ee355aU, 0x250b020619040f12U, 0xf409ec06c9fff3e3U, 0x2e02f719f6fa0621U,
  0xf3e613dff6d51035U, 0xed161ae7f05a05bfU, 0x27eceff6d8cf1ae0U, 0x1dd93419563dfdcdU,
  0x6f4600f0a1a0d2dU, 0x1de73afdfc17d8d6U, 0xe8e321354e03eb95U, 0x433f0ce229d51631U,
  0x1ef03457274e05edU, 0xc9c6f21829282fe5U, 0xaf3f16b2cfd645baU, 0xb340c5e2eb2e234U,
  0xcaf9e422d04181cfU, 0xf3301c50420dcb32U, 0x12f1e4da09d0c71bU, 0x1fa8e13110c15802U,
  0xf071e2620193009U, 0xe01ac04b4ecfddfU, 0x81ec1a952ad3b504U, 0xef470c58aa283d11U,
  0xcc33250c4e000600U, 0x321afd221ffe0e23U, 0xd95308314cfecd25U, 0xb37061c21c033faU,
  0xd2f161123bdfb17U, 0xced8d80e81e436b1U, 0xca21e6f6fed533b7U, 0x90bccfaf6f51a2fU,
  0xb0be16b435192244U, 0xdc0e553bf5080a01U, 0x1fc5d09d03b8425bU, 0x93481242e19bfd04U,
  0xbf1815c2f1f015a0U, 0x4f07ec47e2c1d75fU, 0x164dff90f655fc38U, 0x14183f13cb17cfU,
  0xdd208d3b8842bbaU, 0xe511ee2db8dffdfdU, 0x5b5ed6e1e7fd3c00U, 0x3448550220fb35eeU,
  0x1203b2cc0126bdddU, 0x3e10f70ceec5febfU, 0x2a0b2c5b1111191cU, 0xcb7f1a3427311140U,
  0x1cda42fa11110afbU, 0xd3bd1641f924fc2cU, 0xde50c826dbdff4b8U, 0xd3cf34d1c034fed5U,
  0xd6e6e0ef02eff300U, 0x46332712b159bd1dU, 0x3bd0fff6d2a51c28U, 0xea2e44fbf0f72231U,
  0x2a40517ff402f402U, 0xe7cae63eb01b26f7U, 0xeecd411c20c81500U, 0xf1fcc60b0b2109e6U,
  0x27bd4002c11c0d28U, 0x40ec4f2dec7a6deU, 0x507c42dcd30a40b8U, 0x1b5f3d9dc263104U,
  0xf6cd0d0acc29f5eeU, 0xad2b7156e60c431cU, 0x374fe833f43b1702U, 0x2f02d7f0144c51faU,
  0x80719e4e062fea8U, 0x1eddeb1f36451d1aU, 0x7fbe2628e2f6c8cfU, 0x1b327a9b14f6a734U,
  0x3e080e29fa28def8U, 0x251ad4aef8fb060aU, 0xeaca49ea4c0fa718U, 0xce6997a01e5e30dcU,
  0x4f92d124612180fU, 0x8ff57d6f3f5fc0bU, 0x8af2a730bbc6fabbU, 0x4094e062cc56cf9U,
  0xa0390ed51f0d3803U, 0x7fccf1f20a4afde7U, 0xff200016fbd1e2e9U, 0x30e928df3c19c833U,
  0xc81705a2fa00f427U, 0x1b4ae3d2f9fc2fabU, 0xb4abfec9fdfd1bfbU, 0xd51ad83b609ce0b0U,
  0xecd6be00340ee203U, 0xea3f41035040d30eU, 0x32e4f737ddd310f5U, 0x6a22cd22a8215fafU,
  0x22badacffa95a14dU, 0x62f34eeee1d62fc4U, 0xa3cb09e9fdc40939U, 0x12effa2bf6591c3cU,
  0xb70cb03a49f81aadU, 0x1fc800171018b710U, 0x8cf439bee03e5567U, 0xcdc4360f7f13d1f2U,
  0xe4fcce3d04ddcc2bU, 0x38ee22e80d8efdc8U, 0x9be4c50d0db30c36U, 0x161a8d0ae8b8c72eU,
  0x56de844312214f0U, 0x5dc83eb897db33feU, 0xa3cf43c517eeea0dU, 0xd66916f210d01436U,
  0xf1143d5007266855U, 0xf208e1020417a70aU, 0x44b7c84c09fbc814U, 0x2a09db02f419e57fU,
  0xdfd8a60be631d3c4U, 0x12ac1d74003edfeU, 0xc5fbfaf6fefaa2edU, 0x9c2cfdec72242dcU,
  0x4f1252a0ffedc10U, 0x1c09e1eee8f200daU, 0x15e50e3aff01c3d8U, 0x36f006d4ce061402U,
  0x1ed615051d17fde9U, 0x2e247f0cc9e40b11U, 0xcd1a2404f3f6f310U, 0xcbe6c8d9e016f2f3U,
  0xd3f3111157f411feU, 0x3fd16a1bd0f820b7U, 0x614404cc147faf7U, 0xf82965f5d8060e39U,
  0xdefc0f041a0f41f5U, 0x411ceed2a222efe3U, 0x22d3211d471e15deU, 0xdd3ccef9db181119U,
  0x6dbcf9ff0021f305U, 0xdd0e36d6e7143801U, 0xdcef46d7d815bf7fU, 0x5f4f9361b9bc89aU,
  0x4efe3d9d4b51e0bU, 0xe1d64841240ce4d3U, 0xbdbef049a9d61aebU, 0xee3fc4f7de096d22U,
  0x811a15170c1508faU, 0x6139ffe8ecfce82cU, 0x5b7d62814e6df32U, 0xe6d2c1f801dce4f2U,
  0x2c0401f01aec351eU, 0x211aeecd1fedd34dU, 0xd32418e317cab2ebU, 0xcce0e70247f10be1U,
  0x12bef4933170cU, 0xc80dc9f3e27fd90aU, 0x5a90be43ded1d29U, 0xe3defcf3f712bbc8U,
  0xfda776d5440bf226U, 0xd60458153721ce22U, 0xdaef4c9c623ae6ddU, 0xf439c4c243fa0dd1U,
  0x9f647f5e7d1ec07U, 0x472000f5fcd9c8daU, 0x6b511d22c9e6d92aU, 0xeaf2eb4d18eb1ee5U,
  0xad11e73325bbf1c3U, 0x1107d4cb3e170e20U, 0x2c86922221aae51U, 0xb62104044c47258bU,
  0x332bac75c70825d8U, 0x209215122af73b54U, 0xd5c1aebeb3e64a38U, 0x40cd0ea6dfaf391bU,
  0x812209b8f9cff102U, 0x29384864c20fcec7U, 0x7239d0d83104ba00U, 0x2f59bf6e01cac1fcU,
  0x17d5f6f871e3efc6U, 0xccdce085bf03443U, 0x7f0d4ebf1f17fdeU, 0xec163730f5d1042dU,
  0xd40226eef3d0fc2aU, 0xe0300e13f2132a05U, 0xf00bff52b73d521fU, 0xc3e3e3942d330c14U,
  0xb9062e0512564cadU, 0xbc2c47e20a30d37aU, 0xf36037f99b0728d8U, 0xd7c0f6bd2c94223bU,
  0xd2ca1feaf83de8f1U, 0x23f913c4a8ff1ec6U, 0xf8c15bec3d6b02c0U, 0xdaedb149deed01e0U,
  0x72bff04f2bc7bf3dU, 0xf80c1d3faadacea3U, 0xb5de6417e0af5305U, 0xe02a0cfce22badd2U,
  0x622a12ec17070a34U, 0x6fa0f50fb82939d9U, 0xc22afdd2c2afec0eU, 0xde4ff01e0b60333dU,
  0xc0387f41fcbd3e0bU, 0xb8fff0e2db8fae65U, 0x1f2d91a1205114c1U, 0xd6f93dc50281ea96U,
  0xf8e28b0eb05bf8ebU, 0x38ddf5c2290cb748U, 0xdb0aaffd52db74ddU, 0xc044d1e3e31908e6U,
  0xa6edca1bb8dfc6caU, 0xa6f95cb2d819b0e5U, 0xe00e845f21cf7b0U, 0x4245e1da00de1843U,
  0xc4e3c0e39dd1fd3U, 0xf1dd4e060b0540e0U, 0x27062effb3f2e281U, 0x80a09f404ea10d1U,
  0x17d1f9f00502ef24U, 0xdf0ef9dde2d9c9f3U, 0xed0c2d0bfecd2f04U, 0xe50926dbeebf09e0U,
  0x27f2eacb1ffd1619U, 0xebb81af621fadd3dU, 0xefdcf4b705fcf8faU, 0x46d8c1e5070e24daU,
  0xff421ce61b481518U, 0x4406d1443ed8f704U, 0xd7eb188ae421efcaU, 0x81d11804bbeb2a51U,
  0x4f43665a2fa1ef8U, 0xf9bf042afbe0d12dU, 0x6eb112e723482f20U, 0x6fae2fa1f480bcbU,
  0xde22cd34d9d3000fU, 0xbeba2000c7c30622U, 0xb4a90810e5fe2db9U, 0xeed5ffffd7b9302eU,
  0xc8f431cfa032d21bU, 0x38e50d66f13fef1aU, 0xfaf3070025e0dd65U, 0x35a84881fa030cf1U,
  0x1620111132ca5522U, 0x180b2aabb6fb02f8U, 0x5a0c31d1f3cbd816U, 0xe62eb1e613f6d82fU,
  0xb0201627b696f5d3U, 0x14e72c0abb660310U, 0x1d3741b516f621f8U, 0xc71f25cf4a14221bU,
  0x1500defe55511beeU, 0x461512d951c22c17U, 0x1917c0a19ad31040U, 0xf0e2b61def4700acU,
  0xe5d4b0d61ac61a32U, 0x1749d3c42b251b37U, 0xe8e32ff845f9f8c2U, 0x41c9e076ea1e0ed0U,
  0xc05ba0066ed557fU, 0xcae02ce802d5cde7U, 0x5a3e33efbcf6c6f3U, 0x7d3a1cac143df80bU,
  0xfcd4ca0b56e21205U, 0xb8c7ff040e41ec56U, 0x3c0fb209121d3b09U, 0xd4c88123c3080a83U,
  0x282712dad927333eU, 0xa3b7041572beef3eU, 0xd0ca330dd718aa03U, 0xaa32094aebfcf823U,
  0xe9d55bd5f925e593U, 0xf40b485120c6b69fU, 0xfd0f2c33f11ddc02U, 0xe8226becd4fd4d58U,
  0x11b3f1cd2c490bf5U, 0x7b923ddddd0224aU, 0xca1a3832c8ab367aU, 0xe0eaae181d2b654U,
  0x1113300d35a325fbU, 0x320a0411f7201acfU, 0x10d1c7e19e940abbU, 0xeaccb79e02594a1eU,
  0xf60f18ef2de60107U, 0xc9deff330211b5d2U, 0xf723e44e19024ec0U, 0x45e3f5ef1d4226feU,
  0xe0e3d6121506efeeU, 0xeafa4affde825a08U, 0x309cbe260644dbd3U, 0x26d960c022d50c20U,
  0xa9fe2bdd067be4e1U, 0x37f9eb1fd4fcde6eU, 0x12c15ad9f7c55e12U, 0x99df9e2f2ad2812U,
  0xee6b027111ffca0U, 0xf7b91646f928d261U, 0x6e4d80768c8120dU, 0x2f234c20121a7f07U,
  0xb1c2f4404507a6bfU, 0xbcf0f413c9f33e36U, 0x6627211ee3ff3fc8U, 0xd82430e9c30735daU,
  0xebcf1f81b218343bU, 0x2bd79eac18dd33e9U, 0x5469daa432642f1aU, 0x4108b9846dddf11U,
  0xfeaca810bfe58aeU, 0xb3a621aeacd036d1U, 0xa62444cdc5f3c80eU, 0xf27787cdb23e490U,
  0x3a0c0b362cb13c03U, 0x99483cc447ecc519U, 0x120d21e32714f83dU, 0x440ac4c20f2a237fU,
  0x420d12d2b923050aU, 0x11d5d7cec6f636f6U, 0xdef812203c02d41eU, 0xf49aa7e8ed414ce5U,
  0xd7f1ea29ac1a048eU, 0x3d421efe4fc3237U, 0x1117caa1173958fbU, 0xf0ec8e6f100afe2U,
  0x248b17fc2b0fc2e4U, 0xe308ca28d728df35U, 0xe9d6297fe02424d9U, 0x15e5e3fe2b073a3eU,
  0xfb08bcef4ede38b8U, 0xe97c0b19f9050956U, 0xbdfa4533e90fdaU, 0xefdbd8bde9d2e920U,
  0xbfe1a62fd0a92363U, 0x281c0ad7ed11e0c3U, 0xc9eded404816bccdU, 0xfc2de6f7d9375bc9U,
  0xd0e4ec07d8d8e4feU, 0x7306f03c701eedeU, 0xf5ebe3ba2f0dfbcaU, 0xf4dd3df0a4e82fe2U,
  0x3af3ba4eaf02fed5U, 0xdf1f0e27cbfbdac9U, 0x50fda37062d1131U, 0xff1fcae6e6d016beU,
  0x10091dfb3cabe833U, 0x175dfc0c1f35f428U, 0x30dde0c6ebf60d36U, 0x30257f3c37d0cfcaU,
  0xde061da1b40b37faU, 0x152a01b6e4fc0616U, 0xefad0214bef7dfc2U, 0x23a00fdf27f11058U,
  0x1c31baa6b736153aU, 0x11d74538182cdff9U, 0xebfd1066ccddccaaU, 0xc4ab377fe4f9f4cdU,
  0x24fe03d6d5371443U, 0xd24bfbe4de2bf92cU, 0xeb3506e6f521e31dU, 0x17a7594007462aefU,
  0xf2177fe374f911feU, 0x522ae4df0a089b12U, 0x60f4de59b030d123U, 0x11e5beb304f2e8b0U,
  0xd4d1c214cbb0de25U, 0xdace54cdcc030309U, 0xb013ddda270b10fcU, 0xeedfaf4411d0445U,
  0xfed4f4e8fa221dc4U, 0x1efe0a1c211301edU, 0xa36067ab7c0f5fdU, 0x2d18df2206d81e31U,
  0x3bcea4bafd81daeeU, 0x5eedee5de170698U, 0xd5fcc506a635fcfbU, 0x6220e113eddca947U,
  0xef2cd1ff1900fde2U, 0x1e45143ac227cb9aU, 0x83361af4d22833f2U, 0x4030f53df9eb0221U,
  0x30f9d14a060c3ea5U, 0xfa2804dfda273181U, 0x17e540ce33240ff4U, 0x2c1149ea224e073eU,
  0xf34625f0db1c2b12U, 0xf407f437e6231622U, 0x4341fc30e6c133f7U, 0x2127dfb429af81b0U,
  0x193934411d2bf5b0U, 0x4522faef28fbd5f7U, 0xe6d0dcc8d11afb22U, 0xc4818b6ade5bc325U,
  0x382b0dcbf5ecbde5U, 0xe15adf26d037852bU, 0x464338e829c52535U, 0x15cdffff3fcb59ffU,
  0xaa09091509d73315U, 0x1b649ade111f223U, 0xfbe6d3270007351eU, 0x173a40e24c06081dU,
  0xd806d039282013e9U, 0xc610bfce17d425b7U, 0xf6e610ea0607c2ceU, 0xface47ec012df2e0U,
  0x3b1f92007d7221fU, 0xe5341af9e514f2d2U, 0xba35b681ebe6ef0dU, 0xe26b5e00bcb2de0U,
  0xe0ce160020f5ed42U, 0xc5b5f94671bc12d4U, 0x3b2516f9aa05ecfaU, 0x23b1eff7ca2ca781U,
  0x660ccb0feab80ce0U, 0x99c50d4757f90635U, 0xb020d50bfcd000c1U, 0xbd0310eadc38fc25U,
  0xf2d8ffd357e00c59U, 0x4329fb493c13f7ccU, 0xc917ee0b4d2b1a26U, 0xcbebad3bf7cabee9U,
  0xf842f0ce81b310f1U, 0x2fb7ec28f12817feU, 0xbd1ce1bf2ad4e624U, 0x71f2bd41f42c702U,
  0xfb1903f6f82101faU, 0x42d6eece04e2fed8U, 0xea19fc3041d47feeU, 0x25fb05ef39324c16U,
  0xde64eaa0f480142U, 0x24f00921144bcd45U, 0xddf9ee03221fca28U, 0x13d3262887d5de10U,
  0xf924187c0401602cU, 0xd43f4106e0250e13U, 0x3e0a18dc37411bc8U, 0xff3a60ed4cb0ff6U,
  0xb115f4ee3bd12202U, 0xd0152d37e3fb18f3U, 0xc609db00cbec0004U, 0x3ed890d7ffd2fdf7U,
  0xe5f1cfaaf4fb2c13U, 0x5630351aed15bd18U, 0xc93ceed27fcefe05U, 0x39dfee112ec2d81cU,
  0xee5a48104d1e3b02U, 0xe705e92d30f05c53U, 0x90ab437f53c2d1faU, 0x280c1b387d063b09U,
  0xf2104a38a4a0cca5U, 0xcfc3edf43411eaf7U, 0x6e31cd8a9509a5e5U, 0xbde004566c4a237dU,
  0x50ab01fcbeb0fdfaU, 0x35172300f46e00daU, 0x2e1cd1fe02ddcbe6U, 0x3c100ecd09ca03caU,
  0x302b1fe00ff211d2U, 0x3da1d03fe0738eaU, 0x7fc114adb4393d2bU, 0xe5e8061d34d715d7U,
  0xf3280b09ed2c03f1U, 0xcd2516def2e11ebcU, 0x5122fedadaff0734U, 0xc20e4e2100fbadfU,
  0xecd645311d002ae7U, 0xb941eff20d2a95f1U, 0x9ed6ea4d1b2f030cU, 0x3afaf7aee01a5243U,
  0xef23f40eb9e530dcU, 0xd01125f5e5e8abb1U, 0xd234c5e07fdbf658U, 0x11d8b5fb0f22f91cU,
  0xe2ffc00a2bb9f703U, 0x53212704ec92e44dU, 0x234446c5f6125fccU, 0xfff741a1fe09f6d5U,
  0xd439207a09d93cbcU, 0x2e96bac91b29e9e1U, 0x56e9fa924dc7db0cU, 0x5fd238e13cc3bfbdU,
  0x38441fee8be70eddU, 0x15fbc2e39ce9c5cdU, 0x4508d1fcf2f5e9c9U, 0x37921418c50ae2f4U,
  0x3b3a06381faa201fU, 0x46f02adac716c402U, 0x1ddd23c53c7c53cU, 0x4c2dfda60ce3a17U,
  0xeb364ae3e92127e8U, 0xc5d2bb1b26134616U, 0x13f72de5be0f81bfU, 0x2bd126523922e5beU,
  0xb9e73f04970d1c21U, 0x18129f5e91e1c1aU, 0xfde4d3131239cd11U, 0xf7ebfd29442939e2U,
  0x15f51c53ead9cf33U, 0x665ef121baf20510U, 0x831c0c9bd317c112U, 0xbee410f32eb8b6c1U,
  0x8afbfb30fde31af1U, 0xd0a19f0c4e2ce6beU, 0xe7a9d2dfc70c032bU, 0xf42bd81626d7e704U,
  0xf1ef184319f80b20U, 0xfdc804c3adebc6d1U, 0xf23497fd00a17eaU, 0x42fcb824ce47deffU,
  0xf8051f1ff91cbeU, 0x42d5da3b06e02be1U, 0xc242c23afe3f1b1cU, 0x2a3f2b6ef93641c4U,
  0xe25115dcd8fa0ef5U, 0x2f3547e60dfe5ee1U, 0x4600d541f111ca52U, 0x483222eab5f6144aU,
  0xcd20bb000a16052aU, 0x590e1bcb0cf608e1U, 0x1702cf7a77b1d43bU, 0xd2c227430434eff2U,
  0xda322dbe570d141eU, 0xebd3020911000612U, 0xf70a12230e311628U, 0xc707b7f72f110d6aU,
  0xe0d0f64109216eb7U, 0xb83bcc0316f59beeU, 0xe1c2eb45537ffa46U, 0x31be25efdbf84227U,
  0xfd30e4d5e734eae8U, 0xf42c65290b45f3b0U, 0x1506d6fa0de00716U, 0xbff20e33151f42f4U,
  0x190ddedc701af307U, 0x91301ef7cdfd37ddU, 0x2f232290d9440de2U, 0x381e719220802f6U,
  0x71f5384ffcb5e7f0U, 0xf4523720cf5b27bdU, 0xce1b3c00d8ce3f5dU, 0xf4c43b0f20391ef8U,
  0xef00cd80cd404e8U, 0xe5dfc6dc04f603b1U, 0x7d4b3dffce81d42U, 0x9b01dad6c8bde43eU,
  0xc4432de3e3dfd119U, 0xd4f9f3eaf819211dU, 0x9b30fec40dab2bb9U, 0xf2ae0734caaa16aaU,
  0xd5121eacd2010818U, 0x173f8e43ba52211fU, 0x19d12b590bfa2211U, 0xd70f2924000e110fU,
  0xfcc1d0810024c03fU, 0x57f88cdc2ec1f715U, 0x22d113225727d016U, 0x3405c5cc102fe252U,
  0x5b810ae324102212U, 0xf9fdf7b651f0d1c3U, 0x333c2201f612df13U, 0xe839f410c80b1005U,
  0xc9000538f08f2fadU, 0xd91253e22328e1f8U, 0x9d2cc1dd5d41c14U, 0xcbf420f0db16db38U,
  0xe1f7ee0332fbf740U, 0x613a4e4e222f601U, 0xc1b9accd8e44e183U, 0xd8d1e3baf02fe00aU,
  0xc2caffb7e026ff23U, 0xd7b003f24a0c44ceU, 0xc6f3c1e42375a9dbU, 0x11ff7cf0161b34c1U,
  0x9b731bae4d48e01U, 0x58bd091a280bf714U, 0xbcf2eae1f5fcf1e6U, 0x591a58d2b0004e45U,
  0xe3ee3bfe815b1e23U, 0x237f1c1ec993f4dcU, 0xcb2a3e5fa8c8db51U, 0xbb052a009b0fcee0U,
  0xfc9f038f723e1b4U, 0xf611d6d1f925d0faU, 0xf80b26ec31ffc956U, 0xdcde42470ec80a14U,
  0xbf5601d73f583eabU, 0x2e24dbceadb018bdU, 0xe5b70bc1511241dcU, 0x430423ece1fa1ebcU,
  0x203e26d4673836bdU, 0x579a3264c91c0526U, 0x25be102c9633b334U, 0x6170e45c9db4c18U,
  0x1137b5492ea7ef7fU, 0x8f02321c3d18dcacU, 0xe6e644b7db48b0beU, 0xef2459e0fbec43bbU,
  0x3c67081b4f58d4ccU, 0xb5e59caf7946dfdU, 0x1f354ae54a11ca3dU, 0x2c0e4d6ef7f28fb1U,
  0xd4fc060b3f16a008U, 0x99a641237f00df49U, 0x1edff14df2de19fdU, 0xeedcac5142b70b01U,
  0xedb3ceed0a4f1188U, 0xff43ea453b17ba1fU, 0xf1ef2945efc19139U, 0x2b9038863531cdbeU,
  0xff40083e4160ee5U, 0x522d0904d0fdfdf0U, 0x140afe0aa4241ef4U, 0x14fbd806ff38dbe7U,
  0x1c2ae756842e1bf9U, 0xe7c5811b031cede3U, 0x100750ed2f0159eaU, 0xf4c30c201716ccecU,
  0x3c21f000f9112d04U, 0x62deeffb9c1230bU, 0xf2ded1e9ea2219ddU, 0xd71aeeeac60802e3U,
  0xf7cfe9d3f2280dceU, 0x110dc91147f02008U, 0x2e07fefecb08c6ffU, 0x1d16fbbb22fce7dfU,
  0x1f2311cc28cd252bU, 0x16091db65beb581eU, 0x642eff4e1fb438deU, 0x7a90a392a0df131U,
  0x81c20e441fead504U, 0xb71af2a207db00e7U, 0xb8dcb34ae01d4040U, 0xe0ed24fbaec25efU,
  0x25fa9c0817c4dee5U, 0xc401f4bf26cf4027U, 0x3ee8dbd1bc06cdb7U, 0x62070405c4432ddbU,
  0xbbeec0e699280efaU, 0xdb865c433ecbe321U, 0xd30a62f11b2b60ffU, 0xdf5ab6e04b06a183U,
  0xf11cfabd4c630327U, 0xce040c94c109092eU, 0x554b1ff98a2c1002U, 0x140aeefb97f40c2fU,
  0xd07f4cb77351e00U, 0xb70e73e047f6743U, 0xaa524a3fac7f23aU, 0x2cb9ef1be3cb6d45U,
  0xfff5bcfcfde2e705U, 0x9ada8f379d81224fU, 0x8450ad3efc044510U, 0xf107c7e13d04269dU,
  0xf2a8d46407cf1ce0U, 0xe91033370b042494U, 0x412ae27956124ebeU, 0x24eedcaee666d9bbU,
  0x451005e9dff1f8c8U, 0x1343221a3449289dU, 0xbfacf93232edf621U, 0x40f6bdfdbcc23221U,
  0xdddc7a34172813f6U, 0xf80912e310c31c14U, 0x3edbe84cf9e2b922U, 0x30e33215ad521ce7U,
  0xffe7fbfa1fd936cdU, 0x7f902050f032be3U, 0x2edefe90f0a81e4U, 0x21230dfaf0dd25bfU,
  0x2e030315f02aed17U, 0xe2e7c119e40955efU, 0xc0eddddb251d1c1eU, 0x5e02ca9ffdb0a45U,
  0xd8f923fee6cd0804U, 0xcaf9a1e5e64609cdU, 0xdd2ffd1be62e2e14U, 0x3e47040aef312ee3U,
  0xd5e30dddecb5ece8U, 0xf63ae4e8150e133fU, 0x5f8f1bd163de6d2U, 0xd973bf23073edf38U,
  0xbccd1e9ed2bed07U, 0x24e6d91b2234a83aU, 0xd70727fad1ff0e03U, 0xc7d1810de4df43e2U,
  0xcb060904c0200b02U, 0xfce069f081d2ed14U, 0x13ed40deff35eccdU, 0xf2ffd9430346f739U,
  0xdfcfef2d0eec1df1U, 0x2b37ebcdfacc13f6U, 0xad5c75ded95102e1U, 0x130b1bc4ce472b58U,
  0xd50889b2c3d41432U, 0x1f33aa19cf00e497U, 0xf4ab0cfe4c1a2234U, 0x161b06fafd4753bfU,
  0xf0dafbe7efe80d1cU, 0xe9e9cf1edc0f33f8U, 0xa3db116b2f073420U, 0xbfbd43d049160366U,
  0xa060cf8d0a8f2eaU, 0xec1b1ecce725f5edU, 0x811d0b37e43db06bU, 0x4a081d4a0341fbfcU,
  0xff1df30de9100221U, 0x15bbf52acdcaf80bU, 0xece91f19e80ef517U, 0xfb06d9cbbc1117e2U,
  0xe0628f10dd20ee8U, 0x1c047f11f2e02425U, 0xcf27e3b1b5154a4aU, 0xe1fb26e3e917d6ffU,
  0x2bc3dc0d0914e51cU, 0xee451fe8ea013b32U, 0xe522ffb9dbf0e3cbU, 0xe7bef33a1fd02009U,
  0xd9f0f0dcdfee27d1U, 0xdffa661ae4cb529eU, 0xb930f5df0a199eedU, 0x20fef2fdd7fc1530U,
  0xdf05263189683efcU, 0xd73b3d6250efab1bU, 0xf41f2c12823f810bU, 0xaddef0b36c52fa9U,
  0x264feb0d6242eb45U, 0xb0ee27bbcf4ec5d2U, 0xeaddf411e4e427e2U, 0x4a2024c554a90af5U,
  0xd90507d8c0ce1a59U, 0xc7d136c4defa1c68U, 0x3e020d19450efc02U, 0xece2adc45fe8d827U,
  0xe429f0ec81e504c1U, 0xe9c6d77ffdc10b09U, 0xfa32a81946363bcbU, 0xe1f1fa00ea57f202U,
  0x13d544dd6e40fdc4U, 0xdf7622fd2407eff8U, 0xe3a675953e42f05U, 0xc513e5f629b93739U,
  0x22114fd1e70716daU, 0xdcb9dcc2f4f00025U, 0x131afcffc035f62aU, 0x16d1f6fdce1c3b2fU,
  0xde0e2dfa12a51ffeU, 0x4d22dcfd24ee57c8U, 0xfb2104e116c3eaeaU, 0x2d9e3681e8b4eef5U,
  0xcbc4023de8d4fdf3U, 0xc0c0813270e14acU, 0xe21344ea0cf2e2f7U, 0xbe7153504d6e8d6U,
  0xbff00eb8faf8d4c0U, 0x31e4dca5d217021aU, 0x466945e6abd0f4f6U, 0xf0b07d92dd4ec07U,
  0xac36f40cfd62c8f1U, 0x45f611f1d22116faU, 0x1116cfc8f73da304U, 0x2312152146210feeU,
  0x53e6f40c2b0e3527U, 0xbcfb1ee816d5d906U, 0xfa9be712f80b04f0U, 0x16d22c0222d607baU,
  0xb3f3d119d4e429f1U, 0x324b25dbcde9e137U, 0x200d0f021be03f2cU, 0xdff47ff96907dad7U,
  0x2223dd3304e4ace5U, 0xe9ecf7dd37f6f22cU, 0xeefaf227d6bf81f3U, 0x40629d7c40529f3U,
  0x490118230af0c1f0U, 0x25cd1fe35913ca19U, 0x1e17fbe0b45c30edU, 0x1de73cd91efd16c3U,
  0xa3d8ed0a0105f364U, 0x91f2a1c20f3d7f0U, 0x24f708aaff200254U, 0xc724b837f3bf0541U,
  0xd8fcc92fe8e32501U, 0xe5029ff24eb3ea17U, 0x2600ed04bf53bb57U, 0x49dddad6dc28e752U,
  0xdf15d1c6002c2db5U, 0x17f5f4bddb3dee1eU, 0x2f0bce2c02f497aU, 0x1702d929182696d9U,
  0x96b1eed6d4d7e83bU, 0x84e807ead4fcf02bU, 0xd0d0f033933f0523U, 0x7fcb247ae24d126bU,
  0x2de734f3df19c13eU, 0x1701ea2abbe5f8bfU, 0xf4deddf0c6d9f800U, 0x124bdaee05365735U,
  0xe7ce2dd4fe1dfafcU, 0x1b1d61afc5e517ceU, 0xb4d6f12df0fec3f8U, 0xe48e5ccf7c1c8e7U,
  0xc223c9ec1beccd01U, 0xd6813ab407e9fa4aU, 0xcaf319140a33242fU, 0xffe31312be10f7fcU,
  0x16ed04dff60ff618U, 0x81d94af2d0b5ffe1U, 0xf2dbeb1dee6953daU, 0xc9d242fc0445a515U,
  0xfe8095308081cdcU, 0x1ecdf0eb3f165c60U, 0x4b116cf18b6bfdfU, 0xa31030ab742fde7U,
  0x23de2802efbd68d5U, 0x51818052d1b1defU, 0xf7b549c6a2e54953U, 0xa3e355216173208U,
  0x10e8161f18f8d90fU, 0x5f3214d07f62ecaU, 0x1feda62aebc5e508U, 0xdc2f1b3809fa2a19U,
  0xc14091cd11badfbU, 0xdbfc0a072626e226U, 0x7a56f50500d9dad9U, 0x1bf2e11ee4d3fb07U,
  0x1cd4d23633d5dcd4U, 0xbe45c244c1aefa9U, 0x57f3819d8340f55U, 0xfdcbef06291d4310U,
  0x82ed61dd1e3d823U, 0xe6d37f1fed1fda3fU, 0x7c8ce195be7e7fbU, 0xb24b0cdd0005e1d3U,
  0xb7f42e3b05d9f51bU, 0xb905f6bce825fe18U, 0x54f9c41548359c37U, 0xf3000c2f17fa6454U,
  0x36fe1202de9e0412U, 0xeaf0f1f709ffa042U, 0xff6bbd2b8bf12e0U, 0x220e17cb99bb13e3U,
  0x1ade02093af85864U, 0x1bf9df58353af954U, 0xdef0b70a377f9e3eU, 0xcae0c10bebb8fddaU,
  0xd0e90531453a080fU, 0xe79d041617350db5U, 0x2d05417061f245cU, 0x6d4010349b4ea18U,
  0x80a0430220512deU, 0x50c2e00e23defe55U, 0xf243f017b71ffe06U, 0xf3a8f1d33f091bc7U,
  0xa9ff09e42be11cbeU, 0x1e02cff114422025U, 0x2ef07d0be4581d8U, 0x2c323bebd514232eU,
  0x1f423093130dd213U, 0xfefec46c5bfccd3U, 0xe7bd2e0ddc17de09U, 0x16beedd125d1fcbdU,
  0x2909d94fc6dc2b95U, 0x10f260b05f1acdfU, 0x22ed2804c149513eU, 0x37130459bb172b24U,
  0x11e11b07f643f6faU, 0x1bdca0e2dec100aU, 0xf2e4fde74941f0fdU, 0xcd29173638aac5d3U,
  0x480be9442be8377dU, 0xfcb11ffcfdafd1dU, 0x1963ec2058f82afeU, 0x2fd220561db3e642U,
  0xa5b2fd8d9bc085bU, 0xc3c11e1adf2fa434U, 0xca30e4138117f46dU, 0xe42aca4425e3f40dU,
  0x20f837c4c7c6d5dbU, 0xb339ee08980c2500U, 0xcf1ae0e5d6b826edU, 0x3042f30c4a0516e7U,
  0x7976cbf24d303205U, 0xba53e362264bd81aU, 0xeaeeed0befdefb5U, 0xeeeaef4d0dc61f51U,
  0x19f259d125c52709U, 0x31f407efe904da5cU, 0xbcd40dac0acc2ae9U, 0xfe401f6dfebdfbe9U,
  0x7f052ff931bc474eU, 0xb12243e00ff5053dU, 0xe41bf116f9e8259cU, 0x2a17f3020cc5c649U,
  0x75c3fc058d192e35U, 0xf29aca0fb11cf6f0U, 0xcefd1d28f1f1e533U, 0xfdc819ddfb12c020U,
  0xdedfff1a81f2dbfbU, 0x56e30e1f0e1cc0U, 0x5de0dd3b431dea2dU, 0x2c08ee08c9faaafaU,
  0xe10310d2ba7052dU, 0xa41b4bcf3bee1ff4U, 0xbf48fb4ff51b4985U, 0xf4b60314c3150b30U,
  0xb1d142f58aee310U, 0xdd7a1e921719ea2dU, 0x41cbcff04ed7d326U, 0xd6dcfd90aee52318U,
  0x2e2ff1131caf610U, 0x4e181a6bdd50a47U, 0xdde126bdf71515e0U, 0x4707071eaa02ca11U,
  0x52f905eb4d3a58e1U, 0xcfc8f638f10dd7d9U, 0xf8194b151c01d4eaU, 0x7e606e781fe0cfeU,
  0xd4ebd4f1ef000623U, 0xde02e1a2f617f8fcU, 0x1f0327cfefe2f7c5U, 0x27e15a6720194734U,
  0xfc591ddeefd810feU, 0xed3ee2e60becb8e3U, 0x2e35b9e6de19d1f7U, 0xcb25fd12c4c0f4f3U,
  0xf00d3b8f22ad3dcU, 0x392bb23a818f120cU, 0x5813ba656a00d2b2U, 0x26380339b9fe4b98U,
  0xe0164112dd112b3fU, 0x3b11cca028b72203U, 0x8d81b379ccf3238U, 0xf0bf6fc33018f409U,
  0x3a593c432bac4424U, 0x612dc8c1c215532eU, 0xa416a82bd00107e8U, 0x49c1bce93515e41aU,
  0xe6eb4e04f82dee08U, 0x7a7d613f53cd8eeU, 0x121c33f0cf0ef8ecU, 0xf500cfe9fb0c2f28U,
  0x23cd1925fbf7d61dU, 0x11d6fa0bde10f8b3U, 0xd3c8daedeae0dfefU, 0x22b85f0013c58fc5U,
  0x18e6e0e04c1110ecU, 0xbf033fdc0314da17U, 0xc2b6e781ab3144dbU, 0x20050702040af9acU,
  0xf07d1f305a3c5caU, 0xef108125d9d3fbbfU, 0xd53b859353f8d912U, 0x4116327df7e1eee1U,
  0x53fdf25b82611f3U, 0xc9dbf1b8a2bdc6d4U, 0x93d9ef261f61e0e4U, 0xed05220403e5d7c6U,
  0x45e2f88afc570f0cU, 0x23569e710c4013aU, 0x9123f0ec55efe55cU, 0x82131d1324a058f7U,
  0x24080045c933572eU, 0xc3fe80625e2ffeeU, 0xc3bfd1c401d51796U, 0x40534bd13a604bcbU,
  0x454081e04ac2dd0fU, 0x1e62b435a9fe3ad0U, 0xc7a4e7dac84944feU, 0xf2e7ce0ce805bdbbU,
  0x374c310795002ebeU, 0xfb4c86b9e4fe2cd6U, 0x216028fe293c0b08U, 0xa9c0c5e12487cce8U,
  0xfff39468d470df9U, 0xcf16d3e51515eb2cU, 0xb65100fb03312d8eU, 0x301e81f65bf0480aU,
  0x23fa382ef2cde10dU, 0x14f8d9d7bceb1be4U, 0xe8fbf0d6dca2fbf8U, 0xd5284ee8f2431bf1U,
  0x66143812c52fd3ddU, 0x309d8ffadda011bU, 0xe4da28db0cf2d831U, 0xfccb37d2c9fee00aU,
  0xc3f3b2e6f3dfc803U, 0x4c496666e732dcfbU, 0x1bfcd2273626ad6fU, 0xdea8e10217f2083fU,
  0xecbff84329d8b9ebU, 0x151ac71bd1c81613U, 0x77c9fe040f420269U, 0xe7bcf6b219332e11U,
  0xc9f6b795100a0d7fU, 0xbc1319fbece60532U, 0x202823a2d5e4afceU, 0xe2bf113b06cffb6fU,
  0xef70dcb36e95fc4U, 0xc73649ae1b2dd01aU, 0x5086d8fa0fc129cbU, 0xd252dcd021f917b6U,
  0xeb3a1204db0aec00U, 0x380b50d4e5c5f3f0U, 0xe917e4b60e1fda1dU, 0x2fd646dc372ee70cU,
  0xef13d80005db2042U, 0xe881d3dee5122428U, 0x47fbd214cb031cc3U, 0xa1fd1e38dae20acbU,
  0x93343c1d4de0c3aU, 0xe50442f4dc3d51d8U, 0xe17f531576dd0dfaU, 0xfd05eecdd1424609U,
  0x14c81099e15225e3U, 0xf3bf0e24dff9ce28U, 0x261498cbe427be22U, 0xd8280d2e1450c6b3U,
  0x36320420234920f7U, 0xe0110ace24e8d825U, 0x2b4f3f6e904d547U, 0x1ed00efc0426af00U,
  0xc32aeae82d1dd424U, 0xa1dbf13935083214U, 0x3e27e4ca1e451d9dU, 0xe37f1bc3efc95547U,
  0xfef909180307f385U, 0xeb07f50f2442e352U, 0xddf107b13716bef8U, 0x177525bedc06fcd8U,
  0x3e0efd0fe321ffU, 0xae152500d4411afcU, 0xc1e5e46d0a0701d5U, 0x35c320e7490a2e06U,
  0x1ff2da88f81fc8eaU, 0x3f92ca0cdc054056U, 0xcb08355173e21c95U, 0x30ebebd81cf0de51U,
  0xbc7deaca0ebfeadaU, 0x639e08ee116ae9ceU, 0xf1f2bc4b39051810U, 0x711ed01e9b3f17fU,
  0xbae438145be700acU, 0xb690872ecd855121U, 0xcf4140238902aa3cU, 0xd3d88d0f9c021ad2U,
  0x4d240f132a1548e3U, 0xc918bbc8ae47b62aU, 0x6daa308b7e975U, 0xe72dfa30f21124f1U,
  0xe914c64b1316dc32U, 0xfd282b2c09eaa9bdU, 0x43e5f32bcaddee28U, 0xfa0be41655043743U,
  0x243b1151bd08fcb7U, 0xe4f5f3f90fcf2930U, 0xc9541dd0e9cd08d9U, 0x292519810eceea26U,
  0xed2e130744c4aaa8U, 0x1f8d10d6940b4860U, 0x2b4f321edd3b3866U, 0xeb2996e94a0e59e2U,
  0x44b3dbc4dce04c0dU, 0xf1bbf2cbb42dc3e0U, 0x3afdd448f821d6bcU, 0x138dfddd120f01beU,
  0x62c3056700dcdf20U, 0x2efb27b1defce7c3U, 0x8c726e814b4ebe1U, 0x9d064e111300e312U,
  0x27fefac1bf9d6b9U, 0x1ad8199f22cec344U, 0xc5bf5cc03ca0845U, 0x1105114c14b7f5ccU,
  0x5f07635affec065eU, 0x380cc64b21f32afbU, 0xc9bea1640ddf38ceU, 0xc530e27f1711f45dU,
  0xf2ad0481b41e07deU, 0xf0f14babb61dd8dfU, 0xeee5d49cf6c2fdd0U, 0x5bd2e1b816e80f6eU,
  0xf73e11a333ecab51U, 0xbefdb1112f36e9dfU, 0xbffaedf9432299ceU, 0x1301e9d751f016ccU,
  0x3dd3e40c3fe41003U, 0x9ccd24c798dfdd49U, 0x143c150929a5ca20U, 0x1a420415648a2973U,
  0xf029e5186d20f607U, 0xd552ebf0e1e027ccU, 0x3ac5811ff1dd1065U, 0xdf630ea70efcddf0U,
  0xdcce2005ddf23734U, 0xe53ce5ccc7e8b201U, 0x8fd26f8fc060711U, 0xfb2e052d3b19dd15U,
  0x7fbfccfbcd57ced0U, 0xbb03e3fa1711fd2cU, 0x138dd03d90d1e1eU, 0x14ec1e079804efdeU,
  0xe704e74111c4d4f8U, 0x1ea0cd281ef9debbU, 0x75a3241a112d49dcU, 0xc4e8dcfedb270dfeU,
  0x6eaf523f0e0fd21U, 0xdb163bf157ed4bbcU, 0xfd28e528dcbf32f4U, 0x30bfe5ed15d721d7U,
  0x2c82f6c0e72d45e3U, 0x8100ff180ed0eb23U, 0xf13116f92c4f1af1U, 0xf348f91f13280a36U,
  0xf71804f1316413ccU, 0x1439ead5fcf8115fU, 0x24ed12fcebc9cb3cU, 0x408d9f7de100210U,
  0x192e31f9084a1f00U, 0xe62a1be7fa09edf6U, 0x8467138729d51ef7U, 0x23b4bed0e446f62fU,
  0x1b57bbcd1ed37fbeU, 0x22de2808d5f02f03U, 0x2a244e28cfcdddcfU, 0xe8ea3810e9d201f7U,
  0x28d2f70faf2f0d06U, 0x18e767dc0b21e4aaU, 0x31b52d8dc7d5c92fU, 0xe0d2f5f5344f24f5U,
  0xd590007d91eec24U, 0x3add23eb2cc00ae5U, 0xe7dfbde665a370c4U, 0xa813351229369002U,
  0xf3f5de99fc01be49U, 0xf943b6dc4929f71bU, 0x18b45df7ece0bb3dU, 0xfd35103603fceeedU,
  0x11251f2a91e5e22eU, 0xdff944eca06fceeU, 0x3cc96020cfce13e5U, 0x1df1b2f05e3c8116U,
  0x2b18f092b97ea9d2U, 0x6bb3defc08df1dbdU, 0x350e007551130c6U, 0xea22a6300414fdc0U,
  0x7b93182fb73c37f6U, 0xf4d6b0f117b3b01fU, 0xd239370604616663U, 0x63913fbe8de12d3U,
  0xbd37511baa350bc9U, 0xc2fdd90bf7caec0fU, 0xe4f526c9fef957feU, 0x36e748e1154b8142U,
  0x56d9851be1d9adefU, 0x7bce0b2118d322a6U, 0x2c26d8962c410b9cU, 0xbef924352cdd3529U,
  0x99d1bb043913061fU, 0xe7c5e401fceb381fU, 0xabf7244d81ec000eU, 0xe808f105fa41a03cU,
  0xbed3f0c909a902d9U, 0xf70539fef4f73ae8U, 0x2e3ee0d2c4aea7efU, 0x3007212811bfc6fdU,
  0xe7a8fc070e2d2f28U, 0x150fea3c11f4e4ceU, 0xff4c090ba8ce0027U, 0x2adf080c0563d732U,
  0xf7b758027ffafb0bU, 0xcf490fceca0fc408U, 0x2f011e50dc244cefU, 0xf91737255b234463U,
  0xd62e4abdee0ce12eU, 0xdc8d1fde8322032U, 0x40a18f3e6f107cdU, 0xe1221f27dcf6e31cU,
  0x1b1901d2e815f0c1U, 0x111238dcbf5e82dfU, 0xd6dbf9e6ac306b21U, 0x58ee9114140308f2U,
  0xccf70c935d64e048U, 0x5214faf17fd437e7U, 0xff01eac1c711c88fU, 0xfdd94909d0e8a5a9U,
  0xbb6286fdeac5211eU, 0xad92332603fdf887U, 0xef074802dd311838U, 0xb061151e0f37b4d3U,
  0xebb4fa58a0263fddU, 0xd7bc0ce2ab121413U, 0x13fb4bcdde59eb0aU, 0x230191141518eec9U,
  0x674f31140edb0de3U, 0x3482d28c6cc19e5U, 0x9381dc20a565dbedU, 0xce4615610ff710d4U,
  0xbfba02a319db262eU, 0xbbcedd3fdfcbe69fU, 0xa11b06f5dc36025fU, 0xd3e0f62f35eebae8U,
  0xf0fedfeb1b0b29cdU, 0x2639ffda08e7dc20U, 0x1f461c12cb18302fU, 0x6134fd20f2f3e13eU,
  0x1905f4d0e71326cdU, 0xf10c222b4311fb1fU, 0xf423f8f5c9ef81c9U, 0x3cd0e516006fcc5U,
  0xecfd00d8d8c4f2dbU, 0xeed7ecd4c30416f9U, 0xfa18f1e0e00da513U, 0xcd6e3463949d9f5U,
  0xf529951c01102126U, 0xc50cf8ebd125eacbU, 0xee0b67fadeeb0500U, 0x171701c907158a10U,
  0x2fe505f6c6f52b06U, 0xe804fad208d727ccU, 0xff1b0dfd60f4d0adU, 0xe72d370127d227e0U,
  0xda250bb02bef17caU, 0xd9e9e5fdec1c2500U, 0xfc3ebc0ef0008106U, 0x934f939b746dccdU,
  0xfa062536eef93cd4U, 0xc0bdf7e301f91033U, 0x19cb0dd81243534cU, 0xe64243b71a0d1348U,
  0xeb36e410f911d616U, 0xe37f1be2aa092321U, 0x1e1506f8c6d52df2U, 0x1b59abd4e9040e02U,
  0xdee3e4b927f627dfU, 0xc6f19f04cf1fd4bcU, 0xbbdf0b01f21ecbf9U, 0xa08e4e3f00703e0U,
  0xa60444f000cc1c0bU, 0x3a36ca04feaa2c05U, 0xf7f2d4d20b1517bdU, 0xc71bff0e34f02cb5U,
  0xe704f901bd0b31edU, 0xe6fd162b0af945e9U, 0xfc35fdcebe0513fbU, 0xf8bb0134f3ecf5dcU,
  0xef18d0f810e4dcc9U, 0xe0dadf0306a5f7feU, 0xf813e17f2428fdd3U, 0xec10c6b9d41d1829U,
  0xee1df513d144dd04U, 0x4fba1909de1eea03U, 0xec3eff2f7fca29abU, 0x273557e906e5d2f6U,
  0xdbe8c30dfce81c01U, 0xbbcc090a162929a1U, 0xe744ca0a4815e908U, 0x63d0e03d0db30cddU,
  0xfd13d3b202f20b69U, 0xd225c9f3e2e0ae31U, 0xbfe20c100ed309e8U, 0xe9e0d4fdd0fb0534U,
  0xfd14e50113b8c515U, 0xd838da1527192f00U, 0xfbcce70efc3e190bU, 0x2e0b120cecf210dcU,
  0xd00f1143ec0d1b09U, 0x397f09ccc414f50cU, 0x16dcc80ac71f2c0aU, 0xeaf602daf12ef7f6U,
  0xf07fa121b16ebe6U, 0x440afcb42513f31cU, 0xfae315e0def1f011U, 0xf89465e936f114c7U,
  0xcc132fa31bfce30cU, 0x84f547f220f00d8U, 0x9be44d23f1feeaecU, 0xc908fb1d3c34b957U,
  0x362308814405fb11U, 0x3f0c0a07d2bb22e6U, 0xd0dcf604f80ce8b9U, 0x3324f3db1bd2aeeU,
  0xf2b4f62a22febb1eU, 0x23092664f2100d48U, 0xbabcea9002cffb38U, 0x175a16105fe742c9U,
  0xf7e02e51f565d422U, 0x1eeff0d3f40801f5U, 0xcf2f3e2bd11ed51U, 0x220819fd1e32d24dU,
  0x26f6e6ff7fd7d9edU, 0xfcbde4f9041effb2U, 0xfadffb01d6ecfee0U, 0xf71a0bf3e611e424U,
  0x1b1bd1eff72417d4U, 0xf4f9f8350f1fdacfU, 0xa7fdd12f05132005U, 0x1e0c12321fd6e32bU,
  0xf2ecd41aeeeb10ceU, 0xded6350e2cc2e510U, 0xe598dfbf8115cc3cU, 0xddc2bdd56d40a21U,
  0xf023c8dc04f3dd31U, 0x365b554540d0ce1dU, 0xea5eca4f33bcfddU, 0xb6cf1c6a0df09ac6U,
  0x4cbbabd465062821U, 0x3130b3cd20f2f316U, 0xedd2e12f3ec90f3aU, 0xd54827fd1dfcf9b8U,
  0x372d0f6924ed4109U, 0xf61325bc07ff1a14U, 0xa734e7ece51427fdU, 0xf9e4bdec57cb0ff9U,
  0x14e1badb300357f6U, 0x7a50a2cd22e1404U, 0xfd0d0fd7cadd1eeeU, 0xb7c233fe2efde61eU,
  0x7fe63530a0201211U, 0x2bebfa46eb17c515U, 0x2be2aaedf92429f1U, 0x176918c7b207212dU,
  0x46c8f014e8e134d7U, 0x63fbea4121bdb37U, 0x10046b064d5f4ebU, 0xb4c24f032a6ee57U,
  0xd58f32fa62be81dU, 0x6ce6edf5faf6503fU, 0xef11181ed42f0f4U, 0xf752b799714ecdeU,
  0xb22a97e50125d62U, 0x2f36fb02e0c7b2a2U, 0x120b90c93707bee4U, 0xeaaaac2b3307abd8U,
  0x9e2ff1ef3211b150U, 0x227f0d013a18f32fU, 0xb2d7f732e4d4df1dU, 0x150df0e7dc1dfbdcU,
  0xa9ef001435c016bfU, 0xd00b1111df3e0c22U, 0x25d6e12efd84de07U, 0x8e98c50dd08feedU,
  0xf91a171ebce6011aU, 0xe0011b380105ecbfU, 0x81f291bdb0d0125U, 0x3db7ad2e7ed33e5U,
  0x1e702f203de2c06U, 0x270dcbeb995309f3U, 0xf4b7200339bfed93U, 0xff163404971d3704U,
  0x24cc510d09e00f20U, 0x4381fb0ffdfafcd9U, 0xa317b1b85421cd1dU, 0xd3d441155c0ed17U,
  0xda07ee07b0ccd69dU, 0x8f336f8c1c017f9U, 0x19090127e09f16efU, 0xfc44a92c290eb500U,
  0x321619e7fb1a963fU, 0xad160906b8e8ffc6U, 0xa221744e1094f08U, 0x240f382e1028f3f8U,
  0x72607d5f2bfed81U, 0x11ceeed42af10046U, 0xa5ccfeed240701adU, 0xce03f8283407ffe4U,
  0xbe43fde5d5fbec05U, 0xa62bfae6e322ecfeU, 0x2312e11df0d40414U, 0xedff0f1c2326f728U,
  0xf71ae80c1a1ceedaU, 0xe744d067e7203ce3U, 0xf32d7be316f1f0ffU, 0x1f1ad5ebf7f6d4dbU,
  0xe80de301c82deebfU, 0x34a249fd2b17ff3eU, 0xdfedf7c7a2f511d2U, 0xe5e836e62525e5daU,
  0x182f302123f3fef6U, 0xf5e7f6f0e4ff1581U, 0x33dc3ae7f50b09cfU, 0xf2d01fde00d65004U,
  0x51fbe2f00ccef7c3U, 0xc023e13918f5d63dU, 0x26f9d7df202fe224U, 0x1faaa9fb482deb41U,
  0x81fe07066af4fbe6U, 0x1c2df9dce1b1de0fU, 0xfb41db151f0f53bU, 0xa0be6d13a3df5f6U,
  0xf1f1e7d6f3ee2107U, 0xf1f809d7050fd70dU, 0xfefee7d5f4ff4110U, 0xc5d4e1e3b60b00U,
  0x3df7db8d32dd1e0aU, 0xfff939f6b6f0e9faU, 0xdd06e519be1fb834U, 0x33804efe62a18d0U,
  0xcbb1f12eb725ecc4U, 0xe6cd2cd1000c12dcU, 0xc91719e6df6be02cU, 0xbf04cb35c722fbcdU,
  0xab15e1bf75bbcbe5U, 0x513ed06d5e7a051U, 0x298e5bead3e80a02U, 0xd7f4e82f051d7ff2U,
  0xafcaab2d2d1d516U, 0xd90b0cf719f1eb0cU, 0xfe1526f2e72c0ffcU, 0xe522f3e4df002af7U,
  0xd3019ddef503c351U, 0xf05924071207f4e3U, 0xf3f6c5132ee7f0caU, 0x1d161431f3e60831U,
  0xeed0b01a1037e0f3U, 0xe1c94ced2206f408U, 0x81f5cafafcbb1ee8U, 0x2a0121e7fab314eaU,
  0xfc084d063205e6ebU, 0xcd7ce060eee1ddaU, 0xf098f5e0e173afbfU, 0x220221bc5bb2fd94U,
  0x1d22c1093d061242U, 0xcd8d519f914efad3U, 0x1d8ed132c7f0d1aU, 0xed5728fda0d9eca8U,
  0xd305e016020dadf2U, 0x481e50ec9d42502U, 0xa82318abd1eb2a20U, 0x26c83bfddc935ecbU,
  0xdac80c64f9f34eb5U, 0xecae3883dec04c6U, 0x301548e2fceb2be5U, 0xe90de228e7fceb40U,
  0x9821c4e1b30a21b4U, 0xddc0d93c5ec32f29U, 0x9a9c7ff1a0a4fdeU, 0xf6ea0028caef019eU,
  0x10f8d213478126d1U, 0x31e631020debeb36U, 0xdecd08d0e467eaU, 0xd6daa915db23e3e9U,
  0xfeec14f810165644U, 0x2d501f4e9dcd8e0U, 0x9e2a1c07e00d1c43U, 0xa582545192301f0U,
  0xca03ae1b0cc1ccbeU, 0x2f2ddc0f1ae1135bU, 0xaae44811ce73ffc6U, 0x1d81dce9c81da5daU,
  0xf3def7f81df50230U, 0xc3e1b30d1907f518U, 0xebb05acbdd3adb44U, 0xf0bffd0f0f0e42faU,
  0xe0d30e76e4f20b08U, 0xdbccf63afd1e1903U, 0x36f992fcf12ea6f6U, 0x31e3bf7311721c1U,
  0xd112bb0cd8cacc2eU, 0x23cb82a09c232ddU, 0x37b71a39fd531efdU, 0xd02c4221061a11d6U,
  0x21de03fc01fe3bdfU, 0x3c0bf8d5f9fcba32U, 0x21adc30dfc4f1f4U, 0x54a4e10c00062fecU,
  0x7f1305ffd1df2b11U, 0xff2efbf5def02805U, 0xf7e23cecea4cfe04U, 0x85135fc27f12681U,
  0x2c5f7e3b815f8e8U, 0xb4f3f014fd12d5f8U, 0x5a456ccfdc061ce7U, 0xc27d4333415cc0eU,
  0xb9ed2b00efe8afc5U, 0xeb12fa162617e011U, 0xe40ef5162c10efdcU, 0x1a16c3d8fd2d4635U,
  0xb7101570da0b1accU, 0x7dffaaba399e1510U, 0xfa09f3f1e020a42dU, 0xe6b53aa0a0eee607U,
  0x5522ccb156abfaf9U, 0x7ebff07552bc95bU, 0x57f149b709fcce06U, 0xd0dcb11715fb9d32U,
  0x3ad5faf90acedc2eU, 0xb5f80b23ec13b736U, 0xf2d1217ff95ffd2cU, 0xea03eae53130dd15U,
  0xd1c4fbf42661f12bU, 0xda26fe3701fb00eeU, 0x1ff00de2d2dd3ee2U, 0x35edd7f6f9dc2533U,
  0xe806bfd4f52e084dU, 0x1056e4f210fafc2fU, 0x2c13192fef0ce4eaU, 0xde1a3ceb0de921f6U,
  0xbb2781f131ef0d2bU, 0x1d13011ee23ef735U, 0xf8430bf406e0f805U, 0x26e9cc2bf5bdfbeaU,
  0x1ef9540cdfce36dfU, 0xd80f5d24b51ffb1cU, 0x3207172a56b00be5U, 0x3ce0c50e323f3508U,
  0xe935e96efe1bbff2U, 0x340699e5f3250c17U, 0x33cca1ef34191bf2U, 0xff3b2a32f7dedb07U,
  0xdd48107608112245U, 0x583145fdf6d7d90eU, 0x21ddee8a14f334ccU, 0xd92e9f1fb9d3b8e3U,
  0xd204eefb7f25fc21U, 0xe1f3431d3f04ea66U, 0x1f4edcd91798067fU, 0xf41cc72b16f22fb5U,
  0xf1c1e31a2540bfb2U, 0x6bd024315141e33U, 0x60a7040be2b0f2bfU, 0xf91a25c41dc81f01U,
  0xe052ec0ee4e6190bU, 0x14161f2ff80bf419U, 0xe50c0c12ea24b7ecU, 0x310e29e69d63ed5U,
  0xdf02b42fe40e90f9U, 0x31626032ea804a1U, 0xf0deb7fd21f5f3ceU, 0x53b9b5fdf325a9e3U,
  0x307181eabffd3d8U, 0x46b45b2b37f9edf5U, 0xf1220ca2e1d2e0adU, 0xf203ef3524dce819U,
  0xb51d4f55ea1a1ffdU, 0x19cdcde6ec29f70cU, 0xfe5813e4093abc2bU, 0x47af140533f2fae0U,
  0x2bfe7fed04faabb2U, 0x1e0531b41fd511dfU, 0x18f21003dae2701eU, 0x343061b4d281409U,
  0xfe60f106a706e728U, 0xe2f7bf14cd0efafaU, 0xf0ef11d51eff81d2U, 0x101a261af5fcee0fU,
  0xe9f7f4ca08071014U, 0x4c121e28da5403bfU, 0xb631f100f0d9dd25U, 0xe9d902d1d60612edU,
  0xe42416f330dec90aU, 0xff146cda08bd1335U, 0xf764191baee881efU, 0x11fa0244e6fc2c1fU,
  0x53e065edd5f556cfU, 0x8c51bf509de191dU, 0x3aa13807b42cfaa5U, 0x9f1cebed75222abcU,
  0x36ca6abe070de2f0U, 0x206afb8918ffd8c3U, 0xc0fdcdef1277c2f0U, 0xe139074ff982044aU,
  0xd5884241f5dbfaU, 0x1948ea31d601b8d7U, 0xc1d46805f76df33cU, 0x7fedfcfe09f4f8a0U,
  0xfe5c073938d6ff1cU, 0x1d12f5493947fea1U, 0xd0ed3830be13fb86U, 0xe147e406b4f1c03dU,
  0xe2f41a3f0a2dcf0dU, 0x1f35ebf30c6489bcU, 0xbe9b221b01d175e2U, 0xc6b011112e6b6745U,
  0x112bf58b4acabe21U, 0xace96715f9943ac9U, 0xa04b7c7f0d91704U, 0xe50e741a273223e5U,
  0x12163d35064cd207U, 0x363125fbcbeb080eU, 0x47dcca538161e6a3U, 0xe5d1edfaa75c3b9fU,
  0x3409731854ce1102U, 0xc837c830043555c6U, 0xf9d121fd3ff0fd3eU, 0x1230b0a997285929U,
  0xca012744c5725c27U, 0xa4ec37ff57a180cU, 0xfc36e94cc8d3ab26U, 0xe34025c919232ed3U,
  0x4185b2001ecf415U, 0x1631392b10d1f425U, 0xf70377fe08de5b3aU, 0xe71800e60171cf28U,
  0xf7404422ec2ed90dU, 0x3149b5f31500f201U, 0x6fe7601c9df72edfU, 0xa73cf0d7226a09U,
  0x43c015a9f206f7e1U, 0x10f1fbf4e1182633U, 0x2c5aff6fdf6b5e0U, 0xfe310a04070f2befU,
  0x407455c09f5b20aU, 0xfbd32fc1f86ae611U, 0xef63c96d02fc3221U, 0xe325ee2e5f2c4424U,
  0x8fb32810b31114eU, 0x725cceed0b33f0b7U, 0xf736f4222d0641efU, 0xdc09bc9000dcad14U,
  0xd9dd3508143b45fcU, 0x1fe21e13ff1e112eU, 0x31345069af1d430U, 0x24f61dfbfec53038U,
  0xb0170727d1fcf6b9U, 0xcb3c13c9133cecbfU, 0x30ed463ddf04a7b2U, 0x38f151ec3e78d6c8U,
  0x3027dbea08eee3f2U, 0x11d20cdcf7e0d5edU, 0xe83c06f2bc18c3caU, 0xfadee10fea0cd104U,
  0xab8112bcf91bf0e5U, 0xe27f16db2836e527U, 0xdff82e380b23b510U, 0xade98f1ac1af52fU,
  0xd6d841a50810041fU, 0xbfcb1509e5fb1b1dU, 0x13bbff202fa8fc4U, 0x26d862ed24cee0f6U,
  0xd71019f2c5f417c2U, 0xc05210ec08fc2700U, 0xbe0bd9e50fdf28e9U, 0xd2054bfe6ffef0f1U,
  0xcc0117af15ee021cU, 0x14ef17f9bb41f5f3U, 0x8f0a594089dd2a0dU, 0x2c192dff43cc12d8U,
  0x7416e0efded16eedU, 0xecf8d6c6a581e1ebU, 0x405457aa4932d259U, 0x3bca17eb3ce4f04fU,
  0x2104d119e6a1743U, 0xe462d6ab060c1d18U, 0x3d0d6c8c8eacbfdeU, 0x3218cf0e2528032aU,
  0x54ea04fc6e20e7d4U, 0xf8f00114c744fb21U, 0x1ee2fe42eb36c20fU, 0x34a4e00de20ae8e8U,
  0x2312ec087f16f746U, 0xdf2c42d80215ea42U, 0xf5e514d1dae8ddd9U, 0x281ce6070ce339e1U,
  0x321a2bb2d40ee9efU, 0x21fbf4e4041f341eU, 0xe445f8ffef0a2768U, 0xb4febb2924233e46U,
  0x23e2b828aee9e3b6U, 0xe9043204f2631904U, 0xecc92e7315090f1dU, 0x2dd6d9f7c61e04efU,
  0xe7c204e8241fd814U, 0xd7bb171c00f60d07U, 0x2630eda810fdd3d2U, 0xcbe2d2e8e50e1311U,
  0x36e4281f301ef623U, 0x3416293b0d13aac5U, 0x3f20fb9d9efe428U, 0x916c7217f2316f1U,
  0x1907f8abea00d8dcU, 0x2481a671b1e210fU, 0xc2be0ddc5a0dbdf9U, 0xe8f3f7013847f168U,
  0x1f15af18070b3651U, 0xce2d0c680df9f8c7U, 0x53430c142fe574d4U, 0xb411f49dd3e04112U,
  0x5f19147fb3ceeae9U, 0x68be232aef0d0dc5U, 0x13171a8c39e60d09U, 0xe7cc0af609112125U,
  0x2f2b24d2160f1c39U, 0x180d09c83e08421eU, 0xd50b17f0e7df2e29U, 0xf229a10bf815de1bU,
  0xf6db785dcbbbb004U, 0x66a6a60a3d12da35U, 0xcf2deec45a28ef0aU, 0x3fb00127a2262bfbU,
  0xfc29f41937e4e840U, 0xfe020e09873df1d9U, 0x2f05cb3cf5a801caU, 0xdd3f8129f60b40a1U,
  0x490bfbf5fa2ad90aU, 0x6ccf17021e1eefb7U, 0xeb4ed037cfbd83a6U, 0xc1d11123d31d3ec4U,
  0x881d3936224cefeU, 0x2c00fb624bfee610U, 0x87cdc8d2b1606ac9U, 0xf6e4cca5e41cfafaU,
  0xfdfa1479f640030eU, 0xf6c61309ede6f8fcU, 0x7631ab393bfee8ccU, 0xfb5b106eae11ffacU,
  0xd3fdfedf0dbd5108U, 0xc3b31cee0ee239e3U, 0x605ef0f140a422fU, 0xe11d1af3e4aed334U,
  0xd0f2ff1ee2dae110U, 0xf817f7141df7bf22U, 0xc2e0c104e610777U, 0x7f48bce90df6c11eU,
  0x9210cfdef1044aedU, 0x3d0d0cd3f1da0856U, 0x1ae31f0bc11b160bU, 0xe8f0d525583314f7U,
  0xf92a112feae208e0U, 0x3cd319c82cde15eeU, 0xa92bf6bfc7f70b85U, 0x2c08091301472256U,
  0xb9c908c66903eabeU, 0xca3a5743f809e4ffU, 0xe6cde4e2d7eedee9U, 0xcffc13261572d8dbU,
  0x31f8e79a5619e30bU, 0x1db0a1730b1ef49U, 0x81b9030d0c331c44U, 0x37c757bb4b04fccfU,
  0xfa163018522800edU, 0x7f2dacd73623f5b0U, 0x1cb62ffbf0d5102fU, 0x17032ae04527f2f7U,
  0xc7cb32c9e70f101cU, 0xb96cef2505f8f3e0U, 0x3462e1cde2b222c1U, 0x17b7e37a04541d05U,
  0x3d48d20c1e3fe135U, 0x1e2b3f49faf414deU, 0xbc6d23c0ffc3bdcU, 0xf4101105eaa6b9d4U,
  0x1812d366f8ffd80aU, 0x39f013b0dd1b936U, 0x2f2739bf4a0d2a35U, 0xb507f5f7c9ad4d03U,
  0xc9da343883d3f908U, 0x64915ce392bf2d4U, 0xf1a81a0a1b47de11U, 0xcdc182efb7fc343U,
  0x56e455d7d818fbbfU, 0x260f52cff90d2805U, 0xd726e9dac60ef5faU, 0xffb9a7e2b2c72901U,
  0xfd19f429f1da4b02U, 0x97fac42251e326f9U, 0xa36e2bfc0500ff0fU, 0x45461929f81b44c8U,
  0x213f81d3d55014cbU, 0x8ad11dc02beeeedU, 0x2b4208d934a9c218U, 0x40230c32b2f0ca32U,
  0xd19dd080c250646U, 0xae17fed730233042U, 0xf5e7d3d220c82e16U, 0xe71ec02d053707b5U,
  0x51e8e8dff411ee53U, 0x917f7dd39ca1017U, 0xe63dbf042fea10f7U, 0x2643ee03fcff59aU,
  0x3a0514de48e8efdeU, 0x1345f7fd53351231U, 0xf8295112b1984201U, 0xc8c2351b2c4e3f1fU,
  0xc1d3094e46fdcdefU, 0xe9e2ceb60c25122cU, 0xcc12d62ef80dfed6U, 0xf8eafdea2e22fc31U,
  0xc51a8116b0f5fbfcU, 0x48d60ff719210107U, 0x607e0ed00f1b310U, 0xe581f81a1aff0842U,
  0xc92dcef34efacf65U, 0x2fb406352df607ceU, 0xa1b5e035f654cfdaU, 0xbf2002221eb6261bU,
  0xe6f5b93d3a1ad50bU, 0xe3fcf03e0dbac73aU, 0xf42a93f5eb0f52e8U, 0xe54c0409f8dce5ffU,
  0xccce09f0f401f7ebU, 0xf0eadf32d7e043fdU, 0xcaf61315f4d106cdU, 0x50c2300dc15d4d6U,
  0x2af10120470cd2caU, 0x50f3222e2d1d1436U, 0xd60325305140ed5eU, 0xea4b220b04afd818U,
  0xd6fa5ce4f21efcecU, 0xcac27fe5dbf6cd0bU, 0xdfc63326393bc001U, 0xeecce7d9ff29ead7U,
  0x1624ef1ff4cb2616U, 0x70be1e1390ee40dU, 0xe6310aff0308bee6U, 0xd914bf1e09f534e1U,
  0x30be3b0d811fcf03U, 0x2cb4cdc2905fa31U, 0xd90eddc7ca412ed0U, 0x46c8f5c4f5260c01U,
  0xd404c4314ef627d3U, 0xeefdfb1ba62f0016U, 0x390d1ccde677381dU, 0xd504a9570900d8dfU,
  0xcd0bc2dbf806d3e1U, 0xd3c232c6ab81ec1bU, 0xd3af20cfc161144U, 0xdb08dedf07e2eefcU,
  0xdf90b28fcd9e42bU, 0xff2fd5f43ffada06U, 0x40d842f5f8abe721U, 0x549282dc943fcceU,
  0xdfb5f180cd722dfU, 0x49e6c014ffe9f116U, 0xf21938e6e1eefaf4U, 0x4d5cd61ae505ff05U,
  0xf8f4044f2029d91fU, 0x12dfa8c1faff24e0U, 0xf544b917b8e04d9eU, 0xd103b4fa7f0101ecU,
  0xfe37ea000b00fe14U, 0x3bf9fcacc4f0f71aU, 0xafcc32909ac2c05U, 0x2848123bd01ac59dU,
  0xf4144216fe36f9c2U, 0xea0128d0f10b4437U, 0x1ac6f92c1be6fab5U, 0xfaffbbfe271f052eU,
  0x98d0d33f45541cd3U, 0x2af439162c3936e6U, 0xf1e3ede6df32c495U, 0xae9bac24f928c237U,
  0xe7caae17d0f2f932U, 0x2e123a37e244f865U, 0x1750271730e3ead6U, 0x81e8d330d40215e3U,
  0xfc1d100001ef3219U, 0x3f4c05481a9de8cfU, 0x1ea8f74e130311efU, 0xf1e1677a26b806d9U,
  0x309360d22132e07U, 0x8ff32af6451b267fU, 0x53dcd7f695eccd55U, 0xd70e261ffc0ddd3fU,
  0xfaebd3de23be0fU, 0xd8c7ea545900e8d3U, 0xd218bd2132eb2d41U, 0x6635fd5cebd82c3eU,
  0xa6b0831da215c5e6U, 0x1dfb44bb5453cf3bU, 0x17f206f9e2fc39b4U, 0xae42ebcad209ca2aU,
  0x164f0c17edf7adf1U, 0x67bd5ce206500015U, 0xdd34328c9d9adfeU, 0xcee6370527e86651U,
  0x2c08d516f8b50a14U, 0x357f320ea8aefb04U, 0x15fd02a8f5d7c93eU, 0xe01c4fda14ee21f6U,
  0x8f7b7f4d8f6f1f5U, 0xe01e95646d80bbeU, 0xe320b3f4f9eb4137U, 0x72404d2749e3baebU,
  0xc5f941f68ff8c7deU, 0x5e250ddef1c8e7e7U, 0x1fcc95eb402cf8f2U, 0xdeeff51839b3ae28U,
  0xd90deefb4bedbd28U, 0xf850faeff043b601U, 0x103d9ef703212613U, 0xf02f4ffedb60e03U,
  0x8cc0402dd040105U, 0x74a21eee7a6d6a3U, 0xc505ee211142f467U, 0xc6b617f57f1ae7d8U,
  0xd31aeb073cc5e6e2U, 0xd2b3f7bae8c117e4U, 0x41b4e7c857350de3U, 0xb62e715d08c9bea2U,
  0x2a810c00a8f55be9U, 0xddc6c53aed29f54dU, 0xf0fd1fdd22f8210eU, 0x150439a74e589450U,
  0xb057dd8daff3cf1U, 0x351af715dce01bddU, 0x3904ecfaf807edecU, 0x4a2bd3c31bfff1U,
  0x61e24def948e51eU, 0xbd46f9178d1cf133U, 0x13edcf513cd43feU, 0xc06df00190bd1a1U,
  0x4a641f20c2bd012eU, 0x53d7e8c1ddf810a2U, 0x2b12c0ae1df27f37U, 0xe1f431030a2463b4U,
  0xf5f4c14c4cd8c1f5U, 0xe32254e9da27fc1dU, 0x8a724faf41b941fU, 0x124d90002152b2eU,
  0xe4c6dcbbcf1b90f3U, 0x4d4ffd01b74856c3U, 0xe557f2de049fb5ceU, 0x23b50f281cc544f6U,
  0x4d9a31e2fd171fc4U, 0xf6e80345090be846U, 0x81c01fb5a8320c35U, 0xbceae7a6e877c647U,
  0xf6f1be196600ee03U, 0xe1edc21eecf0a524U, 0x20f327f4f63ed562U, 0xe83533c945d5a3d4U,
  0x30d7d6de1e11e4dcU, 0x2dcc21dc0ae2c300U, 0xd3d81c903020a43U, 0xd932cfb2fecf5a18U,
  0xf7fac3fdec311345U, 0x4adfd9c149e7f903U, 0x1e0e42ee16d7ea01U, 0x2bf400ee26fc0dd4U,
  0x39cad226e8c91b00U, 0xebe9504a16ed2e4cU, 0x210b16e31d0409e9U, 0xf406a4ffcae1ce7fU,
  0xf2ecdd7407174618U, 0xde6cf447124ef22bU, 0xbef01e001ca2cd53U, 0xed10a3cf2436c7dcU,
  0x71e8c97f2b9b2efcU, 0xeffc30eca315d6b3U, 0xea220103b93ff7dfU, 0xce0311f114a5f90cU,
  0x25e9bd5224fc0084U, 0xb6284bbada3413b5U, 0xf0d2afe7e490f5fbU, 0xeefbf0f6d2de14ffU,
  0x111b40202ffa242dU, 0xf3232a2c81ef0e17U, 0xdc981937d5fe3db5U, 0xc0e603ec2a23880cU,
  0x240f40df1a14fc36U, 0x2c20f14004ee0012U, 0xecec271241d90426U, 0x1f161dd5e50d26c2U,
  0xacfa00d8b80533bbU, 0xc724fee51cf02c33U, 0xd84106073d241dd0U, 0x1344254d6069f222U,
  0x9f0581b1f31bd22U, 0xd55481f1b9dfc759U, 0xf31c238a97281fd5U, 0x513266f3ad2bede5U,
  0x180ad6deaff4123dU, 0xd105f1c69a2ba5f7U, 0xb4bfe003f2b5e9a1U, 0x2fb519dbdb0c77f7U,
  0xbadbfeafeed9fe41U, 0x62cb532906f7fed4U, 0xcffb070ed2c92b12U, 0x1028fbcddad4b0a2U,
  0xcea62ee181b11fcU, 0x16eb22cecff7efeaU, 0xd41b1413f6e95806U, 0xd44ca3ff2172a4aU,
  0xd827c911133abb1aU, 0x1fa0d3d6be0cffffU, 0xdfe60a233fea412fU, 0x187fdf09013ee33aU,
  0x58de4941dd3bfd1fU, 0x13c11fda0f1a45e3U, 0x1f20cbff3e8320dcU, 0x1efcfff2eae721f6U,
  0x2b2614f2ec16fcf1U, 0x17cf2ce34226fe2aU, 0x65e31ee845f71018U, 0x10b42b138bf131f0U,
  0x27e219fe6ae9f064U, 0x5334ecc3f3a7cc39U, 0x4db9d63923e40d56U, 0xde48192b26427908U,
  0xa7f050c3e53762d5U, 0x9bedffa4f9d8ce30U, 0xfe34f3ac2cc2e6d0U, 0x3643687f2fdf188fU,
  0x31e6a4161fb5fa91U, 0xd4ecbb3e1803b20bU, 0xf3d8e4f9d5d22fa2U, 0xec2206d5bef02757U,
  0xb040dde8cb063d4dU, 0xd0efee8e70b0850U, 0x445b8110f8108c3U, 0xfec13f1daf09f90fU,
  0xb036bce3d2c63bc2U, 0x34386353d0084dbcU, 0xf21e18fe2214d718U, 0xe427f2e40f5d114dU,
  0x46d5dfcfb8edc203U, 0xde24bfe3eaa1f912U, 0xc9fb1af0e12b2581U, 0x1d2fff41ea68cb46U,
  0x2c9c57d1e11ac9e0U, 0xaac8de12dce6f00dU, 0x17bf20de0dba36e4U, 0xdc21523201483a00U,
  0x78dde2c49a233a01U, 0xd9c9105ac00a0308U, 0x54ba22cd0955ba37U, 0xcf261820a19ff5fbU,
  0x72f31bef09ccde55U, 0xe92cc217d723eaebU, 0xfe1cd61a0ae02bb3U, 0xd2ec8123dfb0811U,
  0xe600168d5f1327d3U, 0xba26afd6c30a2918U, 0xebb7d9e9035d00bbU, 0xaff731031838cd9aU,
  0x1c04e5fb36142a7fU, 0xabcc3f9adedd10eU, 0xed05e7bcff23edfbU, 0xaa440fd6f5e8224dU,
  0x56a2c080a4fea4eU, 0xf641f22b22cc2117U, 0xf1f32917fff1f7f3U, 0xf6e4d4e9dcd20aacU,
  0x7eaea35dee3de0dU, 0xedbe32becafae5f0U, 0x34081813040e7fedU, 0xe2160fa814cd0ef4U,
  0xbacc29d82b08d616U, 0xfc4d04d10cf415fcU, 0x23ca1114c72dda43U, 0xec14c4c334d2af03U,
  0x82007abcbe315f0U, 0xe40ed1d73ccd2efdU, 0xe6472df1b1050885U, 0xc9274a00ab1817b0U,
  0x1ce9ebfcdf4afbd7U, 0xea0ae8a0cfecf218U, 0xefe14f76edf8e2bbU, 0xdb112faffd2d18ffU,
  0xae04e88121d3e3edU, 0xe5ddf2c2ed10f6e6U, 0xcd032309dafc13U, 0xef00c226b1f210a2U,
  0xf223ced2ae22352eU, 0xe7ff3cd5f511ff1aU, 0x4120d31101e9f807U, 0xd1ebe0e4f9dbe23cU,
  0x50d12c3110bbe39U, 0xfc40f00708fc0123U, 0xda31fae60fd5003aU, 0xc73f2222cff97fdaU,
  0x141aba1cd5300fe7U, 0x1f06150bfabce9e5U, 0x5a38f8ee10ddfc22U, 0x510ea21a70c1933U,
  0xfae625242adbe1e1U, 0xc9f6eef8f5f6f2e4U, 0x1cf8fd92f202e531U, 0x2ff90ed0ed050cc2U,
  0x23c16ed5e130001U, 0x4f52c62eff0f3504U, 0xe4c128cb2a19cb81U, 0x10d6060df129e91dU,
  0xfc0ff42c0d03c248U, 0x3882bc26e7ff0a24U, 0x282ccbf550d43bf7U, 0x505dbc939ba0022U,
  0xf20e0615640f1626U, 0xe4fc81e08fecdc13U, 0xbce2edb0f6f1ece4U, 0x2d2bedfb33e2f4abU,
  0x1fce6ed700260cd8U, 0x346a9e2438f40e2aU, 0xb2fe5bd0eecf82fU, 0x2b5903f212ce5e8fU,
  0x417fcb3b51bfae3U, 0x12024eb4e5f3f468U, 0xdc2f4c62fbe0dd0dU, 0xacb6fd602b3ed013U,
  0x2a591340a806f9f8U, 0x35e4abf701e53b09U, 0xce02b4e2f4e9ef08U, 0xaeab4144021f9a3U,
  0x507c00e36200345U, 0xed81dfd0c8370efaU, 0xf7fc19ae13cb47f1U, 0x2003fc20b9fa23a6U,
  0x5ed80b13ef1abc3fU, 0xf0350e0eeb3b3d0bU, 0xa00215df20d8d571U, 0xc0282f262bc9049aU,
  0xd00ee72e05e34efaU, 0xe4c918dad9fcea1dU, 0xe8c049f6e7371d1eU, 0xfceab9fd50aef70cU,
  0xec2d2d0acf31f7efU, 0xdfc62e511c143415U, 0x32b3228e1c2c18bdU, 0x1fe8d1451713db09U,
  0xbffd50e5ac6f9fbU, 0x11e31b370814e8deU, 0xea208100f6fd421fU, 0xd8fed106dee0000bU,
  0x7f51be3410ee60dU, 0x1d0b4eb729631ba0U, 0xde3ec29f11511c4U, 0xe70c28c93741da23U,
  0x1bf229a52538ceU, 0x16e534ccf131ee29U, 0xf8d3bcccd1e51fe9U, 0x30cb2209c03ef878U,
  0xe9810c52d3f2e0cbU, 0x115af03fe5d435fcU, 0xd70b3c02362c6cf6U, 0x31b2826cc161dd0U,
  0x2cd3ab23d71cde1eU, 0xfbdfc93f5c1e0817U, 0x4011ced6b63a15b0U, 0xeda3ae12f80ceeeaU,
  0xd3d8b7fc81f7fa18U, 0xddadf7f8f501cf1eU, 0x1c03e2e4d5721515U, 0xd21c823925fd8744U,
  0x426d9f32a15fae7U, 0xec4e0156d6f521U, 0xafad757ec2efdf9U, 0xc0330214d2677c19U,
  0xdbf501ee0205191cU, 0x7e8153ef7de0cU, 0x37e9eda1c7fcd88fU, 0x6ff1dce61994053bU,
  0x4f4d8e60e29bddbU, 0xa5d01330c915fe92U, 0xbbc08143010513dfU, 0x201f5e2bb0dfdf3U,
  0x9fef9d7e203df62U, 0x5cec031fe210a806U, 0xfbedeffe14e1214bU, 0xa222d37a9e8ae0dU,
  0x210e2411c9133fcbU, 0xba03142eee3de2d9U, 0xb51bfd47edee06c4U, 0xfaec0c40eae1f90eU,
  0x3c92317060ad11bU, 0x2cc8e801e40dfe27U, 0xcdc0d2e8fcae70efU, 0x9e6e4fe094dc4deU,
  0xfe12dc7f14d3dbe4U, 0x4d3ba2d8a5dc1f1bU, 0x58e3e19604f5c700U, 0xf3fb1b23f8e31dd4U,
  0xfd3fdcefddd10aadU, 0xf3b921edbe27fad4U, 0xbf0bc4e7b40aedU, 0x456e150b03aec84cU,
  0x31381a02d6f1ed10U, 0xdcdbdbe7001613cbU, 0x10c230f9e84ce4f3U, 0x112fd4810e15ccecU,
  0xf737f8eac2b42125U, 0x13ddf0bc02f0f10dU, 0xb021537dbe7e6f5U, 0xc520f902cd3f0bb5U,
  0xcd2e33fdbf0d43f4U, 0x2c80be6eaf7040bU, 0xd4ea07e91eb005f6U, 0x62d101d011510f4U,
  0x1305ffeb13e1dc1aU, 0x1633e2c909e8ebddU, 0xff03daf3171835a7U, 0x37fed301183bef00U,
  0x29fb2d0a071f1d14U, 0x1748f7c21913cacfU, 0x102e277f34fdb019U, 0xfee8e63ea1f1ff1fU,
  0xd25816fce63d41cdU, 0xece6ed2533cbebd7U, 0xc21931e14e1e10d4U, 0x905dfdd01f940c4U,
  0xd9ef0113d01c31cbU, 0xeca22dee2ae70decU, 0x26ffec19813335f4U, 0xeaccf3faf73f99a3U,
  0xd214c52641eb17a9U, 0x7b82b14efd72e42U, 0xa9727c9e729bac5U, 0xbb23fc270adf2bf3U,
  0xbfbb05e414011ffbU, 0xcfb6fa23e2327f11U, 0x11ef05a4fb4238ebU, 0xe15ae1ad9f5d1ffU,
  0xc624dcea2c15dce7U, 0xe1fdc007bf093bc8U, 0xf9cfce100518e6c8U, 0xf1e81cb6cac5f78dU,
  0xebf6c41e19fcdd0dU, 0xe9047bf3d9fadef5U, 0xb6cf8fcd2093d410U, 0x2df0b836034b3fc9U,
  0x46b4ede8052c4663U, 0xe6ed2df018664bd4U, 0xe31a172aa324d981U, 0x224ce1efd4598f44U,
  0xf0e0484331b613fbU, 0xe23ede32920a57d3U, 0xb32632e43defddaU, 0xf32567cd12a70df4U,
  0xe02845c6d916e1aeU, 0xe383dd7e27e6ee1eU, 0x921ec918c1fdc907U, 0xcc13b3b4f2ddbb4U,
  0xeb1b078cb72fe811U, 0xc8e41f35dd3d06a3U, 0x6ae94830a723f8d7U, 0xcc08c6eaf5cce22aU,
  0x2981f7867d28f549U, 0xf764f697d00bf6b5U, 0x6f055fd44eec06d4U, 0xdc450b378223d635U,
  0xae12fdd6fd49d502U, 0xd32fc31000f68bdaU, 0xf9e0f9eee4bf11feU, 0xfe192d4c1e579b19U,
  0x9e1aeb1f82995f0U, 0xfbfbdb09ea2ffadaU, 0xd2fd35c500e3f315U, 0xc8faf63204122d1cU,
  0xf85abea9274618f9U, 0x29f9e82df1123468U, 0xcff0157f52f722fdU, 0xf7c610cff7100bc0U,
  0x31e3d60261e4fbe7U, 0xb7f24bcefb12facfU, 0xe9f908e3ffd733f8U, 0xb9241907ed1ff5U,
  0x3c07ee0814dc0b01U, 0x0U, 0x0U, 0x0U,
  0x0U, 0x0U, 0x0U, 0x1U,
  0x0U, 0x0U, 0x0U, 0x0U,
  0x0U, 0x0U, 0x0U, 0x0U,
  0x0U, 0x0U, 0x0U, 0x0U,
  0x0U, 0x0U, 0xffffffffU, 0x0U,
  0x0U, 0x0U, 0x0U, 0x0U,
  0x0U, 0x0U, 0x0U, 0x0U,
  0x0U, 0x0U, 0x0U, 0x0U,
  0x0U, 0x0U, 0x0U, 0x0U,
  0x0U, 0x0U, 0x0U, 0x0U,
  0x0U, 0x0U, 0x0U, 0x0U,
  0x0U, 0x0U, 0xffffffff00000000U, 0x0U,
  0x0U, 0x0U, 0x0U, 0x0U,
  0xffffffffU, 0x100000000U, 0x0U, 0x0U,
  0x0U, 0x0U, 0x0U, 0x0U,
  0x0U, 0x100000000U, 0xffffffff00000000U, 0x0U,
  0x0U, 0x0U, 0xffffffffffffffffU, 0xffffffff00000000U,
  0xffffffffU, 0xffffffffU, 0x1U, 0x1U,
  0x100000000U, 0x100000000U, 0x0U, 0x0U,
  0x0U, 0x0U, 0x0U, 0x0U,
  0xffffffffU, 0x0U, 0x100000000U, 0x0U,
  0x100000000U, 0x100000000U, 0x0U, 0x0U,
  0x100000000U, 0x0U, 0x0U, 0x100000000U,
  0x0U, 0x6100000060U, 0x6300000062U, 0x6500000064U,
  0x6700000066U, 0x6900000068U, 0x6b0000006aU, 0x6d0000006cU,
  0x6f0000006eU, 0x7100000070U, 0x7300000072U, 0x7500000074U,
  0x7700000076U, 0x7900000078U, 0x7b0000007aU, 0x7d0000007cU,
  0x7f0000007eU, 0x8100000080U, 0x8300000082U, 0x8500000084U,
  0x8700000086U, 0x8900000088U, 0x8b0000008aU, 0x8d0000008cU,
  0x8f0000008eU, 0x9100000090U, 0x9300000092U, 0x9500000094U,
  0x9700000096U, 0x9900000098U, 0x9b0000009aU, 0x9d0000009cU,
  0x9f0000009eU, 0xa1000000a0U, 0xa3000000a2U, 0xa5000000a4U,
  0xa7000000a6U, 0xa9000000a8U, 0xab000000aaU, 0xad000000acU,
  0xaf000000aeU, 0xb1000000b0U, 0xb3000000b2U, 0xb5000000b4U,
  0xb7000000b6U, 0xb9000000b8U, 0xbb000000baU, 0xbd000000bcU,
  0xbf000000beU, 0x2a5b0f219130602U, 0x1ce00340e6faf42cU, 0xdfcd3f1ded1b113fU,
  0xd3d89eed1feb1d85U, 0xdc112c1515cf810dU, 0xf160c0c1cedc42cU, 0x2604f71ab8d3f9f4U,
  0xfae7101dfcb516faU, 0xc82015274ac4d55dU, 0xe7f1d918a7f92bfaU, 0xef99151ce1e4010eU,
  0xe7061ae7fa351e17U, 0xcd30b80cdb01beb2U, 0x22eeeb13f705ea04U, 0xebcadf6ad842233dU,
  0xec04b6c60227222aU, 0x144faedc01a3c833U, 0x1b31ce33cdeb4cc2U, 0x1ad13236bf44e048U,
  0x212bd7e7f9e2651dU, 0xfa24f5fddcca075fU, 0xd422c305f50aafc2U, 0xf8f8fc1516fee229U,
  0xe73e3e98d0c881eaU, 0xe33ab57da254ff2U, 0xf217ec3dbbe82aedU, 0x26422504297f2cccU,
  0x3e10fa00fed900f1U, 0xd047db12dd01f600U, 0x2a102e16b106e463U, 0x6f00012a70fe8caU,
  0xe1e8facdb006c82eU, 0xed0cfe0b3affee2bU, 0xfae52744f3071116U, 0x1ada13d612330740U,
  0xdfebec36c917ccfcU, 0x13f437818aedce13U, 0x1745a1b5eeeb9ab6U, 0x1dd7ea1812fc1cd8U,
  0xedf9fbe72b47fb23U, 0xefbaf80618f711b3U, 0xd7e5d017f81f1c03U, 0xbe60be3081e3bf9U,
  0x32fdc0f7ee06e1fdU, 0xc012d725d129fedfU, 0xcfcd8e325ef17efU, 0xbff031201ce0d1fU,
  0x38181adfdf20171dU, 0xcb41bfbbb504c41fU, 0x9e642d2fb3b124cU, 0xc9d6ceef10d15de4U,
  0xcdfd3d22e77f0cf6U, 0x44c001e3a70a02deU, 0xe423110d4d0cda35U, 0x47fd0ceb0fc9f3e4U,
  0x44d80f5199f577d7U, 0xde1ac8a4e6d6ff48U, 0xf2f5d0db52dfe62bU, 0x4b41d11acbc9f43fU,
  0xd3feefd3d1d4d0d1U, 0xdedd54d515fa2ff1U, 0xfa2aa6d72916daefU, 0xd8f53dff2545d4cdU,
  0x4c1081c5f1101319U, 0x40320c806fe22fdU, 0xf2dfe8ea275b09beU, 0x13edf11dece2c6fdU,
  0x41cc3a40f328fad6U, 0x762ad50b180dd2deU, 0x24f6e1720c096c05U, 0xea20d20cfc669f57U,
  0xdc6db05f4b9fff0U, 0x4224991f27be084bU, 0xe54f26edfcd41db8U, 0xf585c2c4aa1fb8a8U,
  0x354542b162d610ccU, 0xe0c5d1e981db24dcU, 0xae16080f552c5e47U, 0xa730f2f705c3bb5dU,
  0xd8fde00d44ecdd1dU, 0x23b11f221228b447U, 0xfa05bae8c3f1aa07U, 0xe49be9b7043d25fdU,
  0xe5e04791b0132b08U, 0xed07ce4024e8400aU, 0xd926dcf7c5b7ee35U, 0xadebe607e8d2f9afU,
  0x121820e4e012ffd1U, 0x42f04655bfc14b27U, 0x352e28e5f0ae6e11U, 0xb227213146fa024dU,
  0x173bb036fac9dde3U, 0xd49cf6371222164dU, 0xbdd0c3212cdf0015U, 0xfc01d62ac506d349U,
  0xb9d30c81e8070c0eU, 0xb008bfc904d76bb3U, 0xda2aeacce5fbd9cdU, 0xe802f335d133efdeU,
  0xb921d6dce2cf270aU, 0xe24e2e1f0c00e9d3U, 0x55fe27e0ce372511U, 0xdd1e10040b190be6U,
  0x1eb7daef16fde8U, 0x91f3003abb3cb9e4U, 0x14f044f0811c1ae8U, 0xf03f523e2eb02f3U,
  0xdcd82abaad32424eU, 0xe01de9e3efd3a723U, 0xd239eb0e27100f27U, 0xf421ead109d8674cU,
  0xc6ef1cfd5e16f371U, 0x5fae684b81e6c2deU, 0xa024c9ef1cb5dcbaU, 0x248ec936e73d41efU,
  0x3f077629efc1fef9U, 0xfff905ff2ce2f223U, 0x49ecf32601f2f360U, 0xe6f72c2022d937ecU,
  0xd81241f124f3040fU, 0xbfb4504fafa3791U, 0xf4f02a042138eaf8U, 0xe123190bcaf217e0U,
  0x3319f2d51306f0ebU, 0xaedf1a38101131e4U, 0xebcd1ffef60aea1bU, 0x1c14e8d23f13eed4U,
  0xf8f20214da2e05f6U, 0xf6180bdffa0aec1eU, 0xd619b581d426fab2U, 0xceeadde0f6f3e6f4U,
  0xe9f8f1e01803f4fbU, 0xea42da1ec7dc2907U, 0x34b0f29d920ae805U, 0xf301e857b6221c1bU,
  0xfb095215f8ddf810U, 0xf20fc118f754f117U, 0x112be8cb0bfe3e30U, 0x570ce43207343bc9U,
  0x1ef7ca33fe2214d5U, 0xde1b0554a0dfa6ceU, 0xfd1b0a5fd7f2251bU, 0x7ff4f3e865f3e7fdU,
  0xcb03fd11c831e232U, 0xf0bfb020ecff11bbU, 0x66d404d223f28711U, 0xd2d409e9292d0c1bU,
  0x5c08f3f9150bb9ffU, 0x23fe00c32c2f00b4U, 0x2a680de78106e709U, 0x21dcbfe74def016aU,
  0x1e0f1dfae54f1008U, 0x37141bae12e12a43U, 0xc9ebcbe712105882U, 0xa3194613302d9c23U,
  0x21184d41b70c0b3cU, 0x610fdaef63dfd28U, 0x747d6fdfd08e7e4U, 0xcbc07d3e6042cbeU,
  0xf1ba14c819f8001fU, 0xffeb194181ccb214U, 0xe8065921f6e70afcU, 0xf7ef102444e0281aU,
  0x26f40111ecfca0a6U, 0x69e7f5edd51c241fU, 0xc8f8f718da05e205U, 0x13030323b8583504U,
  0xb31fd9e60ce03501U, 0xea182425fbbc0739U, 0xb18fdf7090ed0d0U, 0x1c3ad8efbae0c8b6U,
  0x4436dcd002d8dc20U, 0xe2d2c7dcd9e414aaU, 0x17dd3ac105b77f28U, 0x2ce335d3be59b45eU,
  0xc8e3de96d5f6b514U, 0x5b21b708ff34eff0U, 0x1f11f618c50d03e6U, 0xc5d24bf50defeeceU,
  0x5937dd0beb131d5eU, 0xf9d7493bc895a8d3U, 0x811af5d824d7b1d5U, 0xa09ef91fbbf9eb50U,
  0xef28060370e9e304U, 0xb6f427f52e27c2acU, 0xcac8d7f7f818ab1aU, 0x930424a642131c06U,
  0x17d4f814ddc218dcU, 0xd14d2db1f42b3219U, 0x91e1bdb5fb3816ebU, 0xeaff0bf124cee9fdU,
  0xe196f3352a114c3eU, 0xb2ed8945f8b7fa04U, 0xf4fffb171c32eb35U, 0x5eae3ee0f4442b5U,
  0xcd0cc8204216d4c7U, 0xac0f3506d10544f7U, 0xe8f90caa0a39104aU, 0xc10015f7ebbb1de6U,
  0xed3bebe8d1eb4edcU, 0xdcee6fcded92b6fU, 0x2528d1f5fbfba44cU, 0x17da6a16ccdc0366U,
  0xffe3fb158d81d8adU, 0x4d1969f22a6104f4U, 0xfad0f7bdeecad4bbU, 0x1a262c04d97ff83aU,
  0xc9d336fc2ce5da1dU, 0xf907bd14f8d80314U, 0x37e9f514c0fdcbe5U, 0xf0eeb2110c30fcafU,
  0xe9ec44e9ae4911fbU, 0xf40e1c1e130cffd1U, 0x126d490dcc286bdbU, 0x31f4d8a955e1f6ccU,
  0x412d7f04ae10672U, 0x2c6170e23d8e420U, 0x11f930193de5b3eaU, 0xb36d24442d301c5U,
  0x19d700f2005724cdU, 0x2e2eee408fcf40cU, 0xccc0c263ed13febcU, 0xc0c315bafc3d0df2U,
  0x273f2a001b0e6800U, 0x2cd712ecb0e208f0U, 0xaf3c5f63e221506U, 0xd1ea3bf422d81a7fU,
  0x429dfd2f5cfc60fU, 0x2dc816f1e5c4e409U, 0xf910f32d770f14ffU, 0xfbf1816f96271b26U,
  0x40b408233200c71aU, 0xee31e05cf6b3e1e9U, 0xac37e3f411090006U, 0xf861cfdbe11b026U,
  0x20f1fa23fb9b0a22U, 0x37e4d8ea2b110a15U, 0xfb14db20f30cd60dU, 0xcdbd9153122a6f1U,
  0xfdccde133def322bU, 0x1702d5242edf2c33U, 0x2a9f227f0d23392dU, 0xa8282f9b21193911U,
  0xfe2cfd18140fec27U, 0xddf0e24de7f62e2eU, 0xab24c222f13a9c2fU, 0xcbcdad21160d2cf8U,
  0x20cbef0e2903521bU, 0x40391deed512feffU, 0xfdf0edf8209fd9fbU, 0x45d6d442ee2611f8U,
  0xb511fdf801f252c2U, 0xc63e5ee9f450eff0U, 0x1ac12bdcb022ebe3U, 0x2dc61a02e44eff0cU,
  0x1fd404f6ddf1d3ebU, 0x42cc6ed0d0b8f1cU, 0x14bd1e23185e49b8U, 0xd22dad6600f60b11U,
  0x39f70fdae96a20efU, 0x20ce118b0521b81U, 0xf40a0744ed1a03d0U, 0x5818d1f000efe7c7U,
  0x23ee32440b081321U, 0xf8e9040a38c039f5U, 0x1c9fc11eaee36deU, 0xcfce5628abfc4001U,
  0x1940bdcde32ff6a2U, 0x2edd0e180181e827U, 0xefcf1224f2ec56e5U, 0x9728251ce9ebcc43U,
  0x3dedc02bb60ec040U, 0x5b23f606f513171cU, 0xcafedc1237e023d1U, 0x5ae8da0fa0610121U,
  0x410818ddb1f30b21U, 0xc6d1f51919002102U, 0x3f627f9c9f003d6U, 0xd9fe37380006f3ceU,
  0xe81e3457f2ddcee6U, 0x81e9e0fdfadfdd36U, 0xcfcffe02f5a004a9U, 0x1e0bfb2a422d0500U,
  0x1e100d03fb47f4d4U, 0xf4e71b11da3ae107U, 0xddb2fa50ec0803c7U, 0xc30b20e5c3f4b712U,
  0x2dcc27e11cb8f02bU, 0xefe9e014bfbed0e8U, 0xf2e5592225560819U, 0x9b181318f61cfcebU,
  0x5a0e32bb7f1b0108U, 0x1f170a2de9ca0edfU, 0xd4cf5cddf442dbccU, 0xeff8ece7dc50f99bU,
  0xc5040dff3de9eef4U, 0x12ae5d33c153539U, 0xed2be12f2df5d406U, 0xe6f0b2e73a1d12f8U,
  0xa22610d4f2583445U, 0xdaf324c9fbe90fd1U, 0x97d0d6d5daecd681U, 0xeebe0fd6f715cde0U,
  0xbd21bc0b9f03dafdU, 0xcfffbe4cd2945eeU, 0xe0082c2d11192dd6U, 0x433a03a7413dfe09U,
  0xfd17fb1306c60d10U, 0x15e23b11e519c5d6U, 0x1501c8e144463d0dU, 0xdcd2e7bfe8d01329U,
  0x1dd8b8e0f3370940U, 0x3d0cc7f723e7caf0U, 0xca1f03e8f6e6f12eU, 0xce15f16bfad4ee2eU,
  0xf421d4e8d9dbc632U, 0x29ebe8bef83727f6U, 0x102cd80a213e08baU, 0xbded320adefce2d7U,
  0xe22ef818812be6ddU, 0x2ccdf9ddffc92f12U, 0xcfea2bbdd3090500U, 0x3bc7b5eaf95e1b1aU,
  0xfa3f1f1ec04919ddU, 0xbedee1744c0df8e7U, 0x4ddc162a29fa89d4U, 0xf22b1ee10939f62dU,
  0xf74f0954f8f4da25U, 0x5caed8101220339U, 0xc6eb37d1d6b0532dU, 0x53ec7fe3fff83d0bU,
  0x28246efeadc34b08U, 0x206c20033198c906U, 0xfadcd7b21ccf18acU, 0xa9d1171700eb2d39U,
  0x1a5c132bfac2fbf0U, 0x2b19251b3144fc14U, 0xc6dd16d0f20964fcU, 0x2df8f42ecbf1c5feU,
  0x29e3dcfecfea2c4dU, 0xed052efa2704f1f4U, 0x29ca60037f9921d1U, 0x381a1ef00d92e0daU,
  0x35b6d637d9d881e4U, 0xf5bf06f309ffe6f2U, 0x251b8b35faebce4fU, 0x3ad0220e0804dcd7U,
  0xbe3a2240fcd131e5U, 0xd327ef67eefe15b7U, 0xe0420cffdee5f0fcU, 0xf9fffd0dedcabde6U,
  0x4cf8ccdd2436f6c5U, 0x23e4f51a06e913e3U, 0xf003e6fc2414f3daU, 0xed0de83e791803d1U,
  0x1e0b47be1b650122U, 0x7b7c002dbe72f0eU, 0x36fd81941560112aU, 0x192a00c0e22be3f9U,
  0xf5190d2ee6eff1d9U, 0x160441ea01860f0aU, 0xe78b29fcc2376402U, 0xc507f19fe47f925U,
  0xded7912d35c7deebU, 0x9badf5fac817d1f0U, 0x8f8f5c9b245fbc1U, 0xf3870b4ef13347e0U,
