/**
  ******************************************************************************
  * @file    network_2_data_params.c
  * @author  AST Embedded Analytics Research Platform
  * @date    Tue Jul 16 20:08:26 2024
  * @brief   AI Tool Automatic Code Generator for Embedded NN computing
  ******************************************************************************
  * Copyright (c) 2024 STMicroelectronics.
  * All rights reserved.
  *
  * This software is licensed under terms that can be found in the LICENSE file
  * in the root directory of this software component.
  * If no LICENSE file comes with this software, it is provided AS-IS.
  ******************************************************************************
  */

#include "network_2_data_params.h"


/**  Activations Section  ****************************************************/
ai_handle g_network_2_activations_table[1 + 2] = {
  AI_HANDLE_PTR(AI_MAGIC_MARKER),
  AI_HANDLE_PTR(NULL),
  AI_HANDLE_PTR(AI_MAGIC_MARKER),
};




/**  Weights Section  ********************************************************/
AI_ALIGNED(32)
const ai_u64 s_network_2_weights_array_u64[24578] = {
  0x450ed9daf9d30466U, 0xbcdf1c01292640c7U, 0x15fcd4ed041ffb1eU, 0xf70dc12c182cfcfaU,
  0xf218e7eaeffc0f0aU, 0xe0db12331214fb00U, 0xa21370c0cd9cfd0U, 0xf417dae32610efbcU,
  0xc716e8f357defcd5U, 0x982d2c13552e0a31U, 0xfff20535d2fd7f20U, 0xecca32f632412ef6U,
  0xe41dfcad1defc7deU, 0x2816ed09e945fdfeU, 0x23071403e42b0162U, 0xbf3011aad6f51fb7U,
  0xefe723a7f0eabe45U, 0x8e6ef33fc1d0612U, 0x7f94afaa4abc92bU, 0x8103f4d2cf0503bfU,
  0x26e7ee15e8d42ae8U, 0x149b4ba93f61fe0U, 0x26faefb7edcd05e1U, 0xd4dfb3a6d31716e4U,
  0xe5e916d14b0be004U, 0x81c09e82cdb41d4U, 0xcbf0ca161daacc9aU, 0xe5f6d813e7e11c16U,
  0xe6091f8101041671U, 0xbc2dc334e24dbbf2U, 0xd19cb224d9e11652U, 0xc90eea85da203fd7U,
  0x6cc4ccf938f5e2e2U, 0xef78bbbec711ff00U, 0x67bb4b38e2e731c2U, 0x4ef6da9bf0e2d5deU,
  0xfe1724fe5f3dd6U, 0xe8b7f6eb04f7ecfbU, 0xd146f92221fdce2dU, 0x4ebbfa24f8f70802U,
  0x230b6eff17ef4009U, 0xc9c601d946f722d2U, 0xc835f1f5c406e5dbU, 0x295ae83d11e8b8dbU,
  0x42f0f5fc0ee2f1c7U, 0x1023e903d3b63bf8U, 0x4d2313d8096fe1bbU, 0x683195a48115fcf6U,
  0xec073c36b53ff4fbU, 0x26daab20a3771acfU, 0xc1ff926abe4ef08U, 0xa8de24e2b5f02314U,
  0x291ec91eac0d46f8U, 0xba0be52929e879e3U, 0xede418ec3c21070bU, 0x5141003c16c481c0U,
  0x8dbd0b415f01300U, 0x892cb942d8d143ebU, 0x53db9bbc1f42190U, 0xf94a1551cf05cc3eU,
  0xd1e9ef0a0cddae9aU, 0xf357fbbe021df406U, 0x8108b2ebee57d5e4U, 0x2bd626e9edc909edU,
  0xff07a54b20050a1cU, 0x1fe9f533f40ce83aU, 0xefa412cde7f60afdU, 0x7fbf33b2e072229U,
  0xc3ae2cd1f1600e0U, 0xd4a0042325f9121fU, 0xf2808d110cdf9adU, 0xbaa51fbb5c15c950U,
  0xa232d05d90c111aU, 0x361fe1891debe417U, 0xa401ca1ef8e0f9efU, 0xe6e909740d2bfe33U,
  0x7c92ebe10ad71e2fU, 0x8deb3ff6d425f215U, 0xfafeb433024856e3U, 0x3118b835d132f5adU,
  0xfdfd5c4247c6301bU, 0x55e8d4d9bbac17e6U, 0x301f7532387fbd47U, 0x49f9072edae1151aU,
  0xf1d115e8261aefe1U, 0xf8d5050af80ddb15U, 0xe0220b5531e3b65dU, 0x1f03d906e671ccedU,
  0xddfc4001de08f0dcU, 0x294bd0bd0d050c0cU, 0xbff3f6fbf2412d6U, 0xdde01afbf6ee11fcU,
  0x40e318f5232a22d4U, 0x4ef2141d8b552a3U, 0x7f3103d6494ae3acU, 0x1a65d90285f21320U,
  0xe013e6fc0afe36cfU, 0x14d41b40fa3734f7U, 0xf4221920133a0032U, 0xfde1141f3bd61202U,
  0xf30f5818094510d1U, 0x4b15583319b30616U, 0x46e941f400071437U, 0xea7fee1ef1eed417U,
  0x239f634eedbc71cU, 0x132ad812cd2e0dcaU, 0x23fc92f61fd143deU, 0x8bb2f063e2ce8f6U,
  0xf83d12ef39f1f316U, 0xbb1cfbf625ef19f2U, 0x214ed0eeaf90cU, 0xbffe0dffe70ce0e9U,
  0xece1f2dd2809fc33U, 0xf51d350615fcec9cU, 0xfe67b9ed1cde4d01U, 0xa224400b212aebd0U,
  0xecd681baae13a10bU, 0xd7fdff1ac2f9eb52U, 0x22aec2052edbf2c3U, 0x48fe220a6cefa0f4U,
  0xe6ed4cfef9f2332fU, 0x35c40415c418e53aU, 0xf921ed023213a833U, 0x182d2cadffdf39bdU,
  0xf155b7a343281440U, 0x26f8d8fff50f2eedU, 0x9b9dae9d2f5e948U, 0x1aecd1cb1534d43cU,
  0xa716a005e8064119U, 0x120481262f3d0d0bU, 0x941336d920e1eeddU, 0x361877f7e615f590U,
  0x30f9f21e1ce8e706U, 0x13ceeae3fef12c40U, 0x9dfe7d7eb221c18U, 0xf6b32ef7fbef07ebU,
  0x215efe84e3262e00U, 0x1f19e2d0faeadef7U, 0x4fe5d7e1b5e9eacfU, 0x21e4111caa7fdff9U,
  0xaf9648ff1132605U, 0x720b3d940b1eb4f9U, 0xa520260ddacb31b8U, 0xc23d3be9d9dbe246U,
  0x51eca681eb184a9dU, 0xc809eae6f90b63e6U, 0x3feb9ddf32512832U, 0xc1f70da232eef502U,
  0xf9d1533cd3fbdffeU, 0x25f63ec6f1eae7f3U, 0xe80331a6d701f6f4U, 0xe126ae83f206b5bfU,
  0x25f7fbbbd2aad0aeU, 0xf30638f7261b079fU, 0xfa47ecb15b8ceac8U, 0xdce20edfbbd0f8c7U,
  0xe012412dc4212ffaU, 0xeedef1b9e3f10cfcU, 0x13f2e9ff1feeb413U, 0x17d81f37eae6d609U,
  0x7ff142e8f823fae1U, 0xedf040ebfcc732f4U, 0x1332100b01db04e1U, 0x220c44dccff0c418U,
  0x112ebde14a802faU, 0xdf12e024dbf64f14U, 0x71baf4d8306de901U, 0xb0c020b0f151824U,
  0xf2170e2a04ba70f3U, 0x9cc4d345cc4fc7efU, 0xdbe127ded9c524f1U, 0xc6d410c4b0d7b90eU,
  0x7839a2d0ebc5ede9U, 0xa3fe91094cf0d196U, 0xc6e3e00b2d1022a4U, 0x8e296f5eaeb2f17fU,
  0xf41cb913ce92d02dU, 0xe13d18abd608b8c5U, 0x95e2bf04d8b9cdd1U, 0xc80317d25cdd1207U,
  0x10362cecb52b0dfbU, 0xf406c3ede40df421U, 0x48f001e20ad4c6fdU, 0xee4100e813181842U,
  0x1b27e8e573bd090bU, 0x92908e9d8e151a0U, 0xf40ae2e8f805e700U, 0xfdd54609fef6d43bU,
  0xfb1205e3d3aeef1aU, 0xfaf8f42ad9d034f7U, 0x18c97ff80324d91cU, 0x172000cd1cdcd333U,
  0xc7813e4bedacd6b8U, 0xc950e1dae035dfU, 0x39ff061ed630e0fcU, 0xef0d0bb907e71566U,
  0x91d2136f5291224U, 0x4b2bd6281a15d6efU, 0xec60fe0ae1fc0a10U, 0xb8cd26e722f5f73dU,
  0x1302bd16a3f7c107U, 0x3a2d321401dab8eeU, 0x3d1fccf4cfdfdde2U, 0xe23a46046c07dafcU,
  0x77efdaef4c24d0e7U, 0x18f4173fc10181e5U, 0xcefaf0b4e473111fU, 0xee2fe092cd408f9U,
  0x2f07eeafdc4d2c11U, 0xb3f8c7f227b95fedU, 0xe3bcc9fdfaeafb1bU, 0xd3bfeb0c04e8d27U,
  0x368eeeae2c336742U, 0x60780e2398f8f9aeU, 0x2b03f81adff9c1ccU, 0x5d447dbef16541dU,
  0xe5cfac4658488bd2U, 0x2c6204ddb9d61215U, 0x7c4619e11c76f1a7U, 0xd969d9d5d607dac6U,
  0x7bfea22b16f80f33U, 0xb253d23d9b749efU, 0xe2d8d4d2ebeafccaU, 0x932d8ce10b3a3f39U,
  0xc6af3604e18ec10dU, 0xc1c8ae031b4aec28U, 0xc3ae79d42f2a9281U, 0xdc72c9b98807e4e0U,
  0xbdc10401de8d0fcU, 0xebeef8c2fa1ddff3U, 0xe604f10b0d1f3740U, 0xc8fff3f9efe97decU,
  0xffe4cf230f52e334U, 0x1127c514d50b350bU, 0x1beee3efb9e00a0dU, 0x4d1afaf8daecb591U,
  0xd90dceb4021f0cceU, 0x1d3ca44afc1d2b89U, 0xe260dfee8115c5b5U, 0x1c02f48bd5df07U,
  0x36d8e20e11e50fe4U, 0x184bcc02f6051c23U, 0xb38d3ba5a0e31efU, 0xe3a060b4bb4e1fcU,
  0x1eea240a3e101eeaU, 0x5ae921f500d8f8d2U, 0xec1953f90afbd705U, 0x69fa02b91111b6feU,
  0xe415c8aaf9e4b95fU, 0xd5faf5e432047f2cU, 0xc1141d07c1ecd13fU, 0xd1deb946dddbcbcbU,
  0x9296b21f2c2eaf5U, 0xfcfa1ad7f9e3e121U, 0xf724b8e306df66e5U, 0xf0b69d11f98db718U,
  0xd0f2ebf70d159f09U, 0x1826f4bd2c1ae3a6U, 0x43db25d6b2281b7cU, 0xba3f0908d80b053cU,
  0x5ff3ee9cdfa0d9dfU, 0xd12bced117e87ff1U, 0xe0cbf5f5be9c35d1U, 0xfbfe2e02ef10b19U,
  0xd7cb46e5f4e2a34fU, 0xba3cfdf633e764f1U, 0xedbb1fd5ad0af637U, 0x7f2908eb1b490116U,
  0x65cee7e4d5f6f303U, 0xfdd0db22dfe319fbU, 0xd952712d56d62d9fU, 0xc953bbd6fb01e63dU,
  0x12c1653deb2d2ed5U, 0xe4cd0898eae836eeU, 0x8ddc0900c858c916U, 0xa87411eff660a305U,
  0xb8bd303b5dfe83e2U, 0x68f7dabee8f5e45cU, 0xe92bd58f6950c3d2U, 0xd11147c547154fa7U,
  0xeccff6e8f73ec40eU, 0x753eeb918810d1aU, 0xff35171ef12fb9cbU, 0x500950fd1fc212f1U,
  0x14b2f7efb9e31beU, 0x552f4d30e5921af1U, 0xfc2cd09ad465b7ffU, 0x16e41cdccf50e1dfU,
  0x2a1cfdfae8db60c1U, 0xf3e2c701d228f027U, 0xebebe7bd0226da62U, 0x3d1c7fe2e7ea272cU,
  0xd522fc18d6dee9e5U, 0xbea114beeca65bdfU, 0xde96fef6fc8caf0dU, 0x1bd94f2311f095d2U,
  0xccf461f142d8e855U, 0x2d27cb5bd3231fd9U, 0xacfbf5c1f43018d9U, 0xf40bd111ca08e958U,
  0xff0ae83c00ca11cfU, 0xc8fb0efa072ddde4U, 0xe40eddc5009d5b4cU, 0xa8139d23b02dbd0U,
  0xf63a12c6254103f7U, 0xe6661afe29c9c7a7U, 0x27dbf70404c951a4U, 0xfa14c600d5a10420U,
  0x9c30391ef10ff915U, 0xd0fd25e2cbb4ee11U, 0x33150b8eebf3bb8fU, 0xbec3f8f0daeb1b7U,
  0xece5d6140dd82de5U, 0xbb930c3ffb68fa09U, 0x13feefdedad8fb90U, 0xafac11ed32021681U,
  0x6e4ff01ff09020cU, 0xceb338dc3d231ab6U, 0x1df4d17d13e9b6ecU, 0xd8502dd6dc143382U,
  0x34cda212e6dae807U, 0x4062e8ddc60c0905U, 0xe6fccc1ca71dbdd3U, 0xdecff3f2fe66ff1U,
  0xfaf50c1602382728U, 0x4004ef1dea21130dU, 0x3b131ade0f7f5a0eU, 0x15f11e13242ef147U,
  0xf3fced1eddde653fU, 0x50e322b4cfd0e22U, 0x3cf0bb05f0dc3dc1U, 0xc2fc142ba9cba02bU,
  0x7d30a2625ec0951U, 0x619d1e8d00af4fdU, 0xd9fef1e3021fedf8U, 0xec01f6ebf01b052cU,
  0xea012b1dc9daf5d5U, 0x9fe5052123d1fc1eU, 0x9cc981be0a004e22U, 0x9e1356b225a01108U,
  0x1dc3080625b240ebU, 0xda162ee90eebd036U, 0x27b7eb8101e5d3cbU, 0x4e5d61beee2123d4U,
  0x24bf4e21ce02a41fU, 0x3ff8200b27ef192eU, 0xf9fec1f3cde9db1fU, 0x21f829e4ce25c4c5U,
  0xa4d61816ff250c20U, 0xd5f4f5cb0f0d16fbU, 0xc1c429ea1812450dU, 0xdc16fc0911181c81U,
  0xdb3cec380e10fc1aU, 0x18d5fc35202425e6U, 0x152c18ddeb1737b1U, 0x3ff52ee51010e390U,
  0xf661ecc6201d13d7U, 0xb2a3fe01e18f5ddU, 0xf27fc461e1513fbU, 0xd631dfe5d5fc292bU,
  0x38dbb3a75725e529U, 0xc03c9e81ad0bb5eU, 0x20e79b3dffe062fU, 0x214ceedd0d811c46U,
  0xb001a151fa4b6e8U, 0xccd3bcbbf72516f0U, 0x909e01ebcff5ff9cU, 0x359ec1bc00537bfU,
  0xe4f1f84accbfb412U, 0xf424707e2adb559U, 0xdb11e3a1c210d90bU, 0xd50aa8f7cc23c222U,
  0xd27081d0ece95acU, 0xfa1b8126e9afcf6aU, 0x8f3937a66912c1c2U, 0xd3efeb022ffa386aU,
  0xfbb8fff138cae306U, 0x13c21f0105a8d9d1U, 0xa9e614c84926a110U, 0xd9d902cb32fff6f6U,
  0xfd37e6bfbbe60c52U, 0x34fcbc110a0d1fcdU, 0x71e3f6011ed8f0U, 0xd9b90226f6df78edU,
  0x43ef0e262a3d180cU, 0xfbdeddab386d3903U, 0x72d3b2ce52c0324U, 0xf6001ce52cd203f1U,
  0xf42445fe163de6b1U, 0xd3f82ae03cfe1de2U, 0xd80a2c17e55c439cU, 0xe5cfe625b0d5055eU,
  0x13041b2fb7f2a2e1U, 0x185a12eb331e0bd1U, 0xecee81b800e51ef8U, 0x822c1cbdeb25a1edU,
  0x23d4ff92ce1edf28U, 0xc8e8b225021cbc19U, 0xed0206dbade0814dU, 0x3dcedddf52cfe4aU,
  0xd8f3b119d858b216U, 0xd1d50e49be0fa3b2U, 0xbefa0dcd21e3ea24U, 0xc7075dc3d6f9e002U,
  0xdeb35e4072f3302U, 0xbd10f6e714ca1ad6U, 0x11330aefc2d6f00aU, 0xabca090e19fcb6d7U,
  0xbaa826180fcda54bU, 0xf66604af405200e1U, 0xfc15ddf114df39c2U, 0xf5cdf2ef22a720dcU,
  0x4ec2cc8fdc7d1fcU, 0xb610f204dc22f2beU, 0x5406bfbd1910f607U, 0x90e42d9720e6cddcU,
  0x257fd323fc13d409U, 0xbfd8c4d6c7e90f61U, 0x2508ec3df2f9f0efU, 0x9c6fbd9c41100cbU,
  0x72c1e1fe230fe09U, 0xdce72bc2e1c4e623U, 0xdc16f80f1281c006U, 0x20015c7d5d8ff13U,
  0x19d31709d6eb16f8U, 0xf5e908084b061d15U, 0xf5dc13ff00d92bf2U, 0x213a14dbf2fabaecU,
  0x23f9f6c412cdefcbU, 0xcd0ee048fe280909U, 0x1b032bae173600cfU, 0x1403f4d9ef420a24U,
  0x15e90400db53baf1U, 0xfff10113f5ed22d5U, 0xb90d1bdc3628f717U, 0xcce32fcdf9af4cf7U,
  0xc964ff0f1df0e5efU, 0x8f7e8952bdbf934U, 0x1c410f35efec09d2U, 0x4b471aea1ec9d914U,
  0xa5261ffb189e3903U, 0x2328bd42f2d5e7d7U, 0x4773caccee27e61dU, 0x6630e72afa2581ccU,
  0x18f53b21d4543504U, 0x58e30deafefde1f4U, 0x550610ff05fefae9U, 0x13dd1e2de8d7fb01U,
  0x351b23e381d70af6U, 0xcaa6f5cefadf3829U, 0x42f10afe0497e0efU, 0xfbd53623f8a5f605U,
  0x10616cf19cc0d48U, 0x57efab530508ec36U, 0xea0ba29e9354befeU, 0xf407e0f2c11d3a32U,
  0x3bfe4befdb3c41a4U, 0x7fbd1624a7f4ff4cU, 0xd03041a7f738111fU, 0xf1d21b109af0ee8U,
  0x34007fc14fbe6f2U, 0x28cfd2ae1ee53b2dU, 0x2bf6f0d63de404d6U, 0x393503050fc99708U,
  0xc837d2f165b5ebf3U, 0x161adf680b2410f5U, 0x2b2fe7f3e037beeaU, 0xe9170c00a55bb22aU,
  0xabed34dfc14f2cU, 0x2929fd85fde2e871U, 0x901aeae15018c118U, 0xc51311f6e4f500ecU,
  0xa7b10a090a1dfc03U, 0xfb51cf835421be61U, 0xc7fa0570fee25050U, 0x30541bd31302089dU,
  0x1045deb9760e2d5dU, 0x422206220bcda6f0U, 0x299abebc814060d7U, 0xf5bec319bc44e820U,
  0xc534f0fb6c42feacU, 0x140efb01dcd4e1e0U, 0xf62bfffbbe4c3fdfU, 0xe666fdf9ce981e01U,
  0x413a2ed0e340dd0dU, 0x531e1cc50bbdfccfU, 0xcd0a90858ff2d9bU, 0xb4592be2d49d3721U,
  0x4200c17f5c93b28U, 0x41f7e1c230df02c2U, 0xf10a053cff4e3f0fU, 0xe27f3ff9f6d3f71eU,
  0x14cd014824260dcdU, 0x11210fe5ea25320dU, 0xd6f793ff91caebe4U, 0x115517334c6efa3cU,
  0x368149e6dbe9c99cU, 0x2c9f395620dfe0d8U, 0x1ae9892eb3e1cc45U, 0xf6fb48c69831e790U,
  0x24c09fef27e65d60U, 0xac5eebf7cfdc1ddfU, 0xfebc1f2c0cb8b5feU, 0xdd121be2d4a8e2e6U,
  0x9e20a2143f518d9U, 0xe50f01f41738f80aU, 0xb7f0fe10a9387f0dU, 0x1ea00e4f61327d4U,
  0x14fa3502081b2817U, 0xeb20f609d0e21421U, 0xb1f0d19cc08f1e4U, 0xe215150cf1ee14f9U,
  0xdc833f71b251bfeU, 0x1210c4b4fb1c0446U, 0x1e17e3e7060e07f6U, 0xda0b36ffd62a0b22U,
  0x2302eb1bcf041a49U, 0xf6f536e614fedcbaU, 0x4e151b81fafd33bfU, 0xf8d1ca17f7ed0cd2U,
  0x2140829241433d3U, 0x94d6e325072130d9U, 0x2de5091101ebddf9U, 0x18bd0fc66c43f12aU,
  0x8f4d02ed0120753U, 0x904ffa52ee8f604U, 0x1c203d010ce1eafdU, 0x183a3c0427d9fcfeU,
  0x75eddc0181fff6f8U, 0x5bffba5c4aed03f3U, 0x21e48a0401943d19U, 0xe0ec2f1c2b8f05e3U,
  0x32eaebffcc2709e3U, 0x362e4de113d6e813U, 0x2215cf02f305f9ecU, 0x51fb21ff0dd8a645U,
  0xda4602f35309f91bU, 0x3f31a149b140df3U, 0x380af722b919340dU, 0xf026282ef758bb2fU,
  0xa452e31cf1f4bbc5U, 0xa8f2f59909e106feU, 0x45816715cdcc46e9U, 0xb020f46cc0cef20U,
  0x14e1ded943e8c802U, 0x202017d1dffb2c1cU, 0x15f90b1dc20f66e8U, 0xfcd44d12f95e17b8U,
  0x5ea0efce0f7ff27U, 0x561c01d3455dbb20U, 0xabd7082442121ca2U, 0xc6e549e11405f152U,
  0x39c723d645e94b18U, 0xeed1e6f80d383e03U, 0x3bd925d870403642U, 0xe1c04ffb7fcdc506U,
  0xfad31bb4c16d579cU, 0x4b1feed812263db4U, 0xf42f07a436f33709U, 0x6f62dd9de29a0f02U,
  0x151ac39c3afa9f04U, 0xc935cb218acb1ce4U, 0x6ff5ddc41323f7f9U, 0xe7b5dcf5241812a7U,
  0xdcdff42a1b29f8d6U, 0x20f2a4d21f0be325U, 0xffd700c5f6dd12feU, 0x80bd8af12de3e09U,
  0xe8f9ef0a16301e22U, 0x20d0d601c728f163U, 0xcbcafbd8ddcb1309U, 0xdc0afdd309e02f13U,
  0xc6e11fddf81ae0f1U, 0x19ddd0a530117ff3U, 0xe44df93b17b1f99dU, 0xb20c00e4e3200ffaU,
  0x16c7d5ff11222b09U, 0xf73730ffe9ddc232U, 0x2a0e12e50b14f507U, 0xe00fe72adfdff4efU,
  0x226e81bfacf13a2U, 0x1f30f6fffa0ecf10U, 0xfa92eb19f0080e01U, 0xd900201cf537e7d4U,
  0xc9100d15e636f1eeU, 0x81fd170e371ff11aU, 0xfbd923ea23eb0fcbU, 0xbde20c25ed8d0fe4U,
  0xf5c4d2edd0011fe6U, 0xd6d20adfe5c9da17U, 0x28e30eadeee6f90fU, 0xe1e410e02e93db18U,
  0xd2050f002c411b23U, 0x9dd20229c639f6daU, 0xffff2fdb480dc5f0U, 0xdb851ef6199b1912U,
  0x7f2471dcc7f5e7ffU, 0x1bd305e9f21e4420U, 0x1eed23fd14eef0f5U, 0xec4e392f3ebb04feU,
  0x3d9f5d547c2ec13U, 0xd74a43df103d4241U, 0x90290b7734c1efd9U, 0xcbcd1627d5feade3U,
  0x1062f819ce1b0a83U, 0xd742c73a1f37eee8U, 0x241bf3c8ee1b2b33U, 0x81af583a1acb3f3eU,
  0x3607b0d6df3d0756U, 0xe116fbe65167a818U, 0xa05bd0be19804d0U, 0x142f423e32d9ead1U,
  0xd19bd5dd0e1e96cU, 0xfe1f6ed00b06002U, 0xfe07d4b902cfb134U, 0xe02de7f90cfd001dU,
  0xedfd12f522e4f1c0U, 0xf7f34d172dee599eU, 0x3200f11108ebfdc8U, 0xbe2c40054417fde5U,
  0xf6f5e9d731812306U, 0xec01932d340b1022U, 0x4805ef00f4bf77acU, 0x3e5392bba18f356U,
  0xcd10f61707e8a5d3U, 0xdd270defe6c2b224U, 0x5426e008cbbde8f3U, 0x30f2e0f81828e315U,
  0x52f0fcc500c3e219U, 0x1af6c20bdbefd3a2U, 0x25c1259015fec8adU, 0xecf10fc250421304U,
  0xe433210fc1e3d534U, 0x22299ddb0fc481c5U, 0xe81bc635d23b0ceeU, 0x12d19ad423da1612U,
  0x350be92d19dafec8U, 0x32093304efed25faU, 0xdf0428c9fb09dc44U, 0x40c817313bc63c17U,
  0xcefa2aebde42da13U, 0x10064219e1d1fc7fU, 0x41f845c532a3f1c4U, 0xd121b2a46d7ba0bU,
  0x2f40e8134321cf12U, 0x3b48f74d01081bcdU, 0x12d03bded1bdeecU, 0xc22ada1b2928d31aU,
  0xca15d80d4c3ffdb0U, 0xdd16d41eee11fa13U, 0x9d335e0d09e7e331U, 0xb520017b90dfa21U,
  0x15ebd903ee11d501U, 0xf1db17e120e5f2c7U, 0xdddc2605d6f4cfecU, 0xc71af01bce3e0be2U,
  0x211602eff54d9af1U, 0xf84d2a0a32f8dbc3U, 0xdaf581e71ef5f0ceU, 0xf5ddb22c08c99239U,
  0xeacdde0c27062502U, 0x81dbd31701d0e2c9U, 0x27bf369ed214a8ddU, 0xd8d615eac9f90438U,
  0xddf8542c15f023eaU, 0xd3f532f4efc33106U, 0xda1ff7951ec9fbcfU, 0xf65831d39bd4f80fU,
  0x19ed1e480b0b072aU, 0x15f2ebb22a2cd620U, 0xf5251cffdac83131U, 0xb3bc0ca29507d5cdU,
  0x14409e12060000eeU, 0xc2e5060417df15c6U, 0x10fda8edd02053cfU, 0x520cdf1db749140fU,
  0xff12650941002bf7U, 0x4407d4f01a6bc3e2U, 0x3f1d1de8140efbf4U, 0xbfb97f1013c4ed50U,
  0x8c202881d05ecebU, 0xf9efec15d2270ac1U, 0xb521ff95beed30caU, 0x1b1dcd3a4c45aed8U,
  0x2e2148435700fd1cU, 0xd5f0073379b5c151U, 0xf9349307d7feeea5U, 0x1cf60dcdeac5dc33U,
  0xde1dfab78155131cU, 0xf3cd4b0af3dafa9aU, 0xe72c04fa15160cc8U, 0x552423fab03a0e09U,
  0x1e510f73db5cfa9U, 0xa21ac705eca13bf8U, 0xbb223132bf7a04eeU, 0x1be2ea3acfda441aU,
  0x13c4e7f40fe81236U, 0x134803f5ef2a35aeU, 0x14371f2de2c5c74dU, 0x2c09bceb2be11109U,
  0x100a17f6e8f7fc16U, 0x1fed1c010748e5e0U, 0xe1c930e5f2f30007U, 0xd6c7236ef950cfd2U,
  0xab7f3927f90ffb0eU, 0xea29e3f9131526f7U, 0x2ffed332aa2a37fcU, 0xbec3ec2bef996799U,
  0xeaedfcfa390deedfU, 0xd1ddf40d0ffdd9ebU, 0x4b005e4e613fec5U, 0xf42e080037d6a9a9U,
  0x27dcf5abf31e0fe0U, 0x22e9ecef5918fcf8U, 0x1725e808d8910e4aU, 0x69f0d049d8132d22U,
  0xd8061ca9c6ec08f3U, 0x2bc1f7e7e9d00dfdU, 0x13eb8918021d81fdU, 0xf443bff60d99eddfU,
  0x41bc12680b0db00eU, 0xff03f932db153736U, 0xc4d2602f839e704U, 0xd33aeeb6fd07f225U,
  0xe9bfde2a38efd521U, 0xe82c1f00b912cee7U, 0xd52be1de81dd171fU, 0xd8f0341af2fd4f07U,
  0x160ffdceeb3befe3U, 0xdadaffe5283316b0U, 0xd5ff1a33af102e0cU, 0x25bb10f0b5b43608U,
  0x2602d70d0aeae30fU, 0xe4e299ea11e9f8e6U, 0x9140b93ac261e09U, 0x15ee0727f1c5d5fdU,
  0x1dd8c2e6c5c514f4U, 0x1cf40920f2353307U, 0x9904a5e5d4f80bd4U, 0xe9dbcecc28041e0fU,
  0x2081eac4f7e30507U, 0x1d560d4ce3e92208U, 0xadccc6ff2de81db2U, 0x3a2a2ccd3fcfe709U,
  0x4f3e7fdef728adc7U, 0xdeeb1b0f0df2e010U, 0x9226f9014c189593U, 0x41d6ed29313cbe37U,
  0xc0d9a327a2f7edf9U, 0xd971d739e5f5e6d9U, 0xf5b8c819d7cd5eedU, 0xdaacd8fce8ed56b8U,
  0x120410eb2ff0fbf6U, 0x1fffda082a4295f2U, 0x33d6144219f118f2U, 0x49ff04c12c061b11U,
  0x21bfa5dbfff9d9ddU, 0xab000313100d1cddU, 0xe226a2ec15997f9U, 0x1335811d090bb3eaU,
  0xc4bd213a3ffaf630U, 0x36f00e00115221b6U, 0x168cf912042d0a2bU, 0xec9e3ba3c491fd5U,
  0xb4dfe263cce231f6U, 0x8f42ddb9debedf9U, 0x33fd43271f2ecc49U, 0x349f6f1261e2309U,
  0xfd0550ddd0c828ebU, 0xf3af4dac8200110U, 0xc9f6f61be824fc14U, 0x2f23eb03d012daeeU,
  0xe52bf802525db806U, 0xa8fafbdb61741ffdU, 0x3a431efac7ce3cd7U, 0xd012cdedc11d1d2bU,
  0xf5c0d0d1e4ffc529U, 0x10239036d87fc435U, 0xd50425321121b000U, 0xe53fc442dc502502U,
  0xab170e086c16f90bU, 0xec5eadacaf0dd16U, 0x6914f2ff225ccec5U, 0x43ad6212f62a19faU,
  0x5512eda111f0fd10U, 0x20d764cc55d89dd6U, 0xf1d4280a16ced84aU, 0xef23f21dd7fbeedbU,
  0x14306ee9f1fea331U, 0xf1ecfdf8d7f2eef7U, 0x8120f3e920ffd253U, 0x46dc38d43d2fff23U,
  0x1e11b103ef6932ecU, 0x24d4d8d2b549d8f3U, 0xe93b3f260d1feb3fU, 0xeae73cecf6c54afdU,
  0x805d73ed1e3ecf6U, 0x9fecebd4281f826U, 0x7611c42428d2d128U, 0x4123f9f6ddac95e3U,
  0x4027030503b147dbU, 0x39caf869f9b1ee04U, 0x6402ddcdd2df21cU, 0x648fbb7bde41106U,
  0xd911c73b20177fffU, 0x3cfc05e647e3dfaaU, 0x52f0f4fb0afc1fdaU, 0xc8df1709d50a2e0bU,
  0x71c01ca421246ffU, 0x1fdf8e349fb1328U, 0xcff1ffe4fddef3e9U, 0x2440ebc8f9ebc7ecU,
  0xe7ec01d021fa0114U, 0xe0eaf43120fe15d3U, 0x32dee011b39101cU, 0x2915e4d5fc130037U,
  0xf0ce462238e7c907U, 0x19fbc0e6b6e5d5e3U, 0xf8bfdb1849f33ccbU, 0xc845310542dc0af8U,
  0x692717bbfc1f04f5U, 0xf331e10215e3d607U, 0xe944f81a17a2cbefU, 0x291dddcb00fee214U,
  0xcce6281ecbf2fefbU, 0x37022329e1d9d229U, 0x3edab9e0d639fee6U, 0xc23fb4c681e3dcd0U,
  0x40f8072a3ad0b216U, 0xf8e0f916067ffde0U, 0xc4e42db3129814e7U, 0xa454789c1ecd2d3U,
  0xdf03d9e335b6fbebU, 0x90ff34222fd0bcbU, 0xd0e5ad1dcd5ef11cU, 0x830fe4e7c8f419deU,
  0x9ec700c01d9115aU, 0x8818ebf0bbbadf41U, 0x2237c9c1edf5093eU, 0x36eaeaf0dfd7e6e6U,
  0x7feb0bcbea25b20cU, 0x8e3f8fde52ff81aU, 0xb9eff2da1314fc1aU, 0xbc1f372f58e53d07U,
  0xf3140de2b0d4eaaaU, 0x41ae6044824d4baU, 0xf55601ce4f9f0fd5U, 0x5230810e6f4c230U,
  0xcce027fc2c19e2fdU, 0xf322a52dedded6daU, 0x1bc4acc6d7dfef45U, 0xcd48e4faf530044dU,
  0xee10fa06cce50f2eU, 0xbd2f0edef212f320U, 0xd923f9fe2400081aU, 0x17221cc22c11e042U,
  0xd90e1dd5d1055623U, 0xf8d40ae705f0d733U, 0xe3c90a48e4e8c9cdU, 0xebf4e506c91e31e7U,
  0xeb3841a6fffdb4fdU, 0xdc0ebbe0e4e949c2U, 0xc701dcc8e8f581ebU, 0xe902eaf1eee7ad26U,
  0x18acca05fcf5ca01U, 0xf3f0e6e13d8fe7dfU, 0x359a6018bd320a1cU, 0xe03eade7eaf78125U,
  0xf4184e74dce929a3U, 0xef11e6dc16f3ccfbU, 0xf101e6e0fd49ff13U, 0xd6acd2044215290aU,
  0xd29e04cd423115f2U, 0xe00cb1ae1732b467U, 0x1803e2f3eaf41b42U, 0x2de2e0201cca2a09U,
  0xa10f4faf9e1ef29U, 0x56e2f9c7da1004efU, 0xf80dfb52323b208fU, 0xffb8230fc50acc25U,
  0x2008ce22de39d92fU, 0xda45e908c50e04adU, 0xd82de54a8814e1dU, 0xda2fff22cc9922bdU,
  0xefc4b51a24bd2d19U, 0x72e811fbc5ca1cc3U, 0x34f1d81410f82f35U, 0xdb4313d033e8b9b7U,
  0x3cd0beddf45b65b3U, 0xc4e62ffe09de0e2aU, 0x10a5ee4018953905U, 0x24c5ee0513dd29afU,
  0x24f9dc2b06f6ae0dU, 0x70cf47e55f49dd0dU, 0x234ba2ed0caacb04U, 0x5d0bf4d3c20cd529U,
  0xa4b0f055814e33edU, 0xdcc5f4c5359cec39U, 0x1a151fbaa9b5e9c7U, 0x59072c8fd311cd42U,
  0xdbbdf13a184f0501U, 0x56cb0dc338c4b215U, 0x606e0ec1d0c1102U, 0x8137adad1dceb1bU,
  0x6b2f4ec31206360fU, 0x134018dcccfbd3eaU, 0x16d0e84adde0f5a8U, 0x3108f139dbc90ac6U,
  0x10d6f8f703cd11f9U, 0xd7f6282cf9c8fff8U, 0x413cb0acf17f8c14U, 0xf31afbbbce04d3deU,
  0xfe28172a0946db49U, 0xd18efe10206c0f6U, 0xd40fe0a2aee4816U, 0xcbf7f5ef4cbb6812U,
  0xfceb14e775d3300fU, 0xcd112bfaf2d10204U, 0xf1dd10fecc0011fdU, 0x442b25cc08c0d10dU,
  0xcf2045f881cf0ff1U, 0x3be9aa1816c90daeU, 0xa4e9c3f2e8e79cd5U, 0x3f9d4ece4310f04U,
  0xf1ae0fec55dd0f52U, 0xe2f0ed9374af7f5U, 0x12f7f4054cc8052bU, 0xb91f12ea01d1dbe8U,
  0xd23060819fa12edU, 0xa31f8eae4241eebU, 0xb1c61bacfbe1f3ceU, 0x2500bac80c0113b3U,
  0x40efdaf13cdecdfdU, 0x27cc26ff29423cc2U, 0x483618132f33370fU, 0xecf081e40118262dU,
  0x5519f2fffdefd73bU, 0x109a24e5da0e3afbU, 0x1aaf11e71fb6d91fU, 0x7ffb191021ecdf59U,
  0x1afdce7212cdacfU, 0xb84e5c27b306eab9U, 0x3dbbaf2cb671422U, 0xf3ecf898061bf74bU,
  0xb83dd908c921e9ebU, 0xd0d73b06351bf6fbU, 0x7289382415b7fcf3U, 0xfae0702161c10e7fU,
  0x11e001ed2617edf6U, 0xf6100c3102170b0cU, 0xccb7fcf802dd07e8U, 0x66e6e907ede7e644U,
  0xf533273029bf19f1U, 0x66ecf12e2de029eaU, 0xc2d22d4ee21725beU, 0x1decc981da061310U,
  0x202ebfe4ff1529e3U, 0xb4d621f5fce2d9a4U, 0x1acbf12100f62daeU, 0xb50a4400fcaee6e1U,
  0x2b2430f52d43d6ecU, 0x9a0f6cf09fecbfdU, 0x1313d50e11daf712U, 0xdfe52dd9d81a00e5U,
  0xdc1f04e50f00f4f2U, 0x2fe043e5e11a13dcU, 0xd215c0d9510fc3e3U, 0xccfa0e140ff4ecdeU,
  0xb40c13e9101adf7fU, 0xeb1d0b23f95954d2U, 0x936ee1cd7f5f2e8U, 0xfdeafbd71daaff20U,
  0xc252ae4152dd7faU, 0xcd1f5c0c411b13f4U, 0xeed70f0a1171d52dU, 0x2332fc08fcab331cU,
  0x13b44b41ddeb501cU, 0xa4eebbadcd10b31eU, 0xd9abc30be5968130U, 0xf944e916e3a054d9U,
  0x295919ddaafc2f58U, 0x3cee0915eec2d5f0U, 0x50c1fcecec46ea2fU, 0x2153d5e2a7dadb53U,
  0xf9d31129404836fcU, 0xccdb4708fff5c119U, 0x11dc34030f18f5daU, 0xee08d3ebe6f705f4U,
  0x1f1604dc4fddeaf8U, 0xcdfdbefcd23b644U, 0x77faca19f337eae9U, 0xaa290e1db126da04U,
  0x27bffe613b0ad53dU, 0x12f0f30a2da4cb5fU, 0x4ec1c30b1d4109c9U, 0x7f0df661bdd5dff7U,
  0xffd141060b910c25U, 0x6135f41b19044dd7U, 0x4f3a09a02c483acaU, 0x33c0d1d22b6a60cU,
  0x69f5f422024b2eefU, 0x4c0550ebe288f4d3U, 0x3002e14dce1c2f4U, 0x61221307c2f20105U,
  0xf87fdaf010c30120U, 0xf320cd57e02dddbcU, 0xcd1121e2b5d8ce12U, 0xd2d60a00dcf41957U,
  0xcee211ef15f6db20U, 0x3512d9add8c7d4f4U, 0x7404d328d7445b54U, 0x2609fafcdffcb4bbU,
  0xe20b2be8f817d617U, 0xc1fd4caf33cd7fd7U, 0xfe15fff8de1935feU, 0x472ea5ec0ef4ccfcU,
  0x1817202716a9dfcbU, 0x365a0b41f1e21eddU, 0xfa66ba35f1eade4aU, 0x141a242ff0dfc0f7U,
  0xe7ffd14f23f22914U, 0x21d6afc41ad1f4c1U, 0xf13801563bd53ed7U, 0xfc1af9030011191dU,
  0x24e1d330181b201aU, 0x8e9f8e9070d4dfaU, 0xf1fd47baf225e627U, 0xebc4b705d7ff3ae9U,
  0xf9393926f4dd03d2U, 0xd9f1e68c5c7ff40fU, 0xe9db39ba37081006U, 0xe0a02fbf9f6d711U,
  0x33eac707e2301aa1U, 0x16ed491f630fdae8U, 0x15d4e5bff4ff8168U, 0xfdccdde72cdaeb03U,
  0x2d0bad473408ece3U, 0xcf3ded20f7f2fbe6U, 0xf9e9c6cc05edd22eU, 0x64221db805f9e80dU,
  0xeefff7f03321d5eaU, 0x2a74fd2dddd526f8U, 0x9dd1131a9e8c8f1U, 0x5fe2ff8d3544114U,
  0xf126f424ec131c1fU, 0x23f9d7d81209c6adU, 0xc5e6afdae63fbae7U, 0xe804f917e1f7f6b6U,
  0xb8a9cdaeea310f23U, 0x8b4db060a5e2ff5U, 0x96faffc41f20c309U, 0xb1be3b3e3216fcc2U,
  0x4f1eef11918d4a2U, 0xd2da812028121e31U, 0xe3defa01c013ee96U, 0xa502d9e905ae41fbU,
  0xea3eca3eb4d70abeU, 0xf173d9ca1ccfc3eeU, 0x52ed47d49fdf8105U, 0xdf39f901349df6d5U,
  0xbe3a1d521ac3d1fU, 0x251344d32de619d2U, 0xf0cc8ec304abe4d3U, 0xe6c71de6d31226f6U,
  0x708d65104f71140U, 0x24c0f6f702c3da01U, 0x24f2031916d7db24U, 0xe34266c0e7e5a20fU,
  0x84e324de06ef3208U, 0xe6c6f0b658fff31bU, 0xf731371afd07fb54U, 0x8cbcabec41efbeaU,
  0xbe1ad8fffd0f24eaU, 0x15421c04f4147feeU, 0x1636cae60c00d2feU, 0x17e6f104d8d7e4e8U,
  0xaf4f3cd5fefd06fcU, 0xa0070ccde1d6f0fdU, 0x20eb0153dfa72eebU, 0x19fa23b88d5715aeU,
  0xdf2aeaff132713c2U, 0xbff5e615f3e31454U, 0xd61cffeaf4e92d16U, 0x12f26127c3234223U,
  0x35e6cd0615d7fa06U, 0xfee801ec321aa822U, 0xe6281343fcbfe6f3U, 0x9e718edd61c60f7U,
  0x59f2650a1ca716d7U, 0x4bf31331a0b636dbU, 0x7f511f11e96515cfU, 0xba17daeafa111e1bU,
  0x17d73cee54e30f26U, 0x19c6fce6e427d3e5U, 0x33ab204be50eed0bU, 0xecbff715f6c906f8U,
  0xf0eee62f24bdf4cdU, 0x222af1f112d04601U, 0xea1c29202cf5dceeU, 0xbe0baacfe1e107fdU,
  0xed2f39df04f708c5U, 0xcd26f02d242d81b4U, 0x935171fddfa0202U, 0x11052ec7b2feebdaU,
  0x11fa42d232b6f6d6U, 0x4bd8091cfe14abf0U, 0xfec326f79701040eU, 0x18b80f2c20e6242bU,
  0xa8d7062110eeac22U, 0xf90feb342ce53423U, 0xe31f2e4e0d02ec16U, 0xcee03021d68112eaU,
  0xde3094ca90a09ddU, 0x514de6dd7056dd3cU, 0xdf271308f9f12d3aU, 0xfc0e201ccc735a62U,
  0xdd2cfb0cf81bee22U, 0x1e0ef43cd12c0417U, 0xfb282217d7f30ee5U, 0x20d9143013d32c21U,
  0xa5f739f7ff0ed5fdU, 0xd5de19ce0efae835U, 0xfd2c25d5f1c51839U, 0x13280f4cdbfa17ceU,
  0xf5ff15e4dc08330dU, 0x1433141004ddd88dU, 0x21de00c61d812114U, 0xf2d11317e23bcd28U,
  0x13d7f3041bf0f1c9U, 0xdf0bf61c0936f2f3U, 0xe9000d06e8f0073dU, 0xf3dab8d8dce9a307U,
  0xfcda13ed111000d2U, 0xd1291e1424c20b03U, 0xf337febda2635e3U, 0x3a3f20dbf311440fU,
  0x200cd03c5b20ffd8U, 0xb91bdc040afd3230U, 0xee06f4e6172025eeU, 0xd63adb01d927d1cfU,
  0x35c0ee1cc3e4deabU, 0xfa03481fce0c4dd8U, 0xccee7f48ffcbdfddU, 0xcc0b50ab9637afdfU,
  0xbf00d34b1ff3f827U, 0x2e2f8befcb61f00U, 0xd51cb18da48f5U, 0x15a03bf5f6f187fdU,
  0x4b1a238756188cc5U, 0xa57b22bcbd593daU, 0x496b95cb12ac7ceU, 0xe832222d03cac631U,
  0x3eb3ffffe2b5U, 0xd1e000023c5U, 0x301e00001199U, 0xffffefa5ffffd95bU,
  0x1e37ffffd254U, 0xfeffffff5f7U, 0xfffffa300000471cU, 0x6bb0000543fU,
  0x1aa00000fa9U, 0x1466000024a7U, 0x157f0000007cU, 0x11510000045bU,
  0x400100004160U, 0xffffd772000030dbU, 0xffffece500001b06U, 0x28b200003683U,
  0x3e7bffffef13U, 0x16c200003388U, 0x134b000006f3U, 0x4a4000004dfU,
  0x2397ffffef79U, 0xfffffefdfffff289U, 0xc85ffffecdcU, 0x242700000b33U,
  0x15a700000f7dU, 0xfffffbd4fffffd05U, 0xffffec59000031f6U, 0x2e9d0000146dU,
  0x12ea00001851U, 0x2ff0fffff71eU, 0x2ea8fffff852U, 0xa9300000e7cU,
  0xffffef3bfffff204U, 0x910fffff600U, 0x1e41000016a9U, 0x2b4a00001dacU,
  0x251200001d4aU, 0x111c00000b58U, 0xfffff36c00001801U, 0x13e1ffffeab2U,
  0x830ffffff39U, 0xffffed99ffffdfaeU, 0xffffed6dfffff45eU, 0x39560000034dU,
  0x1652000031b9U, 0x12eefffff4c5U, 0x1faffffe8a8U, 0x2765fffff978U,
  0x243dd3d2f43f671aU, 0xfd7fed078b09ad4fU, 0xf132ac0c1f05de20U, 0xeaa95ebcfed85a07U,
  0x22017c36debe521eU, 0x1339c1e0ceff0bbeU, 0x47b085fe4e2e78d1U, 0xdc0517ab64293e26U,
  0x81da2b4715e841b3U, 0x42117f1f10341136U, 0xce4e1ce96d6ae5e1U, 0x2281196e43e744caU,
  0x547f0af081240453U, 0x295f690ff408e7fbU, 0x6271ad3244f43562U, 0xdc84aee3e207217fU,
  0xe7047fe6c8be7901U, 0x5522e2d7f7f34cdU, 0x5881b54f6b7f3aefU, 0x33332bb92c38337fU,
  0xda0bf67fe38b7fdeU, 0x427f383ff6428104U, 0xc82549c82e54ee1eU, 0x20d3a364ef022081U,
  0x485605e84d1d77faU, 0xb2edc2f81e08131U, 0x137f81303d794846U, 0xf8150e04ddf1a11U,
  0xfe723fcdfdd3ed4U, 0x77fc1c9c34781b3U, 0x519272e947ef1603U, 0x1c382f9c7d5178b6U,
  0xb803e13dd2a55681U, 0x135f3b33097f953fU, 0xc21a64c6407fe4cbU, 0x24acc87100beded2U,
  0xfc0df41ada35c0c1U, 0xd9dfb07fbd7fef7fU, 0xb6409c195c1204eaU, 0xe9ba3ee828e06b8cU,
  0xff94a7f13a827d4U, 0x25c90ba61bd7f881U, 0x7feaa3bd08087f25U, 0xeeb9d8d550b90fcaU,
  0xf081ccf2f0813c94U, 0x57323aedf61eed7fU, 0x36e67fa16d18eeaaU, 0x2b92c2e8e531600cU,
  0x17587d36cd7f8181U, 0x81977f57f1ee4d24U, 0x81bfbc0b34877f81U, 0x81bebf8181b0fb22U,
  0x815e8f9a577f81ecU, 0xfb0f7f95e80f4191U, 0x4cb7231181ce1b43U, 0x9d81c3810fd17f68U,
  0xc6dcca064fb550bcU, 0x5fbab14dffeba44U, 0x89b645cb7ff52dc3U, 0x7f2efc43fa47cf44U,
  0xf8f5278f161cfa94U, 0xefbeac40adb6fd5bU, 0x3f309ad07fd31015U, 0x10527b3e2c37fabU,
  0xcf8106d3e9f7a09cU, 0x8e02b81b80985bbU, 0x4cdb5fdcd6aad208U, 0xc36f2f05e7f47b2U,
  0xe72d85fc81c026d1U, 0x6e57caeb09464332U, 0xb5c73ca77d4a2790U, 0x30b5047f0a2581e1U,
  0xde11ed0dc30429fbU, 0xef5ad53fb5256e8U, 0x367304d735c24425U, 0x12f97f9f28ee67aaU,
  0x4bf73f2f21e44489U, 0x81a700d44fb3eef3U, 0x49f2818130bd5ffdU, 0x112b9f26fa4c3d6U,
  0xa40a99f5ffd41bf2U, 0x7f0632f0f1ef666cU, 0x70acfcdf1fe2981U, 0x19383ef6deef514U,
  0x812481d55c579ddeU, 0x3293181ca2382c25U, 0x6a09288118f63251U, 0xd33529b0b6bc7e01U,
  0x4f69a6ec7f62b181U, 0xad39e239419a265dU, 0x33dce892f1b4287fU, 0x81dd81c543a7c06eU,
  0xb24e942623ae4844U, 0xc24d881813dc6f0U, 0x8181b081e6037fc4U, 0x1407bf1d47811067U,
  0xd904d681d70d1ec6U, 0x39b78916b9ba6cc2U, 0xd254fdc23181d157U, 0x26da4bbafe815ac9U,
  0x36c7c7ce32dacbd4U, 0x9dc2ff958993ab19U, 0x51ed2396ebca3f1bU, 0xf430ebf27f1f9d7eU,
  0xc7228114c50c57dcU, 0x7c2712cce8474d22U, 0x9f991a95a14548bbU, 0xfea1814a7f88b916U,
  0x6eb00000cf3U, 0x76cffffec7eU, 0x1c70000091dU, 0x75ffffeec0U,
  0xfffffe6ffffff175U, 0x18cafffffbb5U, 0x533ffffe8a1U, 0x2df000005e0U,
  0xfffff51bfffff0d2U, 0xfffff37900000b4eU, 0xd880000068dU, 0xfffffcfaffffeb67U,
  0xffffe3a700000d1fU, 0x65c00001afaU, 0xfffff4ff00000dfeU, 0x9b8000014f7U,
  0xffffff3400000ac9U, 0xfffff56a0000027bU, 0xfffffbfa000001d3U, 0xfffffe26000000c5U,
  0x7f5000011b0U, 0xe800000554U, 0xfffffa2900001524U, 0x9d2fffffa91U,
  0xffffed4efffff4cdU, 0xfffffeb500000ab6U, 0x66700000d0fU, 0xffffe87f00000d25U,
  0xffffeff7ffffec80U, 0xffffe05a0000027cU, 0xb4f00001232U, 0xf9200000131U,
  0xffffed9500000d32U, 0xac9000011ceU, 0x15fafffff806U, 0x15a20000028bU,
  0xa80ffffe252U, 0x6ecfffff124U, 0xfffffb3a00000305U, 0xffffe6ceffffee71U,
  0xfffff57d00001068U, 0xffffed3efffff4aaU, 0xfffff31800001ce7U, 0x11fe00000a29U,
  0x24b0000025cU, 0xfffff0cc000009e2U, 0x1bd3ffffe555U, 0xfffff155000011fdU,
  0x9ef1dcc1bcde417U, 0x1e215e605290cc5U, 0x151dda23151fe8e2U, 0x70c1316e4102143U,
  0xe7bbbbba0deb03beU, 0x6ec0fb1eb081c21U, 0x2b377f06e1ebac31U, 0xdab7161f21bc0c41U,
  0xd459e0fbdb1bed21U, 0xeb13eafb39fcefb1U, 0xc6130bedbc110e0eU, 0xc3febebe50ef0e2U,
  0xe7f10ce3dcd30afeU, 0xf40ae3eb7f0fa125U, 0x3ec3074edfcab8d8U, 0xe911fff002917830U,
  0x11d4e00fc9213baeU, 0x1607f64df43cf4feU, 0x1f4f32012ad4d138U, 0x41ea1906ec1051f2U,
  0xf904c45830f7f8baU, 0xf4d6d81c06ff17a6U, 0x292b4c75032244d4U, 0x9bf330e61ac4251dU,
  0x2a13fae94fe60ce1U, 0x5a1ee1ce0e0acef0U, 0x228f0bfb176b28d6U, 0x19fe080230dcf034U,
  0x372f36e3f00b24cfU, 0x200bff3ffe7fc9c2U, 0x11c81ef3fb370517U, 0xf02d252b24d3ecc5U,
  0xc62426f63f37d121U, 0x3aafb28130e0a24U, 0x1a3c1df033f144c1U, 0x49d0fbb33351f211U,
  0xeb0a0413dec4fa11U, 0xeed41eebc8ebfd22U, 0xe881e6c2182bffd4U, 0x1910df57f6fcf00fU,
  0x433d4e2f3103011U, 0xe70c12e607e5e551U, 0xc110e8aae6e61107U, 0xba003f09def3f6f9U,
  0xdec42c9140dd2c7U, 0xd3071ff036cce8f3U, 0x17dd42dbe0d5f8b1U, 0x181c1113c8500cdbU,
  0xe82af24505f1501aU, 0x19f70ff7d03a2506U, 0x17df26d10bc8d005U, 0x1e12eda161cebd23U,
  0x22d3db1de8105739U, 0xd1537c7da1cddU, 0xde540df8e63fdd3fU, 0x3f38e7cb0fe5dae7U,
  0xd7167826361bc629U, 0x67eae8e85df051e9U, 0xf313667f391ceda9U, 0xfd1617c7c82cf112U,
  0x2e0c025ec403e0fU, 0x36e66aee04e605f5U, 0xe63ee70ba218a014U, 0xef6c769f7aab3f4U,
  0xe0f3083422e7cbe8U, 0xfaf6d1d9e0160afeU, 0xe0430347edff13efU, 0xaf04b90bcdea810fU,
  0x852fe9fc4277f917U, 0x33c723c3d1f3dc99U, 0xe218fd1f01abf41fU, 0xa4bd6dbce1e3055eU,
  0x1e101410f80fd655U, 0x226848ac3ce725dfU, 0x1c3d3f55f1210c0cU, 0x290b12f7ea3bb30fU,
  0x1af3f010832c05dfU, 0xe0e6fdeaf20506U, 0x6efaf2f6d214e4b8U, 0x2be87d2c832042dfU,
  0x141c63e10e62e1b7U, 0xd8e901bf3aef071dU, 0xf5143e8315818362U, 0x32042b2e0cb108c7U,
  0xec1cad2309f1f119U, 0x381d231affe8fef3U, 0x5e12e2a41021814U, 0xffd333f20de819d1U,
  0xcaf516f9f408d32aU, 0x29f0f8402ddada24U, 0xa7f7e712dfe11ccbU, 0xec05f2eb3911eff1U,
  0xb701ec1812ea1cfcU, 0xe0e0c8fb81ec05d8U, 0x2003e1dbdaf72324U, 0x82e24eef218f8f1U,
  0xd7fd0d1ef3301121U, 0xa12fcd24918df32U, 0x2a28e2ff2bf0492bU, 0x10b5e816e54e081dU,
  0xc91441f50d262835U, 0x810b4ae41a281f31U, 0xe45a201ef81a2026U, 0xdbe423cb1df2fffbU,
  0x4afd3cf623be1037U, 0xb859e8f3da13d002U, 0xc4c6d663a5de0fedU, 0xddbcf129291fd388U,
  0x47970edd484efbdeU, 0xfc3d3c08db19b281U, 0xcffafa1d09d76237U, 0xd2252f0b3712fac8U,
  0xf6a9fc1af7dc12f5U, 0x374a322608fd40e5U, 0x8cc00b09cff1819U, 0x27026dcfeef4e8d4U,
  0x94270e9dcd33f0fbU, 0x19ebdb1f09fb29c8U, 0x1401bf033ef21ce3U, 0xf5410162dc292025U,
  0x6781fab709a1b509U, 0xfafc27d693a0ebc9U, 0xd91f5ef852f34b1eU, 0x406e3fdd90a21e1U,
  0xe8e5169cf7d91341U, 0xf918dae5c5ffd258U, 0x8114f9cdd9346ac5U, 0x6cc0d7146511f059U,
  0x12b8240cfc20afd7U, 0xb601fb1bf55d25e9U, 0x24e307c5400d49dcU, 0x607e1ae83164da03U,
  0xf5cfe5bc20c323e9U, 0xf30e476dae450d41U, 0xc6e2c4bcc619dfe7U, 0x2b0fad14c9fe97e2U,
  0xd8e6e1bc38e417fdU, 0x5dc20719163300c5U, 0x7ffd1836061009f1U, 0xff3bdbe5f7f3c542U,
  0x2df8f1f6acf3d8dbU, 0xcea06e0f0fa1e17U, 0xad8ceeb5ae2ed3fU, 0x9edb3392a0d44f1U,
  0x32e9ee08fe0124dcU, 0x15440dae482c25caU, 0x22fad7c44a3821ffU, 0xf413c22f99b87f14U,
  0xf1c85803b7f83701U, 0xfa04eed24d1bfdc7U, 0xfb793415fd270528U, 0x2efc2394acdd262dU,
  0xcde0353d9d45fc58U, 0x9b05d6f473090dcaU, 0xb7011973d90407adU, 0x104866ef462309e3U,
  0xc4d109f304fa171bU, 0xfae2ebfb52f3e602U, 0x24001040131be7d9U, 0xfc93c22ece800abU,
  0xeef31af52c0bf4c9U, 0x2df70c1ad522e605U, 0x8199de1beff52cdaU, 0xfd25c3f01bf60ddcU,
  0xef0b2dea3727e908U, 0xfe104a46ddcfbbecU, 0xf7eee9e2d0fcfb85U, 0x9edad4f9bc07faf4U,
  0x19d3d7b94a18fd52U, 0x32d881e36a021bcfU, 0x25dc24436b1b01eeU, 0x11b50a1520091be4U,
  0xf8d01822c0141912U, 0xda0bef9df15ffe0aU, 0xbe062a331b3bbbf0U, 0x54f01bf63831c2e2U,
  0xcfb3c48c345e741U, 0xeaed03691844d9b1U, 0x49fc4410440c120fU, 0x50edff5ff52a6331U,
  0xfad1d303ffc618f9U, 0xde4cf2a27fd896cU, 0xe42bc621c5c5f8e1U, 0x4184667e5786f11U,
  0xfb16f1ecf41f10ddU, 0xdf162f30ff7f1d12U, 0xfff505cdf312abccU, 0x3135bb1a0c0530ddU,
  0x30e70ed6ef1abd05U, 0x13a3abdd2fe5485aU, 0x260cbc1cdb47cd41U, 0x80f65f9fc13e36dU,
  0xc1ccc37d71f30f2U, 0xe3f8104eae1923b9U, 0xe900681168f658d2U, 0x37acb422faff5418U,
  0xf8c53a197fef9e09U, 0xeb3b010e1b3abea5U, 0xf6214c898b94812U, 0xead71df630d0c7edU,
  0xae207031b3adb32U, 0xdcc0c84600f2ebecU, 0x2829d7e22a390cceU, 0xa01c06c90509001cU,
  0xf9e3edf605042122U, 0xa2fed9221bb3a0ebU, 0xb1fcce06edb52844U, 0xfb32c7de07f4dfe4U,
  0x7128a5e8cede21e4U, 0x7fc498dd1f1ccbf6U, 0xacc62e05c754e40eU, 0x43203a39dfef14fcU,
  0xfbbc2317f514e5f1U, 0xdf10e6e146f1ecefU, 0x5002f018f0ee8803U, 0x23e1daba20131aebU,
  0xf7dc2bf7e181f0fbU, 0xcfdaf5031909e3ffU, 0xd1f9240a16f15615U, 0x2dd4d8e00a11e423U,
  0xfdf00ae72ee2fe10U, 0xf5fafd371521ff0dU, 0x1eafbe2c60df1feU, 0xdefd234205dde2daU,
  0x42034004ed0900ebU, 0xa940011116dd1beaU, 0x28dd3b3706d2032eU, 0xfff922dc0933fb00U,
  0xf9b7d4defce8c950U, 0x926080e020915ffU, 0x1ee314e4070ffec6U, 0xa05a734b0ed141fU,
  0x2b15f9290007f1d1U, 0x1ed6fc3d17161511U, 0x19811a0003e3e0deU, 0x3ff3f62cf4f819dbU,
  0x1307f02e0be4f5e8U, 0xcf11f64038e60a93U, 0x12e7122bdccc6d26U, 0x1d18f06735d1f5eeU,
  0x8e1efd602d3f712U, 0xdd20051e7ff60806U, 0xef07fbf03503dbfaU, 0x173ee3e5301ee5ebU,
  0xea200b0dfdcc17e0U, 0xe2503ff0c0ef22eU, 0xe205f710fad72af4U, 0xee30019f8fe231eU,
  0x1ef8e9fffff0da0fU, 0xdcd42d2e0f1afff2U, 0xcc61cce05fe1401U, 0x42db220ce723e5dbU,
  0x7f2f0fd0b13f40bU, 0x2c219b23b14d11fU, 0xe8814107ebf3f605U, 0x521c3e5f5e10b0bU,
  0xd02b02eb0df35705U, 0x16dfdaefcd2ce401U, 0x3f12923fddef20fU, 0x602e7eb0906d1fdU,
  0x415003c03ffcd18U, 0xf0d7e726f3dbb4fbU, 0x1cf2e303d761f217U, 0x3d5753d94c02e942U,
  0x18f0ed06f42228eeU, 0xeb15d906d914fe0fU, 0xfef816f8defd0e15U, 0xdc0131d51cdedcbcU,
  0xdb81e53b0e1000f6U, 0x10f91120e2d90605U, 0xf9ee220af82ee917U, 0xe3fd2a190c0b2409U,
  0x171af821dc09f6eeU, 0xfa0f0a0e2aece2e5U, 0x1316f504f3f8030aU, 0xebf905ece217f8daU,
  0x2fdf0df1091f332bU, 0xbdd1422b262d10c8U, 0x1fedfd0dd7cf03c6U, 0x1cd4d5abeb199b02U,
  0x8e1cf1f736ecb011U, 0xeaf714f0ceaae5a9U, 0x5a05fe33dbfbf61aU, 0xe4ea35e2eded7f28U,
  0xe202fa09f60b1b06U, 0xe7cd200c374ef5ffU, 0x48bf0332de13ec3aU, 0x1c8e809a949001eU,
  0xe381eee921132cdaU, 0xcd1623dec9132609U, 0xdd24e40ef6e1080aU, 0x39222c0d07d4ff26U,
  0xa16bfc92818132eU, 0xfe4ff2b27cae2f5U, 0xdbe1f748d53301efU, 0x26dd2bef1ae24446U,
  0xe311e4cc113ddad8U, 0x1ffee3292514ebc8U, 0x41dff100c3d19feU, 0xd7f914e4fa151c11U,
  0xecf60e36f7b2ea3fU, 0xc741f8c914f94a0aU, 0x13951d0d28fbfa45U, 0xdcc92d29e9eeddaeU,
  0xf6080d0cc6c5d3eeU, 0x2142b7ecfb100afcU, 0xf129fcfd02e90af2U, 0x18bfe3dca9422701U,
  0x31818b2041cef02U, 0x489af8f425b6f5d9U, 0x811fe02ef1f20bf7U, 0xe2fbf2d5d3d025f2U,
  0xccdee8fb0bfe3a15U, 0x80f170f000afb17U, 0xf8bf0e26da0c01ebU, 0xfb0e081e02203517U,
  0x2e06ebfc09efe3d4U, 0xf52206f7f320f2edU, 0x1603ffe5ddfcf711U, 0xedf5120b81fc17deU,
  0xdfff0fdfc38d738U, 0x19dae9f6fe0319e8U, 0x17f70be60b0811dcU, 0xeff8122e141cfe14U,
  0x603ae31e06b2a43aU, 0xac2dca28ed147081U, 0xe6b92026f6451061U, 0x7d7f9f8c82208ebU,
  0xca08c30be0e911f6U, 0x4c2cdee6e2f52108U, 0xcdbc1dec2af2c7feU, 0x11caafd5fc1bc1deU,
  0xe22a83f81dfcfd66U, 0x85b2212ad79916dfU, 0x64fde38394d0edfU, 0x2d571ab4d501ed10U,
  0xb55203f2d3b9d268U, 0x902cce7d3bdcdf7U, 0xf56cea26cdffe5U, 0xeffed5da142c2cf1U,
  0xca061fe015e4ce2cU, 0x7fc06aed5d7b216U, 0xae1fc21df0122b3cU, 0x7f0e2426193029fbU,
  0x1ec13b18cc6bf43cU, 0x2cd8efd5fa24f8e9U, 0xfafe3451fedcc4f1U, 0x433303ffe2e71dadU,
  0xfbe2452a08e2d9cdU, 0x23386af8d222ce12U, 0xdfa634ef08f4f029U, 0xeee0f7c0d1f0d8c4U,
  0xea26e2bfb213e701U, 0xdd37001026ddf8fbU, 0xcb3ff5a828200001U, 0x36084d7f5319fbfcU,
  0x73f8291ccab44c0fU, 0x5024eb3253d81ee3U, 0xe1e2323a1bc2af5dU, 0xf910f9261f3cb2f5U,
  0xe7dcf41813d01fe3U, 0x31eecd3310e02815U, 0xffbcfb9a2eedd8aU, 0xf11d0c91743e636U,
  0xf61f3311abbfefe9U, 0xe917f10fddc41245U, 0xcdc81f4723a7d9a2U, 0x4907c808ea1ba02fU,
  0x9e0b048ce7610cebU, 0x4adf107f4cbc04c6U, 0xde17d1ec5060ce19U, 0x3f42df33aecf618U,
  0x3d0050bec020aefU, 0x1008e9d1ad450393U, 0xf3db7fb3dfb1e518U, 0x4266e540c0c7d2e9U,
  0x41f9dee936e9cd3fU, 0x29fea8b3d34d36edU, 0xd110e72dcb3743ceU, 0x513dfe09f60cce10U,
  0xbdee66f22b07b055U, 0xc4133c2e07423313U, 0x1c1e2ffd1a4cbfdbU, 0x712ef4e71f1de1e3U,
  0x36ee210eda27f203U, 0xcb13bda122e253f1U, 0x2288f4bcbbdd45daU, 0x2f222e25291cfa2fU,
  0x1bd0f8e0ca0ed219U, 0x172fe67f2ede2131U, 0xee103b0f2debd503U, 0xd8da25f0d0dee5feU,
  0x28e7e3f1253ee83bU, 0xf2b11c200f0edfcdU, 0x1e040676b11012ebU, 0x24b627ecf1e4a8f3U,
  0xb0a05ee01d4e441U, 0xd7211dd3dcfd0d20U, 0xda1c6ee22e271bdaU, 0xe58d1995ed22401eU,
  0x74d55af1f140301U, 0x13555f0dfb231536U, 0xc2c1810081ad53bU, 0x925dbdc886cfea9U,
  0x6e15f4ffc243d625U, 0xe9060807f70137e5U, 0x12d63a09f1f60428U, 0x300c09fe81eceab0U,
  0x379edd0825cea73eU, 0x61bea2038b2212fU, 0xf5a52510611ef8d9U, 0xe4c33ccc115b2754U,
  0xcd0b219902499ff2U, 0xebd2022ab64e2ef3U, 0xdbd6d2d40420ca33U, 0x10dc2b740bfbf4fdU,
  0x47cd06140fe40dc3U, 0x3637030153add2f0U, 0xfbe71ebad73d29eaU, 0xf20dc7f31dd150cU,
  0x28d9173042f620ffU, 0xf2ebe60abfdcf7d5U, 0xdbe60516cdda3618U, 0x3d34f0cf11ebd724U,
  0x1222e6f817e60922U, 0xe03e53106f31deaU, 0xfbd131f1e9292aecU, 0xf062010dae11103U,
  0x2dfc100f7ff64101U, 0x3215ec2bfbf92ce4U, 0x2efb15f6d9ccee0eU, 0xebe404f8f90fe701U,
  0xa8ebe309e19f090aU, 0x13e5bd1e7f1f2302U, 0x15c0fa0cfa3b00ffU, 0xb7fd100619bf2e59U,
  0x42f02a28d62d2528U, 0xf5e1b21d0abbceccU, 0xd0f709ef2ccbc513U, 0xcdcecbaf6e09e0U,
  0x425b8e2f2602d14U, 0xcebb3100efd20b1cU, 0xc07cebd503eedfc9U, 0x543f5e93c762f5e9U,
  0x1c0e0193f8342323U, 0xe647f40c4cee15feU, 0x260d1d1720572034U, 0xfacdbf0abd300d72U,
  0xc6eeedaa1dd2cf1eU, 0xf345b506ccd0e1feU, 0xd81b2d0607031b01U, 0x3081aed9cfd40100U,
  0x1d4015eca4ebf83aU, 0xf4e82d16fe041624U, 0xffd6070414f6fafcU, 0x102bd31bdf3430f8U,
  0x1618d9f0d73909f3U, 0xaadcee160fecb48U, 0xfa0e3a7f4a1f3dbbU, 0xb2e2153c0009f5f9U,
  0x2b234bf453f8e7f6U, 0xa9da24fae9e6f800U, 0xbafe4118d7d8240aU, 0x202dd51a1024dfcaU,
  0xdd1ce1cce83efefdU, 0x50ce618ee3ce3U, 0xda0ef215febedefdU, 0xa611efe3d32c1cc6U,
  0xea8cee13f50e350dU, 0x15e0fc2c7fd70a62U, 0xf27aef20817c22bU, 0xba17e8dd2e1e243dU,
  0xf101f200c7f2f0c5U, 0xd153d00e8ec2414U, 0x173b021dd803de0cU, 0xe8e8e709b5faf310U,
  0x1508c1c216f82832U, 0x6702e1254ddff3d7U, 0x1118f62ad918dce0U, 0xe07f53617f5fc37U,
  0xf103291832a6e2aaU, 0x13130022be2419f6U, 0x5113ef07f1340d2eU, 0x102e34bbdd47342eU,
  0xc52123f7c65de108U, 0x38ef0add35012c25U, 0xbcbceec3dc91fe2U, 0xee2824cf381bfd57U,
  0xeb16f4f9ae33f701U, 0xea21f8eeba0bf731U, 0x3bdc15d9140ac9daU, 0xe6a4812bdcd931f5U,
  0x13d7d60ceccee10aU, 0x17433683fbfacbe6U, 0x1e15a70013e151dbU, 0x28380b168808efe9U,
  0xfb0ed0f4fa37231aU, 0xb7c13cf6fc1734d1U, 0xcb00eb58c412d50eU, 0x130fbf81def21e1bU,
  0xfffb51042750fbf4U, 0x17fb11d85cd102e5U, 0x137dde06ec06b2c2U, 0x9628dffffe1df332U,
  0x3c060541b30c1809U, 0xd1d3dda711133540U, 0xd3e78c3e14fee500U, 0xfecef83c7f1601e7U,
  0x3300dc22b1f03bdbU, 0x3fe1ef0806b8e7a4U, 0x1dbdcf30fe1fceebU, 0xdefbf9e9dcfdeb16U,
  0xeabdf54a28f6d2f5U, 0xe707ea24ce17f0e9U, 0xd34af503d8161f4fU, 0xbe2d3ed2a32d6dcU,
  0xdee5b839d7b6cb35U, 0x933303782e73c1dU, 0x71d1819f4eaed16U, 0xb0d9db1fca13cdecU,
  0x3fc4fdecf4d2fbc6U, 0xdff2f8332105eedfU, 0x3ee1da96ebc501edU, 0xf0f20ff8b1381518U,
  0xec3436cce704075fU, 0x99c730fd030a9facU, 0x2808f1170cedf1f8U, 0xfb7fd5f4ee04ee16U,
  0xf11124f60bccf1d3U, 0xcce546c3f1f4a4dfU, 0xee2ff8dd14fbef11U, 0x22f216fdfa2af635U,
  0x3e24e2a817a6f2cfU, 0x117fc8263cfaedd6U, 0x3cdf2ce5eb7ace40U, 0xebfbe91e1bf6cb29U,
  0x4ce1609dd09dddcU, 0x1c28040c1bda0cceU, 0x57b1fc2ccb49e421U, 0x6be28041cf5e9b0U,
  0xb507d8e50222ddc1U, 0x2b1ed8ccc611eaf1U, 0xe614b7053df6ef08U, 0xfbfd42edf10abfcaU,
  0xfb101506d21d00c3U, 0xf94014d1edf70fd0U, 0x313639d55ef30635U, 0x1be4e3d92c1205c1U,
  0x130320d851b5feabU, 0x2bdfe8dec2fa08U, 0x481f01f014e5117fU, 0xc901deef4efe0b19U,
  0xfaf7e67f0dcbf7f5U, 0xdf1d0ce7fe1401e3U, 0xe6292b0009f04016U, 0x16cfec161c1bfc0bU,
  0xea601712140a0d13U, 0x2ffb2ce702f4e224U, 0xdfe01cefcb36eafaU, 0x275ef6c41bd0dac7U,
  0x24beae2008fcc6fbU, 0x8c4ea000a091626U, 0xd9e21d03120d0317U, 0xd12a0c03e6fcd6fcU,
  0x3a07d41ad6bbcf36U, 0x48d1e15ae8fc5b1cU, 0xf40b56e2312330abU, 0xed3806e4ee9f43fdU,
  0x2325383081e9f9ffU, 0xa1c3de225fb0508U, 0x3def2a52d51b1df1U, 0xf41634093006e5fdU,
  0x14199de2bb3b2f9eU, 0xd7f3e2e5161c1cfdU, 0x28dc1b63c712181aU, 0xd1641822ddf9eef8U,
  0xd420251be8122921U, 0xf1fdd6cdafe60422U, 0x1e26390df3e8d63eU, 0xf3c7240b34207f34U,
  0xbe1dffcbef172417U, 0x29e7df04341e4222U, 0xd62f05630809fc34U, 0x2cb1f346d32ce3d5U,
  0xe6dfefa32cf7f5f7U, 0xee0f44432290d10U, 0x19c825f0c9d9042fU, 0xb919a3f4da45f3dbU,
  0x7e23012ccf4f90fU, 0x2b0c03293e1ec6e8U, 0x1fa60d2f3a321a09U, 0x1ae00d61ecf733f0U,
  0xfedee014bcf12e0fU, 0xe6f8efb901fef639U, 0x8139ef02d6df12f5U, 0x161121bb1a0bf5f6U,
  0x354adbc00929b0f5U, 0x2c211dc704b4f10fU, 0xcd6efc4e10fd1ddU, 0xfe2df1143726e604U,
  0x20dc17e725f60907U, 0x1fef1a04e1ee65edU, 0xe7f83505e823110aU, 0xefcaf5e4e42228f5U,
  0x321ee0ae9e30d35U, 0xf10060b060a0806U, 0xdc9f6ddfaebfce1U, 0x9e5e433e1fa14c1U,
  0xeae7e41eea233ff0U, 0x81e10b48ef2507b2U, 0xf0ecf99e1d01feddU, 0x220a051ae3f008ffU,
  0xc4e74ff47ff6145cU, 0x29fc06bb02ea5913U, 0xf9c1ce1023db1a09U, 0xea2924fd00e8ccecU,
  0xe42dead20fd0fc10U, 0xfae0cf1b11ecbf13U, 0xd0ce213024011aabU, 0xe0df09de5c0dcc11U,
  0xe7e41d03eb44130fU, 0xbcf951c8b7fabcb7U, 0x2b100e28f1012e49U, 0x50d0a9dfed221c4U,
  0xd381f3170abfda0aU, 0xb15f205d12c00f5U, 0xe52b010913cfee28U, 0xfa11f2d4abf20cf1U,
  0x910e211170822e6U, 0x9f62dd10cf5e1f8U, 0x8dc400b18ff0becU, 0x131103eee7edfad5U,
  0x1bd304012e0eedd6U, 0xfa08d8ecf1eefc03U, 0x3f027daedfecc09U, 0x20cc130e151105f7U,
  0x6fa3a51f32eeadfU, 0x2d5345d5d4190fdbU, 0xe685006ff1db5c1fU, 0x57ac7fb5fa0e0d2cU,
  0xb781aad421f48c0U, 0xf847d6615b1bc8cfU, 0x93b01dfef3fd352U, 0x15d63b33afd80d63U,
  0xe2ef082feb7f49f2U, 0x1f10c61cfef932c9U, 0x48e1bb4acbfd3426U, 0x153913b1cadff090U,
  0x50a80e2963e63cb3U, 0xe104204e2ce239eeU, 0x380848ef058a0da8U, 0x7f3dd02165b131fU,
  0xfc3fccf66ac80942U, 0x6137fa25dfa3c440U, 0xa4090c03253bdf92U, 0x6cce140d02e30d05U,
  0xb20f5c0510cbb00U, 0xd5a40f9ecf7f0cd7U, 0x204be0e06c53210U, 0xdbbc730ae5e22e9dU,
  0x7f28041109ecb9d3U, 0x129315821f50ee6U, 0xc9eb2ee219200acbU, 0x2bd0b0f83917bd08U,
  0x170ec006e41ff077U, 0xdaf3ef07d352fe11U, 0x8643fad8e5c502e2U, 0xe280402dff12e10U,
  0xcbdc306d01cecddcU, 0xccae27ef35d7ea38U, 0x182bddfa3698acfeU, 0xc52ce8ddccf6f0d9U,
  0x1d3db0803d63addU, 0x2f11430216f91cfaU, 0x1c81eebf6c03328U, 0x3019eb2df4e9c326U,
  0xfc15d4cfe1b73ee1U, 0x8411b3c30f2af40U, 0x140891a0af5b2420U, 0xc54941fe0ccb40f3U,
  0x1df6103bb86d7f36U, 0xbb34f02fd7ce14e8U, 0xe8f82ed40df92cc2U, 0xde12f7c32369e3f3U,
  0xb9a811c9c60fd148U, 0xefe6f42121dc9bbeU, 0x34d6091a0741f7dcU, 0xad02353b180b0fd4U,
  0xad7d8192919d4dbU, 0x1435e9183672102eU, 0x1c61ecdb140de2e1U, 0xe8ce00183733eae5U,
  0x2e172830b6bc0c41U, 0xed1743f8d949f57fU, 0xc64dfe01de2aca47U, 0x3fd6c5a1c171004U,
  0xf2b00dd30b0908fdU, 0xb4df171a0eefdfc8U, 0xccf6ebf10c2d10b4U, 0x11004ff706df1f17U,
  0x5204e30ee1291618U, 0xfe10eff4010b1506U, 0x1059eb12edd9c8d3U, 0x21e7143be2d5e9dfU,
  0x8ee1f10ef4b1ecfU, 0x1bda27fdfc1a05f8U, 0xd849bfe9d5ecd847U, 0xb3ea81f0c0194d16U,
  0x8f9dbf5f2e2dc1eU, 0x1efb0ffbfc03f6cdU, 0xfbc447770ad311daU, 0xf0fce0e2e8002426U,
  0xded1504f145e6edU, 0x2f1ff330da20d112U, 0xd3160617e71345efU, 0x12e9240f14e90a00U,
  0xc7ec3447f3fa252eU, 0xfee6f1dff62bc8afU, 0x1bf411d01a21e0f4U, 0xb222f81521ef917U,
  0xf0a8e5e82e02ed30U, 0xc8e613a81cee23f1U, 0xc97f2b27482bc339U, 0xf4084ed932fdea0dU,
  0x95cfdcc55ef9e62fU, 0xb8ec8557074a2a38U, 0x1faebcd15f04adU, 0x29454f8a0c0c0acdU,
  0xefe67304ea10b0d6U, 0xf8effd1092bf02ebU, 0xe7dd60cdddedd456U, 0x29bbecde37541bdbU,
  0x25b0eb23fd07ebd6U, 0x5012803ebd9cc07U, 0x505f9f71a090df4U, 0xd44e30e2e02bfee0U,
  0xed0606e0bfbcfed2U, 0xca111f061bf20cacU, 0x707f13f0e8ecededU, 0xe9c7edec1f39c221U,
  0x30d5ea191907cefeU, 0xb7a22bccfb20faffU, 0x2130d8a34648eeeaU, 0xcc74d2ee0020c102U,
  0x6cbbebf7db08dc15U, 0xfceffddf0813e5f7U, 0x2c3410f1f6e20febU, 0xb0241ae51714eb0dU,
  0xf27eee6c9260db4U, 0xae0bfd4bfeadea0eU, 0x2e27f23418e205daU, 0x1fe7c20dfd08162fU,
  0xdb3120d613ebc9e3U, 0x91611ca36d9ecdcU, 0x71be57ff5cefd23U, 0x5d1116ef3cbaf633U,
  0xdceb32f3a298f2bdU, 0x98c62a146bebed81U, 0xf84535d84b9d16a0U, 0x7504d3cea11802b0U,
  0xd14f68f6f0e9321eU, 0xe5cf2a2acef6bb05U, 0xfa3badefca57fcddU, 0x4d09094beffc5edcU,
  0xeb15cf7c4c8c013U, 0x2d3bfadea8c502f0U, 0x42ec06acf5f21701U, 0x24b9de9edd13b2e4U,
  0xdab0df00ddd300aU, 0xe51610fb15badefdU, 0x23f097f42cf04U, 0x110d9d9af25fbb4U,
  0x1352ac92ddfe346U, 0xeaf8c21dcce0b717U, 0x810a0711181f46f2U, 0x5717fe2126fd17f6U,
  0xe48c1e12f6a8ea4dU, 0x1ce52b18b01100f9U, 0x24dad3f20a16f229U, 0xfee6beec17e818f3U,
  0xd3b4cbc4f6f70cf0U, 0xa11e7240b061f30U, 0x4d811e02edf0ef5U, 0x3802f11f2113dd52U,
  0xda41f7d17757f3ccU, 0x20c514e232ea02cfU, 0xd92e0811b70613dcU, 0x29e7f53be4d5d313U,
  0xfbe256c6dfbe0b3aU, 0xca2bcaf7055a481bU, 0xf6c8b32c81d71dfdU, 0x13618faf41f9101aU,
  0xe8f3fc17efae2e3dU, 0xe5201cc723dab6edU, 0xc0131fdcbef00faU, 0xdc54da4ffacb02e1U,
  0xf7fe101c7feebd0eU, 0x1506f3fec8ecaaf6U, 0xd4defd2202dd3de9U, 0x26082d26f5e5280dU,
  0xe6311ff7e0ef3118U, 0xfb29031ae102c9d2U, 0x3e7150622f2dfddU, 0x21ca25c80c14fa32U,
  0xb1f1e8ec0df5e81bU, 0xec17fae551128fe5U, 0xb4cd67745fd80232U, 0xe10a1a4124420b0eU,
  0x26c006514df3ec1eU, 0xd33703d01c715621U, 0xfa549df7ad65ddffU, 0x27e42dc0cce91b2bU,
  0x187f29e8394c04ddU, 0xdfee0a01552c20c3U, 0xd237cc6103d2e7cdU, 0xc4120313a73d140aU,
  0xc94644ecc319cd81U, 0xcbd40461c7f8613bU, 0x38364f9f2d5db0cU, 0xddc90a6032fcbe0bU,
  0xefe4b9ffcaf1f01dU, 0xdd1b0b7154fc6527U, 0xd48ff12720f3b2d7U, 0x8dbd211f42c610fU,
  0x1e61090aeac1e73aU, 0xd1077c4ab3dabfU, 0xf1e64ec1edc2dba2U, 0x773f0dbc1acef327U,
  0x55ff244cf03ae502U, 0x1627e2d92fcff33dU, 0xb0c406005c40070eU, 0x1a319ae1e84219f8U,
  0xd655230d27270c26U, 0x16dafa2dfd2158e5U, 0xf5f881c9eddcfc23U, 0x80af6dad92123f9U,
  0x7e7f02f2ff3da15U, 0x1529eb002005be02U, 0x2ecea4250d5f1e6U, 0xa7f014c0f90c6ffdU,
  0x3a071ce8fd3c10f6U, 0xfb31f4d4e1ed3500U, 0x300d60fc0f7fe21U, 0x1208f056feec3303U,
  0x1cf9f4040af7e9dfU, 0xce24e8fd07fd22dbU, 0x81342a0d1c163949U, 0x8e201e60bff1ff4U,
  0x1601dd07dc220e29U, 0x240aec3ac8f8e3c9U, 0x11cb0434f720dc00U, 0xb4f7b6bfe9bf1c3aU,
  0x1ed06147ee25d51aU, 0xbe16e61ee20b21beU, 0xeb340a47103408f7U, 0x51133ef6e709b41fU,
  0x3a0efae90d0b5c2dU, 0xca00d2260ce8fbf0U, 0x1c18bab660edea4dU, 0xde904f01bcf0326U,
  0xf5ec2c2bb4272a14U, 0x527e66302dbf729U, 0xdf2b0c42040c8138U, 0x5ad20b13f00ddef0U,
  0xeb26e4dbe1cf4a59U, 0x232a1a42fa3906e9U, 0x273736fd373430feU, 0x1e34b4e70820e30bU,
  0xf9e72aebecf8f105U, 0xc5b0f9d207fa2d31U, 0xf9fddc0cffd1d513U, 0xefe9d7c981061dbaU,
  0x1e00f11f071e0fe5U, 0x7dee41cf2140eU, 0xfbfd2ffc0af7c6e9U, 0xf732ea51521c2521U,
  0x282e50fbf15ae2faU, 0x30212f05d8c9ff1bU, 0x365e15b1160fe0b0U, 0x6fef5888104addcU,
  0xbef22c2280f3516U, 0x1e0d1acf271731cfU, 0xcb009c28ce2aec28U, 0xde027f23f683e83dU,
  0x1bb01c23d3ac3ad0U, 0xfa5ab4a7d4200024U, 0x698848912cf40f1dU, 0x3bff040c06d91453U,
  0x23092df451ff2637U, 0xd3bff2e617e0d1cfU, 0x81372856f51dfaeaU, 0xc9aeda92381502d8U,
  0x519b10d270df9feU, 0xd0eee808fd370f33U, 0x356234f00a67f3e3U, 0xf1fbf74ddfd0fe19U,
  0x2a9acb05269eb017U, 0xf9c5df46fcea6066U, 0x3310ff78fce4d752U, 0x1f1e001b2210bbe4U,
  0x2f2c14f735f61cU, 0x143237d61808f2cbU, 0x28d037244715e33bU, 0xfd3ee91712da3c54U,
  0x22c20afc11232138U, 0x2ad0cb422ece2acU, 0xbdf71aa306024716U, 0xf7e91809f8244f10U,
  0xefd9e21c10b97f1bU, 0x12fefeec0c220bU, 0xfdf02173bfe3d1dU, 0x2229c2db044611b3U,
  0xec06040c16372309U, 0x3d474f11e2f6ae35U, 0xca062052d4c7de06U, 0xfa32dbe1ee0ee507U,
  0x2477fe436ff3ffd1U, 0x243ef8612bb8f4d6U, 0xd41a1ef204a09fdaU, 0xff4282dfde6f329U,
  0x7feaaec465e9cdfcU, 0xa505291ee0d0e106U, 0x3301cdef1ee52136U, 0xd9d5a4f7603edf1bU,
  0xe025f5e9f5dec6efU, 0x10f5a864fcec8a03U, 0x7b51105bed62307U, 0xcd0f560e2de5f410U,
  0xf0f8db1de23d3d26U, 0xeec6bc190f03e923U, 0xbf0c47d4e40781e9U, 0xfb0434d4e0453c42U,
  0xe60653f0cf5d3602U, 0x2c38610002a62a03U, 0x3243fd3326dcfd52U, 0x271222df3617131dU,
  0xdc610d09ef19c2f2U, 0x2306f9f41916f2d0U, 0x6fc004318db0cd8U, 0x620e8f2e719d5ffU,
  0x1eeee337fd1c1125U, 0xcae5f702ed19f110U, 0xf9d7fafbf6320424U, 0x203f8f1c625be25U,
  0xb9f00bc4eb20bcc6U, 0xf0f5241ee301f9f6U, 0xf785f12181fe0de5U, 0xf3f20924fa063424U,
  0x21e1f3195ed07f2U, 0xe0058dff32ef09d5U, 0xde22201ec7efd4e1U, 0xf6d8301ff91c9dddU,
  0x2ba80d27defcc810U, 0xeed122e5fcfa21daU, 0x81e5181d2604e2ebU, 0x620ffe72410f5eaU,
  0x29fd30f2222ac1e7U, 0xd938c9e7ddab1d1eU, 0xf3fb01c0230be851U, 0x1035df21f0ebfbdeU,
  0x3f22b8130818ebfeU, 0x52123f92e1d1611U, 0xde300c629eaed2bU, 0x2a17171ef5e4ebe9U,
  0xe7ffe1f71eee3ae4U, 0xfb1608330732f7fdU, 0xd8f529db26e0c33cU, 0xdf06e1f05113e811U,
  0xfe33b12f9f681f7U, 0x3ce5ec0829fb06ddU, 0x15e100bc0de52e4bU, 0xec180701e0f81629U,
  0x20ccea2e04d00c1fU, 0x24dd18d235302db6U, 0x283b3430061ad3c9U, 0xbef0f9365fb83ff5U,
  0x4ca04ecc847bf08U, 0xf060619454d20c6U, 0xf906ddd405c7c90eU, 0xded94afeed263023U,
  0xb7043d192cedd1d1U, 0xeab82bc202cadffaU, 0x220677bfddf21147U, 0x2de750330afbd37fU,
  0xd7adf61452e8fe24U, 0xc2de376e7e8cee4U, 0xcdc4f4d314be7f5fU, 0xfced0055e9d09326U,
  0xbc0de726f065191fU, 0xffbc7043cf3d4c9U, 0xc91895dcdbfaa140U, 0x4a05e30a9938eb3eU,
  0x5ac510c61c017afaU, 0x17ce03097ccdb357U, 0x31cee34bd932ae5U, 0x3a6584e92e155407U,
  0x40e928d10207da07U, 0x35e63a5a2b2348ecU, 0xfef1d2d0cf4eb0cU, 0xf10e412a132ed7edU,
  0xf722d6d11f130b1cU, 0x223ce7ef0037f2adU, 0xcd1a00e3f5d32115U, 0xfa11e7812a582bf9U,
  0x17eb33c8153dd10fU, 0xb2ab60cdf7df212aU, 0xb1fb165806d1e8baU, 0xff0ce6ecf6e61c1cU,
  0xa92c869b08eaf1d9U, 0xbf3cf4f82bd9011bU, 0xcfe93916a2ce0115U, 0x8d93a042b0dfd8aU,
  0x145a72f2aa10d1eU, 0xffccc53b01e7eaabU, 0xadde3c1d07e5eebfU, 0x3a1ad40d996b362aU,
  0x164ec1e001172574U, 0xb1d83d0bdb5c3731U, 0xcb1e53433fb8c6c5U, 0xf646e5cfd77f0807U,
  0x27eb169bd6e520e0U, 0xf907e5dfee2723dfU, 0xdf007ffe343a3105U, 0x12151225f81e36e9U,
  0xdceb23d3e2150124U, 0x48f061fad0c3ce1dU, 0x8af0ece8f5360508U, 0x310406021fece40dU,
  0xd4e03df62d0b3e06U, 0x16370018da35d229U, 0xe80b0720c4e0eb0aU, 0x12f1fbfe1ec90b3bU,
  0xee0635ccc6ebf413U, 0x52b0ab54aefb109U, 0xe4beb7c50f44113dU, 0xc1b6241fd4b9d4afU,
  0xb9c3e65c2113e1d7U, 0x2a53fd1f0a0ed102U, 0xfa2529f1f6394d31U, 0x2afd91e80aeb06e6U,
  0x91c2cddfb4ddffU, 0x812d37220fa11d94U, 0x1f50ecb4de9f2dfdU, 0x14e3531623f10a1fU,
  0xecebdeea5ffa1af9U, 0xcc24f872031c3b31U, 0x1c33ceaa15a4678U, 0x39262281fabb0ed5U,
  0xfb18d6fd2ce36677U, 0xfb4b4014174a0b04U, 0xe337f425d21dc6faU, 0x4232d05b8ffe901U,
  0x470bf858f7240a0dU, 0x81956effae6d4c8U, 0x1abff6fbf6d42a12U, 0x3eec16c110fecd25U,
  0xd2f2f2062017137fU, 0x3fe12d0b82b1618U, 0xf3da0d3deae31df2U, 0xbc2ed5fff9eea74aU,
  0xf800cecce3eaf014U, 0xee1df70a0050f525U, 0xe4e3f72b2b2513d4U, 0xc438f6f6fb090248U,
  0xf7f107e0032043e5U, 0xe8f61241d5cde9f9U, 0x8f7c1e52ff1510cU, 0xfde4d2d504ff0be8U,
  0xde0714d675cfd1ffU, 0xdcba0308cf13fbecU, 0xfadff018e2d30a81U, 0xec0edfee3b20fa31U,
  0x53222c0511fcdc17U, 0x2a3f2b1cb3f001e4U, 0x3c22eb433a181cd8U, 0xc42bd70dc5ecc419U,
  0xc0adcbf2416d4ddU, 0x239ffdd5f413eaffU, 0x1bc1004df0a18cfU, 0xb2fccd20f0e129U,
  0xe1e2cbc7fc201b58U, 0xde42eec8def1c939U, 0x816b00a1219d622U, 0xf90dc89dba63d93bU,
  0x330dd008f51a342eU, 0xfa5215f9e1f0b123U, 0xdffff410f708d2faU, 0x1ddee508f9072decU,
  0x3225db17f51cdd51U, 0x2033f6fedf24065cU, 0xcfc503fec5e17fd8U, 0x7003fb21fe0d02U,
  0x7050963f20b173bU, 0xf11a1c0df30203d0U, 0xccde26eefb0d3403U, 0x5ed0af60fcd2b17U,
  0x2f0e21311df8fd07U, 0x4c80d4129f36745U, 0x628b235f70c18e4U, 0x527f7f9f1e612b9U,
  0x1fe620d07f31ff00U, 0xdff0ec1dcefd2105U, 0x1016e74c10d702f1U, 0x2dff0ef5e91641feU,
  0x4b1bfbd1bd531215U, 0xaec03f42219fdecU, 0x253d1d331818fcU, 0x3b51212f0e3d10cU,
  0xe01c07f15cd6f309U, 0xbd29c41d06ecd646U, 0x8103151213d7e1feU, 0xdef918fa14e703ebU,
  0xb8d321dbf7cedf1cU, 0xe4ebf408bf2ff9e5U, 0xd6f8e63a15c30ff4U, 0xe715f8bc02faf838U,
  0xd0d1ecdbd62bcde8U, 0x66bdf82155ecdd0eU, 0x13b55834cf07c0f7U, 0xcdfaaf2fd1265daU,
  0xf1009725dd05e13dU, 0x2eff6c5fdfafa09U, 0x27eff9fce9e6e5e2U, 0x26de1838bdfb0412U,
  0x4841042b144ea644U, 0xe4f1cb27dd2321c2U, 0x33dcddab8106bb08U, 0x12e536eaab0cd8efU,
  0x1d26d6ee0942feebU, 0xfbf3bb0935dcf30eU, 0x19d22bebe7e4100fU, 0xfdb5f411c214e221U,
  0x2ae6cb20de3915c2U, 0xe5b8c83006bef326U, 0xedc1351e1bf3bd9cU, 0x2800d9323d0821c3U,
  0x2190cbade070410U, 0xb3eb0924a5e9fce9U, 0x9eafd2b2c27da12U, 0x810c0bcde1c6e019U,
  0x3d610110bd9f440U, 0x520d51bf4ec16c4U, 0x1ae65dfa1c1607f2U, 0x6cb282ffecbb8e1U,
  0xf74604ecf042ee08U, 0xece20a0d0718f6dfU, 0xcdba2bfffb06ec3aU, 0xcedcbd9ff0ccd02U,
  0xba0106c1e867491fU, 0xd6cb5ec720b00509U, 0x1c193afaf1eafbdbU, 0x81190efdb91dcd11U,
  0xfffff636ffffffb6U, 0xfffff235fffff957U, 0xfffffa45fffff913U, 0xfffffb9ffffff3f4U,
  0xfffff610fffff732U, 0xfffff9f2fffff15dU, 0xfffffb3ffffff932U, 0xfffff28ffffffbf4U,
  0xfffff811fffff5e3U, 0xfffff56cfffffb7fU, 0xfffff767fffff8daU, 0xfffff984fffffaedU,
  0xfffffbf2fffff5a0U, 0xfffff88ffffffcc2U, 0xfffffa8efffffdd9U, 0xfffff89efffffca9U,
  0xfffff4170000032fU, 0xfffff46dfffff3d1U, 0xfffffdf4000000b8U, 0xfffff433fffff9c7U,
  0xfffffb2efffff62bU, 0xfffff6c4fffffa32U, 0xfffff623fffff46fU, 0xfffff862fffffa9cU,
  0xfffffa60fffffefdU, 0xfffff55cfffffb0aU, 0xfffff76efffffd43U, 0xefffff57fU,
  0xfffffc37fffff4fdU, 0xfffff8e3fffffdd3U, 0xfffff908000000afU, 0xffffec25fffffa49U,
  0xfffff426ffffed2fU, 0xfffffc2ffffff47aU, 0xfffffbc2fffff6d4U, 0xfffffc00fffffcd9U,
  0xfffff338fffff7d9U, 0xffffeef5fffff368U, 0xfffff819fffffce1U, 0xfffff91cfffffa85U,
  0xfffffe47fffffc44U, 0xfffffb76fffff78dU, 0xfffffcb200000036U, 0xfffff860fffffbfeU,
  0xfffffcd8fffffda1U, 0xfffff861fffff45fU, 0xfffffa29fffff805U, 0xfffffc78fffffcc0U,
  0x2536e9ba1f3cbc18U, 0x43c1083203031c29U, 0x43bbf2e8131bf4a7U, 0x2515ddb1f81608e4U,
  0xcfc20fe61234db5dU, 0x550411fa0333ce19U, 0xf254f705f3b92114U, 0x4793ecca2de4d601U,
  0xfaea1d0f82fafd11U, 0xf9c017e7c41c0eedU, 0xd7a3267600f5ebf8U, 0x352ef202f327ee2cU,
  0x2ebc2d319160a5aU, 0xd9351334cd0837edU, 0xdd1236edd9e4ebe7U, 0x3481cbffef44e9afU,
  0x3e730dec3e2f745U, 0xb1fb0447d11f133cU, 0xdc11dc35edc875f7U, 0x1271b170e24ee17U,
  0xdbc10121d0f4031fU, 0xc030c0401d0ff16U, 0xfbd7e9e7ec21b711U, 0x3e2257f70ee9e003U,
  0x4415eedc04b3b3d7U, 0xac88c5c7d62aebfaU, 0x420a03c80d54e958U, 0x6f8ec02f303fd07U,
  0x38e0e90a0e361824U, 0xe5faefe1dc354d37U, 0xc0601d6ebe62c24U, 0x122bf91bd9f2f8d9U,
  0xcff4270cb73b03f6U, 0xf5160a11bb1907e6U, 0x2be4d9bb1eaa0601U, 0xde22dcfcbf31301bU,
  0xe4f0fd242815efd9U, 0x110ee015e7f3e6fcU, 0xe4090430f2d812daU, 0x5d3fb1ecff6f613U,
  0xf1221417fce41a0aU, 0xfe16280e0b120515U, 0xce0d1524e7e61c1eU, 0x2a04f3f422c9da06U,
  0xfd1729e11f31e7edU, 0x1bfd0f00001f11d6U, 0x3de4eae4fbee110bU, 0xf2091f20e4d7dcfdU,
  0x1e093d01cee7280dU, 0xc516ec051bfbdf03U, 0xa272148ecfcfde3U, 0x3ba084a18eef9eeU,
  0x1ed117fff5bf53dfU, 0xe40ff4e8e81716e7U, 0x250cf7dc0ddb8135U, 0xe01e39b120052f15U,
  0x12f50a18f2f3fe07U, 0xedecfcfef50ef9c9U, 0x1c95e00602e3fdfcU, 0x16dfda1f1e091ae0U,
  0xf6eab12107c1053cU, 0xfe2621bdb1dfb5c8U, 0xe33def42e7e5e3dfU, 0x1f07f32affe8ff24U,
  0xfb16d3ff03ded10bU, 0xaf338e51c02f00aU, 0xc5e3050a2a180d33U, 0x1ff119f712fde1e9U,
  0xbd1f02e5ea330202U, 0x20ff7f9ed22eefaU, 0xdf71acb2e0e1713U, 0xe6fcdce9ea0b140eU,
  0xf5f70ff8fe1a0a0eU, 0x50cfe0ae2dcfa02U, 0x1208f71607fe0ecaU, 0xc50fd3f5cbff10ffU,
  0xd6da03eae2eaf8edU, 0xf8da17d0db0efaf5U, 0x1c2bf514f71f140dU, 0x3f8f72208f506e4U,
  0xe1091af4d5f3fa03U, 0xede6111615eee302U, 0xdcdfee0b120e17e2U, 0xf11c0e11010a2feeU,
  0xcfb27f1ece717fdU, 0xddd812e0da371d00U, 0xb0703f9fafbdce4U, 0xe90210eefbf1e61dU,
  0xed0ee2d2180e18eeU, 0xfa19cdb6f9f9f518U, 0xe8e7eb1b001121dcU, 0xfc06e804fd151118U,
  0xf21de5aef2ded1ceU, 0xdd1426122d020017U, 0xb31517e7f4ecf010U, 0xfe2f1110006e4f8U,
  0xe0c0ae99acdd781U, 0xfae4f5c70412d014U, 0xdb27fdf5f7e1d1eaU, 0xf5f2df1c0ed51410U,
  0xcc2bec0e0aeff804U, 0xfcc213ec0619f733U, 0xdb11fdef00f6f3f1U, 0x6f10ffd0808cefaU,
  0xddcfef0abfddea13U, 0x1604ff1c09fcf722U, 0x13e200c61c111de4U, 0x1509fa07f008f301U,
  0xfb00ef24040005efU, 0x37d720160ce608f6U, 0x32f40c09f8ee1aU, 0xf903e2e7eadfe0fcU,
  0xe3f804e40ffc0c0fU, 0xf4f604e3010cf2fbU, 0x11ed7efe81afc0fU, 0xf20513f605120dfaU,
  0xfc1cf4defdf4ff16U, 0xfefe2309ffffeff8U, 0xf7de0314e40009faU, 0xfce705f90320fde9U,
  0xdf1625d82e0a1801U, 0x2f6330eec1509f7U, 0xcf8dff5eb2afddfU, 0x3f7d5f1f600c50aU,
  0xe303e6e30b00c0ffU, 0xc718ef06d6fde909U, 0xedf820200b0616d5U, 0xf8f5f7e9fcf7290fU,
  0xe50e1201ec00e8eaU, 0xe0bfb04fc2efff5U, 0xdd0eeffbe4e11affU, 0xf601091624e6f3d3U,
  0x4c70aab02220881U, 0xf2e3f4ddf2130504U, 0x1918da12e0042aU, 0x50c172504cce7e3U,
  0x51df602fe0de6f2U, 0x17de11f516040103U, 0x1b02ebfd15f9fe0eU, 0x5edfe0c3301edeeU,
  0xd904e3f2e5ece107U, 0x401110ffa0104fbU, 0x30dfa0cd0e314feU, 0xfe031b1504e20503U,
  0xdefe10ec18ff210aU, 0xfbeafe0ce8d91ef0U, 0xe20da5dffbeb2c16U, 0x13ff08032b11bcd9U,
  0xc6233ed62bdf0911U, 0xc8daceeafb380ae0U, 0x4c70cf7183829f8U, 0xfa1733f840c3e825U,
  0xf510e407c9bf07e2U, 0xd0f2e3d80809c8ceU, 0xcfde3d0ef90fec14U, 0xfdf82d01c918e0f2U,
  0x7f8742beced044ffU, 0xca1dfaf71bfb071eU, 0xbacede1417fd0baeU, 0x14a5af2af7c6e62dU,
  0x1ee1f6f0074d4ad6U, 0x10dddfeacddaeefaU, 0xb912441c08c8e4efU, 0xbfa52eed45ed052aU,
  0x38b401ffe4f7ffdaU, 0xd3263432900bf0e1U, 0xc512130f09d86403U, 0xd206af2de519ae30U,
  0x5fe0805dcfaf2faU, 0xf8e81bf4f719f9e9U, 0xe714ea0d051734eeU, 0xff0be0d111141710U,
  0xf72ce6f8ed1a0611U, 0x22e2eff712daee23U, 0xf6fefdfeffeefbedU, 0x2a03ee19eeebee06U,
  0x240bfb00f4da15e3U, 0xfc081701ec0cec01U, 0xc0040efb0fb4f9f8U, 0xfdf72bf9f02703f9U,
  0xe1ecdfed06e1de09U, 0x11f27cd23f10417U, 0xecbbf8f2f5d7e002U, 0xeeeaec06b4e5e328U,
  0xec24e2bf23fd231cU, 0xfce9fefafa242926U, 0xc3de0c120d030927U, 0xf739cdabeb1237f5U,
  0xe019220ee81834e2U, 0xe62410ef20e30410U, 0xbeedffe812d61edaU, 0xfac6f417efe8f0efU,
  0xf82bb9ed323fdb06U, 0xf516effb12fedde4U, 0x71d0e00fcedf948U, 0xd9f0140e0a1d41ceU,
  0x27efb0c008dc0513U, 0x114ea0b22e7bbfdU, 0xcce2120cc431ae1fU, 0xe12e0626e409b52fU,
  0xf1d4e20ff3f1da1cU, 0x30349e631e0e2e1U, 0x160cfce4d9fc03d6U, 0xf2c306cd1afe1ceeU,
  0xf6e008f6ebd8fdc2U, 0xda41d2f381f437f7U, 0x34543012f4da06daU, 0x110a0fe01cc901f3U,
  0x3ce6f7f5f4f9d4d6U, 0x33e602fe1018dfd5U, 0x21fef0100bffe2f9U, 0x36f214293c27e023U,
  0x7f70a06f50505f0U, 0xf2cc04daebede2ecU, 0x1bf8e91ff3cb0ce1U, 0xffd80a3f25e5e320U,
  0xf00c21fedefa1cf8U, 0x9f801f921f9ecf8U, 0x1c02f1f917f9ff09U, 0x7f6ef05effbfdf9U,
  0xfff2141b05f502f1U, 0xae817fef310f1edU, 0x27dce60cf01d051dU, 0x206041d03fdee03U,
  0x1deae0ec27faf3f9U, 0x7faf91013f7d50aU, 0x14f9f402e7d7fb0bU, 0xdaef21ff1102f503U,
  0x71c09102c09ff00U, 0xe0d20d8f202edfeU, 0xcf01208eb27fbdaU, 0xdefdd8ffe803f50bU,
  0xfa061ef201fbfb0bU, 0xdfc0fdf29020ef6U, 0xf1fde91be1e9faf9U, 0xffff20061a0ff6ebU,
  0xed0708e006050802U, 0xf50a24f3f7e3ec15U, 0x5fe02ed091416fcU, 0xce16e61223ffe7deU,
  0x27f6faea72123c7fU, 0xed71c5fffbf13b01U, 0xa32b45be00dd4cc8U, 0xb27120e14dafaf7U,
  0x14f0cbfae119f2fdU, 0xe70436fc110fe307U, 0xddf0f2f834151ff7U, 0x1f01fd2df1340722U,
  0xf80619f0ea05f914U, 0xf6dfeee5f705dcf3U, 0x303e71feaddf4daU, 0x1ddc2e0e0b002dU,
  0xe003a1f08274603U, 0x16d4cbceef001b1fU, 0xcdf0fafa2f432502U, 0xe0fef3090315e9f9U,
  0xdf04eb1c002ef210U, 0xd3ed1ce121f412f6U, 0xec31f2ef0f07f0e3U, 0x2211e33db3ecacdU,
  0xcbeeebd80907fd18U, 0x709d8f3eb18f523U, 0xee2a07d620da28edU, 0x635eaf325ff140eU,
  0xc009d1fe0825fe03U, 0x26c03c2a0af728ceU, 0x10cd34cf781f814U, 0xf7e524d8133516f7U,
  0xf131cb03c60dda37U, 0xdfd8f7e6a6f8ee0dU, 0x160ce0d811dc301cU, 0xce12bae5b6dd1bedU,
  0x230ef90718f701eeU, 0xecfb5907351528c2U, 0x1c0203e5030a1409U, 0xa5a3ff1514e4f10fU,
  0xcedbaa178a09b6dfU, 0xf093eeef0f0744e3U, 0x85e2c9ec286aeb16U, 0xc2febd41180507d6U,
  0xab0e1a25bd341f0eU, 0x8f11c7351c50e225U, 0xb3f9c9f41ce212f7U, 0xd011041bb2efef1fU,
  0xf4cfe326cef8e1daU, 0xc02e90404e8f81bU, 0x303fabc050beadaU, 0xa31eaf2d9fc35e8U,
  0xf9190b18e8e6e0f0U, 0x209df0eed070ff6U, 0xdb12f0ea1a070dU, 0x2f5fa010dfcf82aU,
  0x20407f7f80916f5U, 0x11fc0def0e06fcfeU, 0x18f905fd08ed0520U, 0xcfe06fd0ef917ffU,
  0xf8061cf4f61102faU, 0xea111beb070bf907U, 0xfadf00f82be112efU, 0x4e40eeeec010e17U,
  0x3f400010afe080cU, 0x15f0e8f505150bfaU, 0x10093309fe0df415U, 0xf5fff50e05ffed04U,
  0xb0bf6f60005ea01U, 0xa16f400fef5fff7U, 0xfb0af0e410ede6U, 0x30c0d0ddff03304U,
  0x50cf1f609ff0b30U, 0xef190c1505ddebfaU, 0x2fffdfae40ff5e9U, 0x1a14effafceef1f7U,
  0xb11e5f406df1543U, 0xff0a0eea0df60514U, 0x7ff0ef21d8fd021dU, 0x1f1e3e6ea0b2bf3U,
  0xef0614e30e19fdefU, 0x81405fd090febf5U, 0xf80100f811e00906U, 0xe8ee15e6f50c1eedU,
  0xb01fe0ee804fb1bU, 0xa09edf4fd11f70eU, 0xef19ebf1ed0bfafdU, 0xdf04f1f4fe1eeb0fU,
  0xe4000128160bfaffU, 0xd9e9f109eeee29edU, 0xa570b1305f5d80fU, 0x37d408092f111b1dU,
  0xc51a210cf9fcecf1U, 0xe39e29e1fd04f9caU, 0x3329e8fbc631122cU, 0x9b320c2db5f907fcU,
  0x26c9f9c923313be0U, 0xddfd1a05fcffd020U, 0x27f6dfe9021dfb09U, 0x17f3ff542aefecdbU,
  0xfdf1ef262225d50aU, 0x13fe28460d4ceb1bU, 0x3c7e1410905041dU, 0x2308ecfdf2cfec17U,
  0x3ece06edf7f42908U, 0x2dd624e3f31a00e2U, 0x1f160af5a12f45d9U, 0x5d7e212fb2dde0eU,
  0x8c5a73af1013cd6U, 0x5eaf30b1a01b306U, 0xf838f1e40708fa1eU, 0xc1c0188dc1702dbU,
  0x3953df32a9dfdde1U, 0xcd2208092ad70b1aU, 0xdbbfb745331b4f4eU, 0xe1514a3012f2f825U,
  0x7fdef30c1b3f9629U, 0xf500fbe91b4be8b3U, 0xfc191cf5e1f1f307U, 0xef322bd907f518c4U,
  0x1bedf72b0012cb02U, 0xfa05e1e92ff0dc18U, 0xf0cf444b0505adU, 0xfabde8dd17433e3dU,
  0x52bf9f300d4e4efU, 0x6cab6f9150fe5f9U, 0xf0e6dcd410ebcd11U, 0x28f52edede1a27f3U,
  0xeef314db0b0011fcU, 0x708caf4c40012ecU, 0x25a738132bfaecc6U, 0x1f58f813def61208U,
  0xbcf6fe1a09e920e9U, 0xd8eb25d63bd8ec15U, 0xea0800d3ffe827d8U, 0xdae815dc10e4d1feU,
  0xef19ee452b7d04caU, 0x66ce372315e3fe1aU, 0x31d6275102ef71feU, 0x2314cfedcc1dc65eU,
  0xea3e15a461202705U, 0xeb087362c1f9e6e8U, 0xeeed2adadcdd7f24U, 0x1b4ad027eed600feU,
  0x4e6fbaab3280606U, 0x4ed803281d6fe35cU, 0x57fd32de8508fb43U, 0xe8f0b4e1ffa9e428U,
  0xf7c6e5220e130cfbU, 0x151f101dee17f925U, 0xf60c090e0711e739U, 0x15f81be2e6e6f5e0U,
  0x2b3eee2d150b00f1U, 0xfc071313fc11c103U, 0xe815e43e32100d1eU, 0x35d3f842070a2907U,
  0x33081e1d22c9f413U, 0xffe6d52321dafb0bU, 0xe8eaf707cd21f11bU, 0x27f504e30e06e1e2U,
  0xe526c1c5f1e6fed2U, 0xfaf6f0c2e9b5f5e9U, 0xcd0428ff11ddf242U, 0xff17c7e1f5230842U,
  0x35ec0b11f3f30f2dU, 0x1df93fcc29f317f0U, 0x2dc41acf07cf07e3U, 0xf1ea00e51afee13dU,
  0xf7f010180e2fe127U, 0x2729f027f3e81b04U, 0x39fdddebe5feca04U, 0xeedddb19d92736d0U,
  0x2df8e53714e3fe1bU, 0xd3df0317f1fd114bU, 0xfaf27e9d212b117fU, 0xced000d150f2101cU,
  0x2d3e30a0d03d846U, 0xd113bf256e9f0ceU, 0xccd0b0bad5df0310U, 0xf30c251f02e50aecU,
  0x13c1071b1cd121f9U, 0x46e905101be20d04U, 0xac5d91267e8c3U, 0x29fb13bab5270f17U,
  0xe758dfc5f54a0247U, 0x27f949230efdd3b6U, 0xef272fb2bd2f0421U, 0x2fbbebd9ff594be4U,
  0xf0cbc9c71200ef31U, 0x319e0dbfd320bdaU, 0xbdff80aa6e42703U, 0x2bc5d8f00ff9de06U,
  0xb91400f41b2bed09U, 0xd61818f727d405fbU, 0x33ebced723114111U, 0xe030f8e5f41f0930U,
  0x8ef38e3090e0df8U, 0x1117010c170efbecU, 0xe8c10d1409e90205U, 0xf2fff8e9e4ffefefU,
  0xd713030cebfadd28U, 0x5e512de0d14ed1aU, 0x1cecd60319e0eee2U, 0x903bcfced062901U,
  0xec18dff2ef0dd105U, 0x10f002fe32f21717U, 0x12e9e12802f813d7U, 0x170b0310edfc13f7U,
  0x13efe4f10aed1a05U, 0xfa1907efd601eedeU, 0xec070cfd180402eeU, 0x901a3eae9cef1f8U,
  0xfd21e438e3ed0109U, 0xda13f6e3eae221adU, 0x1e00fe001bd5e610U, 0xb1e9cb0a1bc4bce9U,
  0x19051807fe1418dbU, 0x220524e617ec1ef1U, 0xf7033120e3f1d7ffU, 0x3f041cf70513f0dfU,
  0xcbfddde9457f1c08U, 0xf9d21aff020305e7U, 0xf10a1202f1ecfed5U, 0xe804ff1ed9ec1910U,
  0xdfeabefd25252417U, 0xd7e911fde4ebd3eaU, 0xf90a140bcc1a06e4U, 0x1ad9dbec140a1a26U,
  0xe1f7dfe8f410f70eU, 0xf7faf61fe7f4061eU, 0x17e0fbf31bcefc21U, 0x1901f907d41ef7f1U,
  0xfa11ff16fefdeff1U, 0x4f8f3ebeeeefef5U, 0xff17f90613ff03ffU, 0x4fcfaff0aff04f4U,
  0xfd0a0001f80bf701U, 0x11fcf2e9f104fefcU, 0xf7000609fe04040aU, 0xf6070603f80c05e7U,
  0x8fbfefc0406fd07U, 0x1f2f80004e9ef01U, 0x120bf90afdff0400U, 0xf1edf9f103061f0dU,
  0xf71e001bfe110f00U, 0xb06eb0104020303U, 0x14f81114f4050209U, 0xf8fefc07060af104U,
  0x2140bea12f709ebU, 0x180e01f61c0c0a02U, 0xeff6fc06fcf5fc08U, 0xf517fbf8ff0d05f7U,
  0x41204e40015e8e8U, 0xdcfc02fc0e1706f4U, 0xc07fbe1fff212f7U, 0xe5f20b0cfae8f00bU,
  0x920f70e5b54507fU, 0xf434ece2faeede01U, 0x9071b0701f701e4U, 0xfdf6f913083207e9U,
  0x2ffce4060815eefeU, 0xf21214f9f700e903U, 0x1f3ff0c100b09e3U, 0xfbfaf912fb16eff1U,
  0x1fcfdccf4fc010cU, 0x706e8fff3190712U, 0xf9ebfa111b0f16eeU, 0xf7fa06f8081307fcU,
  0x608f0e2062d1ee2U, 0x9d0dbeedc8e8ded8U, 0xbbfb060553c5efe8U, 0x10806df151f0517U,
  0x36f026c423d3ca3fU, 0xf0bafcefddf1f9eaU, 0xf20817f1d902160fU, 0x411d64bf326f911U,
  0x2eeff5bfefed0015U, 0xcaf02b1122c00b2fU, 0xe8010109bc03f5e8U, 0x3e0101c29f8d5eeU,
  0x14b72bea2018e0f1U, 0xee10f647fa572712U, 0x17e8fafaf53bebdfU, 0x24b3deaad60a3bU,
  0x2e11ccd6fc36371bU, 0x31e91dda8127253aU, 0xde5a273716ebdc96U, 0xcd04f5040a2bcfd8U,
  0xdee34f3c90a312bU, 0xe5da1107eef4c22bU, 0x605660d2ee0ec05U, 0x70514e21109e415U,
  0x2dff0424e1e50712U, 0xeb4617d9acfbe705U, 0x9f022e9200536fcU, 0xe839fd0ed2d7f610U,
  0x100ff9e8e820f6faU, 0xef31180f2bd8394eU, 0x1432f01ae443c522U, 0xfb447ec13c2dcffU,
  0x4c1aff14f008f9c7U, 0x14fd12f1e902ddd4U, 0x220befabadd06baU, 0x7ede61f342b142aU,
  0xece8f7032d054109U, 0xc9fe09f6e511ede3U, 0x23030918eacbebf9U, 0x13f90af1fef4d02dU,
  0xddf38f2834020dd1U, 0xb70be4d7c9fffbe1U, 0x16b50b391bd6dafeU, 0xfdf131f3110805efU,
  0x391e0518f1e134ceU, 0x171cb3ca4d16301aU, 0xdce324ff3237abe2U, 0x23d8e512d7f9ee19U,
  0x1dbe2eecf9e7f8e2U, 0x80a08da2433fc04U, 0x58eb93a26161f05U, 0x39ddf64fe0a9cfeaU,
  0x36040efed74df719U, 0x3a269eda239113ceU, 0x33f90113bbd9ee10U, 0x3ece5308653cce2dU,
  0x1a0bc931d07f072aU, 0xaae3befbf424e1e6U, 0xdf00274efc1117e3U, 0xc8f3cccea136c533U,
  0xbf71cfaf3eb0afcU, 0xf60c1026e305fe0fU, 0x1ef1202eb2110dbU, 0x401cbf00f080a28U,
  0xfb0ef90b26fbda00U, 0x1c381bd0f7f0efe9U, 0x47e914e4faf906f9U, 0x1710e71df30d2ceeU,
  0x1ef2310f70727ffU, 0x27c4e7081afcf01bU, 0x1136f1f718d3ee05U, 0xe0f8fc18db0f16e6U,
  0x31405ed070e0bf8U, 0x1011e7002efdf103U, 0x1a24e0203201050fU, 0xfa10fa201cdfc9e4U,
  0xe0e2040606d916feU, 0xe3fef3e21b13f90bU, 0xec0900e301cfdbf5U, 0xa1c2ac0ee2f12ffU,
  0xfc0cca201bda000bU, 0x8e4ede7f90d07d0U, 0x18040000dffc130dU, 0xfa101305f6f0020eU,
  0xe3fcc313ccde09fbU, 0xe0f809183003fde2U, 0x1b1b0843f50719e3U, 0x17ce17220fc6d3d2U,
  0xd3b2f9faeeff1f12U, 0xeed909ebdcddfd09U, 0x33f31aee0ecb112cU, 0xe3c309f41a3a16e9U,
  0xeae514f4f6f8fce2U, 0x22e3f4eee8ebf900U, 0xdefbfbf8f7ed1301U, 0xfff9eef2f7eefccaU,
  0x719bac00f7f311aU, 0xf5fcfc1e06231ceaU, 0x1006d8c7e0dcfdd1U, 0x8dbf60d0705eef2U,
  0x2becf008dae7000eU, 0xfabeef1712e2e7f3U, 0x17c617ee0efc2909U, 0xeff7cb1500d63be1U,
  0xdcf90c110e030becU, 0x9061403ceea0500U, 0x1ef90017fadf06d8U, 0x105251afde20b03U,
  0xe3180ce625041fccU, 0x14080e240e070c18U, 0xf803d7e2d72cbc04U, 0xf7fa1c07dd020b01U,
  0xe4fa0622f500f7f6U, 0xcdfa170a0df1c8ebU, 0xf2f0f4530eb6e2f9U, 0xed12eb04d4c3061bU,
  0xe4fa08b60d1cf6eeU, 0x37e915fae6e5ef15U, 0x2613010a140ee1e7U, 0xfceada07151a0f19U,
  0x12810e0ee7ecece0U, 0xc0d307ece1ede90fU, 0xf6f11c03f6edd5ccU, 0x211ebfc0ded1beeU,
  0xa251215df0ecc40U, 0xddf7e1d91a252ad3U, 0xef33e60ee6f0eef9U, 0xffcbc9fa1a05edeaU,
  0x8f2b3060c170e04U, 0x160affdd12d9fa08U, 0xd4d424fd2a04f2fbU, 0x353610ec1228d7fbU,
  0xf129c9bae640cae0U, 0x21b416e0b0e82afcU, 0xc8fa04ef4ad3e4ecU, 0xfc11d9e9310c03dfU,
  0xefdfb1be8e32ae8U, 0xe1fccf10004dd28U, 0x81e10fed026cefdU, 0xdebf5011bfb0301U,
  0xd8f9bfd3f9f71212U, 0x19f316d5101ff4ebU, 0x2df01de51af2e709U, 0xe21315fffddc1a21U,
  0xeebeef4110e0e17U, 0xfede2a110e0dfff6U, 0x811f026deeaef1cU, 0xb232e0b0ceee80cU,
  0xfd000b060fd7f519U, 0xecdaf2f11a1e1ef8U, 0xce23f3290c1ae3e6U, 0xe4180fd313e5fd08U,
  0x282aee19daf1130dU, 0xebcd18dbfb2b23c3U, 0xc9fc10f2e8c8fef9U, 0xf1e33323d133faf1U,
  0x18d74f012000d7e9U, 0xdafc1b1a010df02dU, 0x19e50900ea2a1dddU, 0xcd9ef01cbc80a30U,
  0xfe0b81e7212841eeU, 0xfe1cee1cd32c230bU, 0x6fc28e4fe1add14U, 0xcd0216fd480d1505U,
  0x3debed09c0cdf8d8U, 0x17fee306000cc616U, 0x3facef2ccf7cb16U, 0xb614f23339e6c909U,
  0x3bddd9f414dafdf5U, 0x2635d5d8d2f7ceU, 0xc1a22d1e5f619e0U, 0xfb0419f0eeca220dU,
  0x41f706f7ebe5fb06U, 0xd00ddfb20fcfc19U, 0xd825fc1414f3d001U, 0x11123a1615050d07U,
  0x3f70a041d0befedU, 0x123a2705050df904U, 0xedf9e0cec1dd0fe9U, 0x30bfffbfae11702U,
  0xfe1658dd303dd33fU, 0xc947f8072116bdb8U, 0xbfabc1fbce50c54U, 0x3ce42cfae227ff19U,
  0x2117b50bfe09ff07U, 0xfd12dc0fed0f0a0fU, 0xe2f1f605f62c3be3U, 0xeffc10f7a3c63038U,
  0xdd3d19a63350cbfbU, 0x1e5b9cd21271901U, 0xdffbf053302c12b2U, 0x19104c0616b5c56eU,
  0x3f643ed481837f9U, 0xcd07ebfcbcf43100U, 0xd5ee5f20e1f903efU, 0x2e51d2e9e8db272dU,
  0xd310f8f6091eb50dU, 0x17d009f2cab912e5U, 0x1adb1564eee511f3U, 0xde11fb32d5e9f93dU,
  0xe605dd04ff38c805U, 0xe5e802dbdf28cfb8U, 0xea0e02bb31fd0debU, 0xf0add3100ffb1ff3U,
  0x1e27d00c5e4237e6U, 0x29fdd9ed81aab52dU, 0xb1f32b16e0fe9320U, 0xac0ecd09e6044823U,
  0xe0e8dcdf0309ed3eU, 0xd74af3f80bd3d7fdU, 0xe3f4f0d401d52905U, 0xf5aa2ae0e415f3f8U,
  0xc9e52410f20d4515U, 0xfcd5e319e419f6f8U, 0xfe241db8141a0613U, 0x98d4a71602d010beU,
  0xe00ff3da1f9e333U, 0xe3dc03f42228f4cfU, 0x21e513f309fd2a13U, 0x2d2103d10fff313U,
  0x18f4291122b6f4e8U, 0x4b1927f21328e1cfU, 0xc700ffdb011def07U, 0x24e60dd6e3e5eb12U,
  0x18caeb0e2ee6f7ecU, 0xe4a5f0f20134f916U, 0x9f3fe0001e60bf2U, 0x3513fe08fb05ecfdU,
  0x6310d27eeec4ce7U, 0xea02ece75afff6eeU, 0xee0c1cf6db3b0c0bU, 0xeeffe5160fe2b4f9U,
  0x1cf0040209de260aU, 0x5b721f3f5181027U, 0xe0c70e0cf810f440U, 0xc012e2c16110ae3U,
  0xf5eae3dff4ee1616U, 0xeefa132efee935efU, 0x2111f2f0d41fdd07U, 0xee4406dbc6fa1cdaU,
  0x2f1fec50439dc964U, 0x58062bd811f047daU, 0x7f110ffcefc32eecU, 0xf31c421abf171cf0U,
  0xa3eae5f127dc2ed5U, 0x2444f1e614e5dad6U, 0xfaba0f2c03f8fd1cU, 0xd6fb0bef23e32df3U,
  0x490bfbd5e7fcd20aU, 0x7f9ef1cefe5dd1aU, 0xf233f5f1cfc0eaf3U, 0x6d6e8db1a00fdfcU,
  0xee0e2732c112fdeaU, 0x18fcadc60441c7efU, 0x15ed334be911f83aU, 0xd8b9efdb450304d6U,
  0x105272513d1e2e7U, 0x14c81af92cf644dfU, 0xc006dceaed10fb22U, 0xf814dacbcc18d924U,
  0x11d6d9da180d3cc0U, 0x9abb220436f7e608U, 0xf3e7e100eff12513U, 0x11f2fbf002032b48U,
  0xa21bde20480fdbd3U, 0x34efeed7be24c7f1U, 0x1eec1d65f51837e1U, 0xa3c2a14110cb209U,
  0x1941ebf41a091cf8U, 0xf5ecf8f4f8e84002U, 0x3cd81ea1a3382df7U, 0x14e6ed0610091d2aU,
  0xf5110af3fd83bdf7U, 0x2636e7dfeff7d70eU, 0x1900f1fae2f3efefU, 0xe9d4ff9afdb20f9bU,
  0xf07fa2e3de15b4b0U, 0x3aec5a25e5ed6d1aU, 0xf2541904c7043626U, 0x1d0772ee08f33013U,
  0x9bccb2ce1eedefd9U, 0x120b2df6f559d62fU, 0xf901be00c837074aU, 0x16ea0d3224cc6824U,
  0x2a2ff08fe6d1be00U, 0xd01ddfe9ffffbeb1U, 0x2834b0f70ada09daU, 0xd4e630ffe79cfd39U,
  0xff30f39bc81a41f6U, 0x330f01e2f215d1eeU, 0xd70308a3c6f41ce9U, 0x220060be343390bU,
  0x3cd80f1f21e3eb2fU, 0xf6f2d7cec619dccfU, 0xfbf9ff09e72a0c2dU, 0xec1ef402ed10da44U,
  0x1202d1f427e705e9U, 0xffe4ed38fe1e490aU, 0x7f5ea1e17cde312U, 0x1250affda1ff6c1U,
  0xd548083efd0ef40fU, 0x4d25021810e500ebU, 0xfda00c04fa81dcf2U, 0xf706ee6644ead1f2U,
  0x13e3e81bc6be372dU, 0xe8d522d7c608e6d0U, 0x8bf400efc83041f2U, 0xa10bda20af4625f4U,
  0xe3fdcb2f59f8f8d8U, 0x17320bb6c6e7f9cdU, 0x2d4a0edcf363e5f0U, 0x4145f0cc0ec705c4U,
  0xff95ebbefbb29b0U, 0xc60c45ed81d8faceU, 0x4d30c8f94c0a81f0U, 0x57fc07de3212c9b7U,
  0x4511090d0b0a2c18U, 0xcceaf91f202c0c48U, 0xa3280b3c34f2358dU, 0xc41bd20a04eff90aU,
  0x23fc35eceec7c3ddU, 0xee28def81cf70bacU, 0xe7db0d4fe119fb05U, 0xcadbdef8e917fbd4U,
  0xa1a133df90816e8U, 0x3fadcf20a051f18U, 0xa8f4f143e02e0f21U, 0xfefa2700fbee06eaU,
  0xf3272b02d901f620U, 0xeff5141cfceae810U, 0xe815ffcc14f203c7U, 0xe902ec0cf0f31a45U,
  0x36d6f65be811bfd4U, 0xfb1c191e16f61107U, 0x21f4cacdf0ecff0dU, 0x1828c6f9e6293ac7U,
  0xde090fc9242adff1U, 0xf82814d89ddce3e2U, 0x14eb2015e5f1fc17U, 0xecea6d2df44e8e9U,
  0xfe1de1281625f613U, 0x11fd02fea119eaf4U, 0x440afe0d06d1ffdaU, 0xfe034efc0210f738U,
  0x2eaf10520c8e10aU, 0x261cf90ef7e510f4U, 0x544d114e709d00dU, 0xe011ea032be3dcf1U,
  0x1160e37ffd06eae4U, 0xeef7fe1b411b37f4U, 0xd927f553fbd825bbU, 0xf8fb16151330bddfU,
  0xe726191122f3af09U, 0xfee5dbe5e51ee4U, 0xfac3cdd1e90ce7feU, 0xf807b6f325dbf8f2U,
  0xf303110a04f70ce1U, 0x2fd10cddfdf20d1eU, 0xdef101f2fbdf800U, 0x6fb02d90907e2f4U,
  0x810ed160007f7feU, 0x221fa250bc704ebU, 0x8292326f700d51eU, 0xec011cf0d1cef50eU,
  0x1231fc180e1805e5U, 0x3cef1fbede82125U, 0xf4ec103be5f6e3ffU, 0xfa03ebe5050fea0bU,
  0x91bfc03350e05f8U, 0xfef911e50f2002ffU, 0xed14fe12ecf520f5U, 0x22d212dee0e5e50cU,
  0x30d829464607d6d3U, 0x205fb13001ab9eeU, 0x2905f52dd62c1206U, 0x3befffdbe8dfdd00U,
  0xdae3c3bc482646dfU, 0xf844270512de1f17U, 0x11958e7cfe7fc14U, 0xe1ef0e0509070119U,
  0xe7b5fdfdc9ff24d1U, 0x2122f620f73bcffdU, 0x1f4f534c3e117f9U, 0xfaf41afb50d804faU,
  0xe9d8ffe128270ffcU, 0x1607e90959274a0dU, 0x813d16e0ddcffdeaU, 0xfde82be507f9262aU,
  0xa734d4eb28fcf2ffU, 0xe832f417f81c1b0aU, 0x332be5dd02faf933U, 0xf6f20de0f6e6dc04U,
  0xf515fd03f6d9e8f7U, 0xec36e6d9dee9d9e6U, 0x1414110dd4120f14U, 0xacf0bfce40e0032U,
  0xb8dbea38d9eff1deU, 0xd21317c3edd9e4ddU, 0xe3011d3200f5d1e9U, 0x19f6051812f5f919U,
  0x4002f3020ae201ecU, 0x3926020be4fafee9U, 0xf90910d30a282c13U, 0xc816e3df182003eaU,
  0xf1edee06192cd8fdU, 0xacdd17f1f80ffdfbU, 0xf4dad72f1ff4f007U, 0x4e30bb8fff0130eU,
  0xfb3306531b2af908U, 0x3209d104f5e5f3d4U, 0xf30cee32f1061933U, 0x3b07c2f8f2e4ede9U,
  0x1f14f3cbd7fa0c52U, 0x12e1e0cd07db02fcU, 0xeb031613e22d1de9U, 0xffec1bdcd343d2feU,
  0x10d3dffcee0a1239U, 0xff331a270614e2ddU, 0xc32dce5f9d52123U, 0xeeecea3932c8d609U,
  0xd607e932f408d255U, 0xf6400f2823f57febU, 0xb934fa43d4025320U, 0xf3d36f8d6fc21f5U,
  0xe9e9d91565d5e22eU, 0xd4b2d1c5aefd2eaU, 0x56071bd8f032f53fU, 0x12f124ed0716eddbU,
  0x100ad3dff8e6f7ebU, 0xcb1cfad40e05d714U, 0xd02e306e1c4df0bU, 0xdeffc30efafbba06U,
  0xe4141904e8f1U, 0xf6f3fde0ffe1f7dfU, 0x3bc3dfe8f714edf3U, 0xe62ff4fee31309e5U,
  0xeb0e010c0620f1e9U, 0xf50d0bf419f9ebf5U, 0x26d9100503122404U, 0x1af000020207f515U,
  0x1e3f301edda1b00U, 0xc32f9d9e9ff01U, 0xf3f8eedf0a27d8fcU, 0x1aeaff010622fef0U,
  0xf824edf5f32b07f1U, 0x91afbf8fd05e3d4U, 0xf5000f0d1bfe1235U, 0xcffe3d0bbe1becd1U,
  0x4f3120bfdee0905U, 0xecfd00e125f6f920U, 0xd901e8f8e029d9ffU, 0x1309f1dc19eccbd0U,
  0xf1e704f70702f7ddU, 0x7e20d0526faf3eaU, 0x29f7e5e10b25f4e7U, 0x12d1f4f608151ef2U,
  0xc6207f0e2207fb35U, 0xf608f90e4bffbd07U, 0x2d3ef16f7ec130cU, 0xd418e7f7e914e5f6U,
  0xfae0b809f5d80b03U, 0xf629f821e4e5ddebU, 0x702e111fd03edd7U, 0xf008e6f4f310d40eU,
  0x131a07f10ce2e300U, 0xfd01e40916111401U, 0xf6d7e7101941fc1eU, 0xf5fd0402fdfdff05U,
  0x9c18f6fc27d6d53dU, 0x1b2ee05cd5cb3ed2U, 0xe97c17dff2c60305U, 0x37c70226fbc3061cU,
  0xea259c16adea6a18U, 0x4d41239930dff04U, 0x6f6032a220edbedU, 0x271de45e084f08cbU,
  0xcd1f230b172b3cc2U, 0xd21d03fd07061819U, 0x27e9fff2eef0391fU, 0xf711ddefb791e205U,
  0x260e15095f0af5f4U, 0xda20ea06181df6f4U, 0x3c13ea0adcf903e9U, 0x2ca25fbcde9ededU,
  0xcdeb2481aefa08daU, 0x859b1722c001ee2U, 0xd2ccc9e4f30ef84bU, 0x2a09faf0324e2034U,
  0x3c83b342e230337U, 0x9d01da24fa200a29U, 0x21dd084a02e51a37U, 0x2235de1d22cf280aU,
  0x27ccf5fa4c34f9f6U, 0x60d10251ab198c3U, 0x8ceeca1e1745de2dU, 0xf6f9fa00a7b2c815U,
  0xec171e06170deef7U, 0xe006aa49e5ecf1e1U, 0x1348eb23eb01f9e6U, 0xd50ae5b50e1cd7f6U,
  0xbfe3e90b00f34856U, 0xf745aadfb1d3ff12U, 0xead2fa9c09f5212dU, 0x18d9e21bc151dfebU,
  0xe3f9221207331545U, 0xfaf3fffdf82bffc9U, 0xd0bfde0f4f4fa16U, 0x501040528132106U,
  0xe0a0a4ee8160eecU, 0xf41e28003112f6f7U, 0x516e6cc0ddd10edU, 0x21f1ffcc2702f130U,
  0xbe20317fe08e2e7U, 0xe9fd2200fdfff1fbU, 0xf2d7fbdb23f60419U, 0xe714f4f6241513f7U,
  0xf436c202d118b915U, 0xf9fbd1110cf1da05U, 0x2308dc010ecbd44cU, 0x70dfaeb05190d81U,
  0xa0de20e0a0c1607U, 0xff15f9e8de293efaU, 0x5cd17f5ef1bfe0eU, 0xf9fc340307f2fef6U,
  0xe5f318e91d0ceaeeU, 0xf9f6e4f513f5071eU, 0xd8edeb061cebfadbU, 0x1d0ae6f7e42ed9d6U,
  0x2317173c02baef14U, 0x1ff8d3fddeefabd9U, 0xe2ef2edf25cee600U, 0xe0ed309d2fb0d36U,
  0xd0f8e413f7f90114U, 0xd9c51b16f0b3e52cU, 0xceb26faf40e102cU, 0x23f9e503f8f50efdU,
  0xed0c1ef3e6e7c9e9U, 0x11d7e5e405fefefcU, 0x1fb2f040bfcee14U, 0xf1edf41f60a11fcU,
  0xe4001f14f6e12309U, 0x1e2b12f1f2f0121cU, 0xe8d614eefbf1240aU, 0xece2041af5f9ed03U,
  0xf20ffdea060eddddU, 0xe6ced65134fde803U, 0x1aea3906e91721daU, 0x5140c17f0efe9b2U,
  0xb611f8f32e0732d6U, 0xfeea4e08de491e13U, 0x2d1802f2fa26dbceU, 0x2006b425ebebe149U,
  0x1db2e27f2c3aa1e0U, 0xd2d02d18db2521dfU, 0x3bf7cb25c81b09e3U, 0x2e0cfeee0cd3c1e8U,
  0x24aff46c06f04a37U, 0x20d9ffe43fbc0713U, 0xc55e7ecf050f8dcU, 0xd6db013241570018U,
  0xf6010d13eece1af1U, 0xfc1117c641060bf1U, 0xfef4a2324171d0eU, 0x1e9c05ce0a2ff7fcU,
  0x28e6e14b000a1c55U, 0x220fd7f51b01dbdeU, 0x1af7221ef82133edU, 0x12c4eff7cf03f922U,
  0xf23cf319181df51cU, 0xd7e5fa190a21e6fbU, 0xeaf6c6ee04e30dafU, 0xfdc62df1d51b0f04U,
  0x902fdfe0f05dd10U, 0x100008e11c16ff22U, 0x2211e80df71affe2U, 0xfaf003c1e7f90402U,
  0x2230a353ffbd2d1U, 0x193bfb290cce2b16U, 0x1447eb0cfef6e2deU, 0xf216e41502180517U,
  0xc52df713db00e5ffU, 0x180e1b160bd725U, 0x2d15d520d010dde7U, 0xe0400635ddca2203U,
  0xb12d9d7bb090ffcU, 0x1c28c5131808ca0dU, 0xf406030d0ae5f3f6U, 0x22ff311290314f8U,
  0x1215fbec05f7200eU, 0x32201522f0f1f409U, 0x100b0a1ccde8f402U, 0x330fefba55fedfcbU,
  0xfdf805e9ddf0ef07U, 0xebf41f03ec0df011U, 0xd1edf81f21f5fde6U, 0xff2ddf80c1707ceU,
  0xe191c1d2e0af210U, 0x1f536ca141d0bd7U, 0x2ddad00d032d0306U, 0xc8ffe320250ee319U,
  0xf38113d2501f15b2U, 0x37b3040e16532e97U, 0xc1eeecf22deb24e7U, 0xfd15e4fd2812360aU,
  0xd916fa12d5e7fbe3U, 0xd6e6c31dde0d0301U, 0x17241a26f3b3eff4U, 0xedfcead5140faae6U,
  0xc1c93b0c1af0de02U, 0xd1fd4e4defce315U, 0xf5da15290c060127U, 0x150ce50bf6f118ddU,
  0xe904f1180ffd0c06U, 0xe7fbfae704e303daU, 0x14fbfb18e9c61915U, 0xfb0109d8fe0b1009U,
  0xe60b0f08040a1d01U, 0xe20205e9fc0c14ecU, 0x3f40909fb0a0e05U, 0x22230c0ffd0ef504U,
  0x2faeb19ef0404U, 0x9f52005010bee02U, 0xf311edf3f9f707ddU, 0xeeed0ced0c0d001eU,
  0xfdf4051f042bebefU, 0xfff81bda1af102ebU, 0x203221afb001d15U, 0xff11f01509f4e5e9U,
  0xf2f807f803f122f9U, 0xe0fa0ceefafd0502U, 0x51606dfe7f008efU, 0xe3ee1af500f3eb18U,
  0x10fb09f5f9e212e7U, 0x1b140aeefc0af5ffU, 0xdfaf608e2f8ef07U, 0x20d715000e010610U,
  0xe643d3f0e57fdfU, 0x1701d6fa27f41802U, 0xfaf61afa05e227f9U, 0x51522f9f2160823U,
  0x6fbdefcf90e0c06U, 0xf53e10f012f2dde6U, 0xf110f608f50a140aU, 0x80be60af811050aU,
  0x611ff03f804e207U, 0xf71d0af20613dc04U, 0x60eef03fafbf705U, 0xe0f3fcd112050a0dU,
  0xef0104d3303504ebU, 0x1fdfd2701140cfbU, 0xf5bbfa30e7dbfef4U, 0x6f12601e610dc4fU,
  0x13fe56e2280b16e7U, 0xea0b0cebe4deeae0U, 0x3225eefdfd10e1U, 0x1e0f17f8d3f82031U,
  0x500fee62edefbe3U, 0xea23290b01de1305U, 0xf8edf440ed3b1926U, 0xf7e2180431e6ef08U,
  0x3eaf0da3436fd02U, 0xf7f4e41f1ff6f6e0U, 0xe1f40ff9d71f0a0bU, 0xec0b211ee511ede2U,
  0xff3f4db3a0ee500U, 0x1dfbd6d71b0007e8U, 0xe9cc3fcdd7dfe301U, 0xe828fd0b1bf0c012U,
  0x14eac60df4c705d7U, 0xe070813291f11d3U, 0x50452106b5ffcaceU, 0xa2b25f3130df3c1U,
  0x25040704ca0eddc9U, 0xe828f2dd81e246c7U, 0x1efa011ff537151bU, 0x2809190011e0f4edU,
  0x1ac503092b2b080cU, 0xe2072ecd3b0912f3U, 0xf2ddf50ffb05edfaU, 0x13c6d42749253c33U,
  0xeadce0e0f02fed0eU, 0x1526fffbe5e2fa0fU, 0x350f02ec16d70dd7U, 0xd9d406130ce4f104U,
  0x3eaf7f7f7042d08U, 0x26130c0e31090b07U, 0x41fffc9f6fce930U, 0x911d2210a2233deU,
  0xfb8ec62d1302e70bU, 0x817e947e7090121U, 0x22f61a1041f8ed04U, 0xe3f6eceb2ee111cbU,
  0x2dce702b316c4d6U, 0xcff2edfb17053ddfU, 0xfbf50e4207f80305U, 0x3121c407e4e7e3fdU,
  0xbe66e3dbd9f865f4U, 0x2fdb8de0f2ccee24U, 0xf3242bf22e0608e3U, 0xb7f6ebddccf2a8f3U,
  0xf2de331e101207ffU, 0x7fde071b2e1fbbe7U, 0xe8f9092933e0b805U, 0x2b171911bcf7ce06U,
  0x6bda8ee0b621315U, 0x1acf50df9321857U, 0x12b3d3bcd363169fU, 0xe1f3c9f8e2c904d5U,
  0x1cf105fd12fffd00U, 0xfe030df0f2150b17U, 0x1104f9f2fd0e0326U, 0xeaeb0505e307e901U,
  0xe711f005150d0f1bU, 0x8040ff3e3e6faf3U, 0xf4fbeffc140ffcedU, 0xcf2081e0cedd919U,
  0xf405f5dc08fef4fdU, 0x13d8fcf9f3f402eaU, 0x8c91200fb13052cU, 0x1ef8f819ec1a04feU,
  0xe7e5ed1a2226fefdU, 0x4e0ffec231d44e6U, 0x1a2bf90819d7253bU, 0xf223e80c06ed02f5U,
  0xf21d02e316b51514U, 0x26d7ab21f5030d4dU, 0x261e363118d7cba1U, 0xd5018f7ec0a0b1dU,
  0xc31ec40cf3a1e8e4U, 0xe9dcc0d63efa00cbU, 0xaeef6001b1312d1U, 0x110b3d11b9f5f2e8U,
  0xd0948c79bcd1d1cU, 0xf21c1715d50c0725U, 0xe00081f4fe3a1313U, 0x2edf0c24dd88ed40U,
  0x2ffb45ea1d7e4eeaU, 0xd81a0a09bfdb1cecU, 0x7e1265254de825c9U, 0xce7171001fac126U,
  0x3d0238e4bc5de20aU, 0xe4f6f2f299fff9d5U, 0xd8c420fde49e371eU, 0xb2f5c7f2390e04cbU,
  0xdc33ff0019b6e038U, 0xe6d70637f1ab4514U, 0x232a06e0f013e60dU, 0x70f14d8f7ba1f14U,
  0xf143831320edad0U, 0x810f3032016e2d8U, 0x17060c07f745ec43U, 0x3bf8e6f4e9d61dfcU,
  0x380f2118f9e34b29U, 0xfa1601d7fa2404e7U, 0x5f5b7e703c1dacfU, 0xf4d543062cc00e0cU,
  0x33211de7ef17fd18U, 0xeb1ef911f328d440U, 0xf3de08f824cd061fU, 0x2f0209fec237f7d8U,
  0xf808e025f1fb0dc7U, 0x17bf20d92703eeecU, 0xc7ad1afc0cf4e60aU, 0x10f30f3d0c0308caU,
  0x220b11e2e5f7d92cU, 0x15ded8d638f3f6d2U, 0xe123e43c59ef28caU, 0x1cfe031d304013ebU,
  0xee38f7e3d8192adaU, 0x24e417d5e8b4d844U, 0xef10f2361d593ff2U, 0xd926e3c3f538fbdbU,
  0xeeefffbad40bfee0U, 0x2ce6e7cc81e1d919U, 0x14d6cdfcea23eb59U, 0xd1d8cdedeef1e323U,
  0xfe3a0dc0f7e33427U, 0x2ad2fcfb0326d7f9U, 0xd4fb9dd4960f0bf1U, 0x25022cd5dc1b1133U,
  0x557b3590696e948U, 0xb340d0fd0d4ec39U, 0xef0217e7eeef26f2U, 0x3160c0bcd1017fdU,
  0xeaf8f1f1db0b1cf7U, 0xfaf2c8ea0d10ede9U, 0x16f113e60926f9f8U, 0xd60e2dcef4d90c39U,
  0xe1312fe06f3defcU, 0xe5c606f026d10236U, 0x24300beb0c01f606U, 0xdad8f30d06f5ee12U,
  0x1aea12f5fa09f123U, 0xd518dcf41ce5ffc4U, 0x4ebe22f90617cbebU, 0xf308da27cbf6d6e2U,
  0x1addd9012a06d0dfU, 0xf4c20adb0eee0e2eU, 0x73aff041cccc5fbU, 0xe313ea1ae3fc3110U,
  0x270a0d3cfdedc810U, 0xbedb08d4523a0ad3U, 0x292b1013e226fae3U, 0xec3522e9cced1db6U,
  0xfb03facc3b49fff2U, 0x61916b5f3f075bfU, 0x460cfa123b1e02bcU, 0xeae5f7c23ff6ddd6U,
  0xfd1f0f0116ded911U, 0xf33702d03bdcf6c9U, 0xf0f8fcfdcb0d1b50U, 0xc8f8fde004f2d625U,
  0x28f2f93dcefc77e8U, 0x15313dd009fee3deU, 0xf71bf2e8c92cbac8U, 0xd107d0fb0c1614f0U,
  0xc47f9fb018e1430eU, 0xf707040ab2b2d125U, 0x1b231d01edce0c06U, 0xf41210ef1bec3c10U,
  0xfdecfdf30c250eccU, 0x520d82832d3b5faU, 0xf614fc1a05c50deeU, 0xedfddb0afa0eedf0U,
  0xb5ee0cde0224fe1bU, 0xeae2db18ae25fc32U, 0xf20d412df533af5U, 0xd4e8d6daeae6c3dbU,
  0xec16f6fe09160d0dU, 0x503d5de040bfde4U, 0xc1e222e2f61dc8e2U, 0xf3e913fc2f000d19U,
  0xfed7f50adb0321efU, 0x422cfb0922f4e8f0U, 0x1e150a24caeef100U, 0xea0fdcea05ebca28U,
  0xae7eb06010af014U, 0xf41408d9ccf7cef5U, 0x2f00fc11f5da0df9U, 0xe0e5e9e437c5f6efU,
  0xf129c9d6e02709ecU, 0xfcd28116f6d6cdffU, 0xfbdc10fffd200e3eU, 0xceca0e341324e3f9U,
  0xdc24f1d1eaf1ff1fU, 0x25ee20fe150e1701U, 0xf50201c13ee4170bU, 0xf610303627fbf3d1U,
  0xf8d3f4ab13fcd1ecU, 0x2fe0c1ec212139fbU, 0x281c621cac1825ebU, 0xd7f204e1ebe70c05U,
  0xd51ca592fffbc27fU, 0xbeee481a9612d5beU, 0xcd01f103f333f2b7U, 0xfdddedecce042c03U,
  0xf2c5f1b20807d7e7U, 0xba6f2cf73b4f0c19U, 0xa0c0ffef5260218U, 0x2bf3cf04fa260dedU,
  0xff14fdf2defacbe6U, 0xfacf270103ea00e3U, 0x2ffce9c3e3040222U, 0xdedee6d9d3fc2801U,
  0x152b063a2fcbc50fU, 0x2cfcf8fbf70606c7U, 0xe83d29061401eadcU, 0x3ed71115e8190b0dU,
  0x43241331c5f3f1dcU, 0x184120022ce02b1dU, 0x6edf26116fa1e5bU, 0x1700f6bdcc23e268U,
  0x13d21cd1f283306U, 0x906d6ee001ff9edU, 0xebe7e610e5b80818U, 0xf1adf8fdbce7fa0bU,
  0x2210c233051103ceU, 0x47f7ca2da63601f6U, 0xd4eb24cbcfe1ff2cU, 0xf0d3dc36ebefc4f7U,
  0xd0e28ca930e71e0dU, 0xfb25e904462b2812U, 0xfbdf33d3a95812ffU, 0xfc2011ee0a5e281cU,
  0xf8e1dceb17178381U, 0xf9edbefb6a5e0420U, 0x2cfb41efcc4df866U, 0x28c82a0cfeab24ddU,
  0xf5e71d073293f86fU, 0x3db6e8b0d41a3123U, 0xdfbbd9d32df72836U, 0xfd1549489213ccfeU,
  0x2becfa232f02f5f1U, 0xfd311200f300ead2U, 0x1f13e54ed3f61753U, 0x24cc02d145ddf9e8U,
  0x21ce92027d8d11fU, 0x20daf4fefef704e9U, 0xed50223e7ef1ff7U, 0x18ecd10e54332a05U,
  0xf1f609f9fffc061eU, 0xdbff03eefd15f4f0U, 0xf6d60207fcf20611U, 0x4080e05fb1309fdU,
  0x70301070500f003U, 0xb10010609000107U, 0xf40dfff8f80b07feU, 0xf81707fffa01f1feU,
  0x5df050bfcfafdffU, 0xebf70309f9fcf90bU, 0x3fae605150204fcU, 0xefe01ef110207efU,
  0xf3fb072308ed0104U, 0xbfa08ee0cfbfc05U, 0xee0108fb1f0019f0U, 0xea10f8e7fc03eaffU,
  0xf81303050312fb01U, 0xfef70df31d020df0U, 0xfdfa0708eff7fc13U, 0xf0c030d0819050aU,
  0x50ae5fbff29f6U, 0x20d010a16f1f31eU, 0xdf709f4e5f9fafbU, 0xeef6fbea00fef4fdU,
  0x275add1158d5327fU, 0x101bf4e8e4e9ff0cU, 0x2f0d26f8eeeb21fbU, 0xfffefef8041909e7U,
  0x2f501f40805f112U, 0xec0810010007f5f1U, 0x70205f11dec07e9U, 0x1f20801f10500f6U,
  0x80b00f00a06f705U, 0x800ecf3fcf3ffe8U, 0xf502fff9edf1f700U, 0xe8feebeef209fa0cU,
  0xe2f218fde714e610U, 0xc8e206e329f82ab4U, 0xe2db0e1bfb1c0e03U, 0xfcfb01ef2610151bU,
  0xdd0f2a3dfcdad4f1U, 0x1e1f8c4f9032708U, 0x24cbbced39fc11fbU, 0xcce3faf92ae9dd07U,
  0x3eef4051214f412U, 0xb6f1f4d90c020a2bU, 0xf7eef4ecf1bf060bU, 0xfc0938e8c3fde008U,
  0x4100320c312613e8U, 0x1618cbf1dfd0eb21U, 0x12dfd9ed1cf3eef1U, 0xf414ecefe10fd42cU,
  0x382218ce0c073501U, 0xeb010fe8f83907d8U, 0xf71419ffd4d1e61dU, 0xe116202931ff05eeU,
  0xb231014cdde4ffcU, 0xfe0131102a14d9eaU, 0x27fe08d7ee0cf906U, 0x81f30a05f4f7ac06U,
  0x26c5ff0e3505e608U, 0x171b2c0418d4c20dU, 0xf435fed2efa637cdU, 0xe325f30be6eae3efU,
  0x17faf13b242ff5c8U, 0x20e31aef2dd4f006U, 0x60abf27f318074bU, 0x4f01b0e3a3d1b03U,
  0x321608dfbcfe22ebU, 0x60a03eef3f60dc7U, 0x1833891ff8e71cf1U, 0xb1410341ce0292cU,
  0x221a0af8fb0bf108U, 0xf9f8fb10faeef4edU, 0xf1293a3f15d93e11U, 0xfddc190921e00bfcU,
  0x6e2ed22e0de0deaU, 0x2409dccdf716ef28U, 0xd905f806121c08daU, 0xee4db16ca270fe4U,
  0x2da111306eb240aU, 0xe9fe1e1f0f0a15f8U, 0x211402fd06270b00U, 0x417e10d13f502c8U,
  0xea390a160308f409U, 0x5ae3070dfef7fb02U, 0x2ff90b190f2130daU, 0xf23eee06c7edd01cU,
  0xfc1301cc25161000U, 0x4ae6060b14f80eebU, 0xfaedf6fc28f8341eU, 0x20fff40fbd0202e9U,
  0x1202dee07ede305U, 0xeb10051200f6cd23U, 0x2c16fedabce11608U, 0xce19c4deebe20de4U,
  0xdd3c272c93044081U, 0x16f91d0d2127e934U, 0xdef9211842eb150dU, 0x19ee25ecf40316eaU,
  0x11e714122af80ae6U, 0xef351cf90b022ad0U, 0xed202e2422e809efU, 0x906fce60d0dd9fcU,
  0x14f51de0f9f5ea19U, 0x1b0f24100f14440dU, 0xe9da1f16e427fe1eU, 0xcd5c8e71557efd2U,
  0xd801f904e308fb0cU, 0xf0e9f7f7ecf1fde0U, 0xe3e60309ff0106eaU, 0xf5fa16ee0bffe703U,
  0x307fe0af601ded1U, 0xf0e0dfe0c0003f3U, 0xe8082801f3f10812U, 0xfc08ffff11fb0816U,
  0xcf1fef80f03fe12U, 0xf10a04effa0d03eaU, 0x11e50e1809fe0d09U, 0x8f2fc0b17fef405U,
  0xea0cf2f9f90f18ecU, 0x5d8f50af6f3ee03U, 0xe80a171bfd151608U, 0xe711e503f415f2e8U,
  0x4e8eff0fa050afcU, 0xafff001f4f00502U, 0xfaf713eb09f0ecf8U, 0xf100517ebf4edf6U,
  0x120afa0207fd0df2U, 0x17f909e6f820f801U, 0x70ffaf9ecfa1102U, 0xedee0b18f6f005e2U,
  0x107ff2040808b42dU, 0x2afdfdf7f4e8e204U, 0xf1f9062aeaec02eeU, 0x506fef6f8d2fd2eU,
  0xe9e0f9050dfbf8f9U, 0xf4dd00030902dd07U, 0xfae4060af81016f8U, 0x15fbf9fa04ea0813U,
  0xe6fdfae7f4faecf3U, 0xc0feaf2e60bf0U, 0xd08f4fb011bf205U, 0x6e8f5ec09e9fafeU,
  0xf1ef1a1b0b00d405U, 0x15e9e30c0b03c3beU, 0x1cfef1d610170b45U, 0xd30a0800d2f100cdU,
  0xc07d8fdd0f40c9cU, 0xb3dadb160b07fbecU, 0x1416ddee20e8d60bU, 0x107abe803130e43U,
  0x20bc9184a1df2cdU, 0xe2e70fef07fd06f8U, 0xe4ddf5c2193ce907U, 0xbde615eed319ff26U,
  0xc8cedcf5e0fb05f0U, 0xfffc3b0dfa23d30eU, 0xfcfc1430dfdcfd12U, 0xdf0ab50e023f0abdU,
  0x38200b07ef16ed13U, 0xf6d681e1a60809a5U, 0xce317fd08fff9c5U, 0xf4dac40700f1cf03U,
  0x9e7d3c7df0e3743U, 0x80c63f0fde22429U, 0xe931bee6e8f2cedbU, 0x1744f614fe1af4f6U,
  0x27e41a1a40f316f0U, 0xd658f0f100d9ba13U, 0x59ed471cf704da19U, 0xe7241a1b07e3e9cfU,
  0x50800c501f6da09U, 0xfdd70ff82fe1f103U, 0xe501021434d3edfbU, 0x7c6fc3ff41d02d5U,
  0xd5b806decedc1d04U, 0x2818d1e0ad15dbedU, 0xeaf50cf32926d3f6U, 0xe107f7a0023c03f7U,
  0x1304fd37e0f8e023U, 0xea1f0c2c180bfdddU, 0x31e60aafe813100eU, 0x142ffbea42edfbfcU,
  0xfbd3b242eed40612U, 0xb903fb0dcf191a1aU, 0x17f415f974c1fb07U, 0x17f2f6f6010a46eaU,
  0xdf310b1637f7f61bU, 0xecda14c9ede2541dU, 0xb2c810df1f2230f5U, 0x27fee030fc3908c5U,
  0x98c0dec3a222fddU, 0xf81556e4e9e80803U, 0xff020d5b22d629d5U, 0xf83ec5b71936ed21U,
  0x675c165de7ffd7d1U, 0x1a14b6e687f2f123U, 0x1ee71420ec513ecfU, 0xd0e3bd01078ced0dU,
  0x28d21417d12a7ffaU, 0x162601ec2bc5e2fdU, 0xe71c04e1bfdd9a12U, 0x2236eff7d341ffdcU,
  0x15e0e6f32223f302U, 0x27fa1bf6111cfd2fU, 0xefd40f0adc254b29U, 0xde1423fee4e20aebU,
  0xf20f1118f2eefa17U, 0xe3f2fa1cebf335f7U, 0x2e2ebe9f0fb0e36U, 0xddcb02dde1f611d5U,
  0xedf7f81aef07ece7U, 0xb26eaf8d0f9190bU, 0xfedde1fcf8fd2318U, 0x2209dd160ccbfe09U,
  0x10090834fbf60535U, 0xb0e2dc1fe60bc2ddU, 0x13f9022901e3ffc2U, 0xd406e9f60fd02bf6U,
  0xcadb17eac8ff2abfU, 0xfd1421d119fef6ebU, 0xd7201225de19280fU, 0x10d8f6f7eb2ca61dU,
  0x250ee2f012af20ecU, 0x64ea04e9fbef01e0U, 0x5003fd08d9eee2eeU, 0xfdf5f72900ec06e3U,
  0x1e811a2611fee2eaU, 0x2dc6ece9c51a96e8U, 0x25f648213039fb1bU, 0xdb061710c3d2baf9U,
  0x18500702fa1eda33U, 0x26fbde11e30625ffU, 0xe4eddfd9efde190eU, 0xc50a0f222f0d0a04U,
  0xe05dd1aff1a2401U, 0xebeb16e45809cbbfU, 0x160afacd12fec3f1U, 0xf5519dbaf006081cU,
  0xb59ed42a67ba0211U, 0x1e02be2d74e707a9U, 0x420d0ef3b9166441U, 0xea30130f04c5f10eU,
  0xe7f2d70138ecdedeU, 0x74e1cbb07c11eedU, 0xf9d30e0e1f1deaddU, 0xfaeb54ea39490912U,
  0xf1e9fefec93fac25U, 0xb839dfe41b000d0cU, 0xf9f4d5f80daffcdbU, 0xbbffcc0f0ff02c20U,
  0xf12814f21ee814ffU, 0xd338e4f31ff4dee7U, 0xc51c172be20fee5cU, 0x14e5eeea13f70901U,
  0xf3f4003b0c09e5fbU, 0x2df9fdf4f0f3f4f5U, 0x11fd1011e71d0007U, 0xebfafb32f0f8fedaU,
  0xbe3e50a15f2f90dU, 0x34f1f6e50e290c00U, 0x308e135f6fafee0U, 0xdbe904f51a1a13f4U,
  0xfd06fc472af7ec03U, 0xfff3f5caecf2230fU, 0xff003ffd5031bdaU, 0x350bd2fbd100d31fU,
  0x9fbd4e4f4f930f4U, 0x24fb251fe2292102U, 0xeae7f7ea09f512e9U, 0xfa08c623f7edf8fdU,
  0xece90ce6f1030ecdU, 0xf1aecc42840c322U, 0xa1b0fad07f6f102U, 0x10fe0ffd0af1fa1dU,
  0xfa8939b36b614c6bU, 0x29faa7d1f7e07fcdU, 0xeefa20f4e34e5619U, 0x151dfe07e8090327U,
  0x16e0d4ee21fbdcf5U, 0xcd0667c9160aee2dU, 0x60206f310f8eb0aU, 0x360fce181d26f5eeU,
  0xf1e9eee4ff26df06U, 0x1908fd10f7fe17U, 0xfaec0bfcc41304U, 0x13e4fd04011d02e7U,
  0xeb0adeeff200e6ddU, 0x33eb14152d0cfa1dU, 0x1e48084815bdebd9U, 0x1cece7140fffe810U,
  0x1409ecf339f1f9e7U, 0xf7022aecf70738e1U, 0x1cda4f01c4ed3411U, 0x4b09ea0becedb3d0U,
  0xbf2bf9282101f112U, 0xd7f2ebebd3dc07edU, 0xe132e91500de31eaU, 0x6dff9fa0905e7aeU,
  0xc1e906eb9df22c95U, 0x24f3c6167fa1d33fU, 0xe70f391cebc226ebU, 0xd4b10d5c82ff2f9U,
  0x30f614e95709e5b8U, 0x2cffee05e9debaf2U, 0x1801e816fee4e407U, 0xd7d0ed1deefe17f6U,
  0xf43dd7b6e2f91002U, 0x41eff0000f0b1e03U, 0x1fcfcfac9726f418U, 0x1ae62d11a8ed0f12U,
  0xaf9fa13e7ed1a00U, 0xf3eae200f00e21fcU, 0xee16fafe12ede1f7U, 0x1512f4e8e2ea000dU,
  0x27f815fafadaf526U, 0xf1e2feffff24e327U, 0xfe10725e8f1f2f0U, 0x20161503e705fa00U,
  0xee250d05f613df06U, 0xf410ebfb00f5fb2aU, 0x114f80b1401e032U, 0xef8f805e206ff26U,
  0xd3ec0bfb064a1ee7U, 0xe0ebea1bd5f5e7e6U, 0xde37030c051a13e9U, 0x1541f923c525f4dcU,
  0x29030e0b12ccfc21U, 0x15e1fbeae609cc02U, 0xe7e03dde22ed0231U, 0x68f6d8213b2215bdU,
  0x40fb0f99d4f3cd1cU, 0xd9fbe9fb1b1deb1cU, 0xdefbe2e60b2ae8c1U, 0x315191317dfd8eeU,
  0x81ae0cd1cb72af1U, 0x9d4cdb3fec0d1a7U, 0xa1dedc3f0031107U, 0xd3f20bced63622efU,
  0xa5c949c01adcdbf2U, 0x10ef03d919e403dcU, 0x3ed8fd48afd6b548U, 0xce3bfdbe524c5e5U,
  0xc70200241bc03213U, 0x4f0cbfb10fae802U, 0xd03c6ceec04faa6U, 0x36b6f4d8c6df092fU,
  0xe2d40b94c2e0551fU, 0x3afe25d5badcff68U, 0xf6debc04f7132154U, 0xe715e31e1807fdc9U,
  0xef02f2082503fc1cU, 0x77fe0c2040304d9U, 0x824db17f31d07f5U, 0x13e739e4d0f7d405U,
  0xe2f818040648dfe5U, 0xe7d3f8f5c9521404U, 0x1f1e03d22316f026U, 0xedd0421f3fa05beU,
  0xe500f7ea2ff805fdU, 0x3fed600d30122U, 0xebe8f70ff90e05daU, 0x2611fc0903d9131eU,
  0xb0eba09000236d1U, 0x1ff7dc3cf7032a11U, 0xfff40cdb2418fc0eU, 0xde0b2bdcf701fbd8U,
  0xde09f5edf9fde7c3U, 0xfc2c0a08330624d4U, 0x17df0717161306d2U, 0x18140605f8d1e01dU,
  0x14e8e0e8320734d2U, 0xa41df60632291bfdU, 0xdce3082a2cba0847U, 0x22b610f5d6e2ed18U,
  0xc7e6fe12f2f3d0e5U, 0x7e2da8157fefe0f0U, 0x60911d4f844c010U, 0xe9f964fbfc11e2f1U,
  0x24bff1260ee3220aU, 0xf620d7ef28e1ec4aU, 0x441ee2eff3ea09c7U, 0x7b2e8d2c80ef906U,
  0x703ec04eef40e08U, 0xee00df040410d2feU, 0xd7f8031313070105U, 0xe150614eaf6e3fcU,
  0xea050d230f0cc824U, 0xeae3e0ff051bf4f5U, 0xbf5f20e140d0d01U, 0x1f02dbe7e5f81222U,
  0xef50321f1ff16feU, 0xcfaf0f9fef1f900U, 0xcffdbdfe1010414U, 0xf6280300f8ec0b38U,
  0x5f1fa09edf00ed6U, 0xc3e0f5040614f911U, 0xe1ce20ff7f3f3e1U, 0x1ce7def919eae90cU,
  0x115e10af1101dfaU, 0x2a0e1916050b04efU, 0xe7f114f316ea0a0aU, 0x408f1c71cf0f4e3U,
  0xfef61e1701070618U, 0xe305040204f73012U, 0xfb0f040af1f6f8e4U, 0xe2fefd09dbe8002cU,
  0x808ff1ae7e7e2fbU, 0xeef10409cefdf117U, 0xa072af61dddfa1fU, 0xff01ddf7fb0eff17U,
  0xf10de9ddbf05d6c7U, 0xf5ee0eec0d00f6d6U, 0x20e3010ef2f2d228U, 0xf425f50507e2f318U,
  0xe82903dfee14f6dbU, 0xf7eef00d0ef20d0dU, 0xe0e0131407ef2003U, 0x22f70104ec03d802U,
  0x189816bad90881b8U, 0xf7da14d4cb07ebccU, 0xd7f1b0f4330bda03U, 0xe03df19f3e70612U,
  0xb8001ce712030e08U, 0x7eae7030ad6190fU, 0x619fd0fee08f7f9U, 0x3eaf4f7fc0cdbd9U,
  0xbe80d1600e123f9U, 0x8fbda04f0f405e6U, 0xf20b0cf50ffafbefU, 0x1f00011ae3fc1800U,
  0xe711eb04e1f5fc22U, 0xb7edd1e0e60104daU, 0x15f20ceb0616f4eeU, 0x2812fddb10002106U,
  0xfc4741c3051308edU, 0xf5e1e9f0eb0c1fedU, 0xfcd3fffe09f9411bU, 0x6fbbf3088f30363U,
  0xf80af9f306d03becU, 0xe0e3310e1fb32737U, 0xfd07b5fbe40ef8e1U, 0xcfe120eef03fd34U,
  0xc8d5f93221f4eec7U, 0x1fe323f2a9231ddeU, 0xecb5f4deec1ef6acU, 0xed05eaff9e25c11dU,
  0xd9e8d6e908417401U, 0x18fde01ef122e7e0U, 0xf73af0d32fec10c0U, 0xdf0e1c1d013bd7f6U,
  0x4fded28fed120d9U, 0x1f1307fb5715b82fU, 0x35d8febe24b9f20bU, 0xf402e881d62e1d37U,
  0x2dd2b90eff9b18daU, 0x270bcb21ea11f41aU, 0xe9e9fd16140435f1U, 0x1835341120eb0901U,
  0x2c3dc206fff5cce0U, 0x153d1d2deaf909f2U, 0x50bf557fb23d929U, 0xdc1291b22f2c307U,
  0x14073949d2c9d1efU, 0xba2ce208ce01e2f8U, 0xd6bcd4faaefeff3bU, 0x32cf16f60df93431U,
  0x2fbf216fbe803fcU, 0x1511edfa2329f505U, 0xe2baf60c01e4e0fdU, 0xebcf101b07ed3602U,
  0x23001f701e50100U, 0xcf4d8f9162714f9U, 0xafe131d11c7d7e1U, 0x3af0fd0bc7f6f21fU,
  0xf20eeeeed8e81ef7U, 0x31f8cc11e8ec05fdU, 0x52d21040feffb20U, 0x16f12b03ebfdfaf3U,
  0x15e81ddc06f8e3cdU, 0x40f24dbba110a25U, 0xd9092cf63bf132cbU, 0x1712fb0e0606f922U,
  0xe5ed11fa43081b27U, 0x211e17f1f9ed00e1U, 0x33450ae2f7cff0eaU, 0x13e41722ff16caecU,
  0xc0f6cedbe9cbf4d2U, 0x1dccd52a4222c2e7U, 0x26fff1e903bedaf2U, 0xe41fe18140df2131U,
  0x25fad0040cd4def3U, 0xe0f606e2ff2a0dffU, 0x20111e00031b1f22U, 0x221336fc07fb101aU,
  0xfb0dfefeedd4de05U, 0xfc0becf4ea28fff7U, 0xdbec060c09e90b32U, 0x1ef21df8f0f3f70fU,
  0xe6f2080f02ea11faU, 0x1041fb4dd08e2f8U, 0xe6e0e4fce4d7160cU, 0xc02e00c16120eecU,
  0xf2de114afff40a20U, 0xcefb0e8119370f08U, 0x7112a49d3fc09a8U, 0x5006ecd6be09fee1U,
  0xff04041aff16dc04U, 0xf309eff0f01135f6U, 0x20eb400ad648ddU, 0xd10ce9b7f9d31500U,
  0xfc2bec49dd211623U, 0xfaacdb0f28c433d3U, 0xf0171efac0ea2106U, 0xdefa0bffc8452eU,
  0x2e3829272dfedfdaU, 0x10230ffe2fdc602U, 0xfadb1e3e7591507U, 0x152b03d3f21a103fU,
  0x1e1b13c916a936deU, 0x2d1314051c005602U, 0xda1549edf517e204U, 0xe3e92cf4c50c03edU,
  0x36d5ed07affb0bc8U, 0xe7e851ee1038f911U, 0x15d6de0717fd0640U, 0xc30447d1d2fb3112U,
  0x1751ec6745200a47U, 0xf1f52cce39e5cf4cU, 0xa42e3eefffb6dc3cU, 0x40a151936ca400eU,
  0xbdfffbdf373cbfddU, 0x1b1036e0dbf22a17U, 0x36e1d1e4fa020655U, 0xecee12430e1204faU,
  0x2323e8fae1ecdf0aU, 0xdce4e30cf5fdc2edU, 0x1ed0bfd2f02caf0U, 0x15020fe5f718f6b0U,
  0xf103f806f7080d10U, 0x303f3e5fdf2eee7U, 0xf8e810eef1effbfdU, 0xfd07f6fae8f50518U,
  0xf80c0eeffa00ecU, 0xf5f612ee040404fcU, 0x7f7f6fc01f51cffU, 0xd0aff00f5fbee09U,
  0x1bee040607fcf508U, 0xfafa02fdff06f0efU, 0x160503e6f2f2f812U, 0xecf60aff18ed00faU,
  0xecfa0d100c15fef0U, 0xf90bfbeafdf416U, 0x6020b0029160704U, 0xea07ec09f707eff9U,
  0x200f5f80106fa0bU, 0xfc0c1af619ff0412U, 0xfff9f9fef1ff0cfbU, 0xf1f10619160bee02U,
  0xfeffecff10f819f9U, 0x1ee0b040901e707U, 0xbf80b02fa13f602U, 0xeff709fcf707fff6U,
  0xb0206ed41b8081fU, 0xf716da09fceb0cebU, 0x7f00f028cee606dfU, 0xed09ffe0f70e17fdU,
  0xd0f9f5f902fc1004U, 0x1822f80416ebf603U, 0xee00f910061616f5U, 0x507010cfe1a0612U,
  0xfafd13dfd10afc0cU, 0xfcf2f3f0f60d04fdU, 0xb090406fcf0070aU, 0xfcf5fafd132cfe07U,
  0x40600fd15e90edeU, 0x1719fcfe3cd5e905U, 0xb020d010617e82aU, 0xdeee0e35faffcc10U,
  0x290cdfe522120c02U, 0xc9fe0de8f0fdfa1dU, 0xf71fda0fdf070bd2U, 0xf129433efc3e0bd1U,
  0xe2200213f811f3d7U, 0x1124f8f4fc13da08U, 0xc6021e0709ee181eU, 0x31bcdec1fe02151fU,
  0x1fe6fbfe1872aed9U, 0x3726341a1b50dd8dU, 0x45efc04ff4f20611U, 0x34c7f9f091ce1228U,
  0xd3c3c29fee33f3d8U, 0x7f001619fcdc422bU, 0xe71521e133c1fb0cU, 0xf8321a10520414ebU,
  0x140df713d8c32911U, 0xddd135dedf111835U, 0xe207470af9c6ea0cU, 0xc5cfb4cdfdcb19f0U,
  0xebf0fd01ef12f6f8U, 0x181f17ed27e9f4e2U, 0xfafaedeb0b1af20fU, 0x105d2031e1a0a2bU,
  0x24fa0102f60800f7U, 0xde12f1effef21103U, 0xfb0c04fdcdd3fc0eU, 0x505fad7180314e7U,
  0x11f1e2f1e0ea340cU, 0x20904dfe0de0bedU, 0xffedf613f60a0401U, 0x2bd8d20d0e050132U,
  0x340ef32235cf0ed1U, 0xe909c1f102ecd71bU, 0x51261800f1d7eb07U, 0xe32dfde822290400U,
  0xd270a19273cdb00U, 0xec362006f60ad939U, 0x2ff3d316d1e9e72dU, 0x38fd34f8e71415f5U,
  0xe707f62933e80933U, 0xf10ecafdde01d102U, 0xc2fb22e4f3ecdfd6U, 0x61507db0b09e5f9U,
  0xb49453ed414810fU, 0x7906b1a64bf4fae4U, 0xc40522ec10e7f135U, 0x331a0a2eeccfd7bfU,
  0x4ec1e1c11b0009a6U, 0xc7000227f3d30516U, 0xe61eed19d19d03f2U, 0x1f4b101bfaf414b8U,
  0x63fe4c8fafefde1U, 0xfd2badeaf61c0e7aU, 0xfdd6f902e95a1cd5U, 0xe7dde71cfddedff4U,
  0xfc0ff33cbaf200ffU, 0x70cfce50131a70fU, 0xcebbef0f29e92903U, 0xe3091ce406142b0bU,
  0xfbf802fab3291b1aU, 0xf3fb12d8ff152704U, 0x4e4d9e6ffeaf5e4U, 0x1ad0917fc24fbf2U,
  0x713e8e223dad8fcU, 0xf6f6f3d51a0509e7U, 0x1920e1ea1b4bfeU, 0xe25f61b1beff5faU,
  0xcf9d1d3d0748eef3U, 0xc0e70d42194ed808U, 0x15e90031d6e3de00U, 0xee1b1d28ddea1e17U,
  0x30b1decf01bad316U, 0xa60b00ddf0550da9U, 0xfcf6dde44fcd060fU, 0x264fd7ff240806c8U,
  0x9156527d41d322cU, 0x1ef13be2d428aa62U, 0xa2fbf5d10f1d32f3U, 0x22012fecdf5444bbU,
  0xd9e2efd9d826780aU, 0xc5fa0be27e16dd28U, 0xd1bc7fc641abe23eU, 0x2ec1e96ab51501efU,
  0x1631cf12e4d00ed1U, 0xa4f6f9697020c2f3U, 0x55e5eed010061135U, 0xd80b1fc637010340U,
  0x1703bffb00fc6aedU, 0x363983d7d00f5c9U, 0xbf1e120df42791b4U, 0x1ba94a0ff64f9b15U,
  0xf9392c1b1ba5444aU, 0xe14a3b1e3c191f29U, 0x2235ed4ccfe0d628U, 0xe1d41dd41f121c03U,
  0x21cc369b4914d1d5U, 0x5b7a41ee182be109U, 0xf10af8081922eae3U, 0xaef537e0b8ea1fcfU,
  0xf327f3e1e715ee20U, 0xd3ddf007edf7051cU, 0xbcf6f8e2e8fcf0dfU, 0xc34927fe44130cf7U,
  0xe105f70af2020210U, 0xfa0af3fa1c2203e9U, 0x90d0df7faf1faf4U, 0xfe222a0e21e4e423U,
